{
  "version": "1.0",
  "truncation": null,
  "padding": null,
  "added_tokens": [
    {
      "id": 0,
      "content": "<s>",
      "single_word": false,
      "lstrip": false,
      "rstrip": false,
      "normalized": false,
      "special": true
    },
    {
      "id": 1,
      "content": "<pad>",
      "single_word": false,
      "lstrip": false,
      "rstrip": false,
      "normalized": false,
      "special": true
    },
    {
      "id": 2,
      "content": "</s>",
      "single_word": false,
      "lstrip": false,
      "rstrip": false,
      "normalized": false,
      "special": true
    },
    {
      "id": 3,
      "content": "<unk>",
      "single_word": false,
      "lstrip": false,
      "rstrip": false,
      "normalized": false,
      "special": true
    },
    {
      "id": 4,
      "content": "<mask>",
      "single_word": false,
      "lstrip": false,
      "rstrip": false,
      "normalized": false,
      "special": true
    },
    {
      "id": 5,
      "content": "<|endoftext|>",
      "single_word": false,
      "lstrip": false,
      "rstrip": false,
      "normalized": false,
      "special": true
    }
  ],
  "normalizer": null,
  "pre_tokenizer": {
    "type": "ByteLevel",
    "add_prefix_space": true,
    "trim_offsets": true,
    "use_regex": true
  },
  "post_processor": {
    "type": "ByteLevel",
    "add_prefix_space": true,
    "trim_offsets": true,
    "use_regex": true
  },
  "decoder": {
    "type": "ByteLevel",
    "add_prefix_space": true,
    "trim_offsets": true,
    "use_regex": true
  },
  "model": {
    "type": "BPE",
    "dropout": null,
    "unk_token": "<unk>",
    "continuing_subword_prefix": null,
    "end_of_word_suffix": null,
    "fuse_unk": false,
    "byte_fallback": false,
    "ignore_merges": false,
    "vocab": {
      "<s>": 0,
      "<pad>": 1,
      "</s>": 2,
      "<unk>": 3,
      "<mask>": 4,
      "<|endoftext|>": 5,
      "!": 6,
      "#": 7,
      "$": 8,
      "%": 9,
      "&": 10,
      "(": 11,
      ")": 12,
      "*": 13,
      ",": 14,
      "-": 15,
      ".": 16,
      "/": 17,
      "0": 18,
      "1": 19,
      "2": 20,
      "3": 21,
      "4": 22,
      "5": 23,
      "6": 24,
      "7": 25,
      "8": 26,
      "9": 27,
      ":": 28,
      ";": 29,
      "<": 30,
      "=": 31,
      ">": 32,
      "?": 33,
      "@": 34,
      "A": 35,
      "B": 36,
      "C": 37,
      "D": 38,
      "E": 39,
      "F": 40,
      "G": 41,
      "H": 42,
      "I": 43,
      "J": 44,
      "K": 45,
      "L": 46,
      "M": 47,
      "N": 48,
      "O": 49,
      "P": 50,
      "Q": 51,
      "R": 52,
      "S": 53,
      "T": 54,
      "U": 55,
      "V": 56,
      "W": 57,
      "X": 58,
      "Y": 59,
      "Z": 60,
      "[": 61,
      "]": 62,
      "^": 63,
      "_": 64,
      "`": 65,
      "a": 66,
      "b": 67,
      "c": 68,
      "d": 69,
      "e": 70,
      "f": 71,
      "g": 72,
      "h": 73,
      "i": 74,
      "j": 75,
      "k": 76,
      "l": 77,
      "m": 78,
      "n": 79,
      "o": 80,
      "p": 81,
      "q": 82,
      "r": 83,
      "s": 84,
      "t": 85,
      "u": 86,
      "v": 87,
      "w": 88,
      "x": 89,
      "y": 90,
      "z": 91,
      "{": 92,
      "}": 93,
      "~": 94,
      "¢": 95,
      "¦": 96,
      "¨": 97,
      "©": 98,
      "ª": 99,
      "¯": 100,
      "´": 101,
      "»": 102,
      "¿": 103,
      "Ã": 104,
      "Å": 105,
      "â": 106,
      "ï": 107,
      "Ċ": 108,
      "č": 109,
      "Ġ": 110,
      "Ģ": 111,
      "Ħ": 112,
      "ĵ": 113,
      "Ķ": 114,
      "ĺ": 115,
      "Ļ": 116,
      "ľ": 117,
      "Ŀ": 118,
      "ł": 119,
      "Ġt": 120,
      "Ġa": 121,
      "he": 122,
      "čĊ": 123,
      "in": 124,
      "Ġw": 125,
      "Ġs": 126,
      "re": 127,
      "Ġo": 128,
      "Ġthe": 129,
      "nd": 130,
      "ou": 131,
      "âĢ": 132,
      "ha": 133,
      "er": 134,
      "Ġb": 135,
      "Ġf": 136,
      "Ġd": 137,
      "it": 138,
      "Ġand": 139,
      "en": 140,
      "ed": 141,
      "ll": 142,
      "is": 143,
      "Ġm": 144,
      "ing": 145,
      "es": 146,
      "on": 147,
      "Ġc": 148,
      "or": 149,
      "Ġto": 150,
      "Ġof": 151,
      "Ġy": 152,
      "Ġp": 153,
      "Ġyou": 154,
      "Ġl": 155,
      "Ġin": 156,
      "Ġhe": 157,
      "ar": 158,
      "an": 159,
      "at": 160,
      "ĠâĢ": 161,
      "as": 162,
      "Ġh": 163,
      "om": 164,
      "ĠčĊ": 165,
      "ĠI": 166,
      "hat": 167,
      "ot": 168,
      "Ġbe": 169,
      "Ġn": 170,
      "Ġg": 171,
      "le": 172,
      "Ġha": 173,
      "ĠĊ": 174,
      "ill": 175,
      "ĠT": 176,
      "ut": 177,
      "Ġthat": 178,
      "ĠâĢľ": 179,
      "ow": 180,
      "ve": 181,
      "âĢĿ": 182,
      "ic": 183,
      "Ġe": 184,
      "ly": 185,
      "âĢĻ": 186,
      "am": 187,
      "se": 188,
      "id": 189,
      "Ġu": 190,
      "ent": 191,
      "Ġit": 192,
      "ld": 193,
      "Ġwill": 194,
      "Ġher": 195,
      "im": 196,
      "Ġth": 197,
      "ion": 198,
      "et": 199,
      "Ġfor": 200,
      "gh": 201,
      "ith": 202,
      "Ġre": 203,
      "Ġon": 204,
      "ver": 205,
      "ri": 206,
      "ay": 207,
      "st": 208,
      "al": 209,
      "Ġwith": 210,
      "Ġas": 211,
      "ce": 212,
      "ro": 213,
      "ir": 214,
      "Ġwas": 215,
      "ad": 216,
      "ee": 217,
      "ct": 218,
      "Ġst": 219,
      "oo": 220,
      "Ġan": 221,
      "Ġwh": 222,
      "her": 223,
      "ĠM": 224,
      "if": 225,
      "Ġdre": 226,
      "ĠTo": 227,
      "ur": 228,
      "Ġis": 229,
      "ess": 230,
      "Ġshe": 231,
      "ch": 232,
      "Ġyour": 233,
      "ght": 234,
      "Ġhis": 235,
      "Ġdream": 236,
      "Ġwe": 237,
      "Ġat": 238,
      "ore": 239,
      "ke": 240,
      "Ġnot": 241,
      "ĠâĢ¦": 242,
      "Ġso": 243,
      "ra": 244,
      "ĠA": 245,
      "ĠS": 246,
      "ome": 247,
      "pp": 248,
      "ould": 249,
      "Ġme": 250,
      "Ġsu": 251,
      "Ġhad": 252,
      "ter": 253,
      "Ġsee": 254,
      "Ġor": 255,
      "ul": 256,
      "Ġbut": 257,
      "Ġde": 258,
      ".âĢĿ": 259,
      "Ġsa": 260,
      "Ġk": 261,
      "Ġhim": 262,
      "Ġhave": 263,
      "il": 264,
      "te": 265,
      "ain": 266,
      "ge": 267,
      "ĠB": 268,
      "all": 269,
      "red": 270,
      "Ġmy": 271,
      "ss": 272,
      "Ġare": 273,
      "rom": 274,
      "Ġne": 275,
      "ĠL": 276,
      "ĠThe": 277,
      "Ġby": 278,
      "Ġall": 279,
      "ble": 280,
      "ect": 281,
      "Ġup": 282,
      "Ġdo": 283,
      "us": 284,
      "Ġwor": 285,
      "Ġdis": 286,
      "Ġli": 287,
      "Ġlo": 288,
      "un": 289,
      "Ġun": 290,
      ",âĢĿ": 291,
      "ation": 292,
      "rou": 293,
      "Ġden": 294,
      "qu": 295,
      "ĠF": 296,
      "ry": 297,
      "Ġsh": 298,
      "otes": 299,
      "ind": 300,
      "ck": 301,
      "ĠC": 302,
      "ĠD": 303,
      "Ġdenotes": 304,
      "ig": 305,
      "ook": 306,
      "au": 307,
      "ant": 308,
      "lf": 309,
      "ĠW": 310,
      "Ġone": 311,
      "ĠJ": 312,
      "ĠH": 313,
      "th": 314,
      "ood": 315,
      "Ġcon": 316,
      "ous": 317,
      "Ġfrom": 318,
      "Ġsaid": 319,
      "rie": 320,
      "Ġwhe": 321,
      "ure": 322,
      "ich": 323,
      "Ġthem": 324,
      "est": 325,
      "ers": 326,
      "Ġman": 327,
      "Ġthey": 328,
      "ĠP": 329,
      "Ġr": 330,
      "ate": 331,
      "Ġthis": 332,
      "op": 333,
      "Ġfa": 334,
      "Ġsp": 335,
      "art": 336,
      "Ġex": 337,
      "Ġse": 338,
      "one": 339,
      "very": 340,
      "ies": 341,
      "ment": 342,
      "ight": 343,
      "Ġif": 344,
      "Ġwhich": 345,
      "itt": 346,
      "Ġv": 347,
      "ong": 348,
      "han": 349,
      "and": 350,
      "self": 351,
      "Ġkn": 352,
      "ort": 353,
      "?âĢĿ": 354,
      "Ġcom": 355,
      "Ġwere": 356,
      "ĠJo": 357,
      "Ġaf": 358,
      "Ġpro": 359,
      "Ġno": 360,
      "Ġout": 361,
      "ak": 362,
      "Ġal": 363,
      "Ġen": 364,
      "ame": 365,
      "ard": 366,
      "ive": 367,
      "ust": 368,
      "Ġlook": 369,
      "Ġab": 370,
      "nds": 371,
      "ther": 372,
      "Ġwho": 373,
      "our": 374,
      "Ġsome": 375,
      "ast": 376,
      "Ġany": 377,
      "ell": 378,
      "Ġpo": 379,
      "are": 380,
      "to": 381,
      "out": 382,
      "ĠĠ": 383,
      "Ġj": 384,
      "ĠIf": 385,
      "Ġgo": 386,
      "reat": 387,
      "um": 388,
      "Ġfore": 389,
      "ĠG": 390,
      "Ġwhen": 391,
      "own": 392,
      "ng": 393,
      "ake": 394,
      "ity": 395,
      "able": 396,
      "ful": 397,
      "leas": 398,
      "Ġother": 399,
      "Ġthere": 400,
      "ie": 401,
      "Ġwould": 402,
      "Ġle": 403,
      "ittle": 404,
      "Ġwom": 405,
      "Ġlittle": 406,
      "Ġag": 407,
      "ĠMr": 408,
      "way": 409,
      "ked": 410,
      "ign": 411,
      "nder": 412,
      "cc": 413,
      "la": 414,
      "Ġover": 415,
      "Ġqu": 416,
      "Ġfrie": 417,
      "per": 418,
      "pt": 419,
      "Ġlike": 420,
      "Ġam": 421,
      "em": 422,
      "Ġco": 423,
      "ine": 424,
      "other": 425,
      "hed": 426,
      "lo": 427,
      "tell": 428,
      "Ġtheir": 429,
      "Ġtim": 430,
      "ven": 431,
      "ness": 432,
      "ide": 433,
      "Ġinto": 434,
      "ings": 435,
      "ear": 436,
      "row": 437,
      "ice": 438,
      "Ġgood": 439,
      "Ġpre": 440,
      "hing": 441,
      "ite": 442,
      "Ġcan": 443,
      "Ġro": 444,
      "Ġim": 445,
      "urn": 446,
      "ag": 447,
      "ber": 448,
      "Ġwoman": 449,
      "Ġcould": 450,
      "Ġyoung": 451,
      "Ġpleas": 452,
      "Ġmu": 453,
      "Ġthou": 454,
      "!âĢĿ": 455,
      "ĠO": 456,
      "ass": 457,
      "Ġsha": 458,
      "Ġad": 459,
      "ink": 460,
      "ci": 461,
      "iness": 462,
      "Ġforetell": 463,
      "Ġdid": 464,
      "Ġforetells": 465,
      "Ġthan": 466,
      "ĠFor": 467,
      "Ġbeen": 468,
      "Ġwork": 469,
      "ist": 470,
      "Ġvery": 471,
      "ru": 472,
      "Ġus": 473,
      "Ġknow": 474,
      "ance": 475,
      "Ġch": 476,
      "Ġwhat": 477,
      "ull": 478,
      "ife": 479,
      "ĠHe": 480,
      "oy": 481,
      "ved": 482,
      "age": 483,
      "ree": 484,
      "Ġmore": 485,
      "ence": 486,
      "ol": 487,
      "You": 488,
      "Ġmuch": 489,
      "ish": 490,
      "ions": 491,
      "ather": 492,
      "ade": 493,
      "Ġabout": 494,
      "ving": 495,
      "ff": 496,
      "ren": 497,
      "ĠE": 498,
      "ally": 499,
      "Ġupon": 500,
      "ĠIt": 501,
      "Ġtime": 502,
      "fore": 503,
      "ject": 504,
      "ick": 505,
      "we": 506,
      "ried": 507,
      "wn": 508,
      "ile": 509,
      "Ġfe": 510,
      "Ġtoo": 511,
      "ise": 512,
      "ound": 513,
      "ress": 514,
      "Ġshould": 515,
      "ĠN": 516,
      "Ġdown": 517,
      "ty": 518,
      "Ġpe": 519,
      "Ġagain": 520,
      "bl": 521,
      "Ġgreat": 522,
      "ild": 523,
      "ps": 524,
      "eg": 525,
      "Ġar": 526,
      "Ġmo": 527,
      "ire": 528,
      "Ġdes": 529,
      "oth": 530,
      "Ġsay": 531,
      "rough": 532,
      "pe": 533,
      "Ġlove": 534,
      "fa": 535,
      "oun": 536,
      "Ġmay": 537,
      "Ġ.": 538,
      "iss": 539,
      "--": 540,
      "Ġbus": 541,
      "Ġpr": 542,
      "ĠAm": 543,
      "Ġday": 544,
      "Ġcomp": 545,
      "Ġoff": 546,
      "Ġafter": 547,
      "Ġhapp": 548,
      "ĠLau": 549,
      "Ġold": 550,
      "right": 551,
      "Ġsign": 552,
      "ĠPro": 553,
      "Ġdon": 554,
      "Ġlong": 555,
      "ls": 556,
      "Ġway": 557,
      "int": 558,
      "ac": 559,
      "ĠMeg": 560,
      "Ġunder": 561,
      "arn": 562,
      "Ġnever": 563,
      "Ġpl": 564,
      "Ġmade": 565,
      "Ġthrough": 566,
      "Ġbefore": 567,
      "Ġapp": 568,
      "Ġind": 569,
      "ces": 570,
      "ud": 571,
      "ves": 572,
      "Ġown": 573,
      "Ġcha": 574,
      "Ġfriends": 575,
      "ack": 576,
      "Ġwell": 577,
      "Ġaway": 578,
      "pect": 579,
      "Ġbr": 580,
      "Ġper": 581,
      "ĠAmy": 582,
      "Ġnow": 583,
      "Ġthink": 584,
      "Ġonly": 585,
      "ĠBut": 586,
      "od": 587,
      "Ġthen": 588,
      "orn": 589,
      "tain": 590,
      "less": 591,
      "Ġevery": 592,
      "Ġlife": 593,
      "ated": 594,
      "Ġimp": 595,
      "ious": 596,
      "os": 597,
      "Ġbusiness": 598,
      "med": 599,
      "ily": 600,
      "eep": 601,
      "man": 602,
      "Ġcome": 603,
      "Ġhead": 604,
      "ations": 605,
      "ose": 606,
      "Ġsm": 607,
      "Ġmake": 608,
      "Ġey": 609,
      "Ġtw": 610,
      "Ġdist": 611,
      "Ġhar": 612,
      "ĠLaurie": 613,
      "ied": 614,
      "ĠR": 615,
      "ach": 616,
      "Ġob": 617,
      "..": 618,
      "ons": 619,
      "Ġget": 620,
      "Ġfo": 621,
      "Ġhow": 622,
      "ran": 623,
      "ary": 624,
      "eth": 625,
      "les": 626,
      "ĠShe": 627,
      "ened": 628,
      "Ġcame": 629,
      "Ġbeing": 630,
      "ople": 631,
      "Ġres": 632,
      "ause": 633,
      "Ġhand": 634,
      "Ġpers": 635,
      "Ġrem": 636,
      "Ġface": 637,
      "Ġthought": 638,
      "Ġfee": 639,
      "Ġbeg": 640,
      "Ġgir": 641,
      "Ġmany": 642,
      "Ġbet": 643,
      "Ġpart": 644,
      "ab": 645,
      "Ġsuch": 646,
      "Ġhas": 647,
      "Ġothers": 648,
      "ady": 649,
      "round": 650,
      "Ġlooked": 651,
      "Ġmind": 652,
      "Ġpeople": 653,
      "Ġnew": 654,
      "ap": 655,
      "Ġlet": 656,
      "Ġbl": 657,
      "Ġheart": 658,
      "Ġsc": 659,
      "ark": 660,
      "ĠYou": 661,
      "Ġfl": 662,
      "Ġturn": 663,
      "ĠâĢĺ": 664,
      "ave": 665,
      "Ġeven": 666,
      "ĠMar": 667,
      "aking": 668,
      "led": 669,
      "Ġbec": 670,
      "ling": 671,
      "Ġchild": 672,
      "ue": 673,
      "Ġhome": 674,
      "Ġfind": 675,
      "ne": 676,
      "Ġgr": 677,
      "old": 678,
      "Ġra": 679,
      "omet": 680,
      "uten": 681,
      "ted": 682,
      "Ġrep": 683,
      "hes": 684,
      "Ġsat": 685,
      "berg": 686,
      "Ġeyes": 687,
      "utenberg": 688,
      "ouse": 689,
      "Ġwhile": 690,
      "Ġcl": 691,
      "Ġshall": 692,
      "Ġcare": 693,
      "Ġpass": 694,
      "Ġput": 695,
      "ting": 696,
      "Ġits": 697,
      "thing": 698,
      "Ġsignif": 699,
      "Ġasked": 700,
      "Ġwent": 701,
      "fort": 702,
      "ms": 703,
      "Ġfriend": 704,
      "Ġgl": 705,
      "ens": 706,
      "ft": 707,
      "ĠBeth": 708,
      "âĢĶ": 709,
      "ments": 710,
      "Ġacc": 711,
      "Ġour": 712,
      "orry": 713,
      "irs": 714,
      "Ġpla": 715,
      "Ġwr": 716,
      "ĠTh": 717,
      "Ġhimself": 718,
      "ates": 719,
      "Ġcont": 720,
      "Ġback": 721,
      "Ġmar": 722,
      "ĠDe": 723,
      "Ġsomet": 724,
      "Ġmust": 725,
      "Ġfort": 726,
      "ath": 727,
      "Ġent": 728,
      "Ġword": 729,
      "ĠGutenberg": 730,
      "alth": 731,
      "Ġte": 732,
      "Ġwhere": 733,
      "Ġpleasure": 734,
      "ully": 735,
      "ward": 736,
      "une": 737,
      "Ġfir": 738,
      "ger": 739,
      "Ġhands": 740,
      "Ġchan": 741,
      "Ġdear": 742,
      "Ġpa": 743,
      "ans": 744,
      "app": 745,
      "fe": 746,
      "ears": 747,
      "ĠProject": 748,
      "Ġtwo": 749,
      "arge": 750,
      "ĠAnd": 751,
      "hen": 752,
      "ways": 753,
      "ced": 754,
      "so": 755,
      "Ġwant": 756,
      "Ġem": 757,
      "sent": 758,
      "get": 759,
      "Ġthough": 760,
      "co": 761,
      "Ġtrou": 762,
      "Ġdreams": 763,
      "Ġexp": 764,
      "iz": 765,
      "ater": 766,
      "ors": 767,
      "Ġjust": 768,
      "king": 769,
      "Ġthese": 770,
      "Ġsoon": 771,
      "Ġtr": 772,
      "Ġhere": 773,
      "Ġhop": 774,
      "Ġnight": 775,
      "ret": 776,
      "lp": 777,
      "Ġlast": 778,
      "Ġthings": 779,
      "Ġtake": 780,
      "Ġla": 781,
      "Ġsignifies": 782,
      "Ġsur": 783,
      "Ġalways": 784,
      "Ġmost": 785,
      "ip": 786,
      "dd": 787,
      "Ġcar": 788,
      "Ġanother": 789,
      "Ġill": 790,
      "Ġgot": 791,
      "Ġans": 792,
      "oint": 793,
      "Ġcall": 794,
      "Ġever": 795,
      "fully": 796,
      "ount": 797,
      "ition": 798,
      "Ġsl": 799,
      "ute": 800,
      "Ġfirst": 801,
      "Ġtell": 802,
      "Ġgent": 803,
      "rib": 804,
      "ĠDor": 805,
      "ered": 806,
      "ĠIn": 807,
      "Ġret": 808,
      "Ġnothing": 809,
      "othy": 810,
      "ĠLorry": 811,
      "ĠDorothy": 812,
      "Ġhear": 813,
      "ew": 814,
      "Ġlooking": 815,
      "Ġhelp": 816,
      "Ġwithout": 817,
      "ult": 818,
      "Ġaffa": 819,
      "Ġperson": 820,
      "ost": 821,
      "Ġherself": 822,
      "Ġspe": 823,
      "ep": 824,
      "Ġgra": 825,
      "ract": 826,
      "Ġdisapp": 827,
      "igh": 828,
      "oke": 829,
      "Ġcons": 830,
      "ating": 831,
      "Ġadv": 832,
      "Ġinc": 833,
      "ĠSt": 834,
      "ual": 835,
      "Ġwal": 836,
      "Ġset": 837,
      "ough": 838,
      "ord": 839,
      "ctor": 840,
      "ĠĠĠĠ": 841,
      "fect": 842,
      "Ġche": 843,
      "Ġlau": 844,
      "Ġgoing": 845,
      "Ġrel": 846,
      "Ġhard": 847,
      "iv": 848,
      "pr": 849,
      "Ġyourself": 850,
      "pped": 851,
      "ial": 852,
      "ccess": 853,
      "Ġ(": 854,
      "ction": 855,
      "Ġbetter": 856,
      "Ġbre": 857,
      "ict": 858,
      "ner": 859,
      "Ġmight": 860,
      "rest": 861,
      "Ġop": 862,
      "Ġinte": 863,
      "Ġsaw": 864,
      "ĠThere": 865,
      "gg": 866,
      "ase": 867,
      "Ġconf": 868,
      "Ġmother": 869,
      "vers": 870,
      "Ġkind": 871,
      "Ġshow": 872,
      "hy": 873,
      "Ġfam": 874,
      "llow": 875,
      "Ġthose": 876,
      "Ġtook": 877,
      "ible": 878,
      "ense": 879,
      "Ġroom": 880,
      "Ġclo": 881,
      "Ġcour": 882,
      "Ġdisappoint": 883,
      "Ġhouse": 884,
      "Ġenem": 885,
      "Ġkeep": 886,
      "Ġgentle": 887,
      "Ġpros": 888,
      "ĠMarch": 889,
      "Ġtry": 890,
      "Ġev": 891,
      "Ġsuccess": 892,
      "Ġsomething": 893,
      "Ġgive": 894,
      "Ġbel": 895,
      "iet": 896,
      "Ġinf": 897,
      "ĠThey": 898,
      "ĠDo": 899,
      "ison": 900,
      "ited": 901,
      "orrow": 902,
      "Ġmis": 903,
      "oice": 904,
      "ĠDef": 905,
      "Ġfather": 906,
      "Ġgre": 907,
      "ever": 908,
      "sh": 909,
      "Ġonce": 910,
      "Ġplace": 911,
      "Ġfortune": 912,
      "joy": 913,
      "Ġend": 914,
      "Ġfail": 915,
      "Ġac": 916,
      "âĢ¦": 917,
      "Ġmin": 918,
      "Ġmyself": 919,
      "lt": 920,
      "ished": 921,
      "Ġnat": 922,
      "Ġdec": 923,
      "Ġenjoy": 924,
      "Ġpleasant": 925,
      "Ġhappy": 926,
      "Ġaffairs": 927,
      "mer": 928,
      "Ġhon": 929,
      "Ġdel": 930,
      "ĠDefarge": 931,
      "ĠK": 932,
      "here": 933,
      "ĠMiss": 934,
      "Ġquite": 935,
      "aut": 936,
      "ertain": 937,
      "Ġboy": 938,
      "Ġread": 939,
      "Ġwa": 940,
      "ĠU": 941,
      "Ġdoor": 942,
      "Ġlight": 943,
      "Ġser": 944,
      "ĠSc": 945,
      "Ġfollow": 946,
      "Ġseeing": 947,
      "Ġposs": 948,
      "Ġbecause": 949,
      "Ġreturn": 950,
      "Ġfall": 951,
      "Ġfound": 952,
      "Ġuse": 953,
      "ched": 954,
      "Ġright": 955,
      "Ġfell": 956,
      "ired": 957,
      "ning": 958,
      "Ġele": 959,
      "cept": 960,
      "Ġatt": 961,
      "ER": 962,
      "âĦ": 963,
      "âĦ¢": 964,
      "ĠSee": 965,
      "Ġadd": 966,
      "Ġfeel": 967,
      "vor": 968,
      "ĠV": 969,
      "Ġtra": 970,
      "Ġseemed": 971,
      "Ġpoor": 972,
      "Ġbegan": 973,
      "Ġrest": 974,
      "Ġstre": 975,
      "Ġprom": 976,
      "Ġear": 977,
      "Ġloss": 978,
      "Ġ[": 979,
      "Ġbro": 980,
      "Ġbest": 981,
      "ken": 982,
      "Ġfar": 983,
      "ron": 984,
      "Ġocc": 985,
      "Ġdone": 986,
      "Ġknew": 987,
      "ney": 988,
      "Ġinterest": 989,
      "Ġfull": 990,
      "ĠĠĠ": 991,
      "Ġsub": 992,
      "Ġworld": 993,
      "ond": 994,
      "atter": 995,
      "Ġstill": 996,
      "Ġgirls": 997,
      "ared": 998,
      "Ġanything": 999,
      "Ġtal": 1000,
      "ĠSo": 1001,
      "Ġgirl": 1002,
      "its": 1003,
      "ged": 1004,
      "Ġwind": 1005,
      "ident": 1006,
      "ory": 1007,
      "Ġleft": 1008,
      "Ġref": 1009,
      "Ġtrouble": 1010,
      "Ġsil": 1011,
      "ical": 1012,
      "Ġindic": 1013,
      "Ġboth": 1014,
      "ks": 1015,
      "xt": 1016,
      "oney": 1017,
      "cious": 1018,
      "ower": 1019,
      "Ġturned": 1020,
      "Ġdisc": 1021,
      "aught": 1022,
      "Ġcop": 1023,
      "ĠAs": 1024,
      "Ġsupp": 1025,
      "Ġenemies": 1026,
      "Ġ1": 1027,
      "Ġopp": 1028,
      "Ġnear": 1029,
      "Ġfelt": 1030,
      "It": 1031,
      "Yes": 1032,
      "und": 1033,
      "Ġhus": 1034,
      "Ġrece": 1035,
      "Ġprison": 1036,
      "band": 1037,
      "ying": 1038,
      "Ġsame": 1039,
      "Ġswe": 1040,
      "Ġcried": 1041,
      "ins": 1042,
      "ised": 1043,
      "Ġthing": 1044,
      "Ġdan": 1045,
      "Ġpur": 1046,
      "Ġreg": 1047,
      "Ġdoes": 1048,
      "Ġvoice": 1049,
      "ĠMrs": 1050,
      "Ġcond": 1051,
      "ister": 1052,
      "Ġmen": 1053,
      "orm": 1054,
      "Ġchildren": 1055,
      "Ġseen": 1056,
      "Ġbad": 1057,
      "Ġneed": 1058,
      "gether": 1059,
      "ail": 1060,
      "up": 1061,
      "Ġair": 1062,
      "Ġcount": 1063,
      "Ġbeaut": 1064,
      ".[": 1065,
      "Ġbo": 1066,
      "uck": 1067,
      "raw": 1068,
      "der": 1069,
      "Ġsick": 1070,
      "Ġass": 1071,
      "ener": 1072,
      "atch": 1073,
      "ts": 1074,
      "Ġsuff": 1075,
      "mon": 1076,
      "Ġyet": 1077,
      "Ġhold": 1078,
      "Ġhusband": 1079,
      "Ġdark": 1080,
      "Ġstr": 1081,
      "Ġamong": 1082,
      "Ġpresent": 1083,
      "Ġhope": 1084,
      "cy": 1085,
      "Ġtre": 1086,
      "Ġeff": 1087,
      "Ġlover": 1088,
      "Ġes": 1089,
      "Ġrather": 1090,
      "pected": 1091,
      "Ġfamily": 1092,
      "crow": 1093,
      "Ġsw": 1094,
      "arecrow": 1095,
      "Ġagainst": 1096,
      "ually": 1097,
      "Ġmom": 1098,
      "Ġdisp": 1099,
      "ures": 1100,
      "ody": 1101,
      "Ġcr": 1102,
      "Ġsweet": 1103,
      "Ġmoment": 1104,
      "What": 1105,
      "av": 1106,
      "Ġact": 1107,
      "Ġspir": 1108,
      "Ġtill": 1109,
      "Ġwarn": 1110,
      "Ġdress": 1111,
      "Ġstood": 1112,
      "ĠMan": 1113,
      "Ġcle": 1114,
      "dden": 1115,
      "ten": 1116,
      "Ġter": 1117,
      "Ġmoney": 1118,
      "ash": 1119,
      "ross": 1120,
      "Ġstran": 1121,
      "wered": 1122,
      "ĠThis": 1123,
      "Ġinst": 1124,
      "Ġhair": 1125,
      "Ġeng": 1126,
      "Ġanswered": 1127,
      "ĠScarecrow": 1128,
      "el": 1129,
      "ows": 1130,
      "rence": 1131,
      "ĠAn": 1132,
      "unt": 1133,
      "Ġwords": 1134,
      "riage": 1135,
      "Ġexc": 1136,
      "Ġprosper": 1137,
      "ser": 1138,
      "ined": 1139,
      "Ġsto": 1140,
      "Ġalso": 1141,
      "Ġchar": 1142,
      "Ġgu": 1143,
      "irc": 1144,
      "Ġdr": 1145,
      "riv": 1146,
      "Ġsec": 1147,
      "ool": 1148,
      "Ġsure": 1149,
      "aken": 1150,
      "Ġpat": 1151,
      "Ġhealth": 1152,
      "Ġsudden": 1153,
      "Ġcompan": 1154,
      "Ġdif": 1155,
      "Ġplay": 1156,
      "Ġsmall": 1157,
      "ĠDoctor": 1158,
      "not": 1159,
      "ple": 1160,
      "Ġwon": 1161,
      "itch": 1162,
      "ars": 1163,
      "vel": 1164,
      "Ġcomfort": 1165,
      "Ġfew": 1166,
      "Ġcourse": 1167,
      "Ġhat": 1168,
      "Ġgi": 1169,
      "leep": 1170,
      "ided": 1171,
      "Ġsun": 1172,
      "Ġbelie": 1173,
      "Ġthree": 1174,
      "ets": 1175,
      "Ġhour": 1176,
      "sel": 1177,
      "Ġke": 1178,
      "Ġyears": 1179,
      "Ġpor": 1180,
      "Ġins": 1181,
      "Ġgave": 1182,
      "als": 1183,
      "Ġpret": 1184,
      "ier": 1185,
      "Ġtold": 1186,
      "Ġdro": 1187,
      "Ġreal": 1188,
      "Ġstru": 1189,
      "Ġdeath": 1190,
      "iled": 1191,
      "ĠWhen": 1192,
      "men": 1193,
      "Ġwish": 1194,
      "Ġsou": 1195,
      "Ġhum": 1196,
      "Ġhalf": 1197,
      "Ġunt": 1198,
      "HA": 1199,
      "iting": 1200,
      "Ġtru": 1201,
      "Ġhaving": 1202,
      "adame": 1203,
      "ular": 1204,
      "Ġfin": 1205,
      "Ġmeans": 1206,
      "Ġname": 1207,
      "ĠThen": 1208,
      "Ġmean": 1209,
      "Ġsk": 1210,
      "ering": 1211,
      "ĠThat": 1212,
      "ently": 1213,
      "Ġunc": 1214,
      "ming": 1215,
      "Ġmeet": 1216,
      "ace": 1217,
      "ither": 1218,
      "Ġhigh": 1219,
      "Ġstate": 1220,
      "ĠWe": 1221,
      "Ġvis": 1222,
      "Ġlady": 1223,
      "Ġgreen": 1224,
      "Ġlaw": 1225,
      "me": 1226,
      "Ġcause": 1227,
      "Ġbeh": 1228,
      "lic": 1229,
      "most": 1230,
      "ĠY": 1231,
      "Ġbu": 1232,
      "Ġsho": 1233,
      "ĠCha": 1234,
      "ĠWood": 1235,
      "Ġenough": 1236,
      "Ġsatis": 1237,
      "Ġchange": 1238,
      "Ġlaugh": 1239,
      "Ġlay": 1240,
      "Ġinv": 1241,
      "Ġagree": 1242,
      "Ġpossess": 1243,
      "PT": 1244,
      "Ġwife": 1245,
      "ery": 1246,
      "Ġtogether": 1247,
      "Ġint": 1248,
      "unate": 1249,
      "Ġdidn": 1250,
      "The": 1251,
      "ub": 1252,
      "Ġsorrow": 1253,
      "Ġstand": 1254,
      "iful": 1255,
      "Ġdead": 1256,
      "itting": 1257,
      "Ġtimes": 1258,
      "Ġworks": 1259,
      "Ġletter": 1260,
      "ries": 1261,
      "Ġcalled": 1262,
      "Ġgentleman": 1263,
      "ang": 1264,
      "aint": 1265,
      "Ġwomen": 1266,
      "Ġwater": 1267,
      "ason": 1268,
      "ird": 1269,
      "Ġfavor": 1270,
      "uc": 1271,
      "ubl": 1272,
      "Ġask": 1273,
      "Ġminute": 1274,
      "haps": 1275,
      "aring": 1276,
      "Ġlive": 1277,
      "Ġalone": 1278,
      "Ġroad": 1279,
      "bles": 1280,
      "ĠWoodman": 1281,
      "No": 1282,
      "ĠLion": 1283,
      "ĠCHA": 1284,
      "PTER": 1285,
      "ĠCHAPTER": 1286,
      "Ġround": 1287,
      "Ġclose": 1288,
      "Ġindicates": 1289,
      "hn": 1290,
      "Ġbook": 1291,
      "Ġcirc": 1292,
      "Ġprof": 1293,
      "Ġspirit": 1294,
      "Ġpretty": 1295,
      "Ġtable": 1296,
      "Ġsister": 1297,
      "Ġheard": 1298,
      "stand": 1299,
      "Ġused": 1300,
      "Ġcertain": 1301,
      "Ġquiet": 1302,
      "ience": 1303,
      "ances": 1304,
      "Ġwealth": 1305,
      "Ġlose": 1306,
      "Ġexpress": 1307,
      "Ġdanger": 1308,
      "Ġporte": 1309,
      "Ġcorn": 1310,
      "Ġinter": 1311,
      "Ġhor": 1312,
      "Ġadm": 1313,
      "Ġdesire": 1314,
      "Ġbra": 1315,
      "Ġmaking": 1316,
      "Ġfeeling": 1317,
      "Ġstrong": 1318,
      "Ġuntil": 1319,
      "no": 1320,
      "ann": 1321,
      "Ġgone": 1322,
      "ette": 1323,
      "ĠMother": 1324,
      "rought": 1325,
      "Ġsurpr": 1326,
      "Ġcopy": 1327,
      "ured": 1328,
      "Ġside": 1329,
      "used": 1330,
      "ĠWhat": 1331,
      "Ġcannot": 1332,
      "Ġcountry": 1333,
      "li": 1334,
      "Ġsort": 1335,
      "Ġdou": 1336,
      "Ġpar": 1337,
      "tered": 1338,
      "Ġrun": 1339,
      "Ġreturned": 1340,
      "Ġsent": 1341,
      "Ġbed": 1342,
      "Ġred": 1343,
      "Ġune": 1344,
      "Ġproper": 1345,
      "Ġhappiness": 1346,
      "Ġobject": 1347,
      "ho": 1348,
      "Ġtri": 1349,
      "Ġsim": 1350,
      "ceed": 1351,
      "Ġcoming": 1352,
      "come": 1353,
      "Ġ_": 1354,
      "Ġfut": 1355,
      "Ġforg": 1356,
      "Ġrec": 1357,
      "Ġpos": 1358,
      "Ġdays": 1359,
      "Ġbring": 1360,
      "the": 1361,
      "Ġbig": 1362,
      "ank": 1363,
      "Ġhur": 1364,
      "âĢĻ,": 1365,
      "Ġwhite": 1366,
      "Ġappro": 1367,
      "bed": 1368,
      "Ġeas": 1369,
      "ĠJohn": 1370,
      "ween": 1371,
      "Ġremem": 1372,
      "ities": 1373,
      "Ġoften": 1374,
      "imes": 1375,
      "ourney": 1376,
      "Ġeverything": 1377,
      "EN": 1378,
      "ian": 1379,
      "Ġaw": 1380,
      "Ġfun": 1381,
      "lied": 1382,
      "Ġsad": 1383,
      "Ġmorn": 1384,
      "Ġmatter": 1385,
      "Ġtoward": 1386,
      "Ġste": 1387,
      "Ġnature": 1388,
      "selves": 1389,
      "Ġfuture": 1390,
      "fic": 1391,
      "Ġbrought": 1392,
      "Ġanx": 1393,
      "Ġwhom": 1394,
      "Ġbehind": 1395,
      "day": 1396,
      "Ġtaken": 1397,
      "Ġbright": 1398,
      "Ġdeal": 1399,
      "Ġbetween": 1400,
      "ĠManette": 1401,
      "Ġportends": 1402,
      "lu": 1403,
      "Ġsin": 1404,
      "Ġbla": 1405,
      "ents": 1406,
      "ention": 1407,
      "Ġmanner": 1408,
      "ĠNo": 1409,
      "ĠPross": 1410,
      "Ġmorning": 1411,
      "cess": 1412,
      "nded": 1413,
      "Ġgener": 1414,
      "Ġshort": 1415,
      "Ġcomm": 1416,
      "Ġjoy": 1417,
      "ages": 1418,
      "ĠOz": 1419,
      "Ġglad": 1420,
      "Ġel": 1421,
      "Ġaffect": 1422,
      "Ġopen": 1423,
      "Ġelect": 1424,
      "ah": 1425,
      "ches": 1426,
      "Ġfire": 1427,
      "ĠCart": 1428,
      "Ġjourney": 1429,
      "Ġsn": 1430,
      "erry": 1431,
      "Ġfre": 1432,
      "iter": 1433,
      "Ġself": 1434,
      "akes": 1435,
      "ield": 1436,
      "Ġbroken": 1437,
      "Ġbeautiful": 1438,
      "gs": 1439,
      "ph": 1440,
      "wer": 1441,
      "Ġca": 1442,
      "ĠMon": 1443,
      "Ġlearn": 1444,
      "Ġquest": 1445,
      "ix": 1446,
      "run": 1447,
      "Ġeach": 1448,
      "Ġready": 1449,
      "ĠAt": 1450,
      "ronic": 1451,
      "Ġwo": 1452,
      "Ġgrow": 1453,
      "Ġform": 1454,
      "ury": 1455,
      "Ġnext": 1456,
      "Ġpoint": 1457,
      "ĠUn": 1458,
      "Ġbes": 1459,
      "illed": 1460,
      "icked": 1461,
      "Ġunp": 1462,
      "Ġtrying": 1463,
      "Ġesc": 1464,
      "Ġbelieve": 1465,
      "ublic": 1466,
      "Ġdoub": 1467,
      "ĠCarton": 1468,
      "ived": 1469,
      "Ġfine": 1470,
      "Ġlow": 1471,
      "Ġglo": 1472,
      "Ġthreat": 1473,
      "raid": 1474,
      "Ġquar": 1475,
      "cher": 1476,
      "for": 1477,
      "amp": 1478,
      "Ġreally": 1479,
      "Oh": 1480,
      "act": 1481,
      "use": 1482,
      "Ġtried": 1483,
      "Ġfour": 1484,
      "Ġless": 1485,
      "cial": 1486,
      "ov": 1487,
      "Ġwine": 1488,
      "Ġpower": 1489,
      "Ġeat": 1490,
      "ges": 1491,
      "uct": 1492,
      "Ġtou": 1493,
      "Ġtem": 1494,
      "Ġbit": 1495,
      "Ġfast": 1496,
      "Ġcur": 1497,
      "Ġelectronic": 1498,
      "oud": 1499,
      "Ġfear": 1500,
      "ises": 1501,
      "ĠDarn": 1502,
      "Ġleave": 1503,
      "osed": 1504,
      "Ġdistress": 1505,
      "ĠDarnay": 1506,
      "ove": 1507,
      "Ġfree": 1508,
      "Ġdut": 1509,
      "itions": 1510,
      "Ġafraid": 1511,
      "Ġdesp": 1512,
      "Ġsickness": 1513,
      "gr": 1514,
      "Ġcry": 1515,
      "Ġprop": 1516,
      "Ġsecret": 1517,
      "ising": 1518,
      "Ġdep": 1519,
      "Ġdev": 1520,
      "ately": 1521,
      "Ġarm": 1522,
      "ribut": 1523,
      "Ġspeak": 1524,
      "And": 1525,
      "Ġspite": 1526,
      "Ġalmost": 1527,
      "Ġeffort": 1528,
      "Ġengage": 1529,
      "laim": 1530,
      "Ġappear": 1531,
      "Ġcharact": 1532,
      "Ġobser": 1533,
      "Ġenter": 1534,
      "Ġblack": 1535,
      "by": 1536,
      "cing": 1537,
      "su": 1538,
      "oura": 1539,
      "Ġstra": 1540,
      "ĠAunt": 1541,
      "Ġwhole": 1542,
      "Ġart": 1543,
      "Ġinde": 1544,
      "Ġprisoner": 1545,
      "Ġtrue": 1546,
      "He": 1547,
      "Ġve": 1548,
      "Ġcal": 1549,
      "owers": 1550,
      "Ġatte": 1551,
      "Ġkiss": 1552,
      "Ġext": 1553,
      "sp": 1554,
      "nding": 1555,
      "ask": 1556,
      "Ġwhis": 1557,
      "ĠBe": 1558,
      "Ġfair": 1559,
      "Ġabs": 1560,
      "ably": 1561,
      "Ġwar": 1562,
      "Ġmist": 1563,
      "enty": 1564,
      "...": 1565,
      "Ġsuffer": 1566,
      "cul": 1567,
      "Ġdet": 1568,
      "Ġheav": 1569,
      "ott": 1570,
      "Ġwhy": 1571,
      "Ġsaying": 1572,
      "Ġrespect": 1573,
      "Ġadded": 1574,
      "Ġwin": 1575,
      "Ġwall": 1576,
      "ative": 1577,
      "Ġarms": 1578,
      "Ġunderstand": 1579,
      "Ġinflu": 1580,
      "Ġwindow": 1581,
      "ĠQ": 1582,
      "Ġsound": 1583,
      "Ġdaught": 1584,
      "vered": 1585,
      "ĠEng": 1586,
      "Ġfeet": 1587,
      "ude": 1588,
      "Ġpassed": 1589,
      "Ġanswer": 1590,
      "Ġwalked": 1591,
      "Ġevil": 1592,
      "body": 1593,
      "Ġide": 1594,
      "iding": 1595,
      "ĠMadame": 1596,
      "Ġdread": 1597,
      "bled": 1598,
      "Ġpartic": 1599,
      "Ġclear": 1600,
      "Ġdrink": 1601,
      "Ġkept": 1602,
      "Ġsir": 1603,
      "ĠTin": 1604,
      "uth": 1605,
      "ĠNow": 1606,
      "Ġsubject": 1607,
      "Ġfan": 1608,
      "ots": 1609,
      "Ġgain": 1610,
      "Ġpleasures": 1611,
      "Ġprosperity": 1612,
      "That": 1613,
      "par": 1614,
      "Ġsleep": 1615,
      "Ġdraw": 1616,
      "Ġmus": 1617,
      "Ġlist": 1618,
      "Ġlost": 1619,
      "Ġimag": 1620,
      "Ġbegin": 1621,
      "Ġpay": 1622,
      "Ġunha": 1623,
      "Ġaff": 1624,
      "Ġprov": 1625,
      "ieur": 1626,
      "Ġlea": 1627,
      "rent": 1628,
      "Ġsurround": 1629,
      "Ġdisappointment": 1630,
      "uring": 1631,
      "Ġworth": 1632,
      "ĠHow": 1633,
      "Ġspoke": 1634,
      "ief": 1635,
      "Ġperhaps": 1636,
      "Ġpaper": 1637,
      "soci": 1638,
      "Ġsoul": 1639,
      "Ġwonder": 1640,
      "ĠEngl": 1641,
      "Ġmon": 1642,
      "Ġthr": 1643,
      "Ġreason": 1644,
      "Ġassoci": 1645,
      "Ġstri": 1646,
      "ĠLuc": 1647,
      "ĠCh": 1648,
      "Ġcarry": 1649,
      "Ġdelight": 1650,
      "Ġserv": 1651,
      "If": 1652,
      "ging": 1653,
      "Ġri": 1654,
      "omp": 1655,
      "Ġorder": 1656,
      "Ġunhapp": 1657,
      "How": 1658,
      "ug": 1659,
      "Ġlad": 1660,
      "Ġstrange": 1661,
      "Ġcharacter": 1662,
      "ib": 1663,
      "edd": 1664,
      "Ġcap": 1665,
      "ump": 1666,
      "Ġsuddenly": 1667,
      "Ġcorner": 1668,
      "Ġsince": 1669,
      "head": 1670,
      "ining": 1671,
      "ene": 1672,
      "Ġpain": 1673,
      "ĠTH": 1674,
      "Ġsoft": 1675,
      "ĠWitch": 1676,
      "Ġthemselves": 1677,
      "Ġquick": 1678,
      "annah": 1679,
      "ĠLucie": 1680,
      "Ġbear": 1681,
      "ĠCrun": 1682,
      "Ġmarriage": 1683,
      "Ġtender": 1684,
      "Ġbreak": 1685,
      "air": 1686,
      "uff": 1687,
      "Ġdom": 1688,
      "Ġcreat": 1689,
      "aster": 1690,
      "Ġnice": 1691,
      "owed": 1692,
      "Ġwithin": 1693,
      "ĠBro": 1694,
      "onsieur": 1695,
      "lain": 1696,
      "ught": 1697,
      "Ġstart": 1698,
      "ility": 1699,
      "Ġanyone": 1700,
      "leasant": 1701,
      "Ġincl": 1702,
      "ĠCruncher": 1703,
      "Why": 1704,
      "du": 1705,
      "eal": 1706,
      "uri": 1707,
      "Ġwatch": 1708,
      "Ġbar": 1709,
      "ening": 1710,
      "pping": 1711,
      "ĠHer": 1712,
      "ĠHannah": 1713,
      "Ġremain": 1714,
      "ĠĠĠĠĠĠĠ": 1715,
      "lor": 1716,
      "Ġir": 1717,
      "Ġheld": 1718,
      "ĠFound": 1719,
      "Ġreplied": 1720,
      "Ġstopped": 1721,
      "Ġdiffic": 1722,
      "ĠFoundation": 1723,
      "Ġest": 1724,
      "ster": 1725,
      "Ġexper": 1726,
      "son": 1727,
      "Ġtears": 1728,
      "Ġcoun": 1729,
      "idd": 1730,
      "ider": 1731,
      "Ġstud": 1732,
      "ĠMy": 1733,
      "iling": 1734,
      "Ġalong": 1735,
      "ĠOn": 1736,
      "Ġfellow": 1737,
      "Ġstrugg": 1738,
      "Ġunpleasant": 1739,
      "),": 1740,
      "xpected": 1741,
      "Ġtone": 1742,
      "Ġtaking": 1743,
      "Ġflo": 1744,
      "Ġcross": 1745,
      "irt": 1746,
      "Ġspo": 1747,
      "Ġpersons": 1748,
      "Ġsometimes": 1749,
      "Ġdoubt": 1750,
      "ny": 1751,
      "that": 1752,
      "Ġtran": 1753,
      "Ġwis": 1754,
      "ĠTell": 1755,
      "Ġmarried": 1756,
      "Ġquarre": 1757,
      "Ġbur": 1758,
      "Ġran": 1759,
      "Ġprofit": 1760,
      "Ġsing": 1761,
      "ote": 1762,
      "iment": 1763,
      "key": 1764,
      "Ġwanted": 1765,
      "Ġterms": 1766,
      "We": 1767,
      "ape": 1768,
      "eur": 1769,
      "ient": 1770,
      "idence": 1771,
      "ush": 1772,
      "Ġcold": 1773,
      "Ġflowers": 1774,
      "Ġwrong": 1775,
      "Ġcheer": 1776,
      "Ġunexpected": 1777,
      "ghed": 1778,
      "ips": 1779,
      "mpt": 1780,
      "ready": 1781,
      "Ġluck": 1782,
      "Ġreco": 1783,
      "Ġlikely": 1784,
      "Ġblue": 1785,
      "Ġadvance": 1786,
      "Ġhonor": 1787,
      "Ġquestion": 1788,
      "sed": 1789,
      "wise": 1790,
      "Ġsens": 1791,
      "Ġdire": 1792,
      "Ġdeep": 1793,
      "Ġma": 1794,
      "Ġmer": 1795,
      "ime": 1796,
      "ored": 1797,
      "Ġdece": 1798,
      "Ġener": 1799,
      "Ġjo": 1800,
      "Ġemb": 1801,
      "Ġelse": 1802,
      "Ġsight": 1803,
      "Ġdri": 1804,
      "Ġfaith": 1805,
      "igneur": 1806,
      "fortunate": 1807,
      "Ġcarried": 1808,
      "Ġfailure": 1809,
      "Ġnatur": 1810,
      "Ġoccas": 1811,
      "Ġremember": 1812,
      "cceed": 1813,
      "mp": 1814,
      "Ġpast": 1815,
      "Ġlarge": 1816,
      "seigneur": 1817,
      "Ġstory": 1818,
      "Ġsucceed": 1819,
      "itted": 1820,
      "Ġplease": 1821,
      "Ġ...": 1822,
      "Ġperfect": 1823,
      "Ġillness": 1824,
      "Ġgrand": 1825,
      "Ġreceive": 1826,
      "Ġdaughter": 1827,
      "ey": 1828,
      "fied": 1829,
      "ring": 1830,
      "Ġwild": 1831,
      "Ġsy": 1832,
      "Ġfig": 1833,
      "Ġcor": 1834,
      "Ġyear": 1835,
      "Ġnor": 1836,
      "ryver": 1837,
      "umber": 1838,
      "Ġovercome": 1839,
      "Ġshad": 1840,
      "ĠStryver": 1841,
      "**": 1842,
      "ald": 1843,
      "mb": 1844,
      "heart": 1845,
      "Ġconc": 1846,
      "Ġalready": 1847,
      "Ġchair": 1848,
      "Ġeye": 1849,
      "Ġgetting": 1850,
      "Ġnews": 1851,
      "Ġlaid": 1852,
      "ply": 1853,
      "Ġaround": 1854,
      "ination": 1855,
      "ung": 1856,
      "quis": 1857,
      "Ġrise": 1858,
      "Ġfaces": 1859,
      "aren": 1860,
      "agree": 1861,
      "Ġcontent": 1862,
      "cond": 1863,
      "Ġopened": 1864,
      "ĠBrooke": 1865,
      "Ġta": 1866,
      "Ġfright": 1867,
      "Ġdisagree": 1868,
      "Ġexpect": 1869,
      "Ġtrad": 1870,
      "Ġgrave": 1871,
      "Ġgiven": 1872,
      "iterary": 1873,
      "Ġbab": 1874,
      "lect": 1875,
      "Ġisn": 1876,
      "ĠAr": 1877,
      "Ġunfortunate": 1878,
      "ĠPar": 1879,
      "Ġfoot": 1880,
      "Ġemp": 1881,
      "Ġslow": 1882,
      "Ġsatisfa": 1883,
      "Ġforgot": 1884,
      "fter": 1885,
      "rles": 1886,
      "Ġsit": 1887,
      "Ġbreat": 1888,
      "Ġeither": 1889,
      "Ġgold": 1890,
      "Ġdeser": 1891,
      "Ġhowever": 1892,
      "Ġwalk": 1893,
      "Ġlaughed": 1894,
      "Ġdecided": 1895,
      "Ġpurp": 1896,
      "Ġexpression": 1897,
      "Ġenterpr": 1898,
      "ives": 1899,
      "Ġfly": 1900,
      "ingly": 1901,
      "Ġcrow": 1902,
      "oto": 1903,
      "let": 1904,
      "ushed": 1905,
      "ĠJerry": 1906,
      "ĠHis": 1907,
      "Ġrich": 1908,
      "ĠGod": 1909,
      "Ġusual": 1910,
      "ĠLaurence": 1911,
      "Ġparticular": 1912,
      "gy": 1913,
      "ock": 1914,
      "ences": 1915,
      "Ġmater": 1916,
      "Ġpublic": 1917,
      "Ġinj": 1918,
      "Ġitself": 1919,
      "Ġdreamer": 1920,
      "Ġenc": 1921,
      "Ġthoughts": 1922,
      "Ġcompanions": 1923,
      "II": 1924,
      "Not": 1925,
      "Well": 1926,
      "Ġsense": 1927,
      "rew": 1928,
      "outh": 1929,
      "Ġfing": 1930,
      "Ġdest": 1931,
      "ides": 1932,
      "Ġunus": 1933,
      "ĠDon": 1934,
      "ized": 1935,
      "Ġhorse": 1936,
      "ec": 1937,
      "gers": 1938,
      "sing": 1939,
      "Ġom": 1940,
      "Ġought": 1941,
      "Ġburn": 1942,
      "Ġmor": 1943,
      "Ġlab": 1944,
      "Ġang": 1945,
      "Ġdisco": 1946,
      "ĠFather": 1947,
      "ĠWith": 1948,
      "Ġfact": 1949,
      "Ġabove": 1950,
      "Ġcoll": 1951,
      "Ġhappened": 1952,
      "Ġclot": 1953,
      "Ġstreet": 1954,
      "Ġdesires": 1955,
      "But": 1956,
      "Do": 1957,
      "My": 1958,
      "airs": 1959,
      "sc": 1960,
      "Ġable": 1961,
      "utes": 1962,
      "Ġdoing": 1963,
      "Ġknown": 1964,
      "rench": 1965,
      "ressed": 1966,
      "Ġundert": 1967,
      "aching": 1968,
      "Ġslight": 1969,
      "Ġgentlemen": 1970,
      "Ġtalk": 1971,
      "Ġcircum": 1972,
      "eared": 1973,
      "tic": 1974,
      "Ġmine": 1975,
      "ety": 1976,
      "ĠMonsieur": 1977,
      "ĠAll": 1978,
      "Ġliving": 1979,
      "Ġsever": 1980,
      "Ġbrother": 1981,
      "Ġsmile": 1982,
      "Ġevening": 1983,
      "Ġconduct": 1984,
      "Ġcopyright": 1985,
      "Ġindeed": 1986,
      "TY": 1987,
      "rance": 1988,
      "Ġmiss": 1989,
      "Ġcast": 1990,
      "ane": 1991,
      "ection": 1992,
      "Ġliked": 1993,
      "Ġloved": 1994,
      "unch": 1995,
      "ĠCity": 1996,
      "Ġcouldn": 1997,
      "Ġfollowed": 1998,
      "ĠCharles": 1999,
      "Don": 2000,
      "ats": 2001,
      "att": 2002,
      "ified": 2003,
      "Ġworry": 2004,
      "Ġpost": 2005,
      "Ġbecome": 2006,
      "undred": 2007,
      "Ġlaws": 2008,
      "ĠMonseigneur": 2009,
      "Ġgloom": 2010,
      "Ġefforts": 2011,
      "Ġcircumst": 2012,
      "Ġseveral": 2013,
      "Now": 2014,
      "oss": 2015,
      "Ġbody": 2016,
      "Ġpict": 2017,
      "fulness": 2018,
      "Ġpeace": 2019,
      "Ġlovely": 2020,
      "Ġreceived": 2021,
      "Ġstraight": 2022,
      "Ġheavy": 2023,
      "Ġwee": 2024,
      "Ġho": 2025,
      "ĠToto": 2026,
      "Ġstay": 2027,
      "Ġneg": 2028,
      "Ġlips": 2029,
      "Ġsecond": 2030,
      "umb": 2031,
      "Ġwouldn": 2032,
      "pend": 2033,
      "Ġdistribut": 2034,
      "Ġparty": 2035,
      "iety": 2036,
      "aven": 2037,
      "gn": 2038,
      "ray": 2039,
      "Ġyes": 2040,
      "Ġwear": 2041,
      "ants": 2042,
      "ously": 2043,
      "Ġru": 2044,
      "Ġwhose": 2045,
      "ĠOne": 2046,
      "Ġresol": 2047,
      "Ġaccept": 2048,
      "Ġearly": 2049,
      "Ġproperty": 2050,
      "ES": 2051,
      "of": 2052,
      "inner": 2053,
      "Ġfru": 2054,
      "Ġpriv": 2055,
      "ĠFrench": 2056,
      "antly": 2057,
      "Ġpol": 2058,
      "Ġleast": 2059,
      "Ġshar": 2060,
      "Ġeveryone": 2061,
      "iously": 2062,
      "Ġcontin": 2063,
      "ference": 2064,
      "ferent": 2065,
      "Ġsuccessful": 2066,
      "Ġtowards": 2067,
      "ĠTellson": 2068,
      "aw": 2069,
      "ued": 2070,
      "Ġut": 2071,
      "itude": 2072,
      "Ġearn": 2073,
      "ching": 2074,
      "Ġseem": 2075,
      "Ġsafe": 2076,
      "Ġunless": 2077,
      "estic": 2078,
      "Ġfav": 2079,
      "loy": 2080,
      "medi": 2081,
      "Ġmisfort": 2082,
      "Ġearth": 2083,
      "Ġvisit": 2084,
      "Ġagreement": 2085,
      "Ġwarm": 2086,
      "ĠEnglish": 2087,
      "where": 2088,
      "Ġfilled": 2089,
      "Ġcro": 2090,
      "Ġpen": 2091,
      "ected": 2092,
      "Ġlovers": 2093,
      "Ġexcept": 2094,
      "Ġlead": 2095,
      "aged": 2096,
      "Ġimport": 2097,
      "Ġgrass": 2098,
      "Ġboys": 2099,
      "Ġstreets": 2100,
      "Ġpursu": 2101,
      "Ġposition": 2102,
      "Ġescape": 2103,
      "Ġduty": 2104,
      "Ġquarrels": 2105,
      "ream": 2106,
      "read": 2107,
      "Ġcase": 2108,
      "Ġland": 2109,
      "Ġforget": 2110,
      "Ġsold": 2111,
      "Ġunfa": 2112,
      "Ġwhether": 2113,
      "Ġlean": 2114,
      "Ġimmedi": 2115,
      "Ġfriendsh": 2116,
      "ourage": 2117,
      "Ġmusic": 2118,
      "bs": 2119,
      "Ġsitting": 2120,
      "Ġdra": 2121,
      "Ġce": 2122,
      "Ġseek": 2123,
      "Ġdem": 2124,
      "roud": 2125,
      "lock": 2126,
      "ĠOf": 2127,
      "Ġobtain": 2128,
      "Ġglass": 2129,
      "Ġhuman": 2130,
      "Ġbeside": 2131,
      "Ġoccasion": 2132,
      "Ġpurpose": 2133,
      "be": 2134,
      "gra": 2135,
      "yd": 2136,
      "Ġhill": 2137,
      "Ġhig": 2138,
      "Ġrequ": 2139,
      "Ġrose": 2140,
      "Ġhandsome": 2141,
      "Ġhopes": 2142,
      "Ġdisappointments": 2143,
      "Ġprospect": 2144,
      "Ġhonest": 2145,
      "Ġopport": 2146,
      "Ġtrees": 2147,
      "Ġhours": 2148,
      "Ġstruck": 2149,
      "Ġstanding": 2150,
      "az": 2151,
      "form": 2152,
      "Ġdinner": 2153,
      "ĠAfter": 2154,
      "Ġsum": 2155,
      "ĠBha": 2156,
      "arer": 2157,
      "Ġthank": 2158,
      "Ġdifficult": 2159,
      "Ġslowly": 2160,
      "Ġwat": 2161,
      "Ġfal": 2162,
      "lly": 2163,
      "Ġpet": 2164,
      "Ġintell": 2165,
      "lend": 2166,
      "ific": 2167,
      "Ġsepar": 2168,
      "itten": 2169,
      "Ġcomes": 2170,
      "Ġsays": 2171,
      "ached": 2172,
      "ledge": 2173,
      "Ġempt": 2174,
      "Ġidea": 2175,
      "Ġopportun": 2176,
      "do": 2177,
      "res": 2178,
      "itiz": 2179,
      "Ġmed": 2180,
      "Ġcut": 2181,
      "Ġkill": 2182,
      "usion": 2183,
      "Ġprove": 2184,
      "Ġenv": 2185,
      "ellow": 2186,
      "Ġmod": 2187,
      "Ġwarning": 2188,
      "ashion": 2189,
      "Ġfavorable": 2190,
      "Ġbooks": 2191,
      "Ġdomestic": 2192,
      "AR": 2193,
      "morrow": 2194,
      "side": 2195,
      "ĠZ": 2196,
      "Ġwit": 2197,
      "Ġwood": 2198,
      "Ġmess": 2199,
      "Ġgrie": 2200,
      "ices": 2201,
      "icense": 2202,
      "Ġforth": 2203,
      "ĠProf": 2204,
      "ĠStates": 2205,
      "Ġwalking": 2206,
      "Ġoccup": 2207,
      "Ġeasy": 2208,
      "ĠUnited": 2209,
      "Ġthreatened": 2210,
      "Ġunhappy": 2211,
      "Ġemploy": 2212,
      "Ġmaterial": 2213,
      "ĠBhaer": 2214,
      "Ġwise": 2215,
      "Ġmet": 2216,
      "atis": 2217,
      "âĢĻ.": 2218,
      "Ġones": 2219,
      "ili": 2220,
      "Ġdiss": 2221,
      "Ġtroubles": 2222,
      "Ġconscious": 2223,
      "Ġdespair": 2224,
      "Ġdirect": 2225,
      "Book": 2226,
      "ND": 2227,
      "ror": 2228,
      "ses": 2229,
      "uss": 2230,
      "ĠX": 2231,
      "Ġed": 2232,
      "âĢĺ": 2233,
      "Ġpull": 2234,
      "Ġhundred": 2235,
      "Ġrepe": 2236,
      "Ġann": 2237,
      "ĠWh": 2238,
      "Ġvill": 2239,
      "Ġprodu": 2240,
      "Ġprev": 2241,
      "pered": 2242,
      "Ġguard": 2243,
      "Ġrunning": 2244,
      "Ġobserved": 2245,
      "ealous": 2246,
      "ĠParis": 2247,
      "itizen": 2248,
      "oc": 2249,
      "rist": 2250,
      "Ġtired": 2251,
      "Ġbless": 2252,
      "aste": 2253,
      "Ġhast": 2254,
      "ality": 2255,
      "ift": 2256,
      "Ġshook": 2257,
      "Ġago": 2258,
      "Ġharm": 2259,
      "Ġaccomp": 2260,
      "Ġwrite": 2261,
      "hys": 2262,
      "Ġwait": 2263,
      "Ġwarns": 2264,
      "Ġempty": 2265,
      "cent": 2266,
      "cri": 2267,
      "ead": 2268,
      "Ġfat": 2269,
      "Ġfro": 2270,
      "ution": 2271,
      "Ġstone": 2272,
      "essor": 2273,
      "Ġseems": 2274,
      "Ġshut": 2275,
      "cked": 2276,
      "Ġsplend": 2277,
      "Ġvict": 2278,
      "Ġlooks": 2279,
      "Ġbusy": 2280,
      "Ġpride": 2281,
      "Ġappeared": 2282,
      "Ġturning": 2283,
      "Ġbecame": 2284,
      "Ġaccident": 2285,
      "Ġchanges": 2286,
      "Ġsett": 2287,
      "Ġacqu": 2288,
      "Ġeffect": 2289,
      "Ġsimply": 2290,
      "ĠQu": 2291,
      "Ġcircumstances": 2292,
      ".âĢĻ": 2293,
      "RE": 2294,
      "miss": 2295,
      "ric": 2296,
      "Ġfle": 2297,
      "rig": 2298,
      "ques": 2299,
      "cks": 2300,
      "Ġvar": 2301,
      "ountain": 2302,
      "Ġthinking": 2303,
      "Ġheads": 2304,
      "Ġsmo": 2305,
      "Ġresult": 2306,
      "Ġblood": 2307,
      "Ġcarriage": 2308,
      "Ġbread": 2309,
      "Ġminutes": 2310,
      "Ġpossible": 2311,
      "Ġoppos": 2312,
      "Ġnearly": 2313,
      "Ġespe": 2314,
      "Ġsweetheart": 2315,
      "ĠTHE": 2316,
      "Ġinclud": 2317,
      "Ġfigure": 2318,
      "house": 2319,
      "pit": 2320,
      "Ġriv": 2321,
      "Ġbene": 2322,
      "Ġmouth": 2323,
      "Ġtop": 2324,
      "ĠâĢľâĢĺ": 2325,
      "Ġthrow": 2326,
      "oose": 2327,
      "cho": 2328,
      "Ġsol": 2329,
      "Ġloving": 2330,
      "ĠWhy": 2331,
      "Ġvan": 2332,
      "lace": 2333,
      "cially": 2334,
      "ĠEvery": 2335,
      "Ġprot": 2336,
      "Ġbreast": 2337,
      "Ġdropped": 2338,
      "Ġbitter": 2339,
      "Ġvex": 2340,
      "Ġmonth": 2341,
      "Ġclothes": 2342,
      "ydney": 2343,
      "TI": 2344,
      "mber": 2345,
      "Ġmil": 2346,
      "ont": 2347,
      "Ġpie": 2348,
      "Ġnumber": 2349,
      "Ġeating": 2350,
      "ĠeBook": 2351,
      "Ġasleep": 2352,
      "ĠSp": 2353,
      "Ġexpected": 2354,
      "Ġnose": 2355,
      "Ġjealous": 2356,
      "ĠMarquis": 2357,
      "Ġgrate": 2358,
      "Ġplaces": 2359,
      "Ġfortunate": 2360,
      "Ġtrave": 2361,
      "Ġoccur": 2362,
      "Ġsurprise": 2363,
      "like": 2364,
      "Ġdreadful": 2365,
      "lies": 2366,
      "wor": 2367,
      "Ġid": 2368,
      "Ġsch": 2369,
      "Ġsorry": 2370,
      "Ġsix": 2371,
      "Ġball": 2372,
      "Ġground": 2373,
      "aded": 2374,
      "ĠJac": 2375,
      "Ġval": 2376,
      "iew": 2377,
      "rupt": 2378,
      "Ġknows": 2379,
      "ression": 2380,
      "Ġoffic": 2381,
      "Ġobst": 2382,
      "Ġconfidence": 2383,
      "Ġregard": 2384,
      "Ġdoesn": 2385,
      "Ġdressed": 2386,
      "Ġanxious": 2387,
      "There": 2388,
      "ishing": 2389,
      "Ġph": 2390,
      "Ġhot": 2391,
      "Ġsocial": 2392,
      "ĠSydney": 2393,
      "Ġsend": 2394,
      "Ġsees": 2395,
      "ively": 2396,
      "Ġleg": 2397,
      "Ġusing": 2398,
      "Ġafterward": 2399,
      "Ġplans": 2400,
      "Ġconsider": 2401,
      "Ġacross": 2402,
      "Ġmisfortune": 2403,
      "ĠProfessor": 2404,
      "ners": 2405,
      "Ġsqu": 2406,
      "Ġpract": 2407,
      "Ġproud": 2408,
      "Ġinno": 2409,
      "atic": 2410,
      "owing": 2411,
      "Ġstop": 2412,
      "ĠLet": 2413,
      "Ġuns": 2414,
      "Ġconst": 2415,
      "Ġrust": 2416,
      "Ġsea": 2417,
      "Ġprob": 2418,
      "Ġdesign": 2419,
      "Ġpray": 2420,
      "acles": 2421,
      "Ġcareful": 2422,
      "Ġmarry": 2423,
      "Ġfancy": 2424,
      "ĠChrist": 2425,
      "ĠArch": 2426,
      "Ġcrowd": 2427,
      "bing": 2428,
      "nal": 2429,
      "Ġsal": 2430,
      "Ġbird": 2431,
      "Ġfool": 2432,
      "ency": 2433,
      "asp": 2434,
      "Ġsuit": 2435,
      "Ġspect": 2436,
      "Ġcost": 2437,
      "Ġimm": 2438,
      "ĠOF": 2439,
      "ĠNot": 2440,
      "acher": 2441,
      "Ġdistur": 2442,
      "Ġfriendly": 2443,
      "Ġpaid": 2444,
      "Ġexplain": 2445,
      "orses": 2446,
      "Ġpromise": 2447,
      "Ġsilence": 2448,
      "upid": 2449,
      "Ġcompany": 2450,
      "Ġfresh": 2451,
      "Ġgrowing": 2452,
      "Ġbreath": 2453,
      "kes": 2454,
      "ma": 2455,
      "pid": 2456,
      "uch": 2457,
      "resent": 2458,
      "Ġund": 2459,
      "Ġknowledge": 2460,
      "rank": 2461,
      "Ġtrust": 2462,
      "Ġgeneral": 2463,
      "Ġinfluence": 2464,
      "Ġwishes": 2465,
      "Ġfalse": 2466,
      "Is": 2467,
      "yond": 2468,
      "ines": 2469,
      "hamed": 2470,
      "Ġmakes": 2471,
      "Ġlying": 2472,
      "ooking": 2473,
      "ume": 2474,
      "Ġprep": 2475,
      "bling": 2476,
      "Ġimpro": 2477,
      "Ġadvant": 2478,
      "Ġenjoyment": 2479,
      "Ġattention": 2480,
      "Ġsuppose": 2481,
      "Ġgiving": 2482,
      "Ġspiritual": 2483,
      "Ġriver": 2484,
      "Ġnatural": 2485,
      "Ġsatisfaction": 2486,
      "ĠJacques": 2487,
      "Good": 2488,
      "mn": 2489,
      "ton": 2490,
      "Ġap": 2491,
      "Ġphys": 2492,
      "Ġinqu": 2493,
      "Ġbeyond": 2494,
      "Ġgar": 2495,
      "Ġgate": 2496,
      "Ġashamed": 2497,
      "Ġanim": 2498,
      "Ġmere": 2499,
      "Ġmeant": 2500,
      "Ġnecess": 2501,
      "Ġconte": 2502,
      "Ġconvers": 2503,
      "Ġexact": 2504,
      "ustom": 2505,
      "Ġremark": 2506,
      "Ġwritten": 2507,
      "Ġcontr": 2508,
      "Ġexclaim": 2509,
      "Ġprosperous": 2510,
      "Ġenergy": 2511,
      "ON": 2512,
      "under": 2513,
      "har": 2514,
      "lled": 2515,
      "ones": 2516,
      "Ġcuri": 2517,
      "otion": 2518,
      "Ġgard": 2519,
      "verty": 2520,
      "raph": 2521,
      "ĠSome": 2522,
      "Ġdefe": 2523,
      "though": 2524,
      "Ġconv": 2525,
      "Ġjud": 2526,
      "emark": 2527,
      "agraph": 2528,
      "Ġusually": 2529,
      "Ġaccess": 2530,
      "Ġfollowing": 2531,
      "Ġdifferent": 2532,
      "ĠYour": 2533,
      "Ġsatisfied": 2534,
      "Ġsurprised": 2535,
      "Ġparagraph": 2536,
      "Ġweek": 2537,
      "OR": 2538,
      "OU": 2539,
      "night": 2540,
      "Ġrou": 2541,
      "Ġav": 2542,
      "Ġaid": 2543,
      "inary": 2544,
      "Ġsla": 2545,
      "Ġobl": 2546,
      "Ġbott": 2547,
      "Ġfight": 2548,
      "itation": 2549,
      "Ġmadame": 2550,
      "Ġled": 2551,
      "Ġthus": 2552,
      "Ġweak": 2553,
      "Ġnotice": 2554,
      "ĠLiterary": 2555,
      "ards": 2556,
      "Ġpoverty": 2557,
      "Ġcomple": 2558,
      "Ġimposs": 2559,
      "Ġpassion": 2560,
      "ize": 2561,
      "Ġgrew": 2562,
      "Ġinterests": 2563,
      "eddy": 2564,
      "Ġsharp": 2565,
      "you": 2566,
      "Ġtong": 2567,
      "Ġbound": 2568,
      "Ġda": 2569,
      "Ġmal": 2570,
      "ony": 2571,
      "Ġyellow": 2572,
      "oted": 2573,
      "Ġequ": 2574,
      "sequ": 2575,
      "rible": 2576,
      "Ġstupid": 2577,
      "Ġord": 2578,
      "Ġpock": 2579,
      "Ġpleasing": 2580,
      "ĠRe": 2581,
      "Ġaccount": 2582,
      "Ġentertain": 2583,
      "ctory": 2584,
      "Ġenemy": 2585,
      "Ġtravel": 2586,
      "Ġlaughing": 2587,
      "Ġhurt": 2588,
      "Ġladies": 2589,
      "Ġadvancement": 2590,
      "Ġdisagreeable": 2591,
      "Ġdemand": 2592,
      "Ġsplendid": 2593,
      "ĠArchive": 2594,
      "She": 2595,
      "gar": 2596,
      "sy": 2597,
      "uous": 2598,
      "Ġrom": 2599,
      "Ġtall": 2600,
      "Ġtreat": 2601,
      "Ġfr": 2602,
      "Ġcourage": 2603,
      "Ġhorses": 2604,
      "Ġstraw": 2605,
      "Ġsuper": 2606,
      "Ġsusp": 2607,
      "ĠFrance": 2608,
      "Ġexam": 2609,
      "Ġque": 2610,
      "Ġcoach": 2611,
      "onscious": 2612,
      "Ġwriting": 2613,
      "Ġtea": 2614,
      "Ġdisappointed": 2615,
      "shop": 2616,
      "Ġattack": 2617,
      "Ġregret": 2618,
      "Ġshoes": 2619,
      "Ġroads": 2620,
      "Ġanxiety": 2621,
      "Ġsurroundings": 2622,
      "Ġexperience": 2623,
      "Ġunusual": 2624,
      "Ġfruit": 2625,
      "Ġimportant": 2626,
      "Ġespecially": 2627,
      "00": 2628,
      "but": 2629,
      "lay": 2630,
      "off": 2631,
      "Ġbask": 2632,
      "enial": 2633,
      "Ġcity": 2634,
      "utation": 2635,
      "Ġnote": 2636,
      "Ġsoci": 2637,
      "Ġunf": 2638,
      "ousand": 2639,
      "orted": 2640,
      "arest": 2641,
      "Ġforest": 2642,
      "ĠEmer": 2643,
      "Ġafterno": 2644,
      "Ġdonations": 2645,
      "Ġcloud": 2646,
      "Ġtruth": 2647,
      "Ġchee": 2648,
      "Ġtalking": 2649,
      "Ġselfish": 2650,
      "Ġleaving": 2651,
      "ĠEmerald": 2652,
      "bo": 2653,
      "Ġfur": 2654,
      "Ġfive": 2655,
      "Ġdare": 2656,
      "Ġlone": 2657,
      "set": 2658,
      "iff": 2659,
      "ĠWicked": 2660,
      "Ġexist": 2661,
      "Ġview": 2662,
      "elle": 2663,
      "ager": 2664,
      "Ġsignific": 2665,
      "Ġspecul": 2666,
      "Ġshowed": 2667,
      "Ġpossessed": 2668,
      "Ġaffection": 2669,
      "Ġstruggle": 2670,
      "Ġtrans": 2671,
      "Ġtrademark": 2672,
      "Ġprivate": 2673,
      "atisfa": 2674,
      "Th": 2675,
      "light": 2676,
      "oon": 2677,
      "wing": 2678,
      "hered": 2679,
      "Ġwound": 2680,
      "erv": 2681,
      "isc": 2682,
      "onn": 2683,
      "Ġcaught": 2684,
      "org": 2685,
      "Ġlim": 2686,
      "anced": 2687,
      "ament": 2688,
      "Ġlives": 2689,
      "Ġgoes": 2690,
      "Ġforehead": 2691,
      "Ġpres": 2692,
      "Ġrain": 2693,
      "Ġclim": 2694,
      "ighb": 2695,
      "ggest": 2696,
      "Ġkeeping": 2697,
      "Ġserious": 2698,
      "Ġbrains": 2699,
      "Ġlearned": 2700,
      "Ġcalm": 2701,
      "Ġcreature": 2702,
      "arent": 2703,
      "Ġfrightened": 2704,
      "Ġgolden": 2705,
      "Ġangry": 2706,
      "Ġhigher": 2707,
      "ia": 2708,
      "pter": 2709,
      "ues": 2710,
      "Ã©": 2711,
      "Ġtree": 2712,
      "inct": 2713,
      "Ġfill": 2714,
      "Ġlate": 2715,
      "arr": 2716,
      "Ġbell": 2717,
      "ĠTeddy": 2718,
      "icious": 2719,
      "Ġforward": 2720,
      "Ġformer": 2721,
      "Ġsuggest": 2722,
      "Ġdef": 2723,
      "Ġworked": 2724,
      "Ġring": 2725,
      "Ġspee": 2726,
      "Ġabsent": 2727,
      "Ġplan": 2728,
      "Ġtwenty": 2729,
      "Ġrapid": 2730,
      "Ġcondition": 2731,
      "Ġdispleas": 2732,
      "Ġenterprises": 2733,
      "Ġgloomy": 2734,
      "Ġinnocent": 2735,
      "hood": 2736,
      "rit": 2737,
      "ze": 2738,
      "erm": 2739,
      "ert": 2740,
      "Ġdie": 2741,
      "Ġdiv": 2742,
      "Ġmat": 2743,
      "Ġchat": 2744,
      "ically": 2745,
      "chief": 2746,
      "ĠSaint": 2747,
      "Ġneck": 2748,
      "Ġneighb": 2749,
      "Ġworse": 2750,
      "Ġworking": 2751,
      "Ġcarefully": 2752,
      "Ġaccord": 2753,
      "gged": 2754,
      "Ġshows": 2755,
      "ĠKing": 2756,
      "Ġbeauty": 2757,
      "Ġunconscious": 2758,
      "Ġletters": 2759,
      "Ġsisters": 2760,
      "Ġfloor": 2761,
      "Ġfingers": 2762,
      "Ġomens": 2763,
      "Ġprospects": 2764,
      "Ġimpossible": 2765,
      "Ġafternoon": 2766,
      "bit": 2767,
      "fer": 2768,
      "iving": 2769,
      "kov": 2770,
      "wh": 2771,
      "Ġaction": 2772,
      "Ġfashion": 2773,
      "eness": 2774,
      "Ġmur": 2775,
      "Ġcra": 2776,
      "Ġga": 2777,
      "Ġreach": 2778,
      "room": 2779,
      "Ġvain": 2780,
      "Ġamuse": 2781,
      "Ġcol": 2782,
      "wel": 2783,
      "Ġarran": 2784,
      "Ġmove": 2785,
      "Ġways": 2786,
      "Ġbrown": 2787,
      "Ġbrings": 2788,
      "Ġpassing": 2789,
      "Ġpair": 2790,
      "Ġpersonal": 2791,
      "Ġevent": 2792,
      "Ġwaiting": 2793,
      "Ġeasily": 2794,
      "Ġrememb": 2795,
      "Ġattempt": 2796,
      "Ġcheerful": 2797,
      "Ġwatched": 2798,
      "Ġintellig": 2799,
      "Ġsociety": 2800,
      "kin": 2801,
      "Ġdust": 2802,
      "Ġmid": 2803,
      "Ġmag": 2804,
      "Ġpick": 2805,
      "Ġthousand": 2806,
      "stairs": 2807,
      "Ġaside": 2808,
      "Ġsofa": 2809,
      "ĠDem": 2810,
      "Ġconsequ": 2811,
      "ĠPo": 2812,
      "Ġseat": 2813,
      "Ġcovered": 2814,
      "Ġdesper": 2815,
      "Ġplain": 2816,
      "Ġgrat": 2817,
      "Ġcourt": 2818,
      "Ġreading": 2819,
      "Ġfalling": 2820,
      "Ġconditions": 2821,
      "velop": 2822,
      "Ġengagements": 2823,
      "Ġshadow": 2824,
      "Ġearnest": 2825,
      "Ġflew": 2826,
      "Ġschool": 2827,
      "Ġadvantage": 2828,
      "Ġgarden": 2829,
      "br": 2830,
      "bod": 2831,
      "ux": 2832,
      "Ġsle": 2833,
      "erable": 2834,
      "Ġdam": 2835,
      "ism": 2836,
      "Ġpill": 2837,
      "Ġport": 2838,
      "oward": 2839,
      "verkov": 2840,
      "ify": 2841,
      "Ġdog": 2842,
      "Ġlived": 2843,
      "ĠCon": 2844,
      "Ġvi": 2845,
      "Ġcommon": 2846,
      "lease": 2847,
      "Ġcoff": 2848,
      "isted": 2849,
      "Ġmoved": 2850,
      "Ġhappen": 2851,
      "acy": 2852,
      "ĠRep": 2853,
      "Ġfond": 2854,
      "Ġaffair": 2855,
      "Ġopin": 2856,
      "Ġsilk": 2857,
      "Ġregular": 2858,
      "Ġbox": 2859,
      "Ġinstead": 2860,
      "Ġsky": 2861,
      "Ġcertainly": 2862,
      "Ġsnow": 2863,
      "Ġdrinking": 2864,
      "Ġstarted": 2865,
      "Ġtax": 2866,
      "Ġbaby": 2867,
      "Ġrival": 2868,
      "CT": 2869,
      "IS": 2870,
      "fast": 2871,
      "iver": 2872,
      "vol": 2873,
      "wo": 2874,
      "Ġer": 2875,
      "Ġomen": 2876,
      "ern": 2877,
      "Ġfit": 2878,
      "Ġduring": 2879,
      "Ġyouth": 2880,
      "Ġhung": 2881,
      "Ġhang": 2882,
      "Ġthird": 2883,
      "str": 2884,
      "Ġsober": 2885,
      "Ġworries": 2886,
      "ĠWell": 2887,
      "andal": 2888,
      "ĠOh": 2889,
      "ĠHere": 2890,
      "ĠEv": 2891,
      "Ġoffer": 2892,
      "Ġimplies": 2893,
      "Ġsmiled": 2894,
      "Ġhearts": 2895,
      "Ġcares": 2896,
      "Ġputting": 2897,
      "ribute": 2898,
      "Ġrelations": 2899,
      "Ġboots": 2900,
      "Ġstrangers": 2901,
      "Ġadmir": 2902,
      "Ġtrif": 2903,
      "Ġappearance": 2904,
      "Ġimagine": 2905,
      "Ġbeginning": 2906,
      "Ġquickly": 2907,
      "ĠZverkov": 2908,
      "Ġvillage": 2909,
      "In": 2910,
      "Then": 2911,
      "dom": 2912,
      "pir": 2913,
      "Ġage": 2914,
      "oured": 2915,
      "Ġmut": 2916,
      "Ġmad": 2917,
      "Ġmaster": 2918,
      "Ġcre": 2919,
      "Ġlater": 2920,
      "ased": 2921,
      "ĠIs": 2922,
      "Ġhaven": 2923,
      "illy": 2924,
      "ics": 2925,
      "ĠMay": 2926,
      "Ġneither": 2927,
      "Ġrub": 2928,
      "Ġvol": 2929,
      "together": 2930,
      "Ġgoss": 2931,
      "Ġlegs": 2932,
      "osity": 2933,
      "Ġrepro": 2934,
      "vorable": 2935,
      "Ġcharge": 2936,
      "Ġhate": 2937,
      "Ġtouched": 2938,
      "Ġextra": 2939,
      "Ġworthy": 2940,
      "keys": 2941,
      "Ġaccompl": 2942,
      "Ġbasket": 2943,
      "ais": 2944,
      "ker": 2945,
      "nat": 2946,
      "zen": 2947,
      "Ġrough": 2948,
      "Ġwore": 2949,
      "Ġfountain": 2950,
      "Ġdied": 2951,
      "enge": 2952,
      "Ġcitizen": 2953,
      "Ġloud": 2954,
      "Ġbew": 2955,
      "Ġbeast": 2956,
      "Ġnone": 2957,
      "Ġyours": 2958,
      "ĠAl": 2959,
      "Ġsus": 2960,
      "Ġvirt": 2961,
      "Ġknitting": 2962,
      "ĠGood": 2963,
      "Ġtherefore": 2964,
      "Ġpleased": 2965,
      "Ġlonger": 2966,
      "Ġindif": 2967,
      "Ġharmon": 2968,
      "Ġscar": 2969,
      "Ġreputation": 2970,
      "Ġchanged": 2971,
      "Ġbelow": 2972,
      "Ġears": 2973,
      "ĠAnto": 2974,
      "Ġdepart": 2975,
      "Ġwhispered": 2976,
      "Ġthrown": 2977,
      "Ġsoftly": 2978,
      "iddle": 2979,
      "Ġperfectly": 2980,
      "Ġflying": 2981,
      "Ġfriendships": 2982,
      "Ġexclaimed": 2983,
      "Ġtongue": 2984,
      "Ġspeech": 2985,
      "ĠDemi": 2986,
      "So": 2987,
      "cl": 2988,
      "zy": 2989,
      "Ġsour": 2990,
      "Ġbent": 2991,
      "Ġblo": 2992,
      "Ġfield": 2993,
      "lling": 2994,
      "isk": 2995,
      "Ġcru": 2996,
      "ories": 2997,
      "ases": 2998,
      "ĠLicense": 2999,
      "Ġloc": 3000,
      "Ġspy": 3001,
      "Ġaltogether": 3002,
      "ĠGreat": 3003,
      "Ġarri": 3004,
      "apers": 3005,
      "Ġpale": 3006,
      "Ġhardly": 3007,
      "ivid": 3008,
      "iction": 3009,
      "Ġfallen": 3010,
      "Ġinterested": 3011,
      "Ġcharming": 3012,
      "Ġkey": 3013,
      "Ġquietly": 3014,
      "Ġattend": 3015,
      "Ġdrawing": 3016,
      "Ġburd": 3017,
      "Ġneglect": 3018,
      "Ġutter": 3019,
      "Ġrepeated": 3020,
      "Ġfoolish": 3021,
      "Ġoblig": 3022,
      "ĠAntoine": 3023,
      "20": 3024,
      "father": 3025,
      "gment": 3026,
      "kn": 3027,
      "Ġtid": 3028,
      "hem": 3029,
      "Ġfra": 3030,
      "Ġder": 3031,
      "Ġment": 3032,
      "Ġyield": 3033,
      "omes": 3034,
      "Ġgro": 3035,
      "Ġgall": 3036,
      "Ġsole": 3037,
      "Ġsave": 3038,
      "Ġdism": 3039,
      "ĠFred": 3040,
      "ardon": 3041,
      "ĠGra": 3042,
      "Ġprecious": 3043,
      "ĠNe": 3044,
      "ĠNor": 3045,
      "....": 3046,
      "ĠMarm": 3047,
      "Ġgray": 3048,
      "Ġchance": 3049,
      "ansas": 3050,
      "Ġtroubled": 3051,
      "Ġende": 3052,
      "ĠKansas": 3053,
      "Ġstreng": 3054,
      "Ġbuy": 3055,
      "Ġfunny": 3056,
      "Ġsteps": 3057,
      "Ġprofitable": 3058,
      "Ġparticularly": 3059,
      "Ġdestro": 3060,
      "Ġunfavorable": 3061,
      "15": 3062,
      "jo": 3063,
      "ww": 3064,
      "Ġtin": 3065,
      "Ġwaking": 3066,
      "Ġsigh": 3067,
      "Ġmir": 3068,
      "Ġpity": 3069,
      "ancing": 3070,
      "ĠInd": 3071,
      "Ġstates": 3072,
      "urch": 3073,
      "ĠSh": 3074,
      "ĠSim": 3075,
      "Ġmem": 3076,
      "ĠGu": 3077,
      "Ġchin": 3078,
      "Ġshoulder": 3079,
      "eeping": 3080,
      "Ġdistance": 3081,
      "Ġteeth": 3082,
      "Ġfirm": 3083,
      "Ġsli": 3084,
      "Ġincre": 3085,
      "Ġrooms": 3086,
      "Ġfeelings": 3087,
      "Ġpromin": 3088,
      "Ġtalked": 3089,
      "Ġcomfortable": 3090,
      "Ġadmire": 3091,
      "Ġbrave": 3092,
      "Ġrecall": 3093,
      "Ġcaused": 3094,
      "Ġtouch": 3095,
      "Ġtemper": 3096,
      "Ġkissed": 3097,
      "Ġleaves": 3098,
      "Ġstudy": 3099,
      "Ġburst": 3100,
      "Ġgrief": 3101,
      "mission": 3102,
      "Ġprobably": 3103,
      "Ġsignificant": 3104,
      "Ġgossip": 3105,
      "RA": 3106,
      "UT": 3107,
      "crib": 3108,
      "host": 3109,
      "oid": 3110,
      "rs": 3111,
      "Ġwet": 3112,
      "Ġson": 3113,
      "reet": 3114,
      "erc": 3115,
      "Ġmiddle": 3116,
      "Ġcult": 3117,
      "Ġhide": 3118,
      "Ġgrou": 3119,
      "Ġecho": 3120,
      "rol": 3121,
      "Ġsta": 3122,
      "Ġstuff": 3123,
      "ils": 3124,
      "text": 3125,
      "allie": 3126,
      "Ġlie": 3127,
      "Ġcong": 3128,
      "Ġconn": 3129,
      "Ġknee": 3130,
      "Ġcomply": 3131,
      "Ġoffered": 3132,
      "Ġsmiling": 3133,
      "Ġsilent": 3134,
      "Ġclean": 3135,
      "Ġcommand": 3136,
      "Ġmoral": 3137,
      "Ġdiscovered": 3138,
      "Ġacquaint": 3139,
      "Ġphysical": 3140,
      "16": 3141,
      "clock": 3142,
      "fit": 3143,
      "hold": 3144,
      "iest": 3145,
      "mas": 3146,
      "ped": 3147,
      "Ġty": 3148,
      "Ġten": 3149,
      "Ġaud": 3150,
      "Ġfif": 3151,
      "eng": 3152,
      "Ġgather": 3153,
      "Ġease": 3154,
      "verse": 3155,
      "Ġstore": 3156,
      "Ġking": 3157,
      "ĠBy": 3158,
      "Ġdoll": 3159,
      "Ġworn": 3160,
      "Ġworst": 3161,
      "ĠCo": 3162,
      "Ġride": 3163,
      "hant": 3164,
      "Ġprocess": 3165,
      "Ġotherwise": 3166,
      "Ġpress": 3167,
      "ĠHeaven": 3168,
      "udd": 3169,
      "Ġscandal": 3170,
      "retched": 3171,
      "Ġadvice": 3172,
      "ivity": 3173,
      "Ġevident": 3174,
      "Ġenjoyed": 3175,
      "Ġattract": 3176,
      "Ġfarmer": 3177,
      "Ġsupport": 3178,
      "Ġdisplay": 3179,
      "Ġstock": 3180,
      "ĠChapter": 3181,
      "Ġhurried": 3182,
      "Ġwhisper": 3183,
      "Ġservice": 3184,
      "edding": 3185,
      "Ġiron": 3186,
      "Ġcounter": 3187,
      "Ġspoken": 3188,
      "Ġpicture": 3189,
      "Ġseparation": 3190,
      "Ġconversation": 3191,
      "Ġexactly": 3192,
      "Ġqueer": 3193,
      ",âĢĻ": 3194,
      "18": 3195,
      "SE": 3196,
      "ees": 3197,
      "els": 3198,
      "mond": 3199,
      "xe": 3200,
      "had": 3201,
      "Ġborn": 3202,
      "Ġpra": 3203,
      "Ġlux": 3204,
      "ature": 3205,
      "ashed": 3206,
      "oming": 3207,
      "omfort": 3208,
      "Ġbeat": 3209,
      "ames": 3210,
      "Ġforty": 3211,
      "Ġantic": 3212,
      "ĠSallie": 3213,
      "Ġdeb": 3214,
      "Ġsake": 3215,
      "ĠLI": 3216,
      "using": 3217,
      "ouses": 3218,
      "Ġriding": 3219,
      "hank": 3220,
      "aker": 3221,
      "idered": 3222,
      "ĠRo": 3223,
      "Ġpersu": 3224,
      "ability": 3225,
      "Ġpassen": 3226,
      "Ġrelative": 3227,
      "Ġkindly": 3228,
      "Ġbuild": 3229,
      "Ġfrequ": 3230,
      "Ġtemp": 3231,
      "Ġduties": 3232,
      "Ġdelightful": 3233,
      "Ġremained": 3234,
      "Ġdrive": 3235,
      "Ġcontinued": 3236,
      "Ġincluding": 3237,
      "Ġgrateful": 3238,
      "Ġlonely": 3239,
      "Ġopinion": 3240,
      "engeance": 3241,
      "Ġdestroy": 3242,
      "10": 3243,
      "gue": 3244,
      "pes": 3245,
      "rÃ©": 3246,
      "yal": 3247,
      "Ġauth": 3248,
      "Ġmort": 3249,
      "Ġcustom": 3250,
      "ĠâĢľ_": 3251,
      "Ġeight": 3252,
      "Ġstorm": 3253,
      "Ġmender": 3254,
      "Ġseeming": 3255,
      "iles": 3256,
      "Ġfault": 3257,
      "ption": 3258,
      "Ġmudd": 3259,
      "Ġknowing": 3260,
      "Ġwrote": 3261,
      "Ġentire": 3262,
      "izard": 3263,
      "Ġincident": 3264,
      "Ġclosed": 3265,
      "Ġbroke": 3266,
      "Ġsilver": 3267,
      "Ġsuffering": 3268,
      "Ġinstance": 3269,
      "Ġsunsh": 3270,
      "Ġinvol": 3271,
      "They": 3272,
      "Ġsorts": 3273,
      "Ġapproaching": 3274,
      "Ġmatters": 3275,
      "Ġcrying": 3276,
      "Ġbreakfast": 3277,
      "Ġsymp": 3278,
      "attle": 3279,
      "Ġconsciousness": 3280,
      "ĠEvrÃ©": 3281,
      "known": 3282,
      "monde": 3283,
      "Ġanticip": 3284,
      "ĠEvrÃ©monde": 3285,
      "14": 3286,
      "gutenberg": 3287,
      "my": 3288,
      "Ġign": 3289,
      "Ġtaste": 3290,
      "hest": 3291,
      "Ġbow": 3292,
      "Ġbonn": 3293,
      "Ġdi": 3294,
      "Ġdign": 3295,
      "Ġpred": 3296,
      "Ġpath": 3297,
      "arch": 3298,
      "atives": 3299,
      "vern": 3300,
      "Ġdrew": 3301,
      "Ġdisgra": 3302,
      "Ġshining": 3303,
      "Ġmanners": 3304,
      "Ġoutside": 3305,
      "aked": 3306,
      "Ġforebod": 3307,
      "Ġprefer": 3308,
      "Ġshame": 3309,
      "cip": 3310,
      "Ġdesired": 3311,
      "Ġunderg": 3312,
      "Ġfold": 3313,
      "Ġclass": 3314,
      "Ġcareless": 3315,
      "Ġspeaking": 3316,
      "Ġconsidered": 3317,
      "Ġadvent": 3318,
      "Ġwaited": 3319,
      "Ġuseful": 3320,
      "ception": 3321,
      "Ġpromised": 3322,
      "ront": 3323,
      "Ġneeded": 3324,
      "Ġpatience": 3325,
      "Ġplaying": 3326,
      "Ġpossession": 3327,
      "angu": 3328,
      "Ġuneas": 3329,
      "ixed": 3330,
      "Ġtempt": 3331,
      "bye": 3332,
      "Ġdeceit": 3333,
      "Ġimmediate": 3334,
      "Ġcomplete": 3335,
      "Ġpresence": 3336,
      "arrass": 3337,
      "ĠRepublic": 3338,
      "Ġcultiv": 3339,
      "13": 3340,
      "22": 3341,
      "AG": 3342,
      "ED": 3343,
      "RO": 3344,
      "Where": 3345,
      "aving": 3346,
      "cies": 3347,
      "gress": 3348,
      "looking": 3349,
      "Ġwicked": 3350,
      "erman": 3351,
      "isto": 3352,
      "Ġmark": 3353,
      "onov": 3354,
      "Ġcatch": 3355,
      "Ġtomorrow": 3356,
      "Ġlif": 3357,
      "oting": 3358,
      "Ġgay": 3359,
      "Ġthin": 3360,
      "alace": 3361,
      "Ġweather": 3362,
      "Ġworried": 3363,
      "Ġloves": 3364,
      "ĠCan": 3365,
      "ĠWas": 3366,
      "Ġspot": 3367,
      "ishment": 3368,
      "Ġoffice": 3369,
      "Ġbrid": 3370,
      "Ġrepresent": 3371,
      "Ġtrade": 3372,
      "Ġbelong": 3373,
      "Ġhonour": 3374,
      "Ġwindows": 3375,
      "Ġspirits": 3376,
      "Ġcompanion": 3377,
      "arsad": 3378,
      "Ġdrop": 3379,
      "Ġdevoted": 3380,
      "Ġmistake": 3381,
      "Ġdeterm": 3382,
      "Ġinfluences": 3383,
      "ĠQue": 3384,
      "Ġprovide": 3385,
      "idden": 3386,
      "Ġsingle": 3387,
      "Ġsitu": 3388,
      "Ġlabor": 3389,
      "Ġsettled": 3390,
      "Ġafterwards": 3391,
      "This": 3392,
      "Ġcruel": 3393,
      "ĠMarmee": 3394,
      "Ġcongenial": 3395,
      "19": 3396,
      "con": 3397,
      "cle": 3398,
      "gly": 3399,
      "how": 3400,
      "rid": 3401,
      "rant": 3402,
      "ĠYes": 3403,
      "Ġtum": 3404,
      "Ġast": 3405,
      "Ġodd": 3406,
      "Ġlam": 3407,
      "Ġhy": 3408,
      "Ġnur": 3409,
      "illi": 3410,
      "ented": 3411,
      "stone": 3412,
      "cell": 3413,
      "Ġstro": 3414,
      "Ġstep": 3415,
      "Ġwearing": 3416,
      "Ġattain": 3417,
      "ĠSe": 3418,
      "ppers": 3419,
      "ilar": 3420,
      "ĠBar": 3421,
      "ational": 3422,
      "ĠWizard": 3423,
      "Ġrising": 3424,
      "Ġalthough": 3425,
      "Ġwhatever": 3426,
      "--âĢĿ": 3427,
      "Ġprin": 3428,
      "Ġplenty": 3429,
      "Ġperform": 3430,
      "Ġhearing": 3431,
      "Ġgrace": 3432,
      "Ġevents": 3433,
      "Ġrefund": 3434,
      "Ġtrem": 3435,
      "Ġpatient": 3436,
      "Ġfinished": 3437,
      "Ġdangerous": 3438,
      "ĠMonkeys": 3439,
      "Ġabsor": 3440,
      "Ġwinter": 3441,
      "Ġassociated": 3442,
      "Ġwatching": 3443,
      "Ġembarrass": 3444,
      "Ġfaithful": 3445,
      "arents": 3446,
      "Ġforgotten": 3447,
      "Ġimmediately": 3448,
      "Ġopportunity": 3449,
      "Ġwitness": 3450,
      "Ġproduced": 3451,
      "Ġpocket": 3452,
      "Ġmental": 3453,
      "Ġsolemn": 3454,
      "!âĢĻ": 3455,
      "AL": 3456,
      "IN": 3457,
      "TH": 3458,
      "ky": 3459,
      "lan": 3460,
      "Ġrib": 3461,
      "Ġaxe": 3462,
      "eric": 3463,
      "eral": 3464,
      "Ġmill": 3465,
      "Ġcou": 3466,
      "omen": 3467,
      "Ġgen": 3468,
      "Ġhall": 3469,
      "amed": 3470,
      "ldom": 3471,
      "road": 3472,
      "ĠAd": 3473,
      "pper": 3474,
      "terday": 3475,
      "unk": 3476,
      "rous": 3477,
      "Ġrid": 3478,
      "Ġrul": 3479,
      "Ġexerc": 3480,
      "Ġforeign": 3481,
      "ĠGerman": 3482,
      "earing": 3483,
      "Ġshaking": 3484,
      "ĠEm": 3485,
      "Ġgreatly": 3486,
      "Ġimpress": 3487,
      "Ġdistant": 3488,
      "ĠThree": 3489,
      "Ġdecl": 3490,
      "Ġaddress": 3491,
      "Ġsupper": 3492,
      "Ġmoments": 3493,
      "Ġplayed": 3494,
      "Ġfinally": 3495,
      "Ġmeaning": 3496,
      "Here": 3497,
      "Ġgrandfather": 3498,
      "Ġundertak": 3499,
      "Ġfavors": 3500,
      "Ġsoldier": 3501,
      "Ġannoy": 3502,
      "Ġnecessary": 3503,
      "Ġremembered": 3504,
      "Ġviol": 3505,
      "Ġtidings": 3506,
      "ĠSimonov": 3507,
      "Ġmuddy": 3508,
      "Ġsympath": 3509,
      "17": 3510,
      "fall": 3511,
      "ior": 3512,
      "ium": 3513,
      "kind": 3514,
      "what": 3515,
      "inous": 3516,
      "Ġwand": 3517,
      "Ġwedding": 3518,
      "erhaps": 3519,
      "Ġban": 3520,
      "Ġdull": 3521,
      "Ġmerry": 3522,
      "Ġcell": 3523,
      "Ġpin": 3524,
      "arrow": 3525,
      "attered": 3526,
      "Ġgif": 3527,
      "Ġthick": 3528,
      "Ġreached": 3529,
      "ste": 3530,
      "Ġwasn": 3531,
      "ĠMoff": 3532,
      "Ġdreaming": 3533,
      "Ġwel": 3534,
      "Ġsoiled": 3535,
      "ĠAb": 3536,
      "ters": 3537,
      "ulty": 3538,
      "Ġdepend": 3539,
      "Ġsacri": 3540,
      "Ġdish": 3541,
      "cking": 3542,
      "ĠDream": 3543,
      "ighed": 3544,
      "ĠHouse": 3545,
      "ope": 3546,
      "Ġseven": 3547,
      "Ġseldom": 3548,
      "ĠOR": 3549,
      "cient": 3550,
      "cience": 3551,
      "Ġgreatest": 3552,
      "Ġmoon": 3553,
      "ĠAmeric": 3554,
      "...âĢĿ": 3555,
      "Ġremind": 3556,
      "Ġblind": 3557,
      "Ġraised": 3558,
      "Ġentered": 3559,
      "Ġrelatives": 3560,
      "Ġconfess": 3561,
      "Ġlosses": 3562,
      "Ġinteresting": 3563,
      "eneral": 3564,
      "Ġcrit": 3565,
      "Ġengaged": 3566,
      "Ġpatri": 3567,
      "plex": 3568,
      "Ġinterp": 3569,
      "Ġjoys": 3570,
      "Ġcapt": 3571,
      "Ġunhappiness": 3572,
      "ibly": 3573,
      "Ġmaid": 3574,
      "Ġnaturally": 3575,
      "Ġenterprise": 3576,
      "Ġfinger": 3577,
      "Ġopportunities": 3578,
      "Ġsmooth": 3579,
      "Ġobstacles": 3580,
      "ĠChristmas": 3581,
      "Ġbirds": 3582,
      "Ġsuspic": 3583,
      "Ġsunshine": 3584,
      "ale": 3585,
      "cer": 3586,
      "now": 3587,
      "Ġtorn": 3588,
      "Ġwww": 3589,
      "reed": 3590,
      "Ġfears": 3591,
      "Ġfier": 3592,
      "Ġfaint": 3593,
      "inged": 3594,
      "Ġcand": 3595,
      "Ġcool": 3596,
      "Ġpardon": 3597,
      "Ġghost": 3598,
      "Ġstaring": 3599,
      "ulf": 3600,
      "Ġdeg": 3601,
      "Ġnearer": 3602,
      "Ġdisg": 3603,
      "Ġlosing": 3604,
      "que": 3605,
      "ĠCl": 3606,
      "ĠPr": 3607,
      "Ġcomb": 3608,
      "Ġproceed": 3609,
      "umm": 3610,
      "Ġamb": 3611,
      "ĠOr": 3612,
      "Ġshake": 3613,
      "Ġchurch": 3614,
      "Ġfever": 3615,
      "Ġgreater": 3616,
      "ounced": 3617,
      "Ġpermission": 3618,
      "Ġimpat": 3619,
      "ospit": 3620,
      "Ġscene": 3621,
      "Ġgrown": 3622,
      "Ġmisery": 3623,
      "Ġeleg": 3624,
      "Ġdarkness": 3625,
      "Ġagreeable": 3626,
      "Ġwealthy": 3627,
      "Ġparlor": 3628,
      "Ġcommun": 3629,
      "Ġsubjective": 3630,
      "ĠEngland": 3631,
      "Ġrecogn": 3632,
      "Ġembra": 3633,
      "Ġcontentment": 3634,
      "Ġbabies": 3635,
      "Ġdifficulties": 3636,
      "Ġopposite": 3637,
      "Ġpieces": 3638,
      "Ġapart": 3639,
      "Ġfurther": 3640,
      "23": 3641,
      "abl": 3642,
      "book": 3643,
      "chen": 3644,
      "gain": 3645,
      "ike": 3646,
      "iently": 3647,
      "oved": 3648,
      "zz": 3649,
      "Ġtur": 3650,
      "Ġsilly": 3651,
      "rel": 3652,
      "reme": 3653,
      "Ġorig": 3654,
      "Ġbou": 3655,
      "Ġfol": 3656,
      "Ġcat": 3657,
      "orse": 3658,
      "Ġpop": 3659,
      "Ġpause": 3660,
      "Ġleng": 3661,
      "iced": 3662,
      "Ġhero": 3663,
      "Ġthro": 3664,
      "irty": 3665,
      "ades": 3666,
      "Ġstat": 3667,
      "urs": 3668,
      "ĠSection": 3669,
      "Ġdearest": 3670,
      "ilt": 3671,
      "ĠBo": 3672,
      "ĠBank": 3673,
      "ĠBarsad": 3674,
      "ĠLond": 3675,
      "Ġdozen": 3676,
      "ĠCar": 3677,
      "ĠWest": 3678,
      "Ġconce": 3679,
      "ĠGo": 3680,
      "igned": 3681,
      "lared": 3682,
      "Ġcoat": 3683,
      "Ġcolor": 3684,
      "ĠEx": 3685,
      "ĠEven": 3686,
      "tyard": 3687,
      "Ġperplex": 3688,
      "Ġglanced": 3689,
      "Ġemer": 3690,
      "Ġinform": 3691,
      "Ġmiserable": 3692,
      "Ġuseless": 3693,
      "ĠVengeance": 3694,
      "ails": 3695,
      "Ġholding": 3696,
      "Ġhumili": 3697,
      "licted": 3698,
      "Ġcircle": 3699,
      "Ġsimple": 3700,
      "Ġforgive": 3701,
      "Ġhurry": 3702,
      "Ġsadness": 3703,
      "Ġbesides": 3704,
      "Ġwonderful": 3705,
      "Ġburning": 3706,
      "Ġcastle": 3707,
      "Ġpictures": 3708,
      "ĠWhile": 3709,
      "Ġhasty": 3710,
      "Ġdaily": 3711,
      "Ġdesperate": 3712,
      "Ġcoffee": 3713,
      "Ġundertakings": 3714,
      "Ġorigin": 3715,
      "ĠLondon": 3716,
      "iber": 3717,
      "iod": 3718,
      "ping": 3719,
      "pri": 3720,
      "inite": 3721,
      "Ġsong": 3722,
      "Ġfurn": 3723,
      "Ġfles": 3724,
      "Ġdry": 3725,
      "itary": 3726,
      "Ġmain": 3727,
      "Ġmention": 3728,
      "Ġpapers": 3729,
      "Ġeld": 3730,
      "ett": 3731,
      "Ġforce": 3732,
      "Ġstir": 3733,
      "Ġange": 3734,
      "urd": 3735,
      "Ġmyster": 3736,
      "ĠThese": 3737,
      "Ġdise": 3738,
      "ĠFOR": 3739,
      "ĠCom": 3740,
      "Ġmanage": 3741,
      "Ġvent": 3742,
      "Ġshoulders": 3743,
      "ache": 3744,
      "Ġappre": 3745,
      "Ġhelped": 3746,
      "Ġcheck": 3747,
      "Ġcourtyard": 3748,
      "Ġworldly": 3749,
      "Ġcopies": 3750,
      "Ġassume": 3751,
      "Ġtreacher": 3752,
      "Ġswift": 3753,
      "Ġterrible": 3754,
      "ĠYOU": 3755,
      "Ġfreely": 3756,
      "Ġwalls": 3757,
      "Ġlistened": 3758,
      "Ġmerc": 3759,
      "Ġdistributing": 3760,
      "Ġresolved": 3761,
      "Ġsummer": 3762,
      "Ġvarious": 3763,
      "Ġmilk": 3764,
      "Ġidle": 3765,
      "Ġstrength": 3766,
      "Ġauthor": 3767,
      "Ġdisgrace": 3768,
      "Ġribb": 3769,
      "CE": 3770,
      "Come": 3771,
      "LI": 3772,
      "Who": 3773,
      "cr": 3774,
      "de": 3775,
      "just": 3776,
      "pa": 3777,
      "po": 3778,
      "some": 3779,
      "hew": 3780,
      "hetic": 3781,
      "inction": 3782,
      "Ġwide": 3783,
      "Ġbank": 3784,
      "ench": 3785,
      "enance": 3786,
      "Ġclaim": 3787,
      "Ġpian": 3788,
      "Ġparents": 3789,
      "Ġlamp": 3790,
      "Ġliterary": 3791,
      "ĠTru": 3792,
      "Ġforced": 3793,
      "rier": 3794,
      "Ġstick": 3795,
      "Ġstories": 3796,
      "ulous": 3797,
      "Ġdevelop": 3798,
      "Ġallow": 3799,
      "Ġallowed": 3800,
      "Ġunl": 3801,
      "Ġshown": 3802,
      "ĠCome": 3803,
      "Ġseason": 3804,
      "Ġvo": 3805,
      "Ġalar": 3806,
      "Ġsomeone": 3807,
      "Ġje": 3808,
      "Ġcover": 3809,
      "rows": 3810,
      "ols": 3811,
      "olate": 3812,
      "olute": 3813,
      "ĠNO": 3814,
      "Ġcompl": 3815,
      "lessly": 3816,
      "Ġdistinction": 3817,
      "Ġbetray": 3818,
      "Ġfinding": 3819,
      "Ġglance": 3820,
      "ĠDeath": 3821,
      "iza": 3822,
      "Ġdeclared": 3823,
      "Ġactually": 3824,
      "Ġlively": 3825,
      "Ġsentiment": 3826,
      "Ġquestions": 3827,
      "Ġgloves": 3828,
      "Ġtouching": 3829,
      "Ġcurtain": 3830,
      "Ġartist": 3831,
      "Ġindepend": 3832,
      "Ġservant": 3833,
      "Ġdesert": 3834,
      "Ġyesterday": 3835,
      "Ġleaned": 3836,
      "Ġvictim": 3837,
      "Ġjudgment": 3838,
      "ĠNorth": 3839,
      "Ġbonnet": 3840,
      "Ġfierce": 3841,
      "Ġflesh": 3842,
      "Jo": 3843,
      "Of": 3844,
      "iers": 3845,
      "ipe": 3846,
      "ram": 3847,
      "Ġ**": 3848,
      "Ġwished": 3849,
      "rep": 3850,
      "âĢľ": 3851,
      "Ġble": 3852,
      "Ġbund": 3853,
      "Ġfate": 3854,
      "Ġdue": 3855,
      "ision": 3856,
      "ork": 3857,
      "Ġtoday": 3858,
      "Ġpot": 3859,
      "Ġheaven": 3860,
      "Ġnarrow": 3861,
      "Ġgown": 3862,
      "Ġeager": 3863,
      "Ġugly": 3864,
      "Ġthrew": 3865,
      "Ġreb": 3866,
      "Ġreve": 3867,
      "ading": 3868,
      "ĠSha": 3869,
      "Ġsust": 3870,
      "ĠBl": 3871,
      "unes": 3872,
      "Ġknock": 3873,
      "Ġnodd": 3874,
      "umed": 3875,
      "Ġamaz": 3876,
      "Ġrob": 3877,
      "Ġmud": 3878,
      "Ġprint": 3879,
      "Ġperiod": 3880,
      "Ġgently": 3881,
      "Ġreflect": 3882,
      "Ġwarned": 3883,
      "Ġstranger": 3884,
      "Ġposit": 3885,
      "Ġpositions": 3886,
      "Ġdealings": 3887,
      "Ġdecidedly": 3888,
      "Ġunusually": 3889,
      "Ġdrawn": 3890,
      "Ġcontempt": 3891,
      "Ġpillow": 3892,
      "Ġlocated": 3893,
      "ĠQueen": 3894,
      "Ġabsorbed": 3895,
      "24": 3896,
      "Go": 3897,
      "Let": 3898,
      "VE": 3899,
      "iar": 3900,
      "ned": 3901,
      "pse": 3902,
      "ties": 3903,
      "vation": 3904,
      "whe": 3905,
      "Ġ5": 3906,
      "Ġtight": 3907,
      "Ġsighed": 3908,
      "Ġbare": 3909,
      "Ġbold": 3910,
      "Ġdig": 3911,
      "Ġmail": 3912,
      "Ġlect": 3913,
      "Ġlatter": 3914,
      "ĠâĢĻ": 3915,
      "Ġhol": 3916,
      "Ġhouses": 3917,
      "oman": 3918,
      "Ġnine": 3919,
      "Ġren": 3920,
      "Ġrevers": 3921,
      "cend": 3922,
      "irst": 3923,
      "ĠSw": 3924,
      "Ġmeas": 3925,
      "tern": 3926,
      "ushing": 3927,
      "antic": 3928,
      "ĠWink": 3929,
      "ĠPe": 3930,
      "Ġspring": 3931,
      "Ġexcell": 3932,
      "Ġprogn": 3933,
      "Ġaband": 3934,
      "Ġjoke": 3935,
      "Ġshape": 3936,
      "ĠEn": 3937,
      "Ġdescrib": 3938,
      "Ġcompet": 3939,
      "Ġcomposed": 3940,
      "Ġlonged": 3941,
      "Ġtwice": 3942,
      "Ġflatter": 3943,
      "Ġreply": 3944,
      "ensive": 3945,
      "ĠThus": 3946,
      "Ġtend": 3947,
      "ostic": 3948,
      "ords": 3949,
      "Ġdelic": 3950,
      "Ġdiscont": 3951,
      "Ġinstru": 3952,
      "Ġexcl": 3953,
      "Ġtruly": 3954,
      "Ġsimilar": 3955,
      "Ġaffected": 3956,
      "Ġafflicted": 3957,
      "Ġassociations": 3958,
      "Ġdifficulty": 3959,
      "Ġcorre": 3960,
      "Ġaccepted": 3961,
      "Ġfriendship": 3962,
      "ification": 3963,
      "ĠeBooks": 3964,
      "which": 3965,
      "Ġmidst": 3966,
      "kerchief": 3967,
      "Ġharmony": 3968,
      "Ġentirely": 3969,
      "Ġexercise": 3970,
      "ĠMoffat": 3971,
      "Ġwelcome": 3972,
      "Ġpiano": 3973,
      "Ġprognostic": 3974,
      "AM": 3975,
      "eau": 3976,
      "pet": 3977,
      "Ġice": 3978,
      "Ġtied": 3979,
      "Ġtask": 3980,
      "Ġaug": 3981,
      "Ġdance": 3982,
      "itor": 3983,
      "itchen": 3984,
      "Ġmour": 3985,
      "Ġcla": 3986,
      "Ġbeha": 3987,
      "Ġbearing": 3988,
      "alid": 3989,
      "eeper": 3990,
      "ĠMunch": 3991,
      "Ġhadn": 3992,
      "ĠLa": 3993,
      "ĠLord": 3994,
      "Ġunknown": 3995,
      "Ġshout": 3996,
      "ĠPl": 3997,
      "ĠPRO": 3998,
      "Ġjump": 3999,
      "Ġtimid": 4000,
      "ĠOld": 4001,
      "osom": 4002,
      "osition": 4003,
      "Ġparts": 4004,
      "Ġminds": 4005,
      "Ġscra": 4006,
      "Ġhoping": 4007,
      "Ġaddition": 4008,
      "Ġpromises": 4009,
      "ucky": 4010,
      "Ġinstant": 4011,
      "Ġintent": 4012,
      "Ġjourneys": 4013,
      "Ġlearning": 4014,
      "Ġlessons": 4015,
      "Ġabsence": 4016,
      "Ġsurrounded": 4017,
      "Ġestabl": 4018,
      "Ġstruggles": 4019,
      "Ġtrades": 4020,
      "Ġemployment": 4021,
      "Ġfatal": 4022,
      "Ġphil": 4023,
      "Ġmerely": 4024,
      "Ġarrange": 4025,
      "Ġbewild": 4026,
      "Ġevidently": 4027,
      "Ġdisgust": 4028,
      "Ġlength": 4029,
      "Ġvoices": 4030,
      "Ġabandon": 4031,
      "Ah": 4032,
      "To": 4033,
      "Your": 4034,
      "ables": 4035,
      "eed": 4036,
      "land": 4037,
      "min": 4038,
      "yle": 4039,
      "Ġwid": 4040,
      "Ġwig": 4041,
      "rer": 4042,
      "resh": 4043,
      "oul": 4044,
      "Ġfla": 4045,
      "Ġfem": 4046,
      "Ġfront": 4047,
      "Ġdim": 4048,
      "eding": 4049,
      "oral": 4050,
      "Ġpri": 4051,
      "Ġline": 4052,
      "Ġinher": 4053,
      "ille": 4054,
      "iments": 4055,
      "Ġrejo": 4056,
      "Ġasking": 4057,
      "Ġstairs": 4058,
      "Ġstyle": 4059,
      "Ġsoot": 4060,
      "ĠSuch": 4061,
      "Ġseeking": 4062,
      "teen": 4063,
      "ĠBr": 4064,
      "Ġdogs": 4065,
      "unte": 4066,
      "Ġshop": 4067,
      "ĠCap": 4068,
      "ĠWhere": 4069,
      "ĠGold": 4070,
      "Ġagreed": 4071,
      "Ġroof": 4072,
      "Ġchoice": 4073,
      "Ġchoose": 4074,
      "Ġindisc": 4075,
      "Ġindivid": 4076,
      "Ġresp": 4077,
      "Ġremoved": 4078,
      "Ġhoped": 4079,
      "Ġcalling": 4080,
      "Ġrelie": 4081,
      "Ġshowing": 4082,
      "Ġhousehold": 4083,
      "Ġexcited": 4084,
      "Ġsurely": 4085,
      "Ġuncertain": 4086,
      "Ġfavorite": 4087,
      "Ġextreme": 4088,
      "Ġservants": 4089,
      "Ġsensible": 4090,
      "Ġdiscover": 4091,
      "Ġleaning": 4092,
      "Ġresults": 4093,
      "Ġordered": 4094,
      "atisfaction": 4095,
      "Ġwounded": 4096,
      "Ġhanging": 4097,
      "Ġinformation": 4098,
      "As": 4099,
      "Pro": 4100,
      "aps": 4101,
      "sion": 4102,
      "ugg": 4103,
      "Ġmice": 4104,
      "Ġcook": 4105,
      "Ġlangu": 4106,
      "Ġhen": 4107,
      "arily": 4108,
      "ator": 4109,
      "asc": 4110,
      "Ġhospit": 4111,
      "stood": 4112,
      "Ġaspect": 4113,
      "irm": 4114,
      "Ġstared": 4115,
      "Ġanger": 4116,
      "ternal": 4117,
      "redit": 4118,
      "usiness": 4119,
      "ĠWill": 4120,
      "ĠWho": 4121,
      "ĠWinged": 4122,
      "thy": 4123,
      "urely": 4124,
      "Ġrushed": 4125,
      "Ġspark": 4126,
      "aret": 4127,
      "loved": 4128,
      "Ġroses": 4129,
      "Ġrosy": 4130,
      "rences": 4131,
      "Ġpecul": 4132,
      "Ġplane": 4133,
      "Ġowner": 4134,
      "Ġbrilli": 4135,
      "onsense": 4136,
      "Ġresc": 4137,
      "Ġhandkerchief": 4138,
      "Ġrace": 4139,
      "Ġdisappointing": 4140,
      "ERG": 4141,
      "Ġdancing": 4142,
      "Ġapproach": 4143,
      "Ġawake": 4144,
      "ĠUncle": 4145,
      "Ġartic": 4146,
      "Ġideas": 4147,
      "Ġsincere": 4148,
      "Ġtenderly": 4149,
      "Ġspoiled": 4150,
      "Ġcheerfully": 4151,
      "Ġcontented": 4152,
      "Ġinjury": 4153,
      "Ġdistribution": 4154,
      "Ġmedium": 4155,
      "Ġenvy": 4156,
      "Ġdissatisfaction": 4157,
      "Ġopposition": 4158,
      "Ġphr": 4159,
      "Ġdesigns": 4160,
      "Ġdisturbed": 4161,
      "Ġcuriosity": 4162,
      "Ġcheek": 4163,
      "board": 4164,
      "Ġchateau": 4165,
      "Ġindifference": 4166,
      "Ġgroup": 4167,
      "Ġstuffed": 4168,
      "Ġlifted": 4169,
      "Ġthroat": 4170,
      "Ġindividual": 4171,
      "Ġpeculiar": 4172,
      "12": 4173,
      "?âĢĻ": 4174,
      "Are": 4175,
      "_,": 4176,
      "acc": 4177,
      "cha": 4178,
      "chan": 4179,
      "ex": 4180,
      "lass": 4181,
      "phew": 4182,
      "sic": 4183,
      "ye": 4184,
      "zed": 4185,
      "Ġtor": 4186,
      "Ġtakes": 4187,
      "rell": 4188,
      "Ġoil": 4189,
      "Ġbore": 4190,
      "Ġband": 4191,
      "Ġbosom": 4192,
      "Ġfish": 4193,
      "Ġdate": 4194,
      "Ġdying": 4195,
      "Ġcher": 4196,
      "Ġcaut": 4197,
      "Ġpeep": 4198,
      "Ġlap": 4199,
      "arse": 4200,
      "athered": 4201,
      "asons": 4202,
      "Ġhidden": 4203,
      "Ġetext": 4204,
      "Ġreven": 4205,
      "aled": 4206,
      "urity": 4207,
      "tering": 4208,
      "ulation": 4209,
      "Ġkitchen": 4210,
      "ilies": 4211,
      "Ġnephew": 4212,
      "Ġdoors": 4213,
      "Ġunb": 4214,
      "ĠChe": 4215,
      "Ġric": 4216,
      "Ġexec": 4217,
      "Ġnoise": 4218,
      "elled": 4219,
      "Ġwhenever": 4220,
      "cied": 4221,
      "Ġhappily": 4222,
      "acle": 4223,
      "Ġappears": 4224,
      "Ġbran": 4225,
      "Ġeverybody": 4226,
      "osop": 4227,
      "Ġblow": 4228,
      "Ġgrim": 4229,
      "Ġrelief": 4230,
      "ival": 4231,
      "Ġinfinite": 4232,
      "ship": 4233,
      "Ġhonors": 4234,
      "Ġlighted": 4235,
      "Ġstream": 4236,
      "Ġdiscuss": 4237,
      "Ġcrown": 4238,
      "Ġactive": 4239,
      "Ġfinan": 4240,
      "Ġsket": 4241,
      "Ġuncomfort": 4242,
      "Ġpossessions": 4243,
      "ouraging": 4244,
      "Ġabsurd": 4245,
      "Ġheavily": 4246,
      "Ġfancied": 4247,
      "Ġlisten": 4248,
      "Ġafford": 4249,
      "Ġconcer": 4250,
      "Ġinjured": 4251,
      "Ġfavour": 4252,
      "Ġrequire": 4253,
      "formation": 4254,
      "Ġpiece": 4255,
      "Ġimprove": 4256,
      "Ġcontrary": 4257,
      "Ġcheeks": 4258,
      "Ġrapidly": 4259,
      "Ġmuttered": 4260,
      "Ġreproach": 4261,
      "Ġarrived": 4262,
      "Did": 4263,
      "Thank": 4264,
      "che": 4265,
      "com": 4266,
      "iable": 4267,
      "uish": 4268,
      "vent": 4269,
      "Ġ3": 4270,
      "Ġsang": 4271,
      "erf": 4272,
      "Ġbowed": 4273,
      "ital": 4274,
      "llen": 4275,
      "Ġpage": 4276,
      "Ġlicense": 4277,
      "asing": 4278,
      "omin": 4279,
      "Ġnest": 4280,
      "Ġgame": 4281,
      "ĠTwo": 4282,
      "amma": 4283,
      "Ġrese": 4284,
      "iron": 4285,
      "Ġwhir": 4286,
      "ghter": 4287,
      "Ġsob": 4288,
      "Ġdefect": 4289,
      "ĠLiza": 4290,
      "ĠDis": 4291,
      "ivered": 4292,
      "asting": 4293,
      "Ġoverwhe": 4294,
      "Ġprec": 4295,
      "Ġpreser": 4296,
      "aging": 4297,
      "icks": 4298,
      "ĠNew": 4299,
      "Ġdesk": 4300,
      "aches": 4301,
      "Ġindul": 4302,
      "Ġbrisk": 4303,
      "Ġsmoke": 4304,
      "Ġdistribute": 4305,
      "Ġbliss": 4306,
      "ĠYoung": 4307,
      "Ġteach": 4308,
      "Ġtelling": 4309,
      "Ġlaughter": 4310,
      "Ġmisunder": 4311,
      "Ġdelay": 4312,
      "ĠKate": 4313,
      "Ġrights": 4314,
      "ĠĠĠĠčĊ": 4315,
      "Ġpresently": 4316,
      "Ġexcite": 4317,
      "Ġcharm": 4318,
      "Ġguess": 4319,
      "Ġinside": 4320,
      "Ġmeeting": 4321,
      "Ġhighly": 4322,
      "ENT": 4323,
      "Ġpowerful": 4324,
      "Ġcalcul": 4325,
      "Ġlistening": 4326,
      "Ġconcl": 4327,
      "Ġmodest": 4328,
      "Ġprotected": 4329,
      "Ġofficial": 4330,
      "Ġprepare": 4331,
      "Ġexistence": 4332,
      "Ġmurm": 4333,
      "Ġgaol": 4334,
      "Ġintelligence": 4335,
      "aisy": 4336,
      "Ġincidents": 4337,
      "Ġdignity": 4338,
      "Ġelder": 4339,
      "Ġsustain": 4340,
      "Ġexcellent": 4341,
      "Project": 4342,
      "Ġoverwhel": 4343,
      "Mr": 4344,
      "Never": 4345,
      "On": 4346,
      "Very": 4347,
      "brows": 4348,
      "ev": 4349,
      "hip": 4350,
      "mar": 4351,
      "shad": 4352,
      "well": 4353,
      "Ġident": 4354,
      "rees": 4355,
      "Ġfixed": 4356,
      "eds": 4357,
      "Ġcott": 4358,
      "Ġcoward": 4359,
      "Ġpicked": 4360,
      "Ġlot": 4361,
      "Ġlines": 4362,
      "ancy": 4363,
      "Ġnerv": 4364,
      "Ġgathered": 4365,
      "Ġhaf": 4366,
      "Ġham": 4367,
      "ĠTW": 4368,
      "vey": 4369,
      "Ġreck": 4370,
      "Ġaspir": 4371,
      "Ġant": 4372,
      "ĠSomet": 4373,
      "Ġkilled": 4374,
      "uses": 4375,
      "Ġlikes": 4376,
      "ĠJust": 4377,
      "Ġprogress": 4378,
      "Ġabund": 4379,
      "Ġanywhere": 4380,
      "ĠGUT": 4381,
      "Ġlikewise": 4382,
      "inking": 4383,
      "Ġshouldn": 4384,
      "Ġarise": 4385,
      "Ġcomput": 4386,
      "Ġsigns": 4387,
      "Ġlonging": 4388,
      "Ġharass": 4389,
      "Ġobey": 4390,
      "Ġremorse": 4391,
      "abelle": 4392,
      "Ġflower": 4393,
      "avement": 4394,
      "Ġgrind": 4395,
      "Ġourselves": 4396,
      "Ġcontrol": 4397,
      "Ġconsol": 4398,
      "versity": 4399,
      "Ġwaist": 4400,
      "Ġoppressed": 4401,
      "Ġprisoners": 4402,
      "Ġcountenance": 4403,
      "Ġassured": 4404,
      "Ġskill": 4405,
      "mend": 4406,
      "Ġbehold": 4407,
      "Ġcircles": 4408,
      "Ġrecon": 4409,
      "Ġbringing": 4410,
      "Ġdistressing": 4411,
      "Ġwondering": 4412,
      "Ġcarrying": 4413,
      "urious": 4414,
      "mbrell": 4415,
      "Ġpolit": 4416,
      "Ġpursued": 4417,
      "Ġunfaith": 4418,
      "Ġprevent": 4419,
      "lacement": 4420,
      "Ġprotect": 4421,
      "work": 4422,
      "Ġvalu": 4423,
      "Ġunsatisfa": 4424,
      "Ġinquired": 4425,
      "Ġgarret": 4426,
      "Ġanimals": 4427,
      "Ġremarkable": 4428,
      "Ġavoid": 4429,
      "Ġspeculations": 4430,
      "Ġsuggested": 4431,
      "Ġdispleasure": 4432,
      "Ġhungry": 4433,
      "Ġfields": 4434,
      "Ġmemory": 4435,
      "Ġuneasiness": 4436,
      "Ġsuspicion": 4437,
      "ĠWinkies": 4438,
      "Ġunsatisfactory": 4439,
      "BERG": 4440,
      "IR": 4441,
      "JE": 4442,
      "LE": 4443,
      "avor": 4444,
      "bits": 4445,
      "ius": 4446,
      "riment": 4447,
      "uce": 4448,
      "Ġwra": 4449,
      "Ġfood": 4450,
      "Ġdrank": 4451,
      "Ġmach": 4452,
      "Ġlower": 4453,
      "Ġloose": 4454,
      "Ġbeloved": 4455,
      "ĠTe": 4456,
      "Ġur": 4457,
      "Ġreward": 4458,
      "rose": 4459,
      "Ġstiff": 4460,
      "ifully": 4461,
      "Ġorn": 4462,
      "ulted": 4463,
      "Ġdepe": 4464,
      "ilty": 4465,
      "ĠLe": 4466,
      "ĠLo": 4467,
      "ĠFire": 4468,
      "ĠDav": 4469,
      "Ġcontain": 4470,
      "Ġseren": 4471,
      "Ġnoble": 4472,
      "Ġalive": 4473,
      "ouring": 4474,
      "Ġgovern": 4475,
      "Ġthanks": 4476,
      "Ġcho": 4477,
      "ounce": 4478,
      "Ġcompass": 4479,
      "Ġcomplain": 4480,
      "Ġimpression": 4481,
      "ĠRE": 4482,
      "Ġnewly": 4483,
      "Ġblame": 4484,
      "Ġflour": 4485,
      "Ġgrad": 4486,
      "ĠThough": 4487,
      "Ġenth": 4488,
      "Ġtele": 4489,
      "Ġcalls": 4490,
      "Ġgracious": 4491,
      "Ġkindness": 4492,
      "Ġended": 4493,
      "Ġsubst": 4494,
      "Ġrefuse": 4495,
      "Ġindicate": 4496,
      "ormal": 4497,
      "Ġassist": 4498,
      "ĠMany": 4499,
      "ĠAny": 4500,
      "itchkin": 4501,
      "Ġvision": 4502,
      "Ġbrain": 4503,
      "Ġawa": 4504,
      "Ġaffections": 4505,
      "Ġfreed": 4506,
      "Ġengagement": 4507,
      "Ġabsolute": 4508,
      "Ġaffl": 4509,
      "Ġestran": 4510,
      "Ġexperi": 4511,
      "Ġlucky": 4512,
      "Ġdeeply": 4513,
      "Ġdeceive": 4514,
      "Ġsatisfactory": 4515,
      "Ġencoun": 4516,
      "Ġpeaceful": 4517,
      "Ġrule": 4518,
      "Ġmessage": 4519,
      "Ġpulled": 4520,
      "Ġvanished": 4521,
      "Ġmonths": 4522,
      "Ġgratefully": 4523,
      "Ġballoon": 4524,
      "Ġconstant": 4525,
      "Ġdisturb": 4526,
      "welve": 4527,
      "Ġadmiration": 4528,
      "Ġpraise": 4529,
      "Ġcultivate": 4530,
      "Ġaston": 4531,
      "Ġsympathy": 4532,
      "Ġcritic": 4533,
      "Ġelegant": 4534,
      "Ġbrilliant": 4535,
      "erfitchkin": 4536,
      "Ġexcitement": 4537,
      ".,": 4538,
      "All": 4539,
      "For": 4540,
      "can": 4541,
      "een": 4542,
      "liness": 4543,
      "oes": 4544,
      "rim": 4545,
      "vest": 4546,
      "Ġ2": 4547,
      "Ġ4": 4548,
      "Ġtas": 4549,
      "Ġweep": 4550,
      "Ġsly": 4551,
      "Ġborrow": 4552,
      "Ġmood": 4553,
      "orge": 4554,
      "Ġtown": 4555,
      "Ġpure": 4556,
      "Ġheight": 4557,
      "Ġhomes": 4558,
      "omon": 4559,
      "illot": 4560,
      "ĠTO": 4561,
      "vet": 4562,
      "Ġwilling": 4563,
      "roc": 4564,
      "irth": 4565,
      "Ġstain": 4566,
      "Ġstones": 4567,
      "Ġhist": 4568,
      "Ġate": 4569,
      "Ġsolic": 4570,
      "ĠSol": 4571,
      "Ġsail": 4572,
      "ĠBa": 4573,
      "Ġdisaster": 4574,
      "Ġliber": 4575,
      "unted": 4576,
      "quet": 4577,
      "ĠFrom": 4578,
      "ĠFerfitchkin": 4579,
      "Ġshot": 4580,
      "Ġconsent": 4581,
      "ĠPalace": 4582,
      "Ġrum": 4583,
      "Ġrank": 4584,
      "Ġspent": 4585,
      "Ġnobody": 4586,
      "Ġens": 4587,
      "asted": 4588,
      "elly": 4589,
      "Ġprepar": 4590,
      "Ġchief": 4591,
      "ĠNever": 4592,
      "Ġoffe": 4593,
      "Ġdistract": 4594,
      "Ġpaused": 4595,
      "Ġspend": 4596,
      "Ġconscience": 4597,
      "Ġchest": 4598,
      "Ġenjoying": 4599,
      "Ġrested": 4600,
      "Ġrestra": 4601,
      "Ġbroad": 4602,
      "Ġreceiving": 4603,
      "Ġhealthy": 4604,
      "Ġshoe": 4605,
      "Ġshoem": 4606,
      "Ġinterv": 4607,
      "anned": 4608,
      "ENBERG": 4609,
      "Ġstead": 4610,
      "Ġescap": 4611,
      "Ġcalam": 4612,
      "Ġdaughters": 4613,
      "Ġimagined": 4614,
      "Ġcounsel": 4615,
      "Ġdeceived": 4616,
      "Ġenerget": 4617,
      "Ġjolly": 4618,
      "Ġlabors": 4619,
      "Ġruin": 4620,
      "Ġcrops": 4621,
      "Ġsoldiers": 4622,
      "Ġsolitary": 4623,
      "Ġvalue": 4624,
      "Ġofficer": 4625,
      "Ġimmense": 4626,
      "Ġclouds": 4627,
      "natur": 4628,
      "Ġscarce": 4629,
      "Ġdeparted": 4630,
      "Ġobliged": 4631,
      "Ġchina": 4632,
      "Ġincrease": 4633,
      "Ġechoes": 4634,
      "Ġacquaintances": 4635,
      "Ġgathering": 4636,
      "Ġfolded": 4637,
      "Ġreverses": 4638,
      "Ġphilosop": 4639,
      "Ġinherit": 4640,
      "unteers": 4641,
      "Ġfinancial": 4642,
      "Ġuncomfortable": 4643,
      "Ġconcerning": 4644,
      "ĠGUTENBERG": 4645,
      "mbrella": 4646,
      "JECT": 4647,
      "CH": 4648,
      "When": 4649,
      "fty": 4650,
      "iven": 4651,
      "rust": 4652,
      "then": 4653,
      "wood": 4654,
      "Ġver": 4655,
      "Ġtear": 4656,
      "Ġtwelve": 4657,
      "inations": 4658,
      "Ġwretched": 4659,
      "Ġsore": 4660,
      "Ġbag": 4661,
      "Ġfest": 4662,
      "Ġfence": 4663,
      "Ġfulf": 4664,
      "Ġink": 4665,
      "Ġheap": 4666,
      "arked": 4667,
      "arling": 4668,
      "Ġhid": 4669,
      "Ġnonsense": 4670,
      "uts": 4671,
      "lyub": 4672,
      "amo": 4673,
      "aming": 4674,
      "seen": 4675,
      "Ġthri": 4676,
      "rodu": 4677,
      "Ġstoo": 4678,
      "Ġstation": 4679,
      "Ġdreamed": 4680,
      "Ġsugar": 4681,
      "Ġsaved": 4682,
      "ĠBusiness": 4683,
      "Ġneat": 4684,
      "ĠLady": 4685,
      "Ġdoctor": 4686,
      "Ġdisord": 4687,
      "Ġlies": 4688,
      "Ġshore": 4689,
      "ĠCour": 4690,
      "ĠWhe": 4691,
      "Ġrow": 4692,
      "Ġknees": 4693,
      "Ġforever": 4694,
      "ĠGabelle": 4695,
      "Ġrolled": 4696,
      "Ġroyal": 4697,
      "Ġimper": 4698,
      "Ġthanked": 4699,
      "ruction": 4700,
      "ounded": 4701,
      "Ġunderstood": 4702,
      "Ġapplic": 4703,
      "Ġindign": 4704,
      "Ġgets": 4705,
      "Ġbegun": 4706,
      "Ġheartily": 4707,
      "Ġscold": 4708,
      "Ġplaced": 4709,
      "Ġexplan": 4710,
      "Ġjustice": 4711,
      "Ġsetting": 4712,
      "Ġfamili": 4713,
      "Ġrestless": 4714,
      "Ġsupposed": 4715,
      "Ġholder": 4716,
      "Ġstopping": 4717,
      "Ġsecure": 4718,
      "Ġbelieved": 4719,
      "Ġdrove": 4720,
      "Ġfinal": 4721,
      "Ġfinish": 4722,
      "Ġuncle": 4723,
      "Ġprofess": 4724,
      "Ġinterrupt": 4725,
      "Ġadmired": 4726,
      "Ġtrial": 4727,
      "Ġsteady": 4728,
      "Ġgenerally": 4729,
      "Ġgladly": 4730,
      "Ġpointed": 4731,
      "Ġescort": 4732,
      "Ġthreatening": 4733,
      "Ġdespond": 4734,
      "Ġpropri": 4735,
      "ĠBefore": 4736,
      "Ġfairy": 4737,
      "Ġprovided": 4738,
      "Ġstriking": 4739,
      "Ġpainted": 4740,
      "Ġcreatures": 4741,
      "Ġstudying": 4742,
      "Ġsinging": 4743,
      "Ġrecover": 4744,
      "Ġfigures": 4745,
      "Ġeyebrows": 4746,
      "Ġdisagreements": 4747,
      "Ġexpectations": 4748,
      "Ġgravely": 4749,
      "Ġominous": 4750,
      "Ġintellect": 4751,
      "dolyub": 4752,
      "resident": 4753,
      "Ġbenefit": 4754,
      "Ġspectacles": 4755,
      "Ġexplained": 4756,
      "Ġcurious": 4757,
      "Ġbottom": 4758,
      "Ġtravelers": 4759,
      "Ġsuperior": 4760,
      "Ġeventually": 4761,
      "Ġaccomplish": 4762,
      "ĠGrand": 4763,
      "Ġendeav": 4764,
      "Ġfifty": 4765,
      "Ġpassenger": 4766,
      "Ġadventures": 4767,
      "istocr": 4768,
      "Ġcommunic": 4769,
      "Ġmaintain": 4770,
      "Ġtreachery": 4771,
      "ĠTrudolyub": 4772,
      "Ġlecture": 4773,
      "ĠGolden": 4774,
      "Ġmisunderstand": 4775,
      "illotine": 4776,
      "ĠSolomon": 4777,
      "ĠTrudolyubov": 4778,
      "Have": 4779,
      "IT": 4780,
      "LL": 4781,
      "UR": 4782,
      "cast": 4783,
      "col": 4784,
      "dle": 4785,
      "ege": 4786,
      "gan": 4787,
      "rone": 4788,
      "wed": 4789,
      "Ġing": 4790,
      "Ġarose": 4791,
      "inated": 4792,
      "Ġwond": 4793,
      "erred": 4794,
      "Ġbod": 4795,
      "Ġbase": 4796,
      "Ġfil": 4797,
      "Ġmass": 4798,
      "Ġmeth": 4799,
      "Ġcent": 4800,
      "Ġcab": 4801,
      "Ġcredit": 4802,
      "Ġlin": 4803,
      "atory": 4804,
      "Ġnast": 4805,
      "Ġnormal": 4806,
      "ills": 4807,
      "illing": 4808,
      "ĠTem": 4809,
      "icit": 4810,
      "sels": 4811,
      "imate": 4812,
      "Ġwaste": 4813,
      "eek": 4814,
      "Ġstar": 4815,
      "Ġancient": 4816,
      "ĠAN": 4817,
      "ĠSho": 4818,
      "Ġbutter": 4819,
      "ĠBE": 4820,
      "Ġunw": 4821,
      "Ġunif": 4822,
      "quiet": 4823,
      "ĠFort": 4824,
      "ĠJud": 4825,
      "ĠPerhaps": 4826,
      "ĠPresident": 4827,
      "Ġseized": 4828,
      "Ġsewing": 4829,
      "Ġvac": 4830,
      "Ġproof": 4831,
      "Ġaloud": 4832,
      "ustr": 4833,
      "Ġjury": 4834,
      "law": 4835,
      "Ġovert": 4836,
      "log": 4837,
      "Ġroar": 4838,
      "ĠOur": 4839,
      "Ġfeather": 4840,
      "Ġmoving": 4841,
      "Ġprim": 4842,
      "Ġappeal": 4843,
      "Ġbride": 4844,
      "Ġdisting": 4845,
      "Ġobsc": 4846,
      "Ġremarked": 4847,
      "apa": 4848,
      "Ġhearty": 4849,
      "Ġgrant": 4850,
      "coat": 4851,
      "izing": 4852,
      "Ġillicit": 4853,
      "Ġspeed": 4854,
      "Ġfailures": 4855,
      "Ġfalls": 4856,
      "Ġdisclaim": 4857,
      "Ġdanced": 4858,
      "Ġpresented": 4859,
      "Ġtreas": 4860,
      "Ġdressing": 4861,
      "Ġguest": 4862,
      "Ġgives": 4863,
      "Ġlaying": 4864,
      "Ġintrig": 4865,
      "liance": 4866,
      "Ġsentence": 4867,
      "Ġobjects": 4868,
      "Ġcommitted": 4869,
      "Ġdoubts": 4870,
      "Ġlesson": 4871,
      "Ġproposed": 4872,
      "Ġdelighted": 4873,
      "Ġladder": 4874,
      "ĠOnce": 4875,
      "Ġunexpectedly": 4876,
      "III": 4877,
      "Ġburned": 4878,
      "Ġcollection": 4879,
      "Ġposted": 4880,
      "Ġsafely": 4881,
      "Ġhighest": 4882,
      "Ġrequest": 4883,
      "Ġsummon": 4884,
      "maid": 4885,
      "Ġanimal": 4886,
      "Ġbottle": 4887,
      "Ġpassionate": 4888,
      "Ġslept": 4889,
      "Ġvirtue": 4890,
      "Ġburden": 4891,
      "Ġendeavor": 4892,
      "RAN": 4893,
      "Ġstairc": 4894,
      "Ġconnected": 4895,
      "Ġbuilding": 4896,
      "Ġtempor": 4897,
      "steps": 4898,
      "Ġambition": 4899,
      "Ġunlucky": 4900,
      "ĠPROJECT": 4901,
      "Ġscarcely": 4902,
      "Ġfamiliar": 4903,
      "Ġmethod": 4904,
      "Mother": 4905,
      "Will": 4906,
      "aper": 4907,
      "car": 4908,
      "dge": 4909,
      "io": 4910,
      "kins": 4911,
      "mind": 4912,
      "ral": 4913,
      "uced": 4914,
      "with": 4915,
      "zing": 4916,
      "Ġ6": 4917,
      "Ġz": 4918,
      "Ġtaught": 4919,
      "Ġapr": 4920,
      "Ġwake": 4921,
      "reen": 4922,
      "hand": 4923,
      "Ġfed": 4924,
      "Ġmas": 4925,
      "Ġcart": 4926,
      "Ġpal": 4927,
      "Ġpac": 4928,
      "Ġling": 4929,
      "asper": 4930,
      "Ġbere": 4931,
      "Ġgru": 4932,
      "ician": 4933,
      "amb": 4934,
      "Ġumbrella": 4935,
      "Ġhers": 4936,
      "Ġformed": 4937,
      "vert": 4938,
      "ays": 4939,
      "stem": 4940,
      "ads": 4941,
      "ĠSouth": 4942,
      "Ġmyst": 4943,
      "Ġunre": 4944,
      "Ġunnatur": 4945,
      "ĠDaisy": 4946,
      "ĠWAR": 4947,
      "Ġrang": 4948,
      "Ġrude": 4949,
      "ighted": 4950,
      "Ġknife": 4951,
      "Ġnod": 4952,
      "Ġabroad": 4953,
      "Ġsomewhat": 4954,
      "Ġanybody": 4955,
      "Ġpoison": 4956,
      "Ġjack": 4957,
      "ums": 4958,
      "leased": 4959,
      "Ġquant": 4960,
      "loqu": 4961,
      "agger": 4962,
      "berries": 4963,
      "Ġshare": 4964,
      "ickness": 4965,
      "ĠNed": 4966,
      "Ġprotes": 4967,
      "acity": 4968,
      "Ġapparent": 4969,
      "Ġperfor": 4970,
      "Ġobed": 4971,
      "Ġflat": 4972,
      "Ġturns": 4973,
      "Ġcler": 4974,
      "ĠThrone": 4975,
      "Ġmarked": 4976,
      "Ġrelig": 4977,
      "Ġharder": 4978,
      "Ġconfusion": 4979,
      "Ġmothers": 4980,
      "Ġfailed": 4981,
      "Ġserve": 4982,
      "Ġneedn": 4983,
      "Ġcrim": 4984,
      "Ġguilty": 4985,
      "Ġdrunk": 4986,
      "Ġhated": 4987,
      "Ġhumble": 4988,
      "ĠYet": 4989,
      "Ġinvited": 4990,
      "Ġintrodu": 4991,
      "Ġawful": 4992,
      "Ġdevil": 4993,
      "Ġproviding": 4994,
      "Ġstriving": 4995,
      "Ġdirection": 4996,
      "Ġjoin": 4997,
      "Ġsystem": 4998,
      "mbers": 4999,
      "Ġdeserted": 5000,
      "Ġenviron": 5001,
      "Ġdirectly": 5002,
      "Ġproduce": 5003,
      "Ġblessed": 5004,
      "Ġaccompan": 5005,
      "Ġvictory": 5006,
      "REE": 5007,
      "Ġjealousy": 5008,
      "Ġlegal": 5009,
      "Ġpractice": 5010,
      "Ġromance": 5011,
      "Ġfrown": 5012,
      "Ġaccording": 5013,
      "ĠPoor": 5014,
      "Ġslippers": 5015,
      "Ġkingdom": 5016,
      "Ġluxury": 5017,
      "Ġfrequent": 5018,
      "Ġseemingly": 5019,
      "AGE": 5020,
      "Ġdishon": 5021,
      "ĠDreams": 5022,
      "Ġpatriot": 5023,
      "Ġribbon": 5024,
      "Ġnodded": 5025,
      "Ġpositively": 5026,
      "Ġrevenge": 5027,
      "Ġaspirations": 5028,
      "Ġreconc": 5029,
      "Ġhistory": 5030,
      "Ġtemporary": 5031,
      "ĠWARRAN": 5032,
      ".)": 5033,
      "_.âĢĿ": 5034,
      "bly": 5035,
      "fice": 5036,
      "iance": 5037,
      "ivers": 5038,
      "look": 5039,
      "long": 5040,
      "line": 5041,
      "mitted": 5042,
      "nie": 5043,
      "uine": 5044,
      "vag": 5045,
      "wers": 5046,
      "Ġ9": 5047,
      "Ġton": 5048,
      "Ġtort": 5049,
      "ndered": 5050,
      "Ġfriv": 5051,
      "itated": 5052,
      "enced": 5053,
      "ishes": 5054,
      "Ġmotion": 5055,
      "Ġcy": 5056,
      "Ġcup": 5057,
      "Ġtoss": 5058,
      "Ġpun": 5059,
      "Ġlest": 5060,
      "aries": 5061,
      "oms": 5062,
      "ĠIN": 5063,
      "Ġgest": 5064,
      "ĠTer": 5065,
      "imney": 5066,
      "Ġforms": 5067,
      "Ġrevol": 5068,
      "ayed": 5069,
      "iring": 5070,
      "Ġwash": 5071,
      "eeps": 5072,
      "Ġstout": 5073,
      "Ġsteep": 5074,
      "ĠSn": 5075,
      "ouldn": 5076,
      "uls": 5077,
      "ilities": 5078,
      "Ġupstairs": 5079,
      "Ġdisquiet": 5080,
      "Ġlock": 5081,
      "Ġunwise": 5082,
      "Ġunjust": 5083,
      "Ġshy": 5084,
      "Ġshone": 5085,
      "Ġconqu": 5086,
      "Ġsearch": 5087,
      "Ġalter": 5088,
      "Ġamused": 5089,
      "ĠOther": 5090,
      "ĠHead": 5091,
      "icken": 5092,
      "Ġpeas": 5093,
      "Ġcomplic": 5094,
      "Ġdistinct": 5095,
      "Ġbegged": 5096,
      "Ġscorn": 5097,
      "Ġraise": 5098,
      "Ġclasp": 5099,
      "Ġcontract": 5100,
      "Ġwants": 5101,
      "ribun": 5102,
      "ictions": 5103,
      "Ġintend": 5104,
      "Ġfamilies": 5105,
      "Ġdeliber": 5106,
      "ĠUp": 5107,
      "Ġreturns": 5108,
      "Ġattent": 5109,
      "ĠSeeing": 5110,
      "Ġfarm": 5111,
      "Ġsilently": 5112,
      "Ġcopying": 5113,
      "Ġneeds": 5114,
      "Ġactions": 5115,
      "Ġinstinct": 5116,
      "ĠAnother": 5117,
      "Ġreality": 5118,
      "Ġjoyful": 5119,
      "Ġelb": 5120,
      "Ġpointing": 5121,
      "Ġthreaten": 5122,
      "Ġpaying": 5123,
      "Ġstrive": 5124,
      "Ġstrike": 5125,
      "Ġestee": 5126,
      "Ġdoubtful": 5127,
      "Ġtransp": 5128,
      "Ġhonorable": 5129,
      "Ġjoined": 5130,
      "Ġoccasions": 5131,
      "hearted": 5132,
      "ecause": 5133,
      "Ġcollege": 5134,
      "Ġundertaking": 5135,
      "Ġdistributed": 5136,
      "Ġpursuits": 5137,
      "Ġrequired": 5138,
      "Ġoccupation": 5139,
      "Ġaccidents": 5140,
      "Ġincluded": 5141,
      "Ġsolid": 5142,
      "TION": 5143,
      "Ġtraveling": 5144,
      "Ġcontemp": 5145,
      "Ġdefeat": 5146,
      "Ġslave": 5147,
      "Ġdemanded": 5148,
      "Ġromantic": 5149,
      "Ġtreated": 5150,
      "Ġexample": 5151,
      "Ġattacks": 5152,
      "Ġclimb": 5153,
      "Ġmagn": 5154,
      "Ġtrifles": 5155,
      "Ġextravag": 5156,
      "natured": 5157,
      "Ġbeasts": 5158,
      "Ġneglected": 5159,
      "Ġmirror": 5160,
      "ĠGuillotine": 5161,
      "Ġaudience": 5162,
      "Ġdisplaying": 5163,
      "ĠRoom": 5164,
      "Ġpersuas": 5165,
      "Ġcompletely": 5166,
      "conom": 5167,
      "ING": 5168,
      "Ġgifts": 5169,
      "priate": 5170,
      "Ġmysterious": 5171,
      "Ġdisease": 5172,
      "Ġcorrect": 5173,
      "Ġphrase": 5174,
      "Ġcompassion": 5175,
      "Ġfreedom": 5176,
      "Ġaffliction": 5177,
      "Ġtasks": 5178,
      "ĠCourt": 5179,
      "Ġstaircase": 5180,
      "minded": 5181,
      "Ġfrivol": 5182,
      "LA": 5183,
      "RI": 5184,
      "aff": 5185,
      "aves": 5186,
      "bish": 5187,
      "bird": 5188,
      "dent": 5189,
      "ement": 5190,
      "fy": 5191,
      "field": 5192,
      "garet": 5193,
      "over": 5194,
      "post": 5195,
      "tled": 5196,
      "uished": 5197,
      "vis": 5198,
      "Ġ8": 5199,
      "Ġtail": 5200,
      "Ġahead": 5201,
      "Ġbal": 5202,
      "Ġbash": 5203,
      "Ġfully": 5204,
      "Ġdil": 5205,
      "Ġdirty": 5206,
      "Ġdarling": 5207,
      "itious": 5208,
      "Ġmouse": 5209,
      "inging": 5210,
      "esides": 5211,
      "Ġcard": 5212,
      "Ġcases": 5213,
      "orce": 5214,
      "Ġpit": 5215,
      "Ġparent": 5216,
      "Ġheed": 5217,
      "atched": 5218,
      "vere": 5219,
      "icine": 5220,
      "Ġeconom": 5221,
      "Ġforces": 5222,
      "Ġrender": 5223,
      "Ġstage": 5224,
      "Ġstars": 5225,
      "ĠMin": 5226,
      "urance": 5227,
      "Ġwebs": 5228,
      "Ġmel": 5229,
      "Ġsac": 5230,
      "ĠBast": 5231,
      "ĠLand": 5232,
      "Ġunable": 5233,
      "ĠFrank": 5234,
      "Ġshr": 5235,
      "ĠCount": 5236,
      "ĠCoward": 5237,
      "ĠPresent": 5238,
      "ĠPlease": 5239,
      "Ġsell": 5240,
      "Ġcomr": 5241,
      "Ġsomebody": 5242,
      "ares": 5243,
      "told": 5244,
      "umph": 5245,
      "idel": 5246,
      "Ġroll": 5247,
      "inks": 5248,
      "Ġfees": 5249,
      "Ġdownstairs": 5250,
      "Ġpron": 5251,
      "Ġbrick": 5252,
      "osing": 5253,
      "Ġharvest": 5254,
      "Ġresist": 5255,
      "Ġfeeble": 5256,
      "Ġgrasp": 5257,
      "Ġrapt": 5258,
      "Ġcontact": 5259,
      "Ġentang": 5260,
      "Ġexpense": 5261,
      "ĠInformation": 5262,
      "Ġconsumm": 5263,
      "Ġmotherly": 5264,
      "Ġmischief": 5265,
      "Ġdecor": 5266,
      "Ġdelivered": 5267,
      "Ġattitude": 5268,
      "Ġoppress": 5269,
      "Ġboard": 5270,
      "Ġassure": 5271,
      "Ġcomforted": 5272,
      "Ġsought": 5273,
      "Ġinvalid": 5274,
      "Ġcloset": 5275,
      "Ġobjective": 5276,
      "Ġfuneral": 5277,
      "Ġbrighter": 5278,
      "ĠAtt": 5279,
      "Ġclearly": 5280,
      "ĠTHIR": 5281,
      "Ġshadows": 5282,
      "Ġmission": 5283,
      "Ġweeks": 5284,
      "Ġsharply": 5285,
      "Ġcontinually": 5286,
      "ART": 5287,
      "Ġvanity": 5288,
      "Ġoccurred": 5289,
      "Ġconsiderable": 5290,
      "Ġrusty": 5291,
      "Ġdesigning": 5292,
      "Ġweakness": 5293,
      "Ġneighbor": 5294,
      "Ġslipped": 5295,
      "Ġprominent": 5296,
      "Ġrecalled": 5297,
      "Ġacquaintance": 5298,
      "Ġinvolved": 5299,
      "Ġunderground": 5300,
      "Ġdetermined": 5301,
      "Ġlamps": 5302,
      "Ġgenuine": 5303,
      "Ġsacrifice": 5304,
      "Ġappreci": 5305,
      "Ġsentimental": 5306,
      "Ġaugurs": 5307,
      "Ġbranches": 5308,
      "Ġnervous": 5309,
      "Ġestrange": 5310,
      "Ġenergetic": 5311,
      "ĠANY": 5312,
      "Ġgesture": 5313,
      "ribunal": 5314,
      "ĠBastille": 5315,
      "ĠCowardly": 5316,
      "General": 5317,
      "Miss": 5318,
      "SI": 5319,
      "See": 5320,
      "TE": 5321,
      "_.": 5322,
      "cil": 5323,
      "fl": 5324,
      "fashion": 5325,
      "gu": 5326,
      "ians": 5327,
      "lings": 5328,
      "lorn": 5329,
      "mith": 5330,
      "rors": 5331,
      "there": 5332,
      "uge": 5333,
      "yer": 5334,
      "yard": 5335,
      "Ġaut": 5336,
      "ince": 5337,
      "inating": 5338,
      "Ġbirth": 5339,
      "enly": 5340,
      "isher": 5341,
      "isible": 5342,
      "inger": 5343,
      "Ġcries": 5344,
      "Ġpan": 5345,
      "Ġpack": 5346,
      "Ġpowers": 5347,
      "Ġlion": 5348,
      "Ġlack": 5349,
      "Ġinner": 5350,
      "Ġheaps": 5351,
      "Ġhun": 5352,
      "Ġhint": 5353,
      "Ġbeard": 5354,
      "Ġgun": 5355,
      "Ġhabits": 5356,
      "ĠTake": 5357,
      "uted": 5358,
      "sec": 5359,
      "ids": 5360,
      "Ġretain": 5361,
      "Ġreasons": 5362,
      "Ġreleased": 5363,
      "Ġwasted": 5364,
      "Ġwhist": 5365,
      "ifest": 5366,
      "Ġshel": 5367,
      "Ġnotes": 5368,
      "rand": 5369,
      "ĠSil": 5370,
      "ĠSickness": 5371,
      "ulate": 5372,
      "Ġdegr": 5373,
      "ilgr": 5374,
      "ĠBesides": 5375,
      "ĠFlo": 5376,
      "Ġshrie": 5377,
      "antial": 5378,
      "ĠJar": 5379,
      "ĠHave": 5380,
      "ĠHaving": 5381,
      "ths": 5382,
      "Ġmanifest": 5383,
      "ĠPick": 5384,
      "Ġspl": 5385,
      "Ġspace": 5386,
      "Ġexte": 5387,
      "Ġexceed": 5388,
      "Ġvoy": 5389,
      "ander": 5390,
      "orts": 5391,
      "Ġabrupt": 5392,
      "Ġsomewhere": 5393,
      "Ġjoint": 5394,
      "Ġlend": 5395,
      "Ġleis": 5396,
      "Ġoverth": 5397,
      "Ġchimney": 5398,
      "ĠEast": 5399,
      "icket": 5400,
      "ickens": 5401,
      "Ġolder": 5402,
      "Ġeverywhere": 5403,
      "Ġfeels": 5404,
      "ĠMargaret": 5405,
      "Ġclut": 5406,
      "Ġaccused": 5407,
      "Ġcontag": 5408,
      "ĠDev": 5409,
      "Ġsooner": 5410,
      "Ġbreaking": 5411,
      "version": 5412,
      "Ġclock": 5413,
      "Ġfellows": 5414,
      "Ġtrain": 5415,
      "Ġtalent": 5416,
      "Ġassail": 5417,
      "Ġterror": 5418,
      "Ġsunny": 5419,
      "Ġbelief": 5420,
      "Ġinsult": 5421,
      "Ġprett": 5422,
      "Ġdropping": 5423,
      "Ġsouls": 5424,
      "Ġbuilt": 5425,
      "Ġclosely": 5426,
      "Ġinterfe": 5427,
      "Ġsurprises": 5428,
      "Ġtrials": 5429,
      "Ġeasier": 5430,
      "Ġsadly": 5431,
      "Ġgenerous": 5432,
      "Ġquarter": 5433,
      "Ġextent": 5434,
      "Ġsounded": 5435,
      "ibility": 5436,
      "Ġcapital": 5437,
      "headed": 5438,
      "Ġrecovered": 5439,
      "Ġsenses": 5440,
      "Ġnegro": 5441,
      "ĠXX": 5442,
      "Ġsquee": 5443,
      "Ġfighting": 5444,
      "Ġequal": 5445,
      "Ġpockets": 5446,
      "Ġmagic": 5447,
      "Ġvolunteers": 5448,
      "Ġsuspected": 5449,
      "Ġindifferent": 5450,
      "Ġsource": 5451,
      "Ġutterly": 5452,
      "Ġprocession": 5453,
      "Ġpassengers": 5454,
      "Ġrules": 5455,
      "ĠAmerican": 5456,
      "Ġstatus": 5457,
      "Ġindependent": 5458,
      "Ġ***": 5459,
      "Ġdiscontent": 5460,
      "ĠMunchkins": 5461,
      "Ġlanguage": 5462,
      "amonds": 5463,
      "ĠTemple": 5464,
      "Ġuniform": 5465,
      "Ġapron": 5466,
      "Ġtonight": 5467,
      "Ġcontempl": 5468,
      "idelity": 5469,
      "ilgrim": 5470,
      "58": 5471,
      "ILI": 5472,
      "born": 5473,
      "cid": 5474,
      "go": 5475,
      "ipped": 5476,
      "lind": 5477,
      "wl": 5478,
      "xx": 5479,
      "iny": 5480,
      "Ġward": 5481,
      "Ġwings": 5482,
      "Ġwist": 5483,
      "rels": 5484,
      "remon": 5485,
      "Ġoh": 5486,
      "ounds": 5487,
      "Ġbench": 5488,
      "Ġfret": 5489,
      "itable": 5490,
      "enger": 5491,
      "istered": 5492,
      "Ġmot": 5493,
      "Ġmild": 5494,
      "Ġcens": 5495,
      "Ġliter": 5496,
      "Ġhes": 5497,
      "ĠâĢ¢": 5498,
      "ashing": 5499,
      "Ġbeating": 5500,
      "Ġbears": 5501,
      "Ġnaught": 5502,
      "Ġgaz": 5503,
      "Ġonline": 5504,
      "rily": 5505,
      "aling": 5506,
      "cean": 5507,
      "eeling": 5508,
      "Ġstuck": 5509,
      "ifying": 5510,
      "ĠAgain": 5511,
      "Ġorgan": 5512,
      "ĠBall": 5513,
      "usi": 5514,
      "Ġloyal": 5515,
      "Ġunhe": 5516,
      "ĠCorn": 5517,
      "igo": 5518,
      "ĠJury": 5519,
      "ĠHand": 5520,
      "Ġmankind": 5521,
      "Ġspread": 5522,
      "Ġexasper": 5523,
      "Ġsending": 5524,
      "Ġprod": 5525,
      "ourse": 5526,
      "Ġsomehow": 5527,
      "elling": 5528,
      "arel": 5529,
      "umn": 5530,
      "Ġprete": 5531,
      "istribut": 5532,
      "Ġchoc": 5533,
      "wels": 5534,
      "iley": 5535,
      "Ġaristocr": 5536,
      "Ġprice": 5537,
      "Ġcompliance": 5538,
      "Ġperil": 5539,
      "Ġimpul": 5540,
      "osen": 5541,
      "Ġharsh": 5542,
      "ĠRes": 5543,
      "Ġhandle": 5544,
      "Ġparties": 5545,
      "Ġscr": 5546,
      "Ġscream": 5547,
      "Ġflight": 5548,
      "Ġdearly": 5549,
      "Ġnights": 5550,
      "retion": 5551,
      "Ġlazy": 5552,
      "Ġincon": 5553,
      "ĠTherefore": 5554,
      "Ġfamous": 5555,
      "Ġcloak": 5556,
      "Ġclosing": 5557,
      "Ġsuccessfully": 5558,
      "Ġwaved": 5559,
      "Ġbrood": 5560,
      "Ġdiscouraging": 5561,
      "Ġcondem": 5562,
      "Ġbadly": 5563,
      "Ġboat": 5564,
      "Ġswall": 5565,
      "Ġsweetest": 5566,
      "Ġactivity": 5567,
      "ĠAnton": 5568,
      "Ġhats": 5569,
      "Ġburied": 5570,
      "Ġproperly": 5571,
      "Ġtrip": 5572,
      "ENTY": 5573,
      "Ġopening": 5574,
      "Ġformat": 5575,
      "Ġobserve": 5576,
      "Ġmistaken": 5577,
      "Ġdreadfully": 5578,
      "ĠHowever": 5579,
      "Ġirrit": 5580,
      "Ġquarrel": 5581,
      "Ġsensation": 5582,
      "Ġconcern": 5583,
      "Ġinjure": 5584,
      "Nothing": 5585,
      "Ġbrothers": 5586,
      "Ġhole": 5587,
      "Ġpolite": 5588,
      "Ġeditions": 5589,
      "cript": 5590,
      "Ġsettle": 5591,
      "Ġthrowing": 5592,
      "Ġmiles": 5593,
      "worthy": 5594,
      "Ġprepared": 5595,
      "Ġcolored": 5596,
      "Ġarranged": 5597,
      "Ġmovement": 5598,
      "Ġintelligent": 5599,
      "Ġconsequently": 5600,
      "Ġgratitude": 5601,
      "Ġtrifle": 5602,
      "Ġextraord": 5603,
      "Ġaccomplished": 5604,
      "Ġgroan": 5605,
      "Ġdismal": 5606,
      "Ġpressed": 5607,
      "Ġundergo": 5608,
      "Ġsituation": 5609,
      "Ġfoli": 5610,
      "Ġbundle": 5611,
      "ĠPeople": 5612,
      "Ġtradesman": 5613,
      "Ġrelieved": 5614,
      "Ġhence": 5615,
      "Ġsketch": 5616,
      "Ġrequirements": 5617,
      "ĠTWENTY": 5618,
      "Ġunfaithfulness": 5619,
      "Ġgradually": 5620,
      "Ġenthusi": 5621,
      "Ġabsolutely": 5622,
      "Ġexperiences": 5623,
      "ĠBailey": 5624,
      "Ġoffended": 5625,
      "Ġintellectual": 5626,
      "Ġmystery": 5627,
      "Ġwebsite": 5628,
      "Ġsacred": 5629,
      "ĠTHIRTY": 5630,
      "fashioned": 5631,
      "Ġchocolate": 5632,
      ".âĢĶ": 5633,
      "56": 5634,
      "Because": 5635,
      "Can": 5636,
      "Tell": 5637,
      "Take": 5638,
      "bid": 5639,
      "ler": 5640,
      "mit": 5641,
      "ob": 5642,
      "oot": 5643,
      "pent": 5644,
      "pers": 5645,
      "vy": 5646,
      "wenty": 5647,
      "zard": 5648,
      "Ġtro": 5649,
      "Ġwave": 5650,
      "Ġwages": 5651,
      "haust": 5652,
      "Ġfrank": 5653,
      "ites": 5654,
      "itate": 5655,
      "enes": 5656,
      "Ġming": 5657,
      "Ġmatch": 5658,
      "Ġmonsieur": 5659,
      "oned": 5660,
      "Ġcling": 5661,
      "Ġcared": 5662,
      "Ġcraw": 5663,
      "Ġcream": 5664,
      "Ġcards": 5665,
      "orious": 5666,
      "Ġpunch": 5667,
      "Ġheels": 5668,
      "ange": 5669,
      "atur": 5670,
      "omed": 5671,
      "Ġbeto": 5672,
      "Ġnames": 5673,
      "Ġhabit": 5674,
      "utor": 5675,
      "utter": 5676,
      "icted": 5677,
      "entle": 5678,
      "Ġthread": 5679,
      "Ġforlorn": 5680,
      "Ġrev": 5681,
      "rive": 5682,
      "Ġstretched": 5683,
      "ĠMe": 5684,
      "Ġnoticed": 5685,
      "ĠAcc": 5686,
      "ĠAND": 5687,
      "ĠApo": 5688,
      "Ġsuits": 5689,
      "Ġbutton": 5690,
      "Ġsaint": 5691,
      "alled": 5692,
      "Ġdishes": 5693,
      "Ġlod": 5694,
      "Ġdenote": 5695,
      "ĠFl": 5696,
      "Ġship": 5697,
      "ĠComp": 5698,
      "ĠDes": 5699,
      "ĠWomen": 5700,
      "riend": 5701,
      "Ġexternal": 5702,
      "Ġexhaust": 5703,
      "Ġsex": 5704,
      "Ġseated": 5705,
      "itty": 5706,
      "Ġvag": 5707,
      "Ġvivid": 5708,
      "Ġcomical": 5709,
      "Ġproved": 5710,
      "Ġnovel": 5711,
      "astic": 5712,
      "Ġpole": 5713,
      "ĠGive": 5714,
      "ĠGeneral": 5715,
      "Ġyounger": 5716,
      "ruct": 5717,
      "Ġchosen": 5718,
      "ĠEst": 5719,
      "--âĢľ": 5720,
      "Ġplate": 5721,
      "Ġplanned": 5722,
      "Ġindust": 5723,
      "Ġperce": 5724,
      "Ġpermitted": 5725,
      "Ġthinks": 5726,
      "orney": 5727,
      "ĠRoy": 5728,
      "Ġresent": 5729,
      "Ġparting": 5730,
      "Ġscenes": 5731,
      "Ġbecomes": 5732,
      "Ġbecoming": 5733,
      "nel": 5734,
      "Ġragged": 5735,
      "Ġglancing": 5736,
      "Ġcontribut": 5737,
      "Ġemig": 5738,
      "Ġtramp": 5739,
      "retch": 5740,
      "Ġlace": 5741,
      "Ġadvancing": 5742,
      "icts": 5743,
      "Ġconfident": 5744,
      "Ġgreet": 5745,
      "Ġfailing": 5746,
      "Ġnative": 5747,
      "Ġdecide": 5748,
      "Ġpleasantly": 5749,
      "Ġdeliver": 5750,
      "ĠKn": 5751,
      "Ġindicated": 5752,
      "Ġneedle": 5753,
      "Ġbeautifully": 5754,
      "Ġsuffered": 5755,
      "Ġcharity": 5756,
      "Ġshock": 5757,
      "Ġintention": 5758,
      "Ġsorrowful": 5759,
      "Ġadmit": 5760,
      "Ġappropriate": 5761,
      "Ġcauses": 5762,
      "Ġdistressed": 5763,
      "Ġappearing": 5764,
      "Ġveil": 5765,
      "Ġmistress": 5766,
      "Ġparticip": 5767,
      "Ġsleeping": 5768,
      "Ġpayments": 5769,
      "Ġassociates": 5770,
      "Ġremaining": 5771,
      "Ġunpleasantness": 5772,
      "Ġspoil": 5773,
      "Ġtranqu": 5774,
      "Ġdriving": 5775,
      "Ġsymb": 5776,
      "Ġtables": 5777,
      "Ġanguish": 5778,
      "Does": 5779,
      "Ġuttered": 5780,
      "Ġwarmly": 5781,
      "Ġforgetting": 5782,
      "Ġcease": 5783,
      "Ġceased": 5784,
      "Ġobtaining": 5785,
      "Ġoccasionally": 5786,
      "Ġenvious": 5787,
      "Ġoccupied": 5788,
      "Ġharmless": 5789,
      "ĠQuar": 5790,
      "ricate": 5791,
      "Ġsmoot": 5792,
      "Ġrivals": 5793,
      "ĠEveryone": 5794,
      "Ġtravelling": 5795,
      "Ġprayers": 5796,
      "Ġimproved": 5797,
      "Ġconvin": 5798,
      "Ġequip": 5799,
      "Ġaffectionate": 5800,
      "Ġmathem": 5801,
      "bitious": 5802,
      "Ġearnestly": 5803,
      "Ġslee": 5804,
      "Ġrivalry": 5805,
      "Ġadmiring": 5806,
      "Ġbeware": 5807,
      "Ġsuspect": 5808,
      "ĠGuard": 5809,
      "Ġbravely": 5810,
      "Ġforebodes": 5811,
      "ĠWashing": 5812,
      "Ġperforming": 5813,
      "Ġgenius": 5814,
      "Ġcellar": 5815,
      "Ġsacrific": 5816,
      "Ġinterpret": 5817,
      "Ġcandle": 5818,
      "Ġdegree": 5819,
      "Ġembrace": 5820,
      "Ġpopular": 5821,
      "Ġangel": 5822,
      "Ġholid": 5823,
      "Ġdelicate": 5824,
      "Ġrescue": 5825,
      "Ġgaoler": 5826,
      "Ġvaluable": 5827,
      "Ġdepends": 5828,
      "Ġserene": 5829,
      "Ġencounter": 5830,
      "Ġshoemaker": 5831,
      "Ġexplanation": 5832,
      "Ġendeavors": 5833,
      "Ġwondered": 5834,
      "_.âĢĿâĢĶ": 5835,
      "ĠJarvis": 5836,
      "Ġoverthrow": 5837,
      "linda": 5838,
      "Ġfoliage": 5839,
      "57": 5840,
      "Be": 5841,
      "BILI": 5842,
      "IG": 5843,
      "Just": 5844,
      "MIT": 5845,
      "St": 5846,
      "awn": 5847,
      "char": 5848,
      "ds": 5849,
      "lig": 5850,
      "leness": 5851,
      "pl": 5852,
      "rison": 5853,
      "uously": 5854,
      "uzz": 5855,
      "war": 5856,
      "Ġvel": 5857,
      "Ġtig": 5858,
      "Ġtumb": 5859,
      "Ġain": 5860,
      "Ġwoo": 5861,
      "Ġoper": 5862,
      "ought": 5863,
      "Ġbas": 5864,
      "Ġbite": 5865,
      "Ġfame": 5866,
      "Ġfuss": 5867,
      "Ġdried": 5868,
      "enched": 5869,
      "educt": 5870,
      "llon": 5871,
      "Ġmeek": 5872,
      "orough": 5873,
      "Ġpins": 5874,
      "Ġpipe": 5875,
      "Ġlake": 5876,
      "Ġlately": 5877,
      "Ġlunch": 5878,
      "Ġlinks": 5879,
      "Ġinward": 5880,
      "athing": 5881,
      "asm": 5882,
      "Ġhoney": 5883,
      "otting": 5884,
      "Ġgross": 5885,
      "lection": 5886,
      "icing": 5887,
      "Ġthorough": 5888,
      "Ġrela": 5889,
      "Ġreaching": 5890,
      "Ġrecip": 5891,
      "rified": 5892,
      "alty": 5893,
      "Ġwithd": 5894,
      "Ġstool": 5895,
      "Ġstern": 5896,
      "ools": 5897,
      "ĠMad": 5898,
      "ĠMamma": 5899,
      "uration": 5900,
      "chie": 5901,
      "Ġweight": 5902,
      "ĠAff": 5903,
      "Ġmember": 5904,
      "Ġmembers": 5905,
      "Ġsuited": 5906,
      "Ġsaf": 5907,
      "Ġsav": 5908,
      "Ġkeeps": 5909,
      "ilight": 5910,
      "Ġnearest": 5911,
      "ĠLittle": 5912,
      "ĠLife": 5913,
      "ĠLove": 5914,
      "Ġloath": 5915,
      "Ġlocked": 5916,
      "ĠFoul": 5917,
      "ĠCal": 5918,
      "ĠCON": 5919,
      "ĠDid": 5920,
      "ĠDear": 5921,
      "ĠDash": 5922,
      "ĠDAM": 5923,
      "ĠPapa": 5924,
      "Ġvast": 5925,
      "Ġknight": 5926,
      "Ġability": 5927,
      "astrous": 5928,
      "Ġanyway": 5929,
      "Ġpoet": 5930,
      "ĠGr": 5931,
      "ĠGard": 5932,
      "Ġcoarse": 5933,
      "inement": 5934,
      "Ġgoodness": 5935,
      "Ġrope": 5936,
      "Ġadverse": 5937,
      "ĠForce": 5938,
      "ists": 5939,
      "ĠEX": 5940,
      "psy": 5941,
      "Ġchamber": 5942,
      "oses": 5943,
      "Ġtwilight": 5944,
      "Ġthoughtfully": 5945,
      "Ġpartner": 5946,
      "Ġletting": 5947,
      "Ġsche": 5948,
      "Ġrare": 5949,
      "Ġclub": 5950,
      "Ġglim": 5951,
      "Ġaccum": 5952,
      "Ġmarched": 5953,
      "Ġfortunes": 5954,
      "Ġentering": 5955,
      "Ġteaching": 5956,
      "ferences": 5957,
      "Ġslip": 5958,
      "Ġincom": 5959,
      "Ġcloser": 5960,
      "Ġserved": 5961,
      "Ġelev": 5962,
      "Ġadding": 5963,
      "ĠSoho": 5964,
      "Ġrefresh": 5965,
      "Ġswept": 5966,
      "Ġassumed": 5967,
      "Ġholds": 5968,
      "Ġhopeful": 5969,
      "Ġcrushed": 5970,
      "Ġcleared": 5971,
      "Ġengaging": 5972,
      "Ġpathetic": 5973,
      "Ġinsin": 5974,
      "Ġinsulted": 5975,
      "Ġrealized": 5976,
      "Ġstately": 5977,
      "Ġvisiting": 5978,
      "liest": 5979,
      "Ġdouble": 5980,
      "theless": 5981,
      "Ġapproving": 5982,
      "gram": 5983,
      "Ġveget": 5984,
      "Ġattended": 5985,
      "Ġunderstanding": 5986,
      "Ġimaginary": 5987,
      "Ġthrust": 5988,
      "ĠTHIS": 5989,
      "ĠOnly": 5990,
      "Ġcrossed": 5991,
      "Ġunfortunately": 5992,
      "Ġfootsteps": 5993,
      "Ġdestruction": 5994,
      "Ġresolution": 5995,
      "Ġceiling": 5996,
      "Ġceremon": 5997,
      "Ġwaters": 5998,
      "Ġmodel": 5999,
      "Ġwooden": 6000,
      "Ġoccupy": 6001,
      "ĠXI": 6002,
      "ĠXV": 6003,
      "Ġeduc": 6004,
      "Ġhundreds": 6005,
      "Ġrepeat": 6006,
      "Ġvillain": 6007,
      "Ġvexation": 6008,
      "Ġregarded": 6009,
      "Ġconsideration": 6010,
      "Ġconstantly": 6011,
      "ustomed": 6012,
      "Ġroubles": 6013,
      "Ġexamined": 6014,
      "Ġspeculation": 6015,
      "Ġunconsciously": 6016,
      "Ġfashionable": 6017,
      "Ġamusement": 6018,
      "Ġcolour": 6019,
      "Ġgratified": 6020,
      "Ġharmonious": 6021,
      "Ġscarlet": 6022,
      "Ġarrive": 6023,
      "Ġburdens": 6024,
      "Ġhideous": 6025,
      "Ġwhispering": 6026,
      "ĠLIMIT": 6027,
      "Ġfrequently": 6028,
      "Ġcustomers": 6029,
      "Ġanticipated": 6030,
      "Ġanticipations": 6031,
      "Ġignor": 6032,
      "Ġdiamonds": 6033,
      "Ġcarelessness": 6034,
      "Ġdeceitful": 6035,
      "Ġsituations": 6036,
      "Ġcouple": 6037,
      "Ġviolent": 6038,
      "Ġoriginal": 6039,
      "Ġmanagement": 6040,
      "Ġswiftly": 6041,
      "Ġcompliment": 6042,
      "Ġprinted": 6043,
      "Ġbewildered": 6044,
      "Ġrespons": 6045,
      "Ġtorment": 6046,
      "Ġpeeped": 6047,
      "Ġabundant": 6048,
      "ĠDavis": 6049,
      "Ġcalamity": 6050,
      "Ġinheritance": 6051,
      "Ġdisorder": 6052,
      "Ġingen": 6053,
      "Ġnasty": 6054,
      "Ġsummoned": 6055,
      "Ġenvironments": 6056,
      "Ġinterfere": 6057,
      "ĠGuardian": 6058,
      "BILITY": 6059,
      "Ġtumbri": 6060,
      "ĠFoulon": 6061,
      "ĠDashwood": 6062,
      "ĠLIMITED": 6063,
      ").": 6064,
      "33": 6065,
      "ID": 6066,
      "Please": 6067,
      "TRI": 6068,
      "VEN": 6069,
      "acious": 6070,
      "don": 6071,
      "gies": 6072,
      "hic": 6073,
      "hum": 6074,
      "ii": 6075,
      "ially": 6076,
      "kens": 6077,
      "mos": 6078,
      "oor": 6079,
      "ole": 6080,
      "pic": 6081,
      "phan": 6082,
      "saw": 6083,
      "vity": 6084,
      "woman": 6085,
      "yr": 6086,
      "Ġtest": 6087,
      "Ġaven": 6088,
      "inate": 6089,
      "inning": 6090,
      "Ġwag": 6091,
      "reted": 6092,
      "hall": 6093,
      "haired": 6094,
      "Ġfasc": 6095,
      "Ġdamp": 6096,
      "itive": 6097,
      "enary": 6098,
      "isons": 6099,
      "Ġmult": 6100,
      "Ġcul": 6101,
      "Ġcree": 6102,
      "Ġciv": 6103,
      "orous": 6104,
      "Ġtools": 6105,
      "Ġpi": 6106,
      "Ġpile": 6107,
      "Ġpubl": 6108,
      "Ġpushed": 6109,
      "Ġlament": 6110,
      "Ġnon": 6111,
      "Ġhazard": 6112,
      "illa": 6113,
      "ĠTra": 6114,
      "ĠTower": 6115,
      "ĠTribunal": 6116,
      "Ġends": 6117,
      "ential": 6118,
      "Ġrevel": 6119,
      "Ġreverse": 6120,
      "alt": 6121,
      "alities": 6122,
      "irable": 6123,
      "Ġstum": 6124,
      "urry": 6125,
      "Ġweap": 6126,
      "Ġweird": 6127,
      "ĠSch": 6128,
      "ulating": 6129,
      "ĠBan": 6130,
      "ĠBet": 6131,
      "ĠBelle": 6132,
      "ĠLight": 6133,
      "Ġupset": 6134,
      "uscript": 6135,
      "Ġlibr": 6136,
      "Ġlog": 6137,
      "ĠFive": 6138,
      "Ġshru": 6139,
      "ĠCor": 6140,
      "ĠCast": 6141,
      "ĠCitizen": 6142,
      "ĠCont": 6143,
      "ĠDIS": 6144,
      "Ġcongr": 6145,
      "Ġconvey": 6146,
      "Ġwheels": 6147,
      "ĠPre": 6148,
      "ĠPAGE": 6149,
      "Ġris": 6150,
      "Ġrate": 6151,
      "Ġfac": 6152,
      "Ġspare": 6153,
      "Ġspider": 6154,
      "Ġsevere": 6155,
      "Ġva": 6156,
      "Ġvice": 6157,
      "Ġknitted": 6158,
      "Ġouter": 6159,
      "Ġjelly": 6160,
      "Ġforetold": 6161,
      "ĠGe": 6162,
      "ĠGlinda": 6163,
      "Ġleather": 6164,
      "laced": 6165,
      "Ġamiable": 6166,
      "Ġmuff": 6167,
      "Ġadversity": 6168,
      "Ġfeast": 6169,
      "Ġfeared": 6170,
      "Ġarmed": 6171,
      "Ġarrest": 6172,
      "irect": 6173,
      "Ġplun": 6174,
      "uded": 6175,
      "ode": 6176,
      "orns": 6177,
      "lessness": 6178,
      "Ġimplied": 6179,
      "Ġimpressed": 6180,
      "rang": 6181,
      "lesome": 6182,
      "Ġhanded": 6183,
      "Ġflushed": 6184,
      "Ġfinds": 6185,
      "Ġrail": 6186,
      "Ġraising": 6187,
      "Ġreplacement": 6188,
      "Ġpassages": 6189,
      "enses": 6190,
      "Ġaccur": 6191,
      "Ġwrath": 6192,
      "Ġentreat": 6193,
      "soever": 6194,
      "Ġexplo": 6195,
      "Ġlasted": 6196,
      "Ġlasting": 6197,
      "Ġsurm": 6198,
      "Ġillum": 6199,
      "ointed": 6200,
      "ribe": 6201,
      "Ġretired": 6202,
      "Ġincur": 6203,
      "Ġreluct": 6204,
      "Ġconfron": 6205,
      "Ġkinds": 6206,
      "Ġfamine": 6207,
      "Ġminister": 6208,
      "ĠUnder": 6209,
      "Ġseriously": 6210,
      "Ġelevation": 6211,
      "Ġattached": 6212,
      "Ġpromising": 6213,
      "Ġtales": 6214,
      "Ġdisclo": 6215,
      "Ġdiscord": 6216,
      "Ġdischar": 6217,
      "Ġoppression": 6218,
      "Ġstring": 6219,
      "Ġpresents": 6220,
      "Ġtremend": 6221,
      "Ġsword": 6222,
      "Ġacted": 6223,
      "ĠAnnie": 6224,
      "Ġsatisfy": 6225,
      "Ġintense": 6226,
      "Ġhorror": 6227,
      "Ġstrongly": 6228,
      "Ġobjection": 6229,
      "Ġtriumph": 6230,
      "Ġforgiven": 6231,
      "Ġstepped": 6232,
      "Ġanxiously": 6233,
      "Ġcausing": 6234,
      "Ġunpro": 6235,
      "Ġpropos": 6236,
      "Ġsecrets": 6237,
      "Ġsecretly": 6238,
      "Ġdepression": 6239,
      "Ġspiteful": 6240,
      "Ġobserving": 6241,
      "Ġmistakes": 6242,
      "Ġrespectable": 6243,
      "Ġsubjects": 6244,
      "Ġimagination": 6245,
      "Ġcapable": 6246,
      "Ġcreated": 6247,
      "Ġestate": 6248,
      "Ġmercy": 6249,
      "Ġremembering": 6250,
      "Ġbreathing": 6251,
      "Ġdeserve": 6252,
      "Ġmaternal": 6253,
      "Ġundertake": 6254,
      "Ġutmost": 6255,
      "Ġmisfortunes": 6256,
      "Ġlandsc": 6257,
      "graph": 6258,
      "Ġseparate": 6259,
      "Ġmode": 6260,
      "Ġmessenger": 6261,
      "Ġprevail": 6262,
      "cription": 6263,
      "Ġfrolic": 6264,
      "Ġbitterly": 6265,
      "Ġvexed": 6266,
      "Ġvexations": 6267,
      "Ġoccurrence": 6268,
      "Ġpractical": 6269,
      "Ġprobable": 6270,
      "Ġpreparing": 6271,
      "Ġdefend": 6272,
      "Ġaccounts": 6273,
      "settled": 6274,
      "Ġtransact": 6275,
      "Ġlimitation": 6276,
      "Ġclimbed": 6277,
      "Ġneighbors": 6278,
      "Ġaccordance": 6279,
      "Ġmurder": 6280,
      "Ġcreation": 6281,
      "Ġbloss": 6282,
      "Ġdismay": 6283,
      "ĠNext": 6284,
      "ĠIndeed": 6285,
      "Ġfifteen": 6286,
      "Ġdebt": 6287,
      "Ġpreferred": 6288,
      "Ġprincip": 6289,
      "Ġtrembling": 6290,
      "Ġembarrassment": 6291,
      "Ġwandering": 6292,
      "Ġfolks": 6293,
      "ĠNOT": 6294,
      "Ġartistic": 6295,
      "Ġadditional": 6296,
      "Ġfemale": 6297,
      "Ġsoothing": 6298,
      "Ġriches": 6299,
      "Ġdefective": 6300,
      "Ġpreserve": 6301,
      "ĠSomething": 6302,
      "Ġconsolation": 6303,
      "Ġassistance": 6304,
      "Ġastonished": 6305,
      "Ġsteadily": 6306,
      "Ġapplicable": 6307,
      "Ġinterrupted": 6308,
      "iversal": 6309,
      "Ġcomplications": 6310,
      "Ġesteem": 6311,
      "Ġfrivolous": 6312,
      "Ġmelted": 6313,
      "ĠPresently": 6314,
      "Ġconsummation": 6315,
      "ĠAttorney": 6316,
      "Ġjoints": 6317,
      "Ġextraordinary": 6318,
      "ĠWashington": 6319,
      "Ġcongrat": 6320,
      "!--": 6321,
      "01": 6322,
      "11": 6323,
      "26": 6324,
      "53": 6325,
      "59": 6326,
      "At": 6327,
      "Bless": 6328,
      "Hush": 6329,
      "MENT": 6330,
      "Perhaps": 6331,
      "af": 6332,
      "ax": 6333,
      "bur": 6334,
      "back": 6335,
      "des": 6336,
      "five": 6337,
      "ground": 6338,
      "glass": 6339,
      "iate": 6340,
      "kers": 6341,
      "onder": 6342,
      "ups": 6343,
      "Ġ`": 6344,
      "Ġtact": 6345,
      "Ġack": 6346,
      "inine": 6347,
      "Ġwot": 6348,
      "rers": 6349,
      "Ġbade": 6350,
      "Ġfet": 6351,
      "Ġfaded": 6352,
      "isp": 6353,
      "Ġmountain": 6354,
      "Ġcoo": 6355,
      "Ġcake": 6356,
      "Ġcord": 6357,
      "orms": 6358,
      "Ġtomb": 6359,
      "Ġple": 6360,
      "Ġpig": 6361,
      "Ġpink": 6362,
      "Ġlou": 6363,
      "Ġloo": 6364,
      "Ġinn": 6365,
      "ĠIll": 6366,
      "Ġbefall": 6367,
      "Ġgle": 6368,
      "Ġgift": 6369,
      "ĠTr": 6370,
      "ĠThank": 6371,
      "owder": 6372,
      "Ġeloqu": 6373,
      "aments": 6374,
      "idated": 6375,
      "imming": 6376,
      "rious": 6377,
      "stal": 6378,
      "irts": 6379,
      "add": 6380,
      "Ġstamp": 6381,
      "Ġweary": 6382,
      "Ġatmos": 6383,
      "ĠAc": 6384,
      "ĠSir": 6385,
      "ĠSund": 6386,
      "Ġmeat": 6387,
      "ulting": 6388,
      "Ġdemon": 6389,
      "ĠBell": 6390,
      "ĠBla": 6391,
      "ĠLook": 6392,
      "ĠLong": 6393,
      "usions": 6394,
      "Ġdisastrous": 6395,
      "unning": 6396,
      "Ġunsettled": 6397,
      "Ġuniversal": 6398,
      "ĠCr": 6399,
      "ĠDr": 6400,
      "ĠDuring": 6401,
      "ĠHen": 6402,
      "Ġmanaged": 6403,
      "oped": 6404,
      "Ġvig": 6405,
      "orting": 6406,
      "Ġproble": 6407,
      "Ġoutlook": 6408,
      "Ġenvelop": 6409,
      "reath": 6410,
      "iece": 6411,
      "Ġrock": 6412,
      "inkled": 6413,
      "ciation": 6414,
      "ĠEar": 6415,
      "ĠEver": 6416,
      "Ġardent": 6417,
      "Ġdesce": 6418,
      "face": 6419,
      "Ġoffering": 6420,
      "Ġplump": 6421,
      "Ġapply": 6422,
      "Ġapparel": 6423,
      "Ġchairs": 6424,
      "ĠRome": 6425,
      "Ġfolly": 6426,
      "Ġparted": 6427,
      "Ġnewsp": 6428,
      "apidated": 6429,
      "Ġrag": 6430,
      "Ġcaress": 6431,
      "Ġpassage": 6432,
      "Ġglow": 6433,
      "Ġteacher": 6434,
      "Ġchanging": 6435,
      "henomen": 6436,
      "Ġhearth": 6437,
      "Ġgrain": 6438,
      "Ġwalks": 6439,
      "ĠDover": 6440,
      "Ġfails": 6441,
      "Ġboyish": 6442,
      "Ġlightning": 6443,
      "Ġattach": 6444,
      "Ġtrag": 6445,
      "Ġtraitor": 6446,
      "Ġprompt": 6447,
      "gedy": 6448,
      "Ġcopied": 6449,
      "Ġcharms": 6450,
      "Ġpatron": 6451,
      "Ġkeen": 6452,
      "Ġvisions": 6453,
      "Ġinvisible": 6454,
      "Ġsorrows": 6455,
      "Ġhorrible": 6456,
      "Ġstronger": 6457,
      "Ġdealing": 6458,
      "Ġgenerosity": 6459,
      "Ġpoints": 6460,
      "Ġfourth": 6461,
      "Ġfastened": 6462,
      "Ġfearful": 6463,
      "Ġpropose": 6464,
      "Ġpropitious": 6465,
      "Ġdevotion": 6466,
      "Ġcharacters": 6467,
      "Ġartful": 6468,
      "Ġrespectfully": 6469,
      "Ġwinning": 6470,
      "ĠTina": 6471,
      "Ġthrone": 6472,
      "Ġpainful": 6473,
      "Ġcreating": 6474,
      "Ġexperiment": 6475,
      "Ġwishing": 6476,
      "Ġenergies": 6477,
      "Ġdriven": 6478,
      "Ġcorpse": 6479,
      "Ġleading": 6480,
      "Ġdrag": 6481,
      "Ġwithered": 6482,
      "Ġdirected": 6483,
      "Ġhaste": 6484,
      "Ġhotel": 6485,
      "Ġapo": 6486,
      "Ġcontrad": 6487,
      "Ġparagraphs": 6488,
      "Ġavail": 6489,
      "Ġselfishness": 6490,
      "Ġviews": 6491,
      "Ġlimited": 6492,
      "Ġdispleasing": 6493,
      "Ġdivine": 6494,
      "Ġsoberly": 6495,
      "Ġcrept": 6496,
      "clone": 6497,
      "ĠNeither": 6498,
      "Ġtiny": 6499,
      "Ġmemor": 6500,
      "Ġfirmly": 6501,
      "Ġincreasing": 6502,
      "Ġnurse": 6503,
      "Ġridic": 6504,
      "Ġannoyed": 6505,
      "Ġimpatience": 6506,
      "ĠCarrol": 6507,
      "Ġperplexity": 6508,
      "Ġhumiliation": 6509,
      "ĠFORTY": 6510,
      "Ġmercenary": 6511,
      "Ġbetrayed": 6512,
      "Ġcurtains": 6513,
      "Ġknocked": 6514,
      "Ġrent": 6515,
      "Ġdescribe": 6516,
      "Ġintentions": 6517,
      "Ġarrangement": 6518,
      "Ġarticles": 6519,
      "Ġimprovement": 6520,
      "Ġornament": 6521,
      "Ġsubstantial": 6522,
      "Ġroyalties": 6523,
      "Ġprofession": 6524,
      "Ġmisunderstandings": 6525,
      "Ġbereavement": 6526,
      "Ġunnatural": 6527,
      "Ġdeliberately": 6528,
      "Ġexceedingly": 6529,
      "Ġvoyage": 6530,
      "Ġinconven": 6531,
      "Ġmingled": 6532,
      "Ġbetokens": 6533,
      "ĠApollon": 6534,
      "Ġconvinced": 6535,
      "Ġequipment": 6536,
      "Ġvelvet": 6537,
      "Ġloathsome": 6538,
      "Ġlibrary": 6539,
      "Ġacknow": 6540,
      "Ġatmosp": 6541,
      "28": 6542,
      "29": 6543,
      "40": 6544,
      "41": 6545,
      "46": 6546,
      "47": 6547,
      "49": 6548,
      "50": 6549,
      "AS": 6550,
      "Dear": 6551,
      "GREE": 6552,
      "NI": 6553,
      "One": 6554,
      "Shall": 6555,
      "bre": 6556,
      "dated": 6557,
      "gest": 6558,
      "ipt": 6559,
      "iries": 6560,
      "lin": 6561,
      "lier": 6562,
      "oked": 6563,
      "rot": 6564,
      "tree": 6565,
      "two": 6566,
      "venty": 6567,
      "wick": 6568,
      "who": 6569,
      "Ġ-": 6570,
      "Ġ7": 6571,
      "Ġtide": 6572,
      "Ġtune": 6573,
      "Ġairs": 6574,
      "iner": 6575,
      "inished": 6576,
      "Ġwip": 6577,
      "Ġshan": 6578,
      "Ġocean": 6579,
      "Ġthee": 6580,
      "erment": 6581,
      "Ġbars": 6582,
      "Ġfart": 6583,
      "Ġferv": 6584,
      "Ġdared": 6585,
      "iture": 6586,
      "Ġtoil": 6587,
      "Ġtowers": 6588,
      "Ġpages": 6589,
      "Ġpudd": 6590,
      "Ġphenomen": 6591,
      "Ġlat": 6592,
      "Ġlark": 6593,
      "ara": 6594,
      "antern": 6595,
      "ators": 6596,
      "ĠII": 6597,
      "Ġnet": 6598,
      "leet": 6599,
      "Ġhaunted": 6600,
      "ĠTur": 6601,
      "ĠTree": 6602,
      "Ġthunder": 6603,
      "Ġrej": 6604,
      "Ġrene": 6605,
      "aying": 6606,
      "sters": 6607,
      "street": 6608,
      "alking": 6609,
      "Ġasce": 6610,
      "cel": 6611,
      "rop": 6612,
      "irke": 6613,
      "ĠMag": 6614,
      "Ġissu": 6615,
      "race": 6616,
      "ĠAGREE": 6617,
      "ulgar": 6618,
      "ilment": 6619,
      "ainty": 6620,
      "geon": 6621,
      "ĠBrit": 6622,
      "uner": 6623,
      "ĠFar": 6624,
      "ĠFleet": 6625,
      "Ġshirt": 6626,
      "ĠCa": 6627,
      "ĠCro": 6628,
      "ĠCoun": 6629,
      "ĠDay": 6630,
      "ĠWI": 6631,
      "ĠWater": 6632,
      "this": 6633,
      "rief": 6634,
      "Ġmane": 6635,
      "Ġmanuscript": 6636,
      "Ġrush": 6637,
      "Ġrattle": 6638,
      "opy": 6639,
      "Ġspell": 6640,
      "arts": 6641,
      "Ġexert": 6642,
      "Ġseventy": 6643,
      "Ġvulgar": 6644,
      "Ġoutward": 6645,
      "Ġalike": 6646,
      "uming": 6647,
      "umption": 6648,
      "Ġforeshad": 6649,
      "Ġages": 6650,
      "Ġambitious": 6651,
      "Ġgoods": 6652,
      "Ġpreci": 6653,
      "Ġrode": 6654,
      "Ġimages": 6655,
      "Ġwomanly": 6656,
      "ĠOut": 6657,
      "Ġadorn": 6658,
      "istic": 6659,
      "istent": 6660,
      "Ġuser": 6661,
      "oles": 6662,
      "ĠEve": 6663,
      "ĠNice": 6664,
      "Ġdownfall": 6665,
      "pses": 6666,
      "Ġarch": 6667,
      "Ġarray": 6668,
      "peak": 6669,
      "Ġhappens": 6670,
      "Ġdonate": 6671,
      "Ġimprison": 6672,
      "osure": 6673,
      "Ġdistaste": 6674,
      "ĠRod": 6675,
      "Ġreser": 6676,
      "Ġflirt": 6677,
      "Ġraft": 6678,
      "Ġrags": 6679,
      "Ġaccustomed": 6680,
      "ĠThose": 6681,
      "Ġfortnight": 6682,
      "Ġentity": 6683,
      "Ġtext": 6684,
      "Ġpace": 6685,
      "Ġtrunk": 6686,
      "Ġslander": 6687,
      "ribly": 6688,
      "ĠInter": 6689,
      "Ġretorted": 6690,
      "Ġspecial": 6691,
      "ĠStill": 6692,
      "ivative": 6693,
      "Ġshower": 6694,
      "Ġacute": 6695,
      "ĠKirke": 6696,
      "ĠScott": 6697,
      "ĠVol": 6698,
      "Ġsubs": 6699,
      "Ġindicative": 6700,
      "Ġdiscomfort": 6701,
      "Ġpurple": 6702,
      "Ġcountries": 6703,
      "Ġhopeless": 6704,
      "Ġdisputes": 6705,
      "Ġdisposition": 6706,
      "Ġstove": 6707,
      "Ġdifference": 6708,
      "Ġhatred": 6709,
      "Ġvisible": 6710,
      "ĠYear": 6711,
      "Ġbuying": 6712,
      "Ġintim": 6713,
      "Ġhorrid": 6714,
      "Ġrecord": 6715,
      "Ġapproached": 6716,
      "ENCE": 6717,
      "Ġawaken": 6718,
      "Ġcommit": 6719,
      "Ġjoyous": 6720,
      "Ġglove": 6721,
      "Ġcurrent": 6722,
      "grate": 6723,
      "ĠBeing": 6724,
      "ĠBeast": 6725,
      "Ġdetriment": 6726,
      "Ġleaf": 6727,
      "Ġreasonable": 6728,
      "Ġassociation": 6729,
      "Ġripe": 6730,
      "Ġlads": 6731,
      "ibilities": 6732,
      "Ġdomain": 6733,
      "Ġstartled": 6734,
      "Ġwisdom": 6735,
      "Ġcheerfulness": 6736,
      "Ġshade": 6737,
      "Ġdeserved": 6738,
      "Ġcompanionship": 6739,
      "Ġslightly": 6740,
      "Ġmissed": 6741,
      "Ġneglig": 6742,
      "ESS": 6743,
      "Ġleader": 6744,
      "Ġpursuit": 6745,
      "Ġpurposely": 6746,
      "Ġmedicine": 6747,
      "Ġprevious": 6748,
      "Ġblessing": 6749,
      "Ġhastily": 6750,
      "Ġvaried": 6751,
      "Ġvariety": 6752,
      "Ġbenevol": 6753,
      "ĠEverything": 6754,
      "TIES": 6755,
      "ĠSpy": 6756,
      "Ġcosts": 6757,
      "ĠNothing": 6758,
      "Ġgarments": 6759,
      "Ġbottles": 6760,
      "Ġequally": 6761,
      "Ġqueen": 6762,
      "Ġregretted": 6763,
      "000": 6764,
      "Ġcalmly": 6765,
      "Ġpicking": 6766,
      "Ġplainly": 6767,
      "Ġdamage": 6768,
      "Ġcoffin": 6769,
      "Ġsources": 6770,
      "Ġkeys": 6771,
      "Ġderivative": 6772,
      "Ġprominence": 6773,
      "Ġcomplying": 6774,
      "Ġattractive": 6775,
      "Ġdestroyed": 6776,
      "Ġfaults": 6777,
      "Ġclasses": 6778,
      "Ġtemptation": 6779,
      "Ġdetermination": 6780,
      "Ġhyster": 6781,
      "Ġgraceful": 6782,
      "Ġsolemnly": 6783,
      "Ġimpressions": 6784,
      "Ġpatriots": 6785,
      "Ġsmoothly": 6786,
      "Ġdegrees": 6787,
      "Ġproceeded": 6788,
      "Ġemerald": 6789,
      "Ġfurnished": 6790,
      "achelor": 6791,
      "Ġauthority": 6792,
      "Ġindependence": 6793,
      "Ġamazement": 6794,
      "Ġcompetency": 6795,
      "Ġinstrument": 6796,
      "Ġpriest": 6797,
      "Ġextremely": 6798,
      "Ġcotton": 6799,
      "Ġhammer": 6800,
      "Ġcomputer": 6801,
      "rocos": 6802,
      "Ġliberty": 6803,
      "Ġdistracted": 6804,
      "ĠWhether": 6805,
      "Ġpropriety": 6806,
      "Ġlinen": 6807,
      "Ġdistinguished": 6808,
      "Ġtorture": 6809,
      "ulsive": 6810,
      "Ġdilapidated": 6811,
      "Ġpronounced": 6812,
      "Ġexhausted": 6813,
      "Ġemigrant": 6814,
      "Ġholiday": 6815,
      "IGH": 6816,
      "Ġtumbrils": 6817,
      "Ġcivil": 6818,
      "ĠGeorge": 6819,
      "Ġdemonstr": 6820,
      "Ġfarther": 6821,
      "Ġprecipit": 6822,
      "Ġdistasteful": 6823,
      "..âĢĿ": 6824,
      "39": 6825,
      "48": 6826,
      "ET": 6827,
      "Ind": 6828,
      "IVE": 6829,
      "Mon": 6830,
      "May": 6831,
      "PO": 6832,
      "Poor": 6833,
      "With": 6834,
      "aly": 6835,
      "gence": 6836,
      "keeper": 6837,
      "lest": 6838,
      "mall": 6839,
      "mbl": 6840,
      "tle": 6841,
      "tur": 6842,
      "tons": 6843,
      "vous": 6844,
      "worn": 6845,
      "xic": 6846,
      "Ġtit": 6847,
      "Ġtie": 6848,
      "Ġtire": 6849,
      "Ġaim": 6850,
      "Ġaunt": 6851,
      "inent": 6852,
      "inal": 6853,
      "inte": 6854,
      "inery": 6855,
      "Ġwoke": 6856,
      "Ġsides": 6857,
      "ndry": 6858,
      "Ġbull": 6859,
      "Ġbark": 6860,
      "Ġfain": 6861,
      "Ġfist": 6862,
      "Ġfitted": 6863,
      "Ġdirt": 6864,
      "itating": 6865,
      "encies": 6866,
      "Ġcamp": 6867,
      "Ġcush": 6868,
      "Ġcats": 6869,
      "Ġpant": 6870,
      "Ġpoured": 6871,
      "Ġpalace": 6872,
      "Ġlumber": 6873,
      "Ġlift": 6874,
      "Ġinha": 6875,
      "Ġinev": 6876,
      "Ġheat": 6877,
      "Ġhedge": 6878,
      "aning": 6879,
      "Ġhost": 6880,
      "ĠIND": 6881,
      "Ġbees": 6882,
      "Ġnation": 6883,
      "utions": 6884,
      "vember": 6885,
      "âĢĻ.âĢĿ": 6886,
      "Ġforb": 6887,
      "Ġrein": 6888,
      "Ġreception": 6889,
      "vering": 6890,
      "verted": 6891,
      "Ġasse": 6892,
      "irit": 6893,
      "irls": 6894,
      "Ġstam": 6895,
      "Ġstal": 6896,
      "ĠMill": 6897,
      "Ġshed": 6898,
      "Ġsheep": 6899,
      "rap": 6900,
      "ĠAh": 6901,
      "ĠAre": 6902,
      "ĠSnow": 6903,
      "ĠSatur": 6904,
      "Ġmechan": 6905,
      "tery": 6906,
      "ulated": 6907,
      "Ġdeals": 6908,
      "Ġdeeds": 6909,
      "ĠBook": 6910,
      "ĠBoth": 6911,
      "ĠLA": 6912,
      "ĠLike": 6913,
      "ĠLiber": 6914,
      "ĠTheir": 6915,
      "ections": 6916,
      "Ġupward": 6917,
      "Ġliking": 6918,
      "Ġliability": 6919,
      "Ġloaded": 6920,
      "Ġlofty": 6921,
      "Ġunion": 6922,
      "Ġunself": 6923,
      "Ġunsu": 6924,
      "Ġungrate": 6925,
      "ĠDiv": 6926,
      "ĠWit": 6927,
      "ĠJew": 6928,
      "ĠHar": 6929,
      "ĠHome": 6930,
      "ĠHag": 6931,
      "ĠHundred": 6932,
      "ĠPol": 6933,
      "ĠPray": 6934,
      "Ġrad": 6935,
      "Ġrash": 6936,
      "Ġruff": 6937,
      "Ġfarew": 6938,
      "Ġsphere": 6939,
      "Ġexem": 6940,
      "Ġvir": 6941,
      "hange": 6942,
      "Ġcommer": 6943,
      "Ġproc": 6944,
      "Ġproject": 6945,
      "Ġpopp": 6946,
      "Ġjaw": 6947,
      "ignant": 6948,
      "Ġamass": 6949,
      "ember": 6950,
      "Ġcoin": 6951,
      "urning": 6952,
      "Ġshaken": 6953,
      "Ġadj": 6954,
      "ruit": 6955,
      "ruly": 6956,
      "ĠNE": 6957,
      "ounted": 6958,
      "Ġprisons": 6959,
      "ĠAmong": 6960,
      "Ġoffers": 6961,
      "Ġoldest": 6962,
      "Ġsignals": 6963,
      "acon": 6964,
      "Ġowns": 6965,
      "Ġperception": 6966,
      "Ġsmell": 6967,
      "Ġharness": 6968,
      "ĠRed": 6969,
      "ĠRock": 6970,
      "Ġremove": 6971,
      "Ġblank": 6972,
      "Ġscattered": 6973,
      "Ġraging": 6974,
      "ension": 6975,
      "Ġplacid": 6976,
      "Ġcontribute": 6977,
      "ĠDead": 6978,
      "sole": 6979,
      "ization": 6980,
      "Ġlawn": 6981,
      "Ġcarpet": 6982,
      "Ġillustr": 6983,
      "Ġhelpful": 6984,
      "Ġspec": 6985,
      "Ġdisappeared": 6986,
      "Ġadvise": 6987,
      "Ġadvanced": 6988,
      "Ġrelish": 6989,
      "ggs": 6990,
      "ggy": 6991,
      "Ġconfid": 6992,
      "Ġconfir": 6993,
      "Ġconfused": 6994,
      "Ġconfiding": 6995,
      "Ġinfant": 6996,
      "Ġdelicious": 6997,
      "Ġlights": 6998,
      "Ġfollows": 6999,
      "Ġelement": 7000,
      "Ġpromen": 7001,
      "Ġwinding": 7002,
      "Ġrefused": 7003,
      "Ġrefres": 7004,
      "Ġdiscreet": 7005,
      "Ġreceipt": 7006,
      "Ġregistered": 7007,
      "Ġboot": 7008,
      "Ġswear": 7009,
      "Ġdisposed": 7010,
      "Ġexcuse": 7011,
      "Ġinsol": 7012,
      "Ġinsisted": 7013,
      "Ġdroll": 7014,
      "Ġrealize": 7015,
      "Ġskin": 7016,
      "Ġinvest": 7017,
      "they": 7018,
      "Ġsadd": 7019,
      "Ġgenerations": 7020,
      "Ġwoe": 7021,
      "Ġcurls": 7022,
      "Ġfearing": 7023,
      "Ġprophetic": 7024,
      "Ġarmy": 7025,
      "Ġstrain": 7026,
      "Ġkissing": 7027,
      "Ġmusk": 7028,
      "Ġsurrounding": 7029,
      "Ġbarrier": 7030,
      "Ġirres": 7031,
      "Ġstruggling": 7032,
      "Ġflock": 7033,
      "Ġfloating": 7034,
      "Ġmale": 7035,
      "eyed": 7036,
      "Ġcorp": 7037,
      "Ġdiscovery": 7038,
      "Ġclothing": 7039,
      "Ġslightest": 7040,
      "Ġcircumstance": 7041,
      "umbered": 7042,
      "Ġresolute": 7043,
      "Ġpolice": 7044,
      "Ġpolished": 7045,
      "Ġpenit": 7046,
      "Ġhumanity": 7047,
      "Ġwoods": 7048,
      "Ġmessages": 7049,
      "Ġoccupations": 7050,
      "Ġemployed": 7051,
      "Ġedge": 7052,
      "ĠWhich": 7053,
      "Ġbeneath": 7054,
      "Ġsixty": 7055,
      "Ġregardless": 7056,
      "Ġspectacle": 7057,
      "Ġremarks": 7058,
      "Ġslap": 7059,
      "Ġorders": 7060,
      "Ġordinary": 7061,
      "Ġentertainment": 7062,
      "Ġtreatment": 7063,
      "Ġframe": 7064,
      "Ġloneliness": 7065,
      "Ġexists": 7066,
      "while": 7067,
      "Ġconsequence": 7068,
      "ĠPolly": 7069,
      "Ġdamaged": 7070,
      "Ġportion": 7071,
      "Ġerror": 7072,
      "piration": 7073,
      "Ġvirtues": 7074,
      "Ġfragr": 7075,
      "Ġderived": 7076,
      "Ġgallant": 7077,
      "Ġdollars": 7078,
      "Ġattracted": 7079,
      "Ġluxurious": 7080,
      "Ġpersuaded": 7081,
      "Ġdignified": 7082,
      "Ġpredicted": 7083,
      "Ġpredicts": 7084,
      "Ġtempted": 7085,
      "Ġcultivated": 7086,
      "Ġmarket": 7087,
      "Ġbridal": 7088,
      "Ġbridge": 7089,
      "Ġtumbled": 7090,
      "Ġmoonlight": 7091,
      "ĠAmerica": 7092,
      "Ġreminded": 7093,
      "ettle": 7094,
      "Ġangels": 7095,
      "Ġventures": 7096,
      "Ġribbons": 7097,
      "Ġjewels": 7098,
      "Ġreflected": 7099,
      "Ġmeasure": 7100,
      "Ġdescribed": 7101,
      "Ġflattery": 7102,
      "Ġexclusion": 7103,
      "Ġprognosticates": 7104,
      "Ġmourning": 7105,
      "Ġwidow": 7106,
      "Ġcherished": 7107,
      "Ġcautious": 7108,
      "Ġresearch": 7109,
      "Ġcalculated": 7110,
      "Ġobeyed": 7111,
      "Ġpreparation": 7112,
      "Ġimmensely": 7113,
      "Ġfulfilment": 7114,
      "Ġbodies": 7115,
      "ĠFortune": 7116,
      "ĠJudge": 7117,
      "Ġgruff": 7118,
      "Ġjackal": 7119,
      "Ġquantity": 7120,
      "Ġintroduced": 7121,
      "Ġcyclone": 7122,
      "Ġrapture": 7123,
      "ĠPickwick": 7124,
      "ĠDevil": 7125,
      "Ġunhealth": 7126,
      "Ġsafety": 7127,
      "Ġinsinu": 7128,
      "Ġloung": 7129,
      "ĠHenry": 7130,
      "Ġatmosphere": 7131,
      "Ġrejoice": 7132,
      "rocosm": 7133,
      "Indeed": 7134,
      "Monseigneur": 7135,
      "ĠSaturday": 7136,
      "ĠLiberty": 7137,
      "Ġunselfish": 7138,
      "Ġfarewell": 7139,
      "27": 7140,
      "37": 7141,
      "ACH": 7142,
      "ATION": 7143,
      "EM": 7144,
      "Lau": 7145,
      "Qu": 7146,
      "Re": 7147,
      "Wh": 7148,
      "bar": 7149,
      "ball": 7150,
      "bility": 7151,
      "cope": 7152,
      "erer": 7153,
      "gard": 7154,
      "iqu": 7155,
      "ixt": 7156,
      "mate": 7157,
      "mons": 7158,
      "nut": 7159,
      "nic": 7160,
      "ois": 7161,
      "pro": 7162,
      "pire": 7163,
      "rich": 7164,
      "rate": 7165,
      "sue": 7166,
      "table": 7167,
      "uing": 7168,
      "uly": 7169,
      "upp": 7170,
      "uity": 7171,
      "uries": 7172,
      "wife": 7173,
      "wering": 7174,
      "yn": 7175,
      "Ġ*": 7176,
      "Ġ20": 7177,
      "Ġtast": 7178,
      "Ġtutor": 7179,
      "held": 7180,
      "Ġwre": 7181,
      "Ġwitch": 7182,
      "Ġwives": 7183,
      "Ġsom": 7184,
      "hael": 7185,
      "erous": 7186,
      "erness": 7187,
      "erigo": 7188,
      "Ġbath": 7189,
      "Ġbits": 7190,
      "Ġbrief": 7191,
      "Ġbachelor": 7192,
      "Ġfired": 7193,
      "Ġfury": 7194,
      "Ġdining": 7195,
      "Ġdainty": 7196,
      "itution": 7197,
      "Ġmic": 7198,
      "Ġmixed": 7199,
      "ese": 7200,
      "Ġcooking": 7201,
      "Ġcattle": 7202,
      "ormed": 7203,
      "Ġtore": 7204,
      "Ġyard": 7205,
      "Ġpear": 7206,
      "Ġpilgrim": 7207,
      "atious": 7208,
      "ĠIII": 7209,
      "Ġbeck": 7210,
      "Ġner": 7211,
      "Ġnap": 7212,
      "Ġnuts": 7213,
      "Ġgy": 7214,
      "Ġgoose": 7215,
      "ley": 7216,
      "Ġhal": 7217,
      "ĠTw": 7218,
      "ĠTom": 7219,
      "uting": 7220,
      "owl": 7221,
      "veying": 7222,
      "Ġet": 7223,
      "enth": 7224,
      "Ġrendered": 7225,
      "rial": 7226,
      "riages": 7227,
      "rob": 7228,
      "rope": 7229,
      "robe": 7230,
      "iry": 7231,
      "adle": 7232,
      "adise": 7233,
      "Ġstored": 7234,
      "ĠMa": 7235,
      "ĠMen": 7236,
      "ores": 7237,
      "ĠAS": 7238,
      "ĠApp": 7239,
      "Ġmended": 7240,
      "Ġsubl": 7241,
      "ulent": 7242,
      "Ġdeed": 7243,
      "tem": 7244,
      "romising": 7245,
      "ĠLake": 7246,
      "ĠLaw": 7247,
      "Ġupright": 7248,
      "usk": 7249,
      "Ġworship": 7250,
      "Ġliken": 7251,
      "Ġlob": 7252,
      "Ġunsc": 7253,
      "Ġunkind": 7254,
      "ĠCly": 7255,
      "ĠCross": 7256,
      "aud": 7257,
      "ĠWork": 7258,
      "ĠHun": 7259,
      "esty": 7260,
      "ĠPet": 7261,
      "Ġratt": 7262,
      "Ġrisk": 7263,
      "Ġrasc": 7264,
      "oping": 7265,
      "Ġknot": 7266,
      "akened": 7267,
      "Ġabject": 7268,
      "Ġabode": 7269,
      "umes": 7270,
      "umble": 7271,
      "Ġforerun": 7272,
      "ĠGates": 7273,
      "Ġthereby": 7274,
      "Ġagitation": 7275,
      "Ġcann": 7276,
      "Ġrocks": 7277,
      "ĠOff": 7278,
      "rup": 7279,
      "Ġusur": 7280,
      "weet": 7281,
      "Ġfeed": 7282,
      "ĠNature": 7283,
      "bler": 7284,
      "Ġmoder": 7285,
      "Ġdesirable": 7286,
      "peare": 7287,
      "faced": 7288,
      "ouncing": 7289,
      "Ġ...âĢĿ": 7290,
      "ission": 7291,
      "Ġhappier": 7292,
      "Ġhappiest": 7293,
      "Ġbeforehand": 7294,
      "Ġappe": 7295,
      "Ġappet": 7296,
      "udder": 7297,
      "Ġchain": 7298,
      "Ġperpet": 7299,
      "Ġimplor": 7300,
      "Ġresign": 7301,
      "Ġthoughtful": 7302,
      "Ġpartly": 7303,
      "Ġpartners": 7304,
      "Ġlets": 7305,
      "Ġblunt": 7306,
      "Ġscrib": 7307,
      "Ġschem": 7308,
      "Ġscram": 7309,
      "Ġflattered": 7310,
      "Ġrepent": 7311,
      "Ġrepose": 7312,
      "Ġcloth": 7313,
      "Ġcareer": 7314,
      "ensions": 7315,
      "Ġplague": 7316,
      "ĠDece": 7317,
      "Ġchances": 7318,
      "hens": 7319,
      "Ġwanting": 7320,
      "Ġemotion": 7321,
      "Ġexpenses": 7322,
      "Ġtrick": 7323,
      "Ġadvised": 7324,
      "Ġintended": 7325,
      "ieties": 7326,
      "Ġdecent": 7327,
      "Ġdecision": 7328,
      "Ġreader": 7329,
      "Ġreaders": 7330,
      "Ġwaves": 7331,
      "ĠUND": 7332,
      "Ġdoorway": 7333,
      "Ġlightly": 7334,
      "Ġpossibly": 7335,
      "Ġreturning": 7336,
      "Ġeleven": 7337,
      "ĠVan": 7338,
      "Ġtrap": 7339,
      "Ġtragedy": 7340,
      "Ġsubmiss": 7341,
      "Ġwinds": 7342,
      "aughter": 7343,
      "Ġregister": 7344,
      "Ġmenac": 7345,
      "ucked": 7346,
      "uckle": 7347,
      "Ġsuffic": 7348,
      "Ġtread": 7349,
      "Ġswo": 7350,
      "Ġcrime": 7351,
      "Ġdram": 7352,
      "Ġdrown": 7353,
      "Ġpatiently": 7354,
      "plete": 7355,
      "Ġdrops": 7356,
      "HAT": 7357,
      "Ġtruck": 7358,
      "Ġinviting": 7359,
      "Ġprofits": 7360,
      "Ġexpressed": 7361,
      "Ġbigger": 7362,
      "Ġapprove": 7363,
      "Ġfunction": 7364,
      "ĠNovember": 7365,
      "Ġcaps": 7366,
      "Ġcurly": 7367,
      "Ġelectronically": 7368,
      "Ġspeaks": 7369,
      "Ġdetails": 7370,
      "Ġinfluenced": 7371,
      "Ġgained": 7372,
      "Ġgaining": 7373,
      "Ġmonst": 7374,
      "Ġsoftened": 7375,
      "Ġdomin": 7376,
      "Ġinclined": 7377,
      "Ġinclination": 7378,
      "Ġinclinations": 7379,
      "Ġbarren": 7380,
      "Ġbargain": 7381,
      "Ġcounting": 7382,
      "Ġcoldly": 7383,
      "Ġrecoll": 7384,
      "Ġfaithfully": 7385,
      "Ġfaithfulness": 7386,
      "Ġsucceeded": 7387,
      "Ġcrows": 7388,
      "Ġcollected": 7389,
      "Ġearthly": 7390,
      "grap": 7391,
      "Ġhonestly": 7392,
      "Ġkilling": 7393,
      "Ġwisely": 7394,
      "atisfied": 7395,
      "Ġdissip": 7396,
      "ĠQuad": 7397,
      "Ġfleet": 7398,
      "Ġespecial": 7399,
      "choly": 7400,
      "Ġbitterness": 7401,
      "Ġofficers": 7402,
      "Ġregarding": 7403,
      "ĠChristian": 7404,
      "Ġsalt": 7405,
      "Ġimmort": 7406,
      "Ġimmoral": 7407,
      "Ġphysician": 7408,
      "Ġavo": 7409,
      "Ġdawn": 7410,
      "Ġmalicious": 7411,
      "ĠRevol": 7412,
      "Ġexamine": 7413,
      "Ġfilling": 7414,
      "Ġdispleased": 7415,
      "Ġneighbour": 7416,
      "Ġremembrance": 7417,
      "Ġconsequent": 7418,
      "Ġadvantageous": 7419,
      "Ġdamages": 7420,
      "Ġrubbish": 7421,
      "Ġyielded": 7422,
      "Ġstrengthen": 7423,
      "Ġprominently": 7424,
      "Ġadmirers": 7425,
      "Ġconnection": 7426,
      "Ġtyran": 7427,
      "Ġdolls": 7428,
      "Ġstockings": 7429,
      "Ġborne": 7430,
      "AGES": 7431,
      "Ġrepresents": 7432,
      "Ġstrolled": 7433,
      "Ġtrembled": 7434,
      "ĠDreaming": 7435,
      "Ġmaiden": 7436,
      "Ġimpatient": 7437,
      "Ġbought": 7438,
      "Ġconceal": 7439,
      "ĠExcept": 7440,
      "Ġfurniture": 7441,
      "Ġmentioned": 7442,
      "ĠComm": 7443,
      "Ġsticking": 7444,
      "Ġalarming": 7445,
      "Ġcompliments": 7446,
      "Ġbundles": 7447,
      "Ġduel": 7448,
      "Ġgowns": 7449,
      "Ġflattering": 7450,
      "Ġmourn": 7451,
      "ĠMunchkin": 7452,
      "Ġjumped": 7453,
      "Ġestablishment": 7454,
      "Ġarticle": 7455,
      "Ġexecution": 7456,
      "Ġmurmur": 7457,
      "Ġreckon": 7458,
      "Ġwrapped": 7459,
      "Ġgovernment": 7460,
      "Ġsolicit": 7461,
      "Ġthrift": 7462,
      "Ġstooped": 7463,
      "colored": 7464,
      "Ġfeathers": 7465,
      "Ġobscurity": 7466,
      "Ġlingering": 7467,
      "Ġprotest": 7468,
      "Ġcrimson": 7469,
      "Ġreconcili": 7470,
      "ĠINC": 7471,
      "Ġextravagance": 7472,
      "Ġbashful": 7473,
      "Ġwhistle": 7474,
      "Ġcontagion": 7475,
      "Ġnaughty": 7476,
      "Ġaristocratic": 7477,
      "Ġclinging": 7478,
      "entlemen": 7479,
      "Ġvague": 7480,
      "ĠEsther": 7481,
      "Ġtranquil": 7482,
      "Ġthoroughly": 7483,
      "ĠDAMAGES": 7484,
      "Ġscheme": 7485,
      "sawyer": 7486,
      "Ġtremendous": 7487,
      "Ġtransactions": 7488,
      "ĠSunday": 7489,
      "Ġadorned": 7490,
      "mblance": 7491,
      "Ġconfirmed": 7492,
      "Ġtastes": 7493,
      "Ġlikeness": 7494,
      "Ġforerunner": 7495,
      "Ġschemes": 7496,
      "30": 7497,
      "36": 7498,
      "38": 7499,
      "ABILITY": 7500,
      "By": 7501,
      "CII": 7502,
      "Look": 7503,
      "Mar": 7504,
      "OO": 7505,
      "TART": 7506,
      "bbing": 7507,
      "dered": 7508,
      "fig": 7509,
      "hin": 7510,
      "his": 7511,
      "iably": 7512,
      "mist": 7513,
      "making": 7514,
      "mination": 7515,
      "na": 7516,
      "oh": 7517,
      "pen": 7518,
      "pins": 7519,
      "ugs": 7520,
      "val": 7521,
      "vish": 7522,
      "vais": 7523,
      "wind": 7524,
      "Ġtar": 7525,
      "Ġtearing": 7526,
      "Ġwits": 7527,
      "Ġweeping": 7528,
      "Ġsize": 7529,
      "Ġod": 7530,
      "ndy": 7531,
      "have": 7532,
      "ercy": 7533,
      "Ġbill": 7534,
      "Ġbid": 7535,
      "Ġbust": 7536,
      "Ġbother": 7537,
      "Ġbord": 7538,
      "Ġbond": 7539,
      "Ġbuck": 7540,
      "Ġfant": 7541,
      "Ġfren": 7542,
      "Ġfile": 7543,
      "Ġfiles": 7544,
      "Ġfidelity": 7545,
      "Ġdwell": 7546,
      "lls": 7547,
      "Ġmask": 7548,
      "Ġcows": 7549,
      "oration": 7550,
      "Ġtooth": 7551,
      "Ġtower": 7552,
      "Ġyawn": 7553,
      "Ġpall": 7554,
      "Ġpatter": 7555,
      "Ġpisto": 7556,
      "Ġpensive": 7557,
      "Ġpuzz": 7558,
      "Ġlar": 7559,
      "Ġlimes": 7560,
      "Ġlantern": 7561,
      "Ġinability": 7562,
      "any": 7563,
      "Ġhiding": 7564,
      "ommon": 7565,
      "ĠIV": 7566,
      "Ġnational": 7567,
      "Ġgorge": 7568,
      "Ġeggs": 7569,
      "lying": 7570,
      "ams": 7571,
      "sect": 7572,
      "idge": 7573,
      "iders": 7574,
      "idable": 7575,
      "Ġupper": 7576,
      "Ġthirst": 7577,
      "etary": 7578,
      "ales": 7579,
      "Ġstare": 7580,
      "Ġstable": 7581,
      "Ġstol": 7582,
      "Ġstretch": 7583,
      "ĠMic": 7584,
      "Ġdreary": 7585,
      "Ġsheets": 7586,
      "Ġwept": 7587,
      "Ġweigh": 7588,
      "Ġwears": 7589,
      "rain": 7590,
      "ĠAug": 7591,
      "Ġmelo": 7592,
      "Ġkick": 7593,
      "Ġkeeper": 7594,
      "ĠBless": 7595,
      "alley": 7596,
      "usp": 7597,
      "ushes": 7598,
      "unts": 7599,
      "unciation": 7600,
      "Ġunne": 7601,
      "quets": 7602,
      "ĠFe": 7603,
      "ĠFore": 7604,
      "ckery": 7605,
      "ĠCons": 7606,
      "auvais": 7607,
      "ĠHo": 7608,
      "ĠPart": 7609,
      "Ġrushing": 7610,
      "Ġselling": 7611,
      "Ġsevent": 7612,
      "ittens": 7613,
      "Ġves": 7614,
      "Ġknives": 7615,
      "Ġaltered": 7616,
      "Ġwholesome": 7617,
      "Ġagony": 7618,
      "Ġquenched": 7619,
      "Ġamount": 7620,
      "cile": 7621,
      "rue": 7622,
      "ĠEB": 7623,
      "ounding": 7624,
      "Ġarriv": 7625,
      "Ġdescend": 7626,
      "Ġcompelled": 7627,
      "Ġsignal": 7628,
      "Ġnevertheless": 7629,
      "Ġappointed": 7630,
      "udes": 7631,
      "Ġchase": 7632,
      "Ġimpl": 7633,
      "Ġimposed": 7634,
      "Ġrespected": 7635,
      "Ġresumed": 7636,
      "Ġremuner": 7637,
      "Ġblows": 7638,
      "Ġscound": 7639,
      "Ġscreen": 7640,
      "ĠMarches": 7641,
      "Ġchildhood": 7642,
      "Ġreports": 7643,
      "ĠThrough": 7644,
      "Ġcontro": 7645,
      "Ġmarble": 7646,
      "Ġentrance": 7647,
      "Ġpausing": 7648,
      "Ġsurface": 7649,
      "Ġanswering": 7650,
      "Ġhelping": 7651,
      "ĠState": 7652,
      "Ġcheap": 7653,
      "Ġkindred": 7654,
      "Ġevidence": 7655,
      "Ġinformed": 7656,
      "Ġmiser": 7657,
      "Ġmiscar": 7658,
      "Ġgrey": 7659,
      "ĠVI": 7660,
      "ĠVery": 7661,
      "ĠSoon": 7662,
      "Ġrefuge": 7663,
      "Ġsuppressed": 7664,
      "Ġ19": 7665,
      "Ġassisted": 7666,
      "Ġdarkly": 7667,
      "Ġstrict": 7668,
      "Ġcrash": 7669,
      "Ġcricket": 7670,
      "Ġactual": 7671,
      "Ġwarnings": 7672,
      "Ġdrum": 7673,
      "Ġcomforts": 7674,
      "Ġsounds": 7675,
      "Ġmeanwhile": 7676,
      "Ġuncommon": 7677,
      "Ġvisits": 7678,
      "Ġshocked": 7679,
      "Ġportended": 7680,
      "Ġcorners": 7681,
      "hole": 7682,
      "Ġtriump": 7683,
      "Ġawoke": 7684,
      "luence": 7685,
      "Ġsnake": 7686,
      "Ġsniff": 7687,
      "Ġformidable": 7688,
      "Ġthreatens": 7689,
      "Ġdepths": 7690,
      "Ġdevote": 7691,
      "Ġobserv": 7692,
      "Ġvehic": 7693,
      "ĠBeauvais": 7694,
      "Ġideal": 7695,
      "Ġdreaded": 7696,
      "Ġfancies": 7697,
      "Ġdrawer": 7698,
      "Ġlists": 7699,
      "Ġmonster": 7700,
      "Ġdelights": 7701,
      "Ġnicely": 7702,
      "Ġcrosses": 7703,
      "Ġtransc": 7704,
      "Ġmaj": 7705,
      "Ġmerriment": 7706,
      "Ġwilderness": 7707,
      "***": 7708,
      "Ġcontentions": 7709,
      "Ġtale": 7710,
      "Ġtavern": 7711,
      "Ġdestination": 7712,
      "Ġmorality": 7713,
      "Ġfacts": 7714,
      "Ġcollar": 7715,
      "Ġstayed": 7716,
      "Ġresolve": 7717,
      "Ġaccepting": 7718,
      "Ġprivile": 7719,
      "Ġearned": 7720,
      "Ġvisitor": 7721,
      "Ġcroaked": 7722,
      "Ġimportance": 7723,
      "Ġpursuing": 7724,
      "Ġthankful": 7725,
      "Ġpetition": 7726,
      "Ġgrieved": 7727,
      "Ġdespairing": 7728,
      "Ġdirections": 7729,
      "Ġpulling": 7730,
      ".âĢĻâĢĿ": 7731,
      "Ġsweethearts": 7732,
      "Ġvanish": 7733,
      "ĠEverybody": 7734,
      "ĠSpirit": 7735,
      "Ġtravell": 7736,
      "Ġpractised": 7737,
      "Ġinnoc": 7738,
      "Ġrusted": 7739,
      "Ġpraying": 7740,
      "Ġspectators": 7741,
      "Ġadvantages": 7742,
      "OUR": 7743,
      "Ġroused": 7744,
      "Ġslaves": 7745,
      "Ġlimbs": 7746,
      "Ġclimbing": 7747,
      "Ġbells": 7748,
      "Ġformerly": 7749,
      "Ġringing": 7750,
      "Ġcraving": 7751,
      "Ġamusements": 7752,
      "Ġmidnight": 7753,
      "Ġbloom": 7754,
      "Ġderive": 7755,
      "Ġgallows": 7756,
      "ĠGrace": 7757,
      "Ġgrounds": 7758,
      "Ġlieu": 7759,
      "Ġcommanded": 7760,
      "Ġtype": 7761,
      "hantom": 7762,
      "Ġmortal": 7763,
      "Ġadventure": 7764,
      "Ġcatching": 7765,
      "Ġtumbling": 7766,
      "ĠSea": 7767,
      "Ġprincess": 7768,
      "Ġdeclare": 7769,
      "ĠAbb": 7770,
      "Ġconfessed": 7771,
      "Ġsuspicions": 7772,
      "cerity": 7773,
      "ĠPrin": 7774,
      "Ġsongs": 7775,
      "Ġstirred": 7776,
      "Ġalarm": 7777,
      "Ġalarmed": 7778,
      "Ġnodding": 7779,
      "Ġamazed": 7780,
      "Ġrobbed": 7781,
      "Ġboldly": 7782,
      "Ġholes": 7783,
      "ĠEnem": 7784,
      "Ġtendency": 7785,
      "Ġbehave": 7786,
      "Ġshouted": 7787,
      "Ġdisgusting": 7788,
      "Ġprize": 7789,
      "Ġindiscreet": 7790,
      "ugging": 7791,
      "change": 7792,
      "Ġcaution": 7793,
      "ĠChester": 7794,
      "Ġcalculate": 7795,
      "Ġconclusion": 7796,
      "ĠSometimes": 7797,
      "Ġharassed": 7798,
      "Ġmachine": 7799,
      "Ġornaments": 7800,
      "Ġchopped": 7801,
      "Ġgraciously": 7802,
      "Ġmoody": 7803,
      "Ġheights": 7804,
      "Ġrestrain": 7805,
      "Ġthrifty": 7806,
      "ĠLadybird": 7807,
      "Ġaccomplishments": 7808,
      "Ġtreasure": 7809,
      "Ġguests": 7810,
      "Ġintrigue": 7811,
      "Ġperformed": 7812,
      "Ġdishonor": 7813,
      "ĠWARRANTY": 7814,
      "ĠWARRANTIES": 7815,
      "Ġ90": 7816,
      "Ġcupboard": 7817,
      "Ġtossed": 7818,
      "Ġclasped": 7819,
      "Ġfarmers": 7820,
      "Ġelbow": 7821,
      "Ġcomrades": 7822,
      "Ġentangle": 7823,
      "Ġestrangement": 7824,
      "TEEN": 7825,
      "ĠSilver": 7826,
      "Ġabruptly": 7827,
      "Ġsqueezed": 7828,
      "Ġexasperating": 7829,
      "Ġimpulse": 7830,
      "ĠRoyalty": 7831,
      "Ġcontributions": 7832,
      "Ġparticipate": 7833,
      "chard": 7834,
      "warf": 7835,
      "Ġtiger": 7836,
      "Ġmeekly": 7837,
      "Ġmultitude": 7838,
      "Ġilluminated": 7839,
      "Ġdischarge": 7840,
      "Ġlandscape": 7841,
      "Ġcordial": 7842,
      "Ġpleaded": 7843,
      "Ġridiculous": 7844,
      "opyright": 7845,
      "Ġforeshadows": 7846,
      "ĠRoderigo": 7847,
      "Ġunsuccess": 7848,
      "Ġungrateful": 7849,
      "Ġirresist": 7850,
      "ĠASCII": 7851,
      "Ġsublime": 7852,
      "rupulous": 7853,
      "Ġsubmissive": 7854,
      "Ġswollen": 7855,
      "Ġgorgeous": 7856,
      "Ġmelod": 7857,
      "Ġunnecess": 7858,
      "Ġseventeen": 7859,
      "Ġarrival": 7860,
      "55": 7861,
      "96": 7862,
      "AD": 7863,
      "Any": 7864,
      "Every": 7865,
      "FU": 7866,
      "IRE": 7867,
      "NT": 7868,
      "QU": 7869,
      "Wa": 7870,
      "gin": 7871,
      "gown": 7872,
      "iant": 7873,
      "ique": 7874,
      "kward": 7875,
      "ns": 7876,
      "nation": 7877,
      "place": 7878,
      "rat": 7879,
      "rants": 7880,
      "rictions": 7881,
      "sis": 7882,
      "tal": 7883,
      "twenty": 7884,
      "upt": 7885,
      "uary": 7886,
      "ugged": 7887,
      "ys": 7888,
      "Ġtins": 7889,
      "Ġapt": 7890,
      "herent": 7891,
      "inth": 7892,
      "Ġwol": 7893,
      "Ġwipe": 7894,
      "Ġwreath": 7895,
      "rem": 7896,
      "Ġoiled": 7897,
      "Ġowing": 7898,
      "Ġtheat": 7899,
      "ham": 7900,
      "Ġben": 7901,
      "Ġbay": 7902,
      "Ġbased": 7903,
      "Ġfix": 7904,
      "Ġfaster": 7905,
      "Ġfurious": 7906,
      "Ġditch": 7907,
      "Ġdashed": 7908,
      "itudes": 7909,
      "isation": 7910,
      "isions": 7911,
      "isms": 7912,
      "Ġmes": 7913,
      "Ġcous": 7914,
      "Ġcure": 7915,
      "Ġcage": 7916,
      "Ġpic": 7917,
      "Ġpul": 7918,
      "Ġpru": 7919,
      "Ġpup": 7920,
      "Ġpatch": 7921,
      "Ġpier": 7922,
      "Ġlame": 7923,
      "Ġlull": 7924,
      "Ġlac": 7925,
      "athed": 7926,
      "asol": 7927,
      "ashes": 7928,
      "otions": 7929,
      "Ġbending": 7930,
      "Ġgames": 7931,
      "lets": 7932,
      "Ġhay": 7933,
      "illings": 7934,
      "ĠTri": 7935,
      "ĠTry": 7936,
      "imp": 7937,
      "Ġthy": 7938,
      "Ġthirty": 7939,
      "ete": 7940,
      "Ġforming": 7941,
      "Ġrelease": 7942,
      "Ġreferences": 7943,
      "ripp": 7944,
      "aye": 7945,
      "ros": 7946,
      "cture": 7947,
      "Ġstake": 7948,
      "Ġstub": 7949,
      "Ġwhip": 7950,
      "ĠMice": 7951,
      "ĠMost": 7952,
      "ĠMuch": 7953,
      "urable": 7954,
      "Ġsheer": 7955,
      "kept": 7956,
      "Ġsoil": 7957,
      "rands": 7958,
      "ĠAf": 7959,
      "Ġmelan": 7960,
      "Ġsucc": 7961,
      "Ġbuttons": 7962,
      "Ġdearer": 7963,
      "Ġdeception": 7964,
      "iler": 7965,
      "ilation": 7966,
      "ained": 7967,
      "ĠBull": 7968,
      "ĠBew": 7969,
      "ĠBird": 7970,
      "ĠBRE": 7971,
      "Ġdoc": 7972,
      "Ġdismiss": 7973,
      "Ġlivel": 7974,
      "Ġung": 7975,
      "Ġunto": 7976,
      "Ġunav": 7977,
      "Ġunlock": 7978,
      "Ġunwel": 7979,
      "quer": 7980,
      "quest": 7981,
      "Ġshield": 7982,
      "Ġshillings": 7983,
      "cker": 7984,
      "augh": 7985,
      "ĠWa": 7986,
      "ĠWouldn": 7987,
      "ĠHam": 7988,
      "ĠHall": 7989,
      "ĠHum": 7990,
      "thly": 7991,
      "Ġconcept": 7992,
      "Ġconference": 7993,
      "Ġseed": 7994,
      "Ġvine": 7995,
      "Ġvows": 7996,
      "Ġknit": 7997,
      "Ġprostr": 7998,
      "Ġabuse": 7999,
      "Ġabomin": 8000,
      "tofore": 8001,
      "Ġjer": 8002,
      "umps": 8003,
      "umsy": 8004,
      "ieu": 8005,
      "Ġleag": 8006,
      "Ġleap": 8007,
      "Ġlemon": 8008,
      "Ġaged": 8009,
      "ndering": 8010,
      "Ġoverp": 8011,
      "Ġoverfl": 8012,
      "Ġquality": 8013,
      "perhaps": 8014,
      "emember": 8015,
      "Ġcoal": 8016,
      "Ġrocking": 8017,
      "Ġshaggy": 8018,
      "cier": 8019,
      "Ġwhatsoever": 8020,
      "jected": 8021,
      "pel": 8022,
      "pended": 8023,
      "Ġcompre": 8024,
      "Ġcompar": 8025,
      "Ġdonkey": 8026,
      "acock": 8027,
      "Ġappl": 8028,
      "Ġapple": 8029,
      "Ġchains": 8030,
      "Ġimpure": 8031,
      "mances": 8032,
      "Ġdistrust": 8033,
      "Ġpersisted": 8034,
      "Ġbegging": 8035,
      "Ġblushed": 8036,
      "Ġblowing": 8037,
      "Ġblunder": 8038,
      "Ġflir": 8039,
      "Ġflies": 8040,
      "Ġflash": 8041,
      "Ġrage": 8042,
      "Ġclay": 8043,
      "Ġclumsy": 8044,
      "Ġpassions": 8045,
      "Ġours": 8046,
      "Ġfortress": 8047,
      "gerie": 8048,
      "Ġpairs": 8049,
      "Ġjustify": 8050,
      "Ġheretofore": 8051,
      "Ġcarriages": 8052,
      "ĠInf": 8053,
      "Ġhelpless": 8054,
      "Ġincome": 8055,
      "Ġincons": 8056,
      "ĠStork": 8057,
      "Ġcheery": 8058,
      "Ġrelation": 8059,
      "Ġendure": 8060,
      "Ġendurance": 8061,
      "Ġdecayed": 8062,
      "Ġhonoured": 8063,
      "Ġdelusion": 8064,
      "ĠKings": 8065,
      "ertainly": 8066,
      "Ġrightly": 8067,
      "ĠVII": 8068,
      "Ġtrace": 8069,
      "Ġresting": 8070,
      "Ġrestrictions": 8071,
      "Ġpromoting": 8072,
      "Ġearlier": 8073,
      "Ġsubdu": 8074,
      "Ġstillness": 8075,
      "Ġgirlish": 8076,
      "Ġreferred": 8077,
      "Ġrefinement": 8078,
      "Ġsupplied": 8079,
      "Ġreceives": 8080,
      "Ġpurcha": 8081,
      "Ġpursue": 8082,
      "ailing": 8083,
      "Ġboast": 8084,
      "Ġswung": 8085,
      "Ġdisplace": 8086,
      "Ġmomentous": 8087,
      "Ġacting": 8088,
      "Ġdresses": 8089,
      "elie": 8090,
      "untarily": 8091,
      "Ġguine": 8092,
      "Ġskirts": 8093,
      "Ġintricate": 8094,
      "Ġstands": 8095,
      "Ġstandard": 8096,
      "Ġprofound": 8097,
      "Ġcertainty": 8098,
      "Ġexpressive": 8099,
      "Ġhorribly": 8100,
      "Ġsurprising": 8101,
      "ĠWhatever": 8102,
      "Ġrecom": 8103,
      "END": 8104,
      "Ġaware": 8105,
      "Ġawakened": 8106,
      "Ġawkward": 8107,
      "Ġsaddle": 8108,
      "Ġblaze": 8109,
      "Ġopenly": 8110,
      "Ġbeset": 8111,
      "Ġescorted": 8112,
      "Ġfearfully": 8113,
      "grass": 8114,
      "Ġobservation": 8115,
      "ouraged": 8116,
      "Ġstrained": 8117,
      "Ġattending": 8118,
      "Ġwhisked": 8119,
      "Ġwhiskers": 8120,
      "Ġheavier": 8121,
      "Ġparticle": 8122,
      "Ġworthless": 8123,
      "airy": 8124,
      "Ġcounted": 8125,
      "Ġsingular": 8126,
      "Ġdriver": 8127,
      "Ġlargely": 8128,
      "Ġgrandpa": 8129,
      "Ġwildly": 8130,
      "Ġcorrupt": 8131,
      "quisite": 8132,
      "Ġpurposes": 8133,
      "ocket": 8134,
      "Ġencouraging": 8135,
      "ĠDonations": 8136,
      "Ġangrily": 8137,
      "Ġposting": 8138,
      "Ġpostil": 8139,
      "Ġhollow": 8140,
      "umbers": 8141,
      "Ġfruits": 8142,
      "Ġprivately": 8143,
      "Ġcrop": 8144,
      "Ġdragged": 8145,
      "Ġglasses": 8146,
      "ĠZara": 8147,
      "Ġfrost": 8148,
      "Ġsolitude": 8149,
      "Ġprotection": 8150,
      "atics": 8151,
      "Ġcrowded": 8152,
      "Ġdisturbing": 8153,
      "Ġinquiry": 8154,
      "ĠRef": 8155,
      "Ġentertained": 8156,
      "Ġsuspense": 8157,
      "Ġsuspicious": 8158,
      "boat": 8159,
      "Ġsignificance": 8160,
      "Ġplanning": 8161,
      "Ġcolors": 8162,
      "Ġportent": 8163,
      "Ġportra": 8164,
      "ĠConc": 8165,
      "ĠConf": 8166,
      "Ġboxes": 8167,
      "Ġtrifling": 8168,
      "Ġcitizeness": 8169,
      "Ġloudly": 8170,
      "Ġgrove": 8171,
      "Ġechoed": 8172,
      "Ġdisplayed": 8173,
      "Ġhurriedly": 8174,
      "Ġcounterp": 8175,
      "Ġtempest": 8176,
      "Ġeighteen": 8177,
      "Ġstormy": 8178,
      "Ġinvolve": 8179,
      "Ġforeboding": 8180,
      "Ġshameful": 8181,
      "Ġrepresented": 8182,
      "Ġbelonged": 8183,
      "conf": 8184,
      "Ġgracefully": 8185,
      "Ġmillion": 8186,
      "ĠAdv": 8187,
      "Ġviolently": 8188,
      "Ġwander": 8189,
      "Ġcaptive": 8190,
      "Ġmaids": 8191,
      "Ġcombat": 8192,
      "Ġimpatiently": 8193,
      "Ġbouquets": 8194,
      "Ġpicturesque": 8195,
      "Ġdeveloped": 8196,
      "Ġjewel": 8197,
      "Ġ*****": 8198,
      "Ġblew": 8199,
      "Ġeagerly": 8200,
      "Ġrebell": 8201,
      "Ġpositive": 8202,
      "Ġclapped": 8203,
      "Ġscrape": 8204,
      "Ġarrangements": 8205,
      "Ġbewilderment": 8206,
      "Ġabandoned": 8207,
      "Ġfeminine": 8208,
      "Ġindiscretion": 8209,
      "Ġhospital": 8210,
      "Ġhandkerchiefs": 8211,
      "Ġreproachful": 8212,
      "Ġresemblance": 8213,
      "Ġprecise": 8214,
      "Ġindulge": 8215,
      "Ġbriskly": 8216,
      "Ġmodestly": 8217,
      "Ġoverwhelm": 8218,
      "Only": 8219,
      "married": 8220,
      "Ġidentify": 8221,
      "Ġgrindstone": 8222,
      "Ġtelegram": 8223,
      "Ġborrowed": 8224,
      "Ġphilosophy": 8225,
      "ĠShoes": 8226,
      "Ġovertake": 8227,
      "Ġgranted": 8228,
      "Ġspeedy": 8229,
      "Ġperformances": 8230,
      "Ġobedient": 8231,
      "Ġclerk": 8232,
      "Ġreligion": 8233,
      "Ġaccompanied": 8234,
      "Ġreconciled": 8235,
      "Ġpunishment": 8236,
      "ĠTerrible": 8237,
      "Ġpeasant": 8238,
      "Ġattentions": 8239,
      "Ġelbows": 8240,
      "Ġshrill": 8241,
      "ĠCountry": 8242,
      "Ġbirthday": 8243,
      "Ġleisure": 8244,
      "Ġwistfully": 8245,
      "Ġliterature": 8246,
      "Ġcrawling": 8247,
      "ĠDesp": 8248,
      "Ġvividly": 8249,
      "Ġpoetry": 8250,
      "Ġincomplete": 8251,
      "TRIB": 8252,
      "Ġwagon": 8253,
      "ĠSchool": 8254,
      "ĠDISTRIB": 8255,
      "Ġconfronted": 8256,
      "Ġproposal": 8257,
      "Ġtragic": 8258,
      "Ġpromptly": 8259,
      "Ġinconvenience": 8260,
      "Ġacknowled": 8261,
      "ĠBritish": 8262,
      "ĠInterp": 8263,
      "IGHT": 8264,
      "ĠHagar": 8265,
      "Ġexempt": 8266,
      "Ġjaws": 8267,
      "Ġpenitent": 8268,
      "Really": 8269,
      "Which": 8270,
      "oiselle": 8271,
      "Ġbeckoned": 8272,
      "tempered": 8273,
      "ĠDecember": 8274,
      "ĠVanilla": 8275,
      "Ġmonstrous": 8276,
      "Ġdissipation": 8277,
      "ĠQuadlings": 8278,
      "Ġavoided": 8279,
      "Ġtyrann": 8280,
      "OOK": 8281,
      "uspicious": 8282,
      "Ġmiscarriage": 8283,
      "IRECT": 8284,
      "Ġtinsmith": 8285,
      "Ġwolves": 8286,
      "Ġmelancholy": 8287,
      "ĠBeware": 8288,
      "ĠBREACH": 8289,
      "Ġunwelcome": 8290,
      "Ġsubdued": 8291,
      "60": 8292,
      "CEN": 8293,
      "De": 8294,
      "DING": 8295,
      "Ex": 8296,
      "Me": 8297,
      "OS": 8298,
      "PR": 8299,
      "Plain": 8300,
      "ULL": 8301,
      "aid": 8302,
      "aver": 8303,
      "afore": 8304,
      "bble": 8305,
      "bers": 8306,
      "cat": 8307,
      "cont": 8308,
      "four": 8309,
      "gate": 8310,
      "gments": 8311,
      "houses": 8312,
      "iot": 8313,
      "jud": 8314,
      "ogue": 8315,
      "rite": 8316,
      "rated": 8317,
      "she": 8318,
      "sky": 8319,
      "tr": 8320,
      "trap": 8321,
      "urope": 8322,
      "Ġess": 8323,
      "Ġties": 8324,
      "Ġtour": 8325,
      "Ġtries": 8326,
      "Ġaversion": 8327,
      "inqu": 8328,
      "Ġwos": 8329,
      "Ġsins": 8330,
      "Ġsank": 8331,
      "Ġscience": 8332,
      "rect": 8333,
      "reation": 8334,
      "Ġowe": 8335,
      "hal": 8336,
      "Ġbon": 8337,
      "Ġblock": 8338,
      "Ġfid": 8339,
      "Ġfools": 8340,
      "Ġdart": 8341,
      "Ġdwarf": 8342,
      "itute": 8343,
      "edy": 8344,
      "Ġmart": 8345,
      "Ġmamma": 8346,
      "Ġmixt": 8347,
      "onies": 8348,
      "Ġcow": 8349,
      "Ġcarn": 8350,
      "Ġcunning": 8351,
      "Ġtoast": 8352,
      "Ġpaint": 8353,
      "Ġpeeping": 8354,
      "Ġpavement": 8355,
      "Ġpouring": 8356,
      "Ġlions": 8357,
      "Ġlords": 8358,
      "Ġinco": 8359,
      "Ġinquis": 8360,
      "Ġhel": 8361,
      "arges": 8362,
      "anim": 8363,
      "anks": 8364,
      "atures": 8365,
      "ĠIX": 8366,
      "ĠIm": 8367,
      "otten": 8368,
      "Ġbend": 8369,
      "Ġnaked": 8370,
      "ĠTen": 8371,
      "ĠTime": 8372,
      "ĠTHAT": 8373,
      "ĠâĢľ--": 8374,
      "icable": 8375,
      "Ġec": 8376,
      "Ġebook": 8377,
      "amation": 8378,
      "Ġherbs": 8379,
      "Ġreun": 8380,
      "Ġremed": 8381,
      "Ġreap": 8382,
      "Ġredd": 8383,
      "rip": 8384,
      "rizz": 8385,
      "alted": 8386,
      "Ġassent": 8387,
      "Ġascend": 8388,
      "Ġwashing": 8389,
      "ctions": 8390,
      "ĠMed": 8391,
      "ĠMus": 8392,
      "ifies": 8393,
      "ĠAss": 8394,
      "ĠAuth": 8395,
      "ĠSam": 8396,
      "ĠSte": 8397,
      "ĠSalt": 8398,
      "ĠSweet": 8399,
      "ĠSTART": 8400,
      "Ġmeal": 8401,
      "Ġmending": 8402,
      "Ġorange": 8403,
      "Ġorphan": 8404,
      "ulations": 8405,
      "ulace": 8406,
      "ulsed": 8407,
      "Ġdeer": 8408,
      "Ġdeaf": 8409,
      "Ġsaving": 8410,
      "Ġsailing": 8411,
      "Ġkicked": 8412,
      "tel": 8413,
      "ainted": 8414,
      "ĠBed": 8415,
      "ĠBath": 8416,
      "alls": 8417,
      "ĠLamb": 8418,
      "Ġdoomed": 8419,
      "usive": 8420,
      "Ġdiso": 8421,
      "Ġdislike": 8422,
      "Ġliqu": 8423,
      "Ġload": 8424,
      "Ġloses": 8425,
      "Ġunin": 8426,
      "Ġunst": 8427,
      "Ġunfore": 8428,
      "Ġunlike": 8429,
      "Ġunseen": 8430,
      "Ġunworthy": 8431,
      "Ġdenoting": 8432,
      "quake": 8433,
      "ĠFo": 8434,
      "ĠFight": 8435,
      "ĠFour": 8436,
      "ĠFish": 8437,
      "ĠField": 8438,
      "ĠFirst": 8439,
      "ĠFULL": 8440,
      "rys": 8441,
      "Ġshrew": 8442,
      "Ġshiver": 8443,
      "ĠCrow": 8444,
      "ĠCock": 8445,
      "ĠDark": 8446,
      "ĠDRE": 8447,
      "igible": 8448,
      "ĠWalking": 8449,
      "ĠJune": 8450,
      "ĠHy": 8451,
      "ĠHot": 8452,
      "ĠHay": 8453,
      "ĠHal": 8454,
      "ĠHad": 8455,
      "ĠHold": 8456,
      "ĠHug": 8457,
      "Ġconven": 8458,
      "Ġwheed": 8459,
      "Ġwheat": 8460,
      "Ġmansion": 8461,
      "ĠPG": 8462,
      "ĠPen": 8463,
      "ĠPass": 8464,
      "ops": 8465,
      "Ġsprang": 8466,
      "Ġexter": 8467,
      "Ġexting": 8468,
      "Ġexquisite": 8469,
      "Ġexalted": 8470,
      "Ġvines": 8471,
      "ongenial": 8472,
      "hanged": 8473,
      "ortion": 8474,
      "Ġaltern": 8475,
      "Ġjest": 8476,
      "umbled": 8477,
      "Ġforef": 8478,
      "ĠGet": 8479,
      "Ġagitated": 8480,
      "emoiselle": 8481,
      "Ġintoxic": 8482,
      "Ġpreacher": 8483,
      "Ġroared": 8484,
      "Ġrolling": 8485,
      "ĠOil": 8486,
      "oyed": 8487,
      "ĠEating": 8488,
      "ĠEmb": 8489,
      "ĠEurope": 8490,
      "ressing": 8491,
      "Ġshouldering": 8492,
      "ĠNight": 8493,
      "ĠNap": 8494,
      "Ġmoan": 8495,
      "Ġmaybe": 8496,
      "Ġcomposure": 8497,
      "Ġlongings": 8498,
      "ints": 8499,
      "Ġplot": 8500,
      "Ġplant": 8501,
      "Ġapplied": 8502,
      "Ġchast": 8503,
      "Ġchapter": 8504,
      "Ġperf": 8505,
      "Ġperched": 8506,
      "Ġpersec": 8507,
      "odgrass": 8508,
      "Ġimpet": 8509,
      "Ġimpart": 8510,
      "Ġtwink": 8511,
      "Ġresour": 8512,
      "Ġresidence": 8513,
      "Ġresigned": 8514,
      "Ġbeggar": 8515,
      "abb": 8516,
      "Ġblush": 8517,
      "Ġblasted": 8518,
      "Ġflut": 8519,
      "Ġflame": 8520,
      "Ġturnkey": 8521,
      "Ġrack": 8522,
      "ometer": 8523,
      "Ġrepulsive": 8524,
      "Ġclung": 8525,
      "Ġpasses": 8526,
      "Ġsignify": 8527,
      "Ġtending": 8528,
      "Ġwherever": 8529,
      "apped": 8530,
      "feit": 8531,
      "Ġexposed": 8532,
      "aternal": 8533,
      "Ġnightc": 8534,
      "Ġsurv": 8535,
      "Ġsurvey": 8536,
      "Ġsurveying": 8537,
      "Ġslam": 8538,
      "Ġslumber": 8539,
      "ĠInst": 8540,
      "Ġretreat": 8541,
      "ulties": 8542,
      "Ġincap": 8543,
      "ĠĠĠĠĠ": 8544,
      "Ġchecked": 8545,
      "Ġchecks": 8546,
      "Ġrelent": 8547,
      "pring": 8548,
      "ggard": 8549,
      "Ġconfront": 8550,
      "Ġconferred": 8551,
      "Ġdecree": 8552,
      "Ġreadily": 8553,
      "Ġwailing": 8554,
      "ĠUse": 8555,
      "Ġsermon": 8556,
      "Ġaddressed": 8557,
      "ĠVoice": 8558,
      "ĠVIII": 8559,
      "ĠVaugh": 8560,
      "Ġrestore": 8561,
      "Ġpromotion": 8562,
      "Ġbestowed": 8563,
      "Ġrefer": 8564,
      "Ġreflection": 8565,
      "Ġhusbands": 8566,
      "Ġdarkened": 8567,
      "Ġmomentary": 8568,
      "Ġclever": 8569,
      "Ġtermin": 8570,
      "Ġinstantly": 8571,
      "sery": 8572,
      "Ġcharges": 8573,
      "Ġguide": 8574,
      "Ġsecuring": 8575,
      "Ġsecurity": 8576,
      "Ġpatches": 8577,
      "Ġgiant": 8578,
      "Ġsunset": 8579,
      "Ġporch": 8580,
      "Ġinsens": 8581,
      "Ġhumbly": 8582,
      "Ġuncongenial": 8583,
      "ĠWealth": 8584,
      "mean": 8585,
      "Ġburial": 8586,
      "Ġshoot": 8587,
      "Ġsorrowfully": 8588,
      "Ġdeadly": 8589,
      "angs": 8590,
      "ucing": 8591,
      "Ġredistribut": 8592,
      "Ġsteal": 8593,
      "Ġbrightly": 8594,
      "Ġsinister": 8595,
      "ĠNobody": 8596,
      "Ġshortly": 8597,
      "Ġjoyfully": 8598,
      "Ġsnuff": 8599,
      "ĠMonkey": 8600,
      "Ġlowest": 8601,
      "formed": 8602,
      "amples": 8603,
      "Ġcurse": 8604,
      "Ġcrystal": 8605,
      "such": 8606,
      "ourable": 8607,
      "....âĢĿ": 8608,
      "Ġsubjectivity": 8609,
      "Ġmusical": 8610,
      "Ġthrong": 8611,
      "Ġdelightfully": 8612,
      "Ġcapacity": 8613,
      "umping": 8614,
      "umpled": 8615,
      "Ġtenderness": 8616,
      "Ġbreaks": 8617,
      "uffs": 8618,
      "Ġremains": 8619,
      "Ġstudious": 8620,
      "Ġquestioned": 8621,
      "Ġfrightful": 8622,
      "Ġfooting": 8623,
      "Doctor": 8624,
      "Ġworrying": 8625,
      "Ġhoarse": 8626,
      "Ġruined": 8627,
      "Ġvisitors": 8628,
      "Ġwarmth": 8629,
      "Ġpenny": 8630,
      "Ġobtained": 8631,
      "Ġoccasional": 8632,
      "bearer": 8633,
      "Ġpetul": 8634,
      "Ġseparated": 8635,
      "dog": 8636,
      "door": 8637,
      "Ġwitches": 8638,
      "Ġdissol": 8639,
      "ĠWhite": 8640,
      "ocation": 8641,
      "Ġblessings": 8642,
      "Ġsplendor": 8643,
      "Ġsettling": 8644,
      "Ġbreadth": 8645,
      "Ġvexatious": 8646,
      "Ġmilitary": 8647,
      "Ġidleness": 8648,
      "Ġschoo": 8649,
      "Ġvalued": 8650,
      "Ġobstruct": 8651,
      "Ġsquare": 8652,
      "Ġprayed": 8653,
      "Ġundo": 8654,
      "Ġnecessity": 8655,
      "ONE": 8656,
      "Ġjudge": 8657,
      "Ġpassionately": 8658,
      "Ġentertaining": 8659,
      "Ġcoachman": 8660,
      "Ġregrets": 8661,
      "box": 8662,
      "ritz": 8663,
      "Ġgaily": 8664,
      "Ġattempts": 8665,
      "Ġdusty": 8666,
      "Ġthousands": 8667,
      "Ġdesperately": 8668,
      "ĠConcier": 8669,
      "Ġerrors": 8670,
      "erns": 8671,
      "stricken": 8672,
      "Ġvirtuous": 8673,
      "Ġattendant": 8674,
      "Ġyielding": 8675,
      "ĠShould": 8676,
      "Ġstaff": 8677,
      "fitable": 8678,
      "Ġaudible": 8679,
      "eese": 8680,
      "Ġbeaten": 8681,
      "ĠLICEN": 8682,
      "Ġpersuade": 8683,
      "Ġforebodings": 8684,
      "Ġuneasy": 8685,
      "Ġtemptations": 8686,
      "ĠRepublican": 8687,
      "ridge": 8688,
      "Ġlamb": 8689,
      "Ġhyp": 8690,
      "Ġnursery": 8691,
      "Ġstroke": 8692,
      "Ġcoup": 8693,
      "Ġruled": 8694,
      "Ġdecline": 8695,
      "Ġaddressing": 8696,
      "Ġpinafore": 8697,
      "Ġdependent": 8698,
      "cientific": 8699,
      "Ġproceedings": 8700,
      "Ġrecognised": 8701,
      "Ġpopulace": 8702,
      "Ġconcealed": 8703,
      "Ġemerged": 8704,
      "Ġhurrying": 8705,
      "Ġcovering": 8706,
      "Ġfiercely": 8707,
      "John": 8708,
      "Ġheavens": 8709,
      "Ġheavenly": 8710,
      "Ġreflections": 8711,
      "Ġtightly": 8712,
      "Ġmeasures": 8713,
      "Ġdelicacy": 8714,
      "Ġbehaved": 8715,
      "Ġestablished": 8716,
      "Ġwidest": 8717,
      "Ġrejoined": 8718,
      "Ġrejoicing": 8719,
      "Ġrelieve": 8720,
      "Ġsparkling": 8721,
      "Ġrescued": 8722,
      "Ġsincerely": 8723,
      "Ġexecuted": 8724,
      "Ġdiscussing": 8725,
      "Didn": 8726,
      "Ġprecaut": 8727,
      "Ġindulgence": 8728,
      "Ġmurmured": 8729,
      "Ġoverwhelming": 8730,
      "Ġcottage": 8731,
      "Ġcomputers": 8732,
      "Ġvaluables": 8733,
      "Ġflourish": 8734,
      "Ġawaiting": 8735,
      "Ġensue": 8736,
      "Ġintervals": 8737,
      "Ġstooping": 8738,
      "Ġindignation": 8739,
      "Ġscolded": 8740,
      "Ġdespondency": 8741,
      "ĠGrandpa": 8742,
      "Ġmisunderstanding": 8743,
      "Ġfilthy": 8744,
      "Ġmassive": 8745,
      "Ġdisclaimer": 8746,
      "Ġtreasures": 8747,
      "Ġfederal": 8748,
      "Ġquantities": 8749,
      "Ġapparently": 8750,
      "Ġreligious": 8751,
      "ĠTerms": 8752,
      "ĠSnodgrass": 8753,
      "Ġconquered": 8754,
      "ĠOtherwise": 8755,
      "Ġcontracts": 8756,
      "ĠUpon": 8757,
      "Ġeconomical": 8758,
      "Ġcomrade": 8759,
      "Ġshrieks": 8760,
      "Ġextended": 8761,
      "Ġleisurely": 8762,
      "Ġprettily": 8763,
      "Ġperilous": 8764,
      "Ġscratch": 8765,
      "Ġcondemned": 8766,
      "Ġswallow": 8767,
      "Ġirritated": 8768,
      "Ġenthusiasm": 8769,
      "Ġindustry": 8770,
      "Ġsymbols": 8771,
      "Ġsmoothed": 8772,
      "Ġbasin": 8773,
      "Ġreciproc": 8774,
      "Ġsavage": 8775,
      "Ġrarely": 8776,
      "Ġaccumulation": 8777,
      "Ġrefreshment": 8778,
      "Ġceremony": 8779,
      "Ġingenuity": 8780,
      "donate": 8781,
      "Ġfascinating": 8782,
      "ĠCastle": 8783,
      "Ġmuffled": 8784,
      "Ġsurmount": 8785,
      "Ġunprofitable": 8786,
      "ĠBlack": 8787,
      "Ġnewspaper": 8788,
      "Ġapolo": 8789,
      "Ġavailable": 8790,
      "Ġwiped": 8791,
      "ĠFarmer": 8792,
      "Ġimprisonment": 8793,
      "Ġreserved": 8794,
      "Ġsubsided": 8795,
      "Ġreinst": 8796,
      "ĠLAUR": 8797,
      "Ġruffled": 8798,
      "Ġcommercial": 8799,
      "ĠRedistribut": 8800,
      "Ġspecified": 8801,
      "Ġunhealthy": 8802,
      "Ġlobster": 8803,
      "Ġunscrupulous": 8804,
      "ĠHunger": 8805,
      "Ġreconciliation": 8806,
      "Ġpuzzled": 8807,
      "Ġstolen": 8808,
      "ĠAugust": 8809,
      "ĠEBOOK": 8810,
      "Ġscoundrel": 8811,
      "Ġunsuccessful": 8812,
      "Ġpostilions": 8813,
      "ĠDISTRIBUT": 8814,
      "Ġfidget": 8815,
      "Ġmixture": 8816,
      "Ġunforeseen": 8817,
      "ĠDREAM": 8818,
      "ĠHugo": 8819,
      "ĠConciergerie": 8820,
      "ĠLICENSE": 8821,
      "!)": 8822,
      "25": 8823,
      "43": 8824,
      "87": 8825,
      "Al": 8826,
      "Am": 8827,
      "Certainly": 8828,
      "God": 8829,
      "Hold": 8830,
      "IC": 8831,
      "IND": 8832,
      "LU": 8833,
      "Much": 8834,
      "Mrs": 8835,
      "ORE": 8836,
      "Say": 8837,
      "away": 8838,
      "action": 8839,
      "bred": 8840,
      "bted": 8841,
      "bby": 8842,
      "bread": 8843,
      "cest": 8844,
      "elf": 8845,
      "from": 8846,
      "fol": 8847,
      "fish": 8848,
      "ige": 8849,
      "ients": 8850,
      "jug": 8851,
      "ka": 8852,
      "keeping": 8853,
      "mo": 8854,
      "mill": 8855,
      "mph": 8856,
      "master": 8857,
      "ober": 8858,
      "pired": 8859,
      "phant": 8860,
      "rish": 8861,
      "sure": 8862,
      "subl": 8863,
      "ui": 8864,
      "uild": 8865,
      "when": 8866,
      "xen": 8867,
      "xim": 8868,
      "your": 8869,
      "Ġiv": 8870,
      "Ġxx": 8871,
      "Ġtap": 8872,
      "Ġaching": 8873,
      "Ġachie": 8874,
      "ina": 8875,
      "Ġwed": 8876,
      "Ġwil": 8877,
      "Ġwrought": 8878,
      "Ġseduct": 8879,
      "Ġtheory": 8880,
      "ouch": 8881,
      "hable": 8882,
      "Ġbald": 8883,
      "Ġbowing": 8884,
      "Ġbills": 8885,
      "Ġfer": 8886,
      "Ġfishing": 8887,
      "Ġfoul": 8888,
      "Ġdumb": 8889,
      "Ġduration": 8890,
      "itz": 8891,
      "itter": 8892,
      "Ġmire": 8893,
      "escrib": 8894,
      "Ġcough": 8895,
      "Ġcask": 8896,
      "oring": 8897,
      "orus": 8898,
      "Ġtoile": 8899,
      "Ġtops": 8900,
      "Ġpha": 8901,
      "Ġpiled": 8902,
      "Ġpots": 8903,
      "Ġpsy": 8904,
      "Ġpowder": 8905,
      "Ġphantom": 8906,
      "Ġlun": 8907,
      "Ġinfect": 8908,
      "Ġinsect": 8909,
      "ariably": 8910,
      "ata": 8911,
      "ato": 8912,
      "atin": 8913,
      "atical": 8914,
      "atoes": 8915,
      "asy": 8916,
      "Ġhire": 8917,
      "Ġhug": 8918,
      "Ġhugged": 8919,
      "omer": 8920,
      "otted": 8921,
      "othes": 8922,
      "Ġnin": 8923,
      "Ġnun": 8924,
      "Ġnum": 8925,
      "Ġnett": 8926,
      "Ġgn": 8927,
      "Ġgas": 8928,
      "Ġginger": 8929,
      "lebr": 8930,
      "Ġhail": 8931,
      "Ġhaggard": 8932,
      "ĠTurn": 8933,
      "ĠTud": 8934,
      "âĢĿ.": 8935,
      "icide": 8936,
      "Ġecc": 8937,
      "see": 8938,
      "idering": 8939,
      "imble": 8940,
      "Ġthumb": 8941,
      "etic": 8942,
      "etery": 8943,
      "Ġonto": 8944,
      "ription": 8945,
      "alian": 8946,
      "Ġasc": 8947,
      "Ġashes": 8948,
      "Ġaspire": 8949,
      "rod": 8950,
      "adation": 8951,
      "Ġanew": 8952,
      "ĠMoney": 8953,
      "urse": 8954,
      "urous": 8955,
      "Ġsheet": 8956,
      "Ġshelf": 8957,
      "Ġyourselves": 8958,
      "Ġweb": 8959,
      "ĠAls": 8960,
      "ĠAdd": 8961,
      "ĠAbs": 8962,
      "ĠSy": 8963,
      "ĠSold": 8964,
      "Ġmend": 8965,
      "Ġorchard": 8966,
      "ulness": 8967,
      "Ġdew": 8968,
      "Ġdeference": 8969,
      "Ġdemean": 8970,
      "Ġkittens": 8971,
      "ilk": 8972,
      "ĠBad": 8973,
      "ĠBab": 8974,
      "ĠBible": 8975,
      "ĠBench": 8976,
      "Ġaren": 8977,
      "ĠLab": 8978,
      "ĠLatin": 8979,
      "Ġalleg": 8980,
      "Ġdoct": 8981,
      "Ġdisk": 8982,
      "Ġdisli": 8983,
      "Ġdisrep": 8984,
      "Ġlocks": 8985,
      "unken": 8986,
      "Ġunions": 8987,
      "Ġunacc": 8988,
      "Ġunmarried": 8989,
      "quo": 8990,
      "ĠFin": 8991,
      "ĠFeeling": 8992,
      "ĠFoot": 8993,
      "ĠFritz": 8994,
      "Ġshudder": 8995,
      "ĠCott": 8996,
      "ĠCoff": 8997,
      "ĠDam": 8998,
      "ĠDown": 8999,
      "ĠWine": 9000,
      "ĠWild": 9001,
      "ĠWonder": 9002,
      "ĠJe": 9003,
      "ĠJack": 9004,
      "ĠHim": 9005,
      "ĠHigh": 9006,
      "Ġconsole": 9007,
      "ersbur": 9008,
      "ĠPU": 9009,
      "ĠPh": 9010,
      "ĠPat": 9011,
      "ĠPip": 9012,
      "Ġray": 9013,
      "Ġrings": 9014,
      "Ġrider": 9015,
      "Ġrats": 9016,
      "Ġrumm": 9017,
      "Ġspi": 9018,
      "Ġspin": 9019,
      "Ġsport": 9020,
      "Ġspared": 9021,
      "Ġexile": 9022,
      "Ġexult": 9023,
      "Ġexagger": 9024,
      "Ġsew": 9025,
      "Ġsear": 9026,
      "Ġsends": 9027,
      "Ġselect": 9028,
      "Ġvase": 9029,
      "ortment": 9030,
      "ortions": 9031,
      "Ġnobility": 9032,
      "Ġoutw": 9033,
      "Ġjar": 9034,
      "Ġgover": 9035,
      "Ġforecast": 9036,
      "ĠGree": 9037,
      "ĠGhost": 9038,
      "ĠGlass": 9039,
      "Ġovershad": 9040,
      "Ġqualities": 9041,
      "peror": 9042,
      "emetery": 9043,
      "Ġcock": 9044,
      "Ġtheirs": 9045,
      "nesses": 9046,
      "Ġgoodbye": 9047,
      "agne": 9048,
      "Ġpleasurable": 9049,
      "ĠOb": 9050,
      "ĠOp": 9051,
      "ĠOver": 9052,
      "Ġshapes": 9053,
      "Ġshawl": 9054,
      "Ġadjust": 9055,
      "isten": 9056,
      "isting": 9057,
      "istinct": 9058,
      "Ġuses": 9059,
      "Ġchose": 9060,
      "Ġchickens": 9061,
      "olic": 9062,
      "ishly": 9063,
      "ĠEach": 9064,
      "ĠEtext": 9065,
      "ĠEye": 9066,
      "ĠIts": 9067,
      "Ġfeeding": 9068,
      "ressible": 9069,
      "Ġshouldered": 9070,
      "Ġpeacock": 9071,
      "Ġarts": 9072,
      "Ġarising": 9073,
      "Ġargu": 9074,
      "Ġmoans": 9075,
      "Ġdescription": 9076,
      "favor": 9077,
      "Ġbusily": 9078,
      "Ġpranks": 9079,
      "Ġcompla": 9080,
      "Ġcompressed": 9081,
      "Ġoffence": 9082,
      "intry": 9083,
      "Ġplent": 9084,
      "Ġthroughout": 9085,
      "Ġappar": 9086,
[...]
