{
  "version": "1.0",
  "truncation": null,
  "padding": null,
  "added_tokens": [
    {
      "id": 0,
      "content": "<pad>",
      "single_word": false,
      "lstrip": false,
      "rstrip": false,
      "normalized": false,
      "special": true
    },
    {
      "id": 1,
      "content": "<s>",
      "single_word": false,
      "lstrip": false,
      "rstrip": false,
      "normalized": false,
      "special": true
    },
    {
      "id": 2,
      "content": "</s>",
      "single_word": false,
      "lstrip": false,
      "rstrip": false,
      "normalized": false,
      "special": true
    },
    {
      "id": 3,
      "content": "<unk>",
      "single_word": false,
      "lstrip": false,
      "rstrip": false,
      "normalized": false,
      "special": true
    },
    {
      "id": 4,
      "content": "<mask>",
      "single_word": false,
      "lstrip": false,
      "rstrip": false,
      "normalized": false,
      "special": true
    }
  ],
  "normalizer": null,
  "pre_tokenizer": {
    "type": "Whitespace"
  },
  "post_processor": null,
  "decoder": null,
  "model": {
    "type": "BPE",
    "dropout": null,
    "unk_token": null,
    "continuing_subword_prefix": null,
    "end_of_word_suffix": null,
    "fuse_unk": false,
    "byte_fallback": false,
    "ignore_merges": false,
    "vocab": {
      "<pad>": 0,
      "<s>": 1,
      "</s>": 2,
      "<unk>": 3,
      "<mask>": 4,
      "!": 5,
      "\"": 6,
      "#": 7,
      "$": 8,
      "%": 9,
      "&": 10,
      "'": 11,
      "(": 12,
      ")": 13,
      "*": 14,
      "+": 15,
      ",": 16,
      "-": 17,
      ".": 18,
      "/": 19,
      "0": 20,
      "1": 21,
      "2": 22,
      "3": 23,
      "4": 24,
      "5": 25,
      "6": 26,
      "7": 27,
      "8": 28,
      "9": 29,
      ":": 30,
      ";": 31,
      "<": 32,
      "=": 33,
      ">": 34,
      "?": 35,
      "@": 36,
      "A": 37,
      "B": 38,
      "C": 39,
      "D": 40,
      "E": 41,
      "F": 42,
      "G": 43,
      "H": 44,
      "I": 45,
      "J": 46,
      "K": 47,
      "L": 48,
      "M": 49,
      "N": 50,
      "O": 51,
      "P": 52,
      "Q": 53,
      "R": 54,
      "S": 55,
      "T": 56,
      "U": 57,
      "V": 58,
      "W": 59,
      "X": 60,
      "Y": 61,
      "Z": 62,
      "[": 63,
      "\\": 64,
      "]": 65,
      "^": 66,
      "_": 67,
      "`": 68,
      "a": 69,
      "b": 70,
      "c": 71,
      "d": 72,
      "e": 73,
      "f": 74,
      "g": 75,
      "h": 76,
      "i": 77,
      "j": 78,
      "k": 79,
      "l": 80,
      "m": 81,
      "n": 82,
      "o": 83,
      "p": 84,
      "q": 85,
      "r": 86,
      "s": 87,
      "t": 88,
      "u": 89,
      "v": 90,
      "w": 91,
      "x": 92,
      "y": 93,
      "z": 94,
      "{": 95,
      "|": 96,
      "}": 97,
      "~": 98,
      "£": 99,
      "§": 100,
      "¨": 101,
      "¯": 102,
      "°": 103,
      "´": 104,
      "¶": 105,
      "·": 106,
      "¸": 107,
      "º": 108,
      "½": 109,
      "¿": 110,
      "À": 111,
      "Æ": 112,
      "Ç": 113,
      "È": 114,
      "É": 115,
      "Ê": 116,
      "Ï": 117,
      "Ô": 118,
      "Ü": 119,
      "à": 120,
      "á": 121,
      "â": 122,
      "ä": 123,
      "æ": 124,
      "ç": 125,
      "è": 126,
      "é": 127,
      "ê": 128,
      "ë": 129,
      "ì": 130,
      "í": 131,
      "î": 132,
      "ï": 133,
      "ð": 134,
      "ñ": 135,
      "ò": 136,
      "ó": 137,
      "ô": 138,
      "ö": 139,
      "÷": 140,
      "ù": 141,
      "ú": 142,
      "û": 143,
      "ü": 144,
      "ý": 145,
      "ā": 146,
      "Œ": 147,
      "œ": 148,
      "ſ": 149,
      "̸": 150,
      "Δ": 151,
      "Ξ": 152,
      "Ο": 153,
      "Τ": 154,
      "ά": 155,
      "έ": 156,
      "ή": 157,
      "ί": 158,
      "α": 159,
      "β": 160,
      "γ": 161,
      "δ": 162,
      "ε": 163,
      "ζ": 164,
      "η": 165,
      "θ": 166,
      "ι": 167,
      "κ": 168,
      "λ": 169,
      "μ": 170,
      "ν": 171,
      "ξ": 172,
      "ο": 173,
      "π": 174,
      "ρ": 175,
      "ς": 176,
      "σ": 177,
      "τ": 178,
      "υ": 179,
      "φ": 180,
      "χ": 181,
      "ω": 182,
      "ό": 183,
      "ύ": 184,
      "ώ": 185,
      "ἀ": 186,
      "ἂ": 187,
      "ἃ": 188,
      "ἄ": 189,
      "Ἀ": 190,
      "ἐ": 191,
      "ἑ": 192,
      "ἔ": 193,
      "ἕ": 194,
      "Ἕ": 195,
      "ἠ": 196,
      "ἡ": 197,
      "ἢ": 198,
      "ἣ": 199,
      "ἤ": 200,
      "ἥ": 201,
      "ἰ": 202,
      "ἱ": 203,
      "ἴ": 204,
      "ἵ": 205,
      "ἶ": 206,
      "ἷ": 207,
      "ὁ": 208,
      "ὂ": 209,
      "ὄ": 210,
      "ὅ": 211,
      "ὐ": 212,
      "ὑ": 213,
      "ὔ": 214,
      "ὕ": 215,
      "ὗ": 216,
      "ὥ": 217,
      "ὦ": 218,
      "ὰ": 219,
      "ὲ": 220,
      "ὴ": 221,
      "ὶ": 222,
      "ὸ": 223,
      "ὺ": 224,
      "ᾗ": 225,
      "ᾠ": 226,
      "ᾳ": 227,
      "ᾶ": 228,
      "ῃ": 229,
      "ῆ": 230,
      "ῇ": 231,
      "ῖ": 232,
      "ῦ": 233,
      "ῳ": 234,
      "ῶ": 235,
      "ῷ": 236,
      "—": 237,
      "―": 238,
      "‖": 239,
      "‘": 240,
      "’": 241,
      "“": 242,
      "”": 243,
      "†": 244,
      "•": 245,
      "…": 246,
      "₂": 247,
      "™": 248,
      "✠": 249,
      "﻿": 250,
      "th": 251,
      "in": 252,
      "the": 253,
      "an": 254,
      "er": 255,
      "re": 256,
      "on": 257,
      "en": 258,
      "at": 259,
      "is": 260,
      "ou": 261,
      "or": 262,
      "of": 263,
      "ed": 264,
      "es": 265,
      "and": 266,
      "to": 267,
      "as": 268,
      "it": 269,
      "ar": 270,
      "ing": 271,
      "al": 272,
      "he": 273,
      "le": 274,
      "se": 275,
      "ch": 276,
      "om": 277,
      "be": 278,
      "st": 279,
      "wh": 280,
      "ll": 281,
      "ion": 282,
      "ad": 283,
      "no": 284,
      "ly": 285,
      "ve": 286,
      "wi": 287,
      "ent": 288,
      "ce": 289,
      "ct": 290,
      "am": 291,
      "im": 292,
      "that": 293,
      "ver": 294,
      "ro": 295,
      "ut": 296,
      "for": 297,
      "ld": 298,
      "ay": 299,
      "id": 300,
      "gh": 301,
      "ir": 302,
      "ic": 303,
      "you": 304,
      "ow": 305,
      "with": 306,
      "su": 307,
      "his": 308,
      "ter": 309,
      "li": 310,
      "all": 311,
      "ha": 312,
      "un": 313,
      "ri": 314,
      "was": 315,
      "are": 316,
      "ther": 317,
      "not": 318,
      "ab": 319,
      "her": 320,
      "con": 321,
      ".\"": 322,
      "et": 323,
      "ur": 324,
      "whi": 325,
      "mo": 326,
      "lo": 327,
      "de": 328,
      "po": 329,
      "ag": 330,
      "us": 331,
      "so": 332,
      "The": 333,
      "which": 334,
      "one": 335,
      "per": 336,
      "pe": 337,
      "ght": 338,
      "oun": 339,
      "ess": 340,
      "ne": 341,
      "by": 342,
      "com": 343,
      ".\"—": 344,
      "sh": 345,
      "ation": 346,
      "ould": 347,
      "me": 348,
      "ain": 349,
      "we": 350,
      "ex": 351,
      "ul": 352,
      "ac": 353,
      "fe": 354,
      "qu": 355,
      "ke": 356,
      "res": 357,
      "if": 358,
      "our": 359,
      "fr": 360,
      "have": 361,
      "man": 362,
      "ive": 363,
      "had": 364,
      "od": 365,
      "pro": 366,
      "but": 367,
      "est": 368,
      "this": 369,
      "ant": 370,
      "pl": 371,
      "wor": 372,
      "ap": 373,
      "out": 374,
      "him": 375,
      "will": 376,
      "il": 377,
      "art": 378,
      "ere": 379,
      "te": 380,
      "go": 381,
      "fo": 382,
      "tr": 383,
      "from": 384,
      "pr": 385,
      "end": 386,
      "ome": 387,
      "other": 388,
      "do": 389,
      "ind": 390,
      "my": 391,
      "who": 392,
      "ard": 393,
      "up": 394,
      "ous": 395,
      "ist": 396,
      ".,": 397,
      "ate": 398,
      "au": 399,
      "ity": 400,
      "thing": 401,
      "they": 402,
      "sa": 403,
      "ish": 404,
      "she": 405,
      "sel": 406,
      "em": 407,
      "very": 408,
      "co": 409,
      "der": 410,
      "iv": 411,
      "them": 412,
      "ust": 413,
      "ame": 414,
      "ill": 415,
      "fa": 416,
      "ple": 417,
      "cor": 418,
      "now": 419,
      "ig": 420,
      "ge": 421,
      "ure": 422,
      "able": 423,
      "ong": 424,
      "je": 425,
      "their": 426,
      "some": 427,
      "ound": 428,
      "ak": 429,
      "ence": 430,
      "there": 431,
      "any": 432,
      "um": 433,
      "ies": 434,
      "ction": 435,
      "gr": 436,
      "pos": 437,
      "ast": 438,
      "pre": 439,
      "Wh": 440,
      "He": 441,
      "self": 442,
      "ers": 443,
      "ot": 444,
      "would": 445,
      "Th": 446,
      "ok": 447,
      "its": 448,
      "way": 449,
      "more": 450,
      "ort": 451,
      "ci": 452,
      "fore": 453,
      "were": 454,
      "ough": 455,
      "ine": 456,
      "your": 457,
      "--": 458,
      "has": 459,
      "can": 460,
      "ass": 461,
      "pres": 462,
      "what": 463,
      "part": 464,
      "said": 465,
      "ment": 466,
      "itt": 467,
      "ject": 468,
      "ight": 469,
      "bl": 470,
      "af": 471,
      "ue": 472,
      "than": 473,
      "ol": 474,
      "An": 475,
      "It": 476,
      "ber": 477,
      "cl": 478,
      "dis": 479,
      "ra": 480,
      "reat": 481,
      "been": 482,
      "when": 483,
      "own": 484,
      "wo": 485,
      "bo": 486,
      "ally": 487,
      "ree": 488,
      "In": 489,
      "form": 490,
      "may": 491,
      "word": 492,
      "To": 493,
      "ire": 494,
      "ev": 495,
      "fer": 496,
      "ob": 497,
      "son": 498,
      ".”": 499,
      "ng": 500,
      "age": 501,
      "here": 502,
      "pt": 503,
      "ach": 504,
      "ance": 505,
      "mar": 506,
      "ck": 507,
      "ble": 508,
      "tim": 509,
      "ake": 510,
      "ans": 511,
      "know": 512,
      "el": 513,
      "ose": 514,
      "say": 515,
      "pp": 516,
      "ade": 517,
      "ang": 518,
      "old": 519,
      "ide": 520,
      "Gr": 521,
      "dre": 522,
      "ie": 523,
      "should": 524,
      "act": 525,
      "row": 526,
      "only": 527,
      "But": 528,
      "ition": 529,
      "tain": 530,
      "into": 531,
      "ite": 532,
      "like": 533,
      "see": 534,
      "op": 535,
      "ated": 536,
      "spe": 537,
      "ear": 538,
      "av": 539,
      "ty": 540,
      "ary": 541,
      "du": 542,
      "Gram": 543,
      "under": 544,
      "most": 545,
      "two": 546,
      "str": 547,
      "ase": 548,
      "int": 549,
      "ice": 550,
      "uch": 551,
      "ry": 552,
      "such": 553,
      "urn": 554,
      "Mr": 555,
      "And": 556,
      "ise": 557,
      "good": 558,
      "ph": 559,
      "ought": 560,
      "den": 561,
      "la": 562,
      "time": 563,
      "great": 564,
      "ign": 565,
      "ink": 566,
      "ep": 567,
      "ack": 568,
      "day": 569,
      "sp": 570,
      "long": 571,
      "comm": 572,
      "ser": 573,
      "ud": 574,
      "ever": 575,
      "si": 576,
      "br": 577,
      "fir": 578,
      "these": 579,
      "over": 580,
      "llow": 581,
      "less": 582,
      "must": 583,
      "ful": 584,
      "work": 585,
      "being": 586,
      "verb": 587,
      "ittle": 588,
      "every": 589,
      "could": 590,
      "bet": 591,
      "ved": 592,
      "ren": 593,
      "much": 594,
      "hand": 595,
      "ness": 596,
      "well": 597,
      "ions": 598,
      "same": 599,
      "ER": 600,
      "ace": 601,
      "then": 602,
      "how": 603,
      "let": 604,
      ",\"": 605,
      "If": 606,
      "little": 607,
      "des": 608,
      "ten": 609,
      "read": 610,
      "fl": 611,
      "ull": 612,
      "wr": 613,
      "cess": 614,
      "made": 615,
      "person": 616,
      "par": 617,
      "dream": 618,
      "right": 619,
      "ious": 620,
      "where": 621,
      "did": 622,
      "ause": 623,
      "dist": 624,
      "We": 625,
      ",”": 626,
      "coun": 627,
      "before": 628,
      "come": 629,
      "dif": 630,
      "use": 631,
      "ces": 632,
      "fect": 633,
      "fin": 634,
      "This": 635,
      "sub": 636,
      "turn": 637,
      "about": 638,
      "red": 639,
      "after": 640,
      "ps": 641,
      "those": 642,
      "men": 643,
      "arm": 644,
      "press": 645,
      "ular": 646,
      "cer": 647,
      "ced": 648,
      "ick": 649,
      "look": 650,
      "again": 651,
      "first": 652,
      "without": 653,
      "ative": 654,
      "Eng": 655,
      "ations": 656,
      "pass": 657,
      "upon": 658,
      "words": 659,
      "gen": 660,
      "ves": 661,
      "cons": 662,
      "What": 663,
      "..": 664,
      "ical": 665,
      "cause": 666,
      ".—": 667,
      "even": 668,
      "ning": 669,
      "call": 670,
      "sc": 671,
      "Engl": 672,
      "val": 673,
      "ef": 674,
      "himself": 675,
      "ving": 676,
      "les": 677,
      "att": 678,
      "inter": 679,
      "off": 680,
      "sto": 681,
      "sy": 682,
      "used": 683,
      "ici": 684,
      "ho": 685,
      "ave": 686,
      "ari": 687,
      "sing": 688,
      "light": 689,
      "ey": 690,
      "hi": 691,
      "Jo": 692,
      "port": 693,
      "pri": 694,
      "though": 695,
      "nat": 696,
      "never": 697,
      "ted": 698,
      "pa": 699,
      "put": 700,
      "wom": 701,
      "reg": 702,
      "make": 703,
      "new": 704,
      "ild": 705,
      "rel": 706,
      "You": 707,
      "oc": 708,
      "ways": 709,
      "?”": 710,
      "many": 711,
      "too": 712,
      "led": 713,
      "follow": 714,
      "clo": 715,
      "There": 716,
      "produ": 717,
      "shall": 718,
      "seem": 719,
      "tell": 720,
      "ither": 721,
      "ult": 722,
      "ner": 723,
      "min": 724,
      "think": 725,
      "pect": 726,
      "appe": 727,
      "atter": 728,
      "thr": 729,
      "ON": 730,
      "add": 731,
      "alk": 732,
      "just": 733,
      "noun": 734,
      "med": 735,
      "Pro": 736,
      "ward": 737,
      "For": 738,
      "TH": 739,
      "ings": 740,
      "ily": 741,
      "gener": 742,
      "She": 743,
      "present": 744,
      "Ib": 745,
      "comp": 746,
      "vi": 747,
      "ress": 748,
      "ange": 749,
      "stand": 750,
      "proper": 751,
      "head": 752,
      "18": 753,
      "sm": 754,
      "ater": 755,
      "ors": 756,
      "ru": 757,
      "English": 758,
      "They": 759,
      "ens": 760,
      "ouse": 761,
      "ities": 762,
      "II": 763,
      "get": 764,
      "cour": 765,
      "beg": 766,
      "tak": 767,
      "might": 768,
      "down": 769,
      "cre": 770,
      "thought": 771,
      "always": 772,
      "iss": 773,
      "differ": 774,
      "position": 775,
      "don": 776,
      "cont": 777,
      "Se": 778,
      "full": 779,
      "ray": 780,
      "ts": 781,
      "young": 782,
      "jo": 783,
      "fri": 784,
      "try": 785,
      "case": 786,
      "place": 787,
      "Ch": 788,
      "mor": 789,
      "love": 790,
      "iz": 791,
      "otes": 792,
      "ower": 793,
      "ied": 794,
      "ask": 795,
      "cr": 796,
      "happ": 797,
      "point": 798,
      "life": 799,
      "cept": 800,
      "sur": 801,
      "express": 802,
      "ives": 803,
      "ath": 804,
      "ished": 805,
      "sent": 806,
      "No": 807,
      "mer": 808,
      "cap": 809,
      "things": 810,
      "cent": 811,
      "mon": 812,
      "went": 813,
      "nothing": 814,
      "land": 815,
      "because": 816,
      "Mur": 817,
      "ried": 818,
      ".)": 819,
      "requ": 820,
      "thy": 821,
      "ates": 822,
      "cur": 823,
      "child": 824,
      "certain": 825,
      "num": 826,
      "vo": 827,
      "also": 828,
      "ss": 829,
      "year": 830,
      "through": 831,
      "ven": 832,
      "friend": 833,
      "che": 834,
      "woman": 835,
      "denotes": 836,
      "vers": 837,
      "ently": 838,
      "ax": 839,
      "gl": 840,
      "pron": 841,
      "each": 842,
      "That": 843,
      "ith": 844,
      "ense": 845,
      "\"—": 846,
      "air": 847,
      "last": 848,
      "ting": 849,
      "pleas": 850,
      "lect": 851,
      "vent": 852,
      "name": 853,
      "ople": 854,
      "set": 855,
      "ars": 856,
      "iness": 857,
      "oney": 858,
      "lear": 859,
      "mind": 860,
      "Murray": 861,
      "LE": 862,
      "house": 863,
      "uten": 864,
      "others": 865,
      "found": 866,
      "ural": 867,
      "three": 868,
      "ety": 869,
      "cond": 870,
      "bre": 871,
      "di": 872,
      "ason": 873,
      "gram": 874,
      "ord": 875,
      "still": 876,
      "kind": 877,
      "take": 878,
      "cy": 879,
      "!”": 880,
      "people": 881,
      "car": 882,
      "stru": 883,
      "ory": 884,
      "When": 885,
      "sign": 886,
      "sol": 887,
      "back": 888,
      "fort": 889,
      "nor": 890,
      "give": 891,
      "ents": 892,
      "both": 893,
      "berg": 894,
      "Be": 895,
      "char": 896,
      "cho": 897,
      "Id": 898,
      "utenberg": 899,
      "does": 900,
      "inst": 901,
      "cas": 902,
      "angu": 903,
      "ters": 904,
      "mod": 905,
      "lab": 906,
      "mark": 907,
      "came": 908,
      "money": 909,
      "better": 910,
      "ark": 911,
      "TI": 912,
      "away": 913,
      "fact": 914,
      "called": 915,
      "another": 916,
      "ited": 917,
      "object": 918,
      "sim": 919,
      "value": 920,
      "ii": 921,
      "while": 922,
      "ples": 923,
      "ered": 924,
      "law": 925,
      "pur": 926,
      "ened": 927,
      "pronoun": 928,
      "bed": 929,
      "thor": 930,
      "speak": 931,
      "eyes": 932,
      "care": 933,
      "stre": 934,
      "lt": 935,
      "night": 936,
      "ween": 937,
      "ages": 938,
      "ute": 939,
      "ft": 940,
      "fall": 941,
      "mak": 942,
      "ins": 943,
      "augh": 944,
      "ding": 945,
      "ating": 946,
      "Project": 947,
      "CH": 948,
      "says": 949,
      "bro": 950,
      "father": 951,
      "sup": 952,
      "Gutenberg": 953,
      "find": 954,
      "som": 955,
      "want": 956,
      "ared": 957,
      "heart": 958,
      "high": 959,
      "als": 960,
      "between": 961,
      "ctions": 962,
      "ures": 963,
      "thus": 964,
      "face": 965,
      "ons": 966,
      "10": 967,
      "tem": 968,
      "As": 969,
      "tre": 970,
      "imes": 971,
      "cir": 972,
      "order": 973,
      "ms": 974,
      "ned": 975,
      "prof": 976,
      "pose": 977,
      "EN": 978,
      "necess": 979,
      "fam": 980,
      "ash": 981,
      "commod": 982,
      "once": 983,
      "far": 984,
      "ley": 985,
      "raw": 986,
      "equ": 987,
      "yet": 988,
      "omin": 989,
      "whe": 990,
      "OR": 991,
      "low": 992,
      "room": 993,
      "whole": 994,
      "feel": 995,
      "thou": 996,
      "different": 997,
      "grammar": 998,
      "pli": 999,
      "need": 1000,
      "IN": 1001,
      "either": 1002,
      "mean": 1003,
      "giv": 1004,
      "main": 1005,
      "something": 1006,
      "circ": 1007,
      "langu": 1008,
      "selves": 1009,
      "gu": 1010,
      "side": 1011,
      "poss": 1012,
      "sound": 1013,
      "gent": 1014,
      "four": 1015,
      "bus": 1016,
      "soci": 1017,
      "etimes": 1018,
      "ff": 1019,
      "best": 1020,
      "nature": 1021,
      "dr": 1022,
      "bar": 1023,
      "common": 1024,
      "hal": 1025,
      "subject": 1026,
      "possess": 1027,
      "dou": 1028,
      "often": 1029,
      "ank": 1030,
      "ged": 1031,
      "bu": 1032,
      "ual": 1033,
      "turned": 1034,
      "ls": 1035,
      "ial": 1036,
      "God": 1037,
      "change": 1038,
      "reason": 1039,
      "ier": 1040,
      "sil": 1041,
      "ments": 1042,
      "Joh": 1043,
      "BS": 1044,
      "adv": 1045,
      "writ": 1046,
      "having": 1047,
      "exam": 1048,
      "gover": 1049,
      "TER": 1050,
      "world": 1051,
      "bod": 1052,
      "prin": 1053,
      "AR": 1054,
      "cted": 1055,
      "ix": 1056,
      "How": 1057,
      "number": 1058,
      "ove": 1059,
      "pu": 1060,
      "THE": 1061,
      "12": 1062,
      "ired": 1063,
      "haps": 1064,
      "eas": 1065,
      "cannot": 1066,
      "bit": 1067,
      "course": 1068,
      "lar": 1069,
      "mis": 1070,
      "AN": 1071,
      "near": 1072,
      "sible": 1073,
      "consid": 1074,
      "ement": 1075,
      "whom": 1076,
      "ably": 1077,
      "book": 1078,
      "rest": 1079,
      "sometimes": 1080,
      "aw": 1081,
      "few": 1082,
      "itive": 1083,
      "On": 1084,
      "sat": 1085,
      "against": 1086,
      "following": 1087,
      "country": 1088,
      "ton": 1089,
      "All": 1090,
      "cop": 1091,
      "aut": 1092,
      "quest": 1093,
      "ster": 1094,
      "respect": 1095,
      "years": 1096,
      "col": 1097,
      "seen": 1098,
      "AP": 1099,
      "John": 1100,
      "ended": 1101,
      "So": 1102,
      "Ar": 1103,
      "means": 1104,
      "sort": 1105,
      "power": 1106,
      "ES": 1107,
      "spo": 1108,
      "vis": 1109,
      "leg": 1110,
      "ian": 1111,
      "ale": 1112,
      "going": 1113,
      "ys": 1114,
      "emp": 1115,
      "taken": 1116,
      "author": 1117,
      "ible": 1118,
      "lie": 1119,
      "mom": 1120,
      "ond": 1121,
      "St": 1122,
      "hun": 1123,
      "ail": 1124,
      "stood": 1125,
      "inde": 1126,
      "OBS": 1127,
      "hold": 1128,
      "ron": 1129,
      "sin": 1130,
      "done": 1131,
      "ames": 1132,
      "gether": 1133,
      "general": 1134,
      "serv": 1135,
      "Do": 1136,
      "ile": 1137,
      "ised": 1138,
      "together": 1139,
      "plain": 1140,
      "Je": 1141,
      "sum": 1142,
      "got": 1143,
      "tri": 1144,
      "ger": 1145,
      "tax": 1146,
      "poor": 1147,
      "verbs": 1148,
      "ances": 1149,
      "small": 1150,
      "ady": 1151,
      "cut": 1152,
      "left": 1153,
      "sou": 1154,
      "ird": 1155,
      "syll": 1156,
      "Bo": 1157,
      "grow": 1158,
      "state": 1159,
      "OF": 1160,
      "language": 1161,
      "See": 1162,
      "second": 1163,
      "quant": 1164,
      "peri": 1165,
      "hard": 1166,
      "cu": 1167,
      "trans": 1168,
      "gentle": 1169,
      "perfect": 1170,
      "met": 1171,
      "partici": 1172,
      "short": 1173,
      "suc": 1174,
      "unt": 1175,
      "ather": 1176,
      "17": 1177,
      "mother": 1178,
      "At": 1179,
      "ken": 1180,
      "15": 1181,
      "posed": 1182,
      "water": 1183,
      "ants": 1184,
      "took": 1185,
      "among": 1186,
      "door": 1187,
      "partic": 1188,
      "princi": 1189,
      "hor": 1190,
      "sure": 1191,
      "rece": 1192,
      "plac": 1193,
      "ived": 1194,
      "Mari": 1195,
      "atch": 1196,
      "saw": 1197,
      ".'": 1198,
      "Dr": 1199,
      "hear": 1200,
      "pend": 1201,
      "rather": 1202,
      "ret": 1203,
      "sense": 1204,
      "accor": 1205,
      "answ": 1206,
      "appear": 1207,
      "half": 1208,
      "perhaps": 1209,
      "ip": 1210,
      "alth": 1211,
      "gre": 1212,
      "show": 1213,
      "body": 1214,
      "soon": 1215,
      "walk": 1216,
      "gir": 1217,
      "hon": 1218,
      "keep": 1219,
      "fair": 1220,
      "ribut": 1221,
      "manner": 1222,
      "ref": 1223,
      "adm": 1224,
      "however": 1225,
      "themselves": 1226,
      "given": 1227,
      "His": 1228,
      "usu": 1229,
      "wind": 1230,
      "Marius": 1231,
      "king": 1232,
      "adject": 1233,
      "ready": 1234,
      "itu": 1235,
      "tte": 1236,
      "ences": 1237,
      "above": 1238,
      "ately": 1239,
      "ined": 1240,
      "ush": 1241,
      "loy": 1242,
      "ili": 1243,
      ":—": 1244,
      "ped": 1245,
      "price": 1246,
      "Po": 1247,
      "und": 1248,
      "except": 1249,
      "true": 1250,
      "Mrs": 1251,
      "gold": 1252,
      "16": 1253,
      "sever": 1254,
      "ets": 1255,
      "matter": 1256,
      "ided": 1257,
      "moment": 1258,
      "ese": 1259,
      "Fr": 1260,
      "sk": 1261,
      "fully": 1262,
      "ont": 1263,
      "ific": 1264,
      "therefore": 1265,
      "eng": 1266,
      "conf": 1267,
      "plied": 1268,
      "agree": 1269,
      "ister": 1270,
      "ital": 1271,
      "cover": 1272,
      "wards": 1273,
      "dire": 1274,
      "hour": 1275,
      "tend": 1276,
      "seemed": 1277,
      "aint": 1278,
      "voice": 1279,
      "round": 1280,
      "Ad": 1281,
      "joy": 1282,
      "publ": 1283,
      "cri": 1284,
      "contr": 1285,
      "mem": 1286,
      "home": 1287,
      "CHAP": 1288,
      "hu": 1289,
      "vol": 1290,
      "particular": 1291,
      "ling": 1292,
      "CHAPTER": 1293,
      "14": 1294,
      "looked": 1295,
      "orn": 1296,
      "arch": 1297,
      "itself": 1298,
      "Jean": 1299,
      "conne": 1300,
      "gy": 1301,
      "ility": 1302,
      "My": 1303,
      "itch": 1304,
      "artic": 1305,
      "myself": 1306,
      "ison": 1307,
      "fortun": 1308,
      "heard": 1309,
      "lit": 1310,
      "allow": 1311,
      "div": 1312,
      "almost": 1313,
      "Of": 1314,
      "possible": 1315,
      "hands": 1316,
      "quantity": 1317,
      "jun": 1318,
      "Then": 1319,
      "employ": 1320,
      "ma": 1321,
      "open": 1322,
      "hel": 1323,
      "known": 1324,
      "remain": 1325,
      "effect": 1326,
      "six": 1327,
      "import": 1328,
      "13": 1329,
      "large": 1330,
      "real": 1331,
      "RE": 1332,
      "sha": 1333,
      "ks": 1334,
      "play": 1335,
      "Val": 1336,
      "loom": 1337,
      "Or": 1338,
      "ceed": 1339,
      "quite": 1340,
      "whether": 1341,
      "Un": 1342,
      "according": 1343,
      "mas": 1344,
      "pay": 1345,
      "ste": 1346,
      "ply": 1347,
      "herself": 1348,
      "ulation": 1349,
      "spir": 1350,
      "asked": 1351,
      "question": 1352,
      "sho": 1353,
      "UN": 1354,
      "labour": 1355,
      "Com": 1356,
      "medi": 1357,
      "laugh": 1358,
      "charact": 1359,
      "Ex": 1360,
      "ene": 1361,
      "business": 1362,
      "doub": 1363,
      "cal": 1364,
      "run": 1365,
      "vari": 1366,
      "jud": 1367,
      "works": 1368,
      "TE": 1369,
      "children": 1370,
      "...": 1371,
      "interest": 1372,
      "cle": 1373,
      "fic": 1374,
      "ict": 1375,
      "tru": 1376,
      "itted": 1377,
      "govern": 1378,
      "By": 1379,
      "ech": 1380,
      "till": 1381,
      "One": 1382,
      "gg": 1383,
      "ran": 1384,
      "wise": 1385,
      "felt": 1386,
      "distin": 1387,
      "Is": 1388,
      "aim": 1389,
      "commodities": 1390,
      "necessary": 1391,
      "incre": 1392,
      "20": 1393,
      "won": 1394,
      "const": 1395,
      "dem": 1396,
      "jean": 1397,
      "lay": 1398,
      "ables": 1399,
      "beaut": 1400,
      "Valjean": 1401,
      "nouns": 1402,
      "contin": 1403,
      "ield": 1404,
      "Par": 1405,
      "rown": 1406,
      "enough": 1407,
      "dear": 1408,
      "ca": 1409,
      "bes": 1410,
      "blo": 1411,
      "draw": 1412,
      "understand": 1413,
      "class": 1414,
      "war": 1415,
      "parts": 1416,
      "Ne": 1417,
      "os": 1418,
      "swe": 1419,
      ";\"": 1420,
      "IS": 1421,
      "mere": 1422,
      "supp": 1423,
      "whose": 1424,
      "wish": 1425,
      "comes": 1426,
      "Well": 1427,
      "family": 1428,
      "free": 1429,
      "ines": 1430,
      "terms": 1431,
      "tells": 1432,
      "constru": 1433,
      "Grammar": 1434,
      "singular": 1435,
      "five": 1436,
      "plural": 1437,
      "occas": 1438,
      "Me": 1439,
      "times": 1440,
      "consider": 1441,
      "19": 1442,
      "itten": 1443,
      "former": 1444,
      "bear": 1445,
      "anc": 1446,
      "oud": 1447,
      "sequ": 1448,
      "ying": 1449,
      "Let": 1450,
      "rap": 1451,
      "ides": 1452,
      "hy": 1453,
      "rit": 1454,
      "nomin": 1455,
      "utter": 1456,
      "feet": 1457,
      "regard": 1458,
      "tion": 1459,
      "ident": 1460,
      "ross": 1461,
      "defin": 1462,
      "acqu": 1463,
      "az": 1464,
      "regular": 1465,
      ",—": 1466,
      "sentence": 1467,
      "talk": 1468,
      "ctive": 1469,
      "ices": 1470,
      "ches": 1471,
      "corn": 1472,
      "happy": 1473,
      "Bla": 1474,
      "igh": 1475,
      "sed": 1476,
      "fav": 1477,
      "become": 1478,
      "portion": 1479,
      "ually": 1480,
      "ery": 1481,
      "incl": 1482,
      "ext": 1483,
      "anger": 1484,
      "osette": 1485,
      "Cosette": 1486,
      "?\"": 1487,
      "dred": 1488,
      "ief": 1489,
      "letter": 1490,
      "Al": 1491,
      "Yes": 1492,
      "heav": 1493,
      "friends": 1494,
      "Here": 1495,
      "formed": 1496,
      "ham": 1497,
      "het": 1498,
      "expect": 1499,
      "making": 1500,
      "wa": 1501,
      "ality": 1502,
      "ists": 1503,
      "latter": 1504,
      "ye": 1505,
      "appro": 1506,
      "else": 1507,
      "bad": 1508,
      "least": 1509,
      "ones": 1510,
      "since": 1511,
      "irt": 1512,
      "prom": 1513,
      "began": 1514,
      "iew": 1515,
      "De": 1516,
      "LI": 1517,
      "character": 1518,
      "tow": 1519,
      "ury": 1520,
      "persons": 1521,
      "ele": 1522,
      "knew": 1523,
      "agre": 1524,
      "pract": 1525,
      "days": 1526,
      "Blair": 1527,
      "dom": 1528,
      "lim": 1529,
      "hind": 1530,
      "ane": 1531,
      "enter": 1532,
      "sun": 1533,
      "Miss": 1534,
      "Ed": 1535,
      "With": 1536,
      "anything": 1537,
      "cus": 1538,
      "capital": 1539,
      "ched": 1540,
      "termin": 1541,
      "pped": 1542,
      "success": 1543,
      "live": 1544,
      "ler": 1545,
      "phr": 1546,
      "err": 1547,
      "OM": 1548,
      "ured": 1549,
      "hundred": 1550,
      "human": 1551,
      "pare": 1552,
      "TION": 1553,
      "pet": 1554,
      "foretells": 1555,
      "rule": 1556,
      "member": 1557,
      "fine": 1558,
      "neither": 1559,
      "seems": 1560,
      "obser": 1561,
      "stri": 1562,
      "preposition": 1563,
      "Go": 1564,
      "alone": 1565,
      "natural": 1566,
      "stud": 1567,
      "produce": 1568,
      "ground": 1569,
      "begin": 1570,
      "plic": 1571,
      "public": 1572,
      "SE": 1573,
      "These": 1574,
      "dest": 1575,
      "idea": 1576,
      "Har": 1577,
      "Con": 1578,
      "ution": 1579,
      "Why": 1580,
      "fig": 1581,
      "Not": 1582,
      "Now": 1583,
      "written": 1584,
      "table": 1585,
      "mat": 1586,
      "view": 1587,
      "dark": 1588,
      "pen": 1589,
      "ased": 1590,
      "chang": 1591,
      "speech": 1592,
      "generally": 1593,
      "action": 1594,
      "bs": 1595,
      "rist": 1596,
      "amp": 1597,
      "AL": 1598,
      "strong": 1599,
      "coming": 1600,
      "looking": 1601,
      "chool": 1602,
      "tempt": 1603,
      "several": 1604,
      "foot": 1605,
      "third": 1606,
      "fellow": 1607,
      "soul": 1608,
      "Es": 1609,
      "NO": 1610,
      "knowled": 1611,
      "gave": 1612,
      "que": 1613,
      "within": 1614,
      "abe": 1615,
      "lic": 1616,
      "ism": 1617,
      "trou": 1618,
      "lieve": 1619,
      "consci": 1620,
      "band": 1621,
      "prov": 1622,
      "?\"—": 1623,
      "participle": 1624,
      "ows": 1625,
      "added": 1626,
      "exp": 1627,
      "claim": 1628,
      "why": 1629,
      "street": 1630,
      "chief": 1631,
      "prob": 1632,
      "told": 1633,
      "death": 1634,
      "aught": 1635,
      "morning": 1636,
      "lu": 1637,
      "loved": 1638,
      "rise": 1639,
      "concer": 1640,
      "III": 1641,
      "ctor": 1642,
      "Mo": 1643,
      "makes": 1644,
      "past": 1645,
      "earth": 1646,
      "remark": 1647,
      "uni": 1648,
      "ians": 1649,
      "mist": 1650,
      "diffic": 1651,
      "Co": 1652,
      "sud": 1653,
      "post": 1654,
      "ention": 1655,
      "clear": 1656,
      "hope": 1657,
      "return": 1658,
      "fru": 1659,
      "society": 1660,
      "satis": 1661,
      "pal": 1662,
      "white": 1663,
      "quar": 1664,
      "copy": 1665,
      "longer": 1666,
      "Some": 1667,
      "lig": 1668,
      "passed": 1669,
      "cold": 1670,
      "occasion": 1671,
      "pat": 1672,
      "ris": 1673,
      "ics": 1674,
      "black": 1675,
      "Who": 1676,
      "comple": 1677,
      "distribut": 1678,
      "pain": 1679,
      "forms": 1680,
      "ule": 1681,
      "xt": 1682,
      "represent": 1683,
      "ized": 1684,
      "suff": 1685,
      "doubt": 1686,
      "subst": 1687,
      "dro": 1688,
      "rent": 1689,
      "gar": 1690,
      "aver": 1691,
      "tom": 1692,
      "meas": 1693,
      "signif": 1694,
      "urch": 1695,
      "ends": 1696,
      "already": 1697,
      "dec": 1698,
      "sor": 1699,
      "prove": 1700,
      "sir": 1701,
      "Fe": 1702,
      "suf": 1703,
      "itions": 1704,
      "opin": 1705,
      "sl": 1706,
      "Her": 1707,
      "creat": 1708,
      "ze": 1709,
      "paper": 1710,
      "Christ": 1711,
      "help": 1712,
      "Pr": 1713,
      "flu": 1714,
      "alt": 1715,
      "consequ": 1716,
      "close": 1717,
      "meaning": 1718,
      "pret": 1719,
      "believe": 1720,
      "iled": 1721,
      "Re": 1722,
      "frequ": 1723,
      "sle": 1724,
      "count": 1725,
      "00": 1726,
      "wenty": 1727,
      "elect": 1728,
      "Pl": 1729,
      "orig": 1730,
      "itude": 1731,
      "Lat": 1732,
      "ib": 1733,
      "rid": 1734,
      "infin": 1735,
      "teach": 1736,
      "everything": 1737,
      "simple": 1738,
      "really": 1739,
      "Rhet": 1740,
      "cult": 1741,
      "dead": 1742,
      "origin": 1743,
      "girl": 1744,
      "sudden": 1745,
      "gain": 1746,
      "understood": 1747,
      "cried": 1748,
      "ingu": 1749,
      "ship": 1750,
      "ell": 1751,
      "women": 1752,
      "held": 1753,
      "separ": 1754,
      "forth": 1755,
      "sem": 1756,
      "uring": 1757,
      "ths": 1758,
      "brought": 1759,
      "nominative": 1760,
      "distingu": 1761,
      "23": 1762,
      "cise": 1763,
      "ric": 1764,
      "imag": 1765,
      "ules": 1766,
      "pleasure": 1767,
      "ats": 1768,
      "nt": 1769,
      "towards": 1770,
      "adjective": 1771,
      "wall": 1772,
      "wife": 1773,
      "Oh": 1774,
      "aid": 1775,
      "labor": 1776,
      "net": 1777,
      "ime": 1778,
      "decl": 1779,
      "behind": 1780,
      "suffer": 1781,
      "tained": 1782,
      "list": 1783,
      "Le": 1784,
      "grand": 1785,
      "indic": 1786,
      "resu": 1787,
      "depend": 1788,
      "uses": 1789,
      "exchange": 1790,
      "accent": 1791,
      "belong": 1792,
      "lly": 1793,
      "road": 1794,
      "England": 1795,
      "cases": 1796,
      "Eli": 1797,
      "),": 1798,
      "corre": 1799,
      "Gree": 1800,
      "enjoy": 1801,
      "cts": 1802,
      "gentleman": 1803,
      "cell": 1804,
      "ney": 1805,
      "11": 1806,
      "anci": 1807,
      "por": 1808,
      "rup": 1809,
      "ULE": 1810,
      "placed": 1811,
      "rench": 1812,
      "bers": 1813,
      "mid": 1814,
      "meet": 1815,
      "Vol": 1816,
      "indeed": 1817,
      "bur": 1818,
      "blood": 1819,
      "Amer": 1820,
      "example": 1821,
      "twenty": 1822,
      "ending": 1823,
      "ich": 1824,
      "loso": 1825,
      "dut": 1826,
      "rie": 1827,
      "exer": 1828,
      "greater": 1829,
      "circum": 1830,
      "ues": 1831,
      "DER": 1832,
      "fre": 1833,
      "fast": 1834,
      "gone": 1835,
      "sole": 1836,
      "fortune": 1837,
      "bour": 1838,
      "move": 1839,
      "ousand": 1840,
      "hus": 1841,
      "treat": 1842,
      "hair": 1843,
      "miss": 1844,
      "ached": 1845,
      "uc": 1846,
      "ug": 1847,
      "Johnson": 1848,
      "Ly": 1849,
      "ben": 1850,
      "lady": 1851,
      "Lon": 1852,
      "Lau": 1853,
      "Thus": 1854,
      "tern": 1855,
      "phi": 1856,
      "arms": 1857,
      "aged": 1858,
      "next": 1859,
      "PR": 1860,
      "crow": 1861,
      "demand": 1862,
      "spr": 1863,
      "liar": 1864,
      "bled": 1865,
      "pleasant": 1866,
      "spec": 1867,
      "names": 1868,
      "fur": 1869,
      "amed": 1870,
      "24": 1871,
      "stem": 1872,
      "rich": 1873,
      "yourself": 1874,
      "avo": 1875,
      "daugh": 1876,
      "knowledge": 1877,
      "Americ": 1878,
      "Rule": 1879,
      "Where": 1880,
      "flo": 1881,
      "thousand": 1882,
      "fire": 1883,
      "easy": 1884,
      "Bloom": 1885,
      "gard": 1886,
      "iful": 1887,
      "lling": 1888,
      "plan": 1889,
      "London": 1890,
      "25": 1891,
      "warm": 1892,
      "answer": 1893,
      "immedi": 1894,
      "riage": 1895,
      "lost": 1896,
      "eye": 1897,
      "spirit": 1898,
      "Eliz": 1899,
      "aste": 1900,
      "construction": 1901,
      "AM": 1902,
      "wrong": 1903,
      "New": 1904,
      "Bar": 1905,
      "fill": 1906,
      "culiar": 1907,
      "refer": 1908,
      "production": 1909,
      "van": 1910,
      "paid": 1911,
      "laws": 1912,
      "advant": 1913,
      "ronic": 1914,
      "phen": 1915,
      "expression": 1916,
      "fac": 1917,
      "ously": 1918,
      "truth": 1919,
      "peculiar": 1920,
      "ah": 1921,
      "ises": 1922,
      "ford": 1923,
      "exist": 1924,
      "boy": 1925,
      "ires": 1926,
      "nard": 1927,
      "cup": 1928,
      "line": 1929,
      "syllables": 1930,
      "Per": 1931,
      "mine": 1932,
      "ctly": 1933,
      "owel": 1934,
      "relative": 1935,
      "IV": 1936,
      "bey": 1937,
      "deep": 1938,
      "letters": 1939,
      "ordin": 1940,
      "solute": 1941,
      "Latin": 1942,
      "mil": 1943,
      "super": 1944,
      "bot": 1945,
      "leave": 1946,
      "preced": 1947,
      "Meg": 1948,
      "fix": 1949,
      "gn": 1950,
      "lad": 1951,
      ".--": 1952,
      "eight": 1953,
      "ivid": 1954,
      "fal": 1955,
      "soil": 1956,
      "saying": 1957,
      "Paris": 1958,
      "abeth": 1959,
      "remember": 1960,
      "vel": 1961,
      "ament": 1962,
      "worth": 1963,
      "taking": 1964,
      "pie": 1965,
      "mus": 1966,
      "Elizabeth": 1967,
      "compar": 1968,
      "prevent": 1969,
      "properly": 1970,
      "suppose": 1971,
      "article": 1972,
      "anim": 1973,
      "itting": 1974,
      "ender": 1975,
      "brother": 1976,
      "liber": 1977,
      "arr": 1978,
      "French": 1979,
      "Ro": 1980,
      "hum": 1981,
      "syllable": 1982,
      "step": 1983,
      "break": 1984,
      "purpose": 1985,
      "phrase": 1986,
      "electronic": 1987,
      "bell": 1988,
      "qui": 1989,
      "usually": 1990,
      "circumst": 1991,
      "husband": 1992,
      "cot": 1993,
      "cultiv": 1994,
      "dress": 1995,
      "lead": 1996,
      "hist": 1997,
      "wel": 1998,
      "thee": 1999,
      "replied": 2000,
      "wood": 2001,
      "early": 2002,
      "aring": 2003,
      "idence": 2004,
      "suffici": 2005,
      "Every": 2006,
      "neg": 2007,
      "ounds": 2008,
      "horse": 2009,
      "leav": 2010,
      "appears": 2011,
      "covered": 2012,
      "Af": 2013,
      "Ste": 2014,
      "gree": 2015,
      "sty": 2016,
      "evil": 2017,
      "received": 2018,
      ".[": 2019,
      "fut": 2020,
      "watch": 2021,
      "Rue": 2022,
      "school": 2023,
      "ots": 2024,
      "22": 2025,
      "fruit": 2026,
      "org": 2027,
      "Web": 2028,
      "certainly": 2029,
      "fif": 2030,
      "bring": 2031,
      "usual": 2032,
      "tou": 2033,
      "trees": 2034,
      "Lord": 2035,
      "Thé": 2036,
      "var": 2037,
      "thod": 2038,
      "conce": 2039,
      "Amy": 2040,
      "verse": 2041,
      "laid": 2042,
      "virt": 2043,
      "master": 2044,
      "affair": 2045,
      "outh": 2046,
      "imin": 2047,
      "dev": 2048,
      "health": 2049,
      "utes": 2050,
      "born": 2051,
      "nation": 2052,
      "LES": 2053,
      "ener": 2054,
      "attention": 2055,
      "dy": 2056,
      "rules": 2057,
      "poet": 2058,
      "prefer": 2059,
      "opinion": 2060,
      "kept": 2061,
      "iously": 2062,
      "ses": 2063,
      "evening": 2064,
      "UNDER": 2065,
      "En": 2066,
      "degree": 2067,
      "circulation": 2068,
      "Book": 2069,
      "After": 2070,
      "mention": 2071,
      "Lo": 2072,
      "bri": 2073,
      "ration": 2074,
      "ony": 2075,
      "ption": 2076,
      "seeing": 2077,
      "happiness": 2078,
      "sister": 2079,
      "plant": 2080,
      "crit": 2081,
      "account": 2082,
      "appeared": 2083,
      "ns": 2084,
      "commodity": 2085,
      "_l": 2086,
      "proportion": 2087,
      "atever": 2088,
      "ips": 2089,
      "Webster": 2090,
      "stra": 2091,
      "antly": 2092,
      "render": 2093,
      "oft": 2094,
      "mood": 2095,
      "fear": 2096,
      "fle": 2097,
      "yes": 2098,
      "ified": 2099,
      "cast": 2100,
      "entire": 2101,
      "ov": 2102,
      "From": 2103,
      "top": 2104,
      "grave": 2105,
      "firm": 2106,
      "explain": 2107,
      "future": 2108,
      "wine": 2109,
      "drink": 2110,
      "inc": 2111,
      "individ": 2112,
      "cked": 2113,
      "Nor": 2114,
      "sweet": 2115,
      "appoint": 2116,
      "Pe": 2117,
      "ising": 2118,
      "philoso": 2119,
      "Ben": 2120,
      "field": 2121,
      "acc": 2122,
      "system": 2123,
      "danger": 2124,
      "relation": 2125,
      ",'": 2126,
      "objective": 2127,
      "none": 2128,
      "cit": 2129,
      "prison": 2130,
      "eness": 2131,
      "owers": 2132,
      "ards": 2133,
      "def": 2134,
      "pot": 2135,
      "wealth": 2136,
      "write": 2137,
      "expressed": 2138,
      "sal": 2139,
      "unity": 2140,
      "pair": 2141,
      "Dar": 2142,
      "roy": 2143,
      "equal": 2144,
      "employed": 2145,
      "Laurie": 2146,
      "ring": 2147,
      "wonder": 2148,
      "along": 2149,
      "affect": 2150,
      "feeling": 2151,
      "fail": 2152,
      "silver": 2153,
      "CE": 2154,
      "vowel": 2155,
      "espe": 2156,
      "!\"": 2157,
      "force": 2158,
      "consist": 2159,
      "until": 2160,
      "OU": 2161,
      "det": 2162,
      "har": 2163,
      "examples": 2164,
      "Sy": 2165,
      "Will": 2166,
      "agreement": 2167,
      "Thénard": 2168,
      "ification": 2169,
      "Man": 2170,
      "hat": 2171,
      "hur": 2172,
      "rodu": 2173,
      "shad": 2174,
      "method": 2175,
      "writing": 2176,
      "offer": 2177,
      "abl": 2178,
      "fell": 2179,
      "teen": 2180,
      "Qu": 2181,
      "lord": 2182,
      "note": 2183,
      "absolute": 2184,
      "FOR": 2185,
      "Mar": 2186,
      "conjun": 2187,
      "further": 2188,
      "ature": 2189,
      "atives": 2190,
      "strange": 2191,
      "answered": 2192,
      "Greek": 2193,
      "iment": 2194,
      "ination": 2195,
      "books": 2196,
      "Jer": 2197,
      "Sm": 2198,
      "pon": 2199,
      "quick": 2200,
      "wait": 2201,
      "sen": 2202,
      "usion": 2203,
      "arri": 2204,
      "stone": 2205,
      "sib": 2206,
      "government": 2207,
      "formation": 2208,
      "ub": 2209,
      "deal": 2210,
      "ency": 2211,
      "Esther": 2212,
      "habit": 2213,
      "ago": 2214,
      "Harold": 2215,
      "27": 2216,
      "log": 2217,
      "squ": 2218,
      "taste": 2219,
      "ases": 2220,
      "tra": 2221,
      "Thou": 2222,
      "bor": 2223,
      "active": 2224,
      "false": 2225,
      "LO": 2226,
      "descri": 2227,
      "green": 2228,
      "merely": 2229,
      "ining": 2230,
      "moved": 2231,
      "spect": 2232,
      "style": 2233,
      "26": 2234,
      "ado": 2235,
      "lix": 2236,
      "occur": 2237,
      "28": 2238,
      "dri": 2239,
      "surpr": 2240,
      "beautiful": 2241,
      "Found": 2242,
      "doing": 2243,
      "Mad": 2244,
      "itable": 2245,
      "single": 2246,
      "uri": 2247,
      "liter": 2248,
      "inj": 2249,
      "secre": 2250,
      "fee": 2251,
      "signifies": 2252,
      "Ah": 2253,
      "ulty": 2254,
      "trouble": 2255,
      "sleep": 2256,
      "Foundation": 2257,
      "using": 2258,
      "address": 2259,
      "speaking": 2260,
      "continu": 2261,
      "repe": 2262,
      "lled": 2263,
      "cket": 2264,
      "standing": 2265,
      "followed": 2266,
      "probably": 2267,
      "period": 2268,
      "profits": 2269,
      "ges": 2270,
      "ient": 2271,
      "tle": 2272,
      "produced": 2273,
      "possessive": 2274,
      "orm": 2275,
      "agreeable": 2276,
      "cul": 2277,
      "ience": 2278,
      "——": 2279,
      "thes": 2280,
      "trad": 2281,
      "easily": 2282,
      "big": 2283,
      "ging": 2284,
      "Adam": 2285,
      ".;": 2286,
      "returned": 2287,
      "dry": 2288,
      "ator": 2289,
      "delight": 2290,
      "grammarians": 2291,
      "sight": 2292,
      "cost": 2293,
      "design": 2294,
      "adjectives": 2295,
      "beginning": 2296,
      "cks": 2297,
      "pronouns": 2298,
      "town": 2299,
      "cry": 2300,
      "ny": 2301,
      "ount": 2302,
      "ieur": 2303,
      "Li": 2304,
      "ically": 2305,
      "AS": 2306,
      "pul": 2307,
      "property": 2308,
      "important": 2309,
      "measure": 2310,
      "advantage": 2311,
      "ek": 2312,
      "fat": 2313,
      "reading": 2314,
      "nearly": 2315,
      "start": 2316,
      "preser": 2317,
      "garden": 2318,
      "xx": 2319,
      "food": 2320,
      "raised": 2321,
      "Father": 2322,
      "expected": 2323,
      "30": 2324,
      "tree": 2325,
      "rope": 2326,
      "sounds": 2327,
      "around": 2328,
      "comb": 2329,
      "Thénardier": 2330,
      "require": 2331,
      "window": 2332,
      "reco": 2333,
      "passion": 2334,
      "includ": 2335,
      "Sha": 2336,
      "fied": 2337,
      "ked": 2338,
      "mag": 2339,
      "beli": 2340,
      "considered": 2341,
      "loss": 2342,
      "lower": 2343,
      "observed": 2344,
      "dreams": 2345,
      "carry": 2346,
      ".]": 2347,
      "knows": 2348,
      "spoken": 2349,
      "lies": 2350,
      ",)": 2351,
      "introdu": 2352,
      "sentences": 2353,
      "honour": 2354,
      "connected": 2355,
      "acy": 2356,
      "process": 2357,
      "ING": 2358,
      "ia": 2359,
      "iron": 2360,
      "conom": 2361,
      "famili": 2362,
      "29": 2363,
      "cro": 2364,
      "whatever": 2365,
      "lying": 2366,
      "ishing": 2367,
      "distinction": 2368,
      "cially": 2369,
      "ize": 2370,
      "constit": 2371,
      "Bull": 2372,
      "Tr": 2373,
      "late": 2374,
      "inv": 2375,
      "daughter": 2376,
      "wild": 2377,
      "Sh": 2378,
      "ancient": 2379,
      "furn": 2380,
      "deser": 2381,
      "scar": 2382,
      "Such": 2383,
      "bra": 2384,
      "fun": 2385,
      "entered": 2386,
      "mode": 2387,
      "ival": 2388,
      "complete": 2389,
      "Felix": 2390,
      "Ger": 2391,
      "Good": 2392,
      "chair": 2393,
      "pray": 2394,
      "addition": 2395,
      "girls": 2396,
      "ius": 2397,
      "sold": 2398,
      "living": 2399,
      "polit": 2400,
      "bles": 2401,
      "iter": 2402,
      "tains": 2403,
      "suddenly": 2404,
      "RULE": 2405,
      "wages": 2406,
      "determin": 2407,
      "doct": 2408,
      "fault": 2409,
      "appearance": 2410,
      "influ": 2411,
      "company": 2412,
      "learned": 2413,
      "smo": 2414,
      "assu": 2415,
      "rible": 2416,
      "command": 2417,
      ".'\"—": 2418,
      "proceed": 2419,
      "ann": 2420,
      "required": 2421,
      "principles": 2422,
      "difficult": 2423,
      "immediately": 2424,
      "moder": 2425,
      "comfort": 2426,
      "ively": 2427,
      "attempt": 2428,
      "visit": 2429,
      "NOTE": 2430,
      "Tran": 2431,
      "frequently": 2432,
      "Lu": 2433,
      "sick": 2434,
      "Ill": 2435,
      "unless": 2436,
      "thoughts": 2437,
      "Dict": 2438,
      "ingly": 2439,
      "corner": 2440,
      "preci": 2441,
      "ordinary": 2442,
      "various": 2443,
      "mater": 2444,
      "ante": 2445,
      "Stephen": 2446,
      "AT": 2447,
      "Sir": 2448,
      "eat": 2449,
      "gives": 2450,
      "wit": 2451,
      "aries": 2452,
      "logy": 2453,
      "worthy": 2454,
      "difference": 2455,
      "Smith": 2456,
      "cand": 2457,
      "ung": 2458,
      "farm": 2459,
      "propri": 2460,
      "slow": 2461,
      "thir": 2462,
      "applic": 2463,
      "RI": 2464,
      "Saint": 2465,
      "changed": 2466,
      "arily": 2467,
      "quiet": 2468,
      "itation": 2469,
      "favour": 2470,
      "pretty": 2471,
      "male": 2472,
      "ening": 2473,
      "viol": 2474,
      "authority": 2475,
      "Shak": 2476,
      "Mons": 2477,
      "trem": 2478,
      "duty": 2479,
      "Transome": 2480,
      "civ": 2481,
      "owing": 2482,
      "acted": 2483,
      "opened": 2484,
      "tender": 2485,
      "eth": 2486,
      "iding": 2487,
      "pers": 2488,
      "neigh": 2489,
      "hardly": 2490,
      "AD": 2491,
      "sac": 2492,
      "sell": 2493,
      "fection": 2494,
      "qual": 2495,
      "dog": 2496,
      "hours": 2497,
      "Monsieur": 2498,
      "weak": 2499,
      "simply": 2500,
      "VI": 2501,
      "ead": 2502,
      "ntax": 2503,
      "peace": 2504,
      "iam": 2505,
      "lips": 2506,
      "33": 2507,
      "EC": 2508,
      "throw": 2509,
      "jection": 2510,
      "obli": 2511,
      "compan": 2512,
      "fing": 2513,
      "ners": 2514,
      "ror": 2515,
      "infinitive": 2516,
      "seven": 2517,
      "motion": 2518,
      "ained": 2519,
      "cross": 2520,
      "ras": 2521,
      "alo": 2522,
      "personal": 2523,
      "Beth": 2524,
      "principle": 2525,
      "social": 2526,
      "especially": 2527,
      "sw": 2528,
      "tong": 2529,
      "rose": 2530,
      "ggest": 2531,
      "pun": 2532,
      "supposed": 2533,
      "mal": 2534,
      "experi": 2535,
      "stock": 2536,
      "occup": 2537,
      "bound": 2538,
      "ision": 2539,
      "suggest": 2540,
      "iling": 2541,
      "avert": 2542,
      "rate": 2543,
      "convers": 2544,
      "ishop": 2545,
      "kn": 2546,
      "quality": 2547,
      "minute": 2548,
      "Ho": 2549,
      "during": 2550,
      "below": 2551,
      "perce": 2552,
      "preh": 2553,
      "later": 2554,
      "ming": 2555,
      "isto": 2556,
      "AND": 2557,
      "gress": 2558,
      "mn": 2559,
      "surd": 2560,
      "figure": 2561,
      "anced": 2562,
      "doctr": 2563,
      "ded": 2564,
      "prote": 2565,
      "bling": 2566,
      "Bullions": 2567,
      "fash": 2568,
      "sad": 2569,
      "term": 2570,
      "grat": 2571,
      "ideas": 2572,
      "tellig": 2573,
      "compound": 2574,
      "beyond": 2575,
      "8vo": 2576,
      "Don": 2577,
      "Mon": 2578,
      "SON": 2579,
      "kill": 2580,
      "exact": 2581,
      "faith": 2582,
      "please": 2583,
      "grap": 2584,
      "carried": 2585,
      "Christian": 2586,
      "broken": 2587,
      "walked": 2588,
      "Cl": 2589,
      "dle": 2590,
      "soft": 2591,
      "Char": 2592,
      "sec": 2593,
      "adverb": 2594,
      "velo": 2595,
      "establ": 2596,
      "States": 2597,
      "Low": 2598,
      "leng": 2599,
      "univers": 2600,
      "Javert": 2601,
      "burn": 2602,
      "intellig": 2603,
      "irk": 2604,
      "conven": 2605,
      "fold": 2606,
      "attle": 2607,
      "circumstances": 2608,
      "seed": 2609,
      "ilar": 2610,
      "allowed": 2611,
      "recogn": 2612,
      "resol": 2613,
      "accept": 2614,
      "double": 2615,
      "Eu": 2616,
      "Im": 2617,
      "twi": 2618,
      "hath": 2619,
      "coat": 2620,
      "desire": 2621,
      "instead": 2622,
      "TO": 2623,
      "oper": 2624,
      "atic": 2625,
      "absurd": 2626,
      "arrang": 2627,
      "Pri": 2628,
      "excl": 2629,
      "history": 2630,
      "situ": 2631,
      "became": 2632,
      "condu": 2633,
      "hood": 2634,
      "priv": 2635,
      "Wor": 2636,
      "perfectly": 2637,
      "hast": 2638,
      "tone": 2639,
      "estic": 2640,
      "prev": 2641,
      "support": 2642,
      "Ver": 2643,
      "tic": 2644,
      "asy": 2645,
      "alter": 2646,
      "tel": 2647,
      "fool": 2648,
      "commonly": 2649,
      "giving": 2650,
      "ww": 2651,
      "front": 2652,
      "trust": 2653,
      "writers": 2654,
      "spoke": 2655,
      "individual": 2656,
      "Your": 2657,
      "inner": 2658,
      "relig": 2659,
      "ignor": 2660,
      "becomes": 2661,
      "trave": 2662,
      "grace": 2663,
      "build": 2664,
      "contrary": 2665,
      "practice": 2666,
      "tro": 2667,
      "inqu": 2668,
      "iced": 2669,
      "cial": 2670,
      "ushed": 2671,
      "conscious": 2672,
      "copyright": 2673,
      "hop": 2674,
      "ufact": 2675,
      "sym": 2676,
      "market": 2677,
      "increase": 2678,
      "affairs": 2679,
      "secret": 2680,
      "EX": 2681,
      "Phi": 2682,
      "morrow": 2683,
      "charge": 2684,
      "instance": 2685,
      "gentlemen": 2686,
      "Come": 2687,
      "gaz": 2688,
      "proved": 2689,
      "fashion": 2690,
      "takes": 2691,
      "UR": 2692,
      "cher": 2693,
      "reader": 2694,
      "glass": 2695,
      "study": 2696,
      "Dor": 2697,
      "fit": 2698,
      "mad": 2699,
      "excell": 2700,
      "kne": 2701,
      "oured": 2702,
      "stair": 2703,
      "meant": 2704,
      "....": 2705,
      "owed": 2706,
      "applied": 2707,
      "writer": 2708,
      "Darcy": 2709,
      "ancy": 2710,
      "guard": 2711,
      "notice": 2712,
      "manufact": 2713,
      "United": 2714,
      "Can": 2715,
      "improve": 2716,
      "mur": 2717,
      "sake": 2718,
      "places": 2719,
      "ior": 2720,
      "mouth": 2721,
      "getting": 2722,
      "ilt": 2723,
      "disappoint": 2724,
      "useful": 2725,
      "receive": 2726,
      "spring": 2727,
      "correct": 2728,
      "American": 2729,
      "piece": 2730,
      "50": 2731,
      "moun": 2732,
      "condition": 2733,
      "dimin": 2734,
      "ouses": 2735,
      "bread": 2736,
      "cing": 2737,
      "memor": 2738,
      "fraid": 2739,
      "phy": 2740,
      "beauty": 2741,
      "fright": 2742,
      "pressed": 2743,
      "iii": 2744,
      "Madame": 2745,
      "Lowth": 2746,
      "lan": 2747,
      "mult": 2748,
      "silence": 2749,
      "Made": 2750,
      "deb": 2751,
      "Church": 2752,
      "France": 2753,
      "gender": 2754,
      "uous": 2755,
      "aces": 2756,
      "oted": 2757,
      "remained": 2758,
      "favor": 2759,
      "Fo": 2760,
      "city": 2761,
      "lection": 2762,
      "apart": 2763,
      "similar": 2764,
      "Kirk": 2765,
      "Yet": 2766,
      "mach": 2767,
      "slight": 2768,
      "compl": 2769,
      "increased": 2770,
      "ST": 2771,
      "pure": 2772,
      "inf": 2773,
      "impossible": 2774,
      "smile": 2775,
      "Kirkham": 2776,
      "harm": 2777,
      "rain": 2778,
      "ince": 2779,
      "Scot": 2780,
      "lip": 2781,
      "TIONS": 2782,
      "ball": 2783,
      "ume": 2784,
      "sea": 2785,
      "rapid": 2786,
      "econom": 2787,
      "mill": 2788,
      "uter": 2789,
      "PO": 2790,
      "afraid": 2791,
      "pop": 2792,
      "bran": 2793,
      "ument": 2794,
      "pher": 2795,
      "equally": 2796,
      "service": 2797,
      "ladies": 2798,
      "March": 2799,
      "opp": 2800,
      "ping": 2801,
      "sens": 2802,
      "uncle": 2803,
      "ustration": 2804,
      "box": 2805,
      "succeed": 2806,
      "Our": 2807,
      "Two": 2808,
      "pursu": 2809,
      "articles": 2810,
      "mentioned": 2811,
      "uck": 2812,
      "anx": 2813,
      "orry": 2814,
      "season": 2815,
      "brid": 2816,
      "clock": 2817,
      "LA": 2818,
      "lines": 2819,
      "test": 2820,
      "pping": 2821,
      "passive": 2822,
      "learn": 2823,
      "fixed": 2824,
      "Europe": 2825,
      "sci": 2826,
      "stay": 2827,
      "consequence": 2828,
      "non": 2829,
      "othy": 2830,
      "otherwise": 2831,
      "spite": 2832,
      "thinking": 2833,
      "profess": 2834,
      "**": 2835,
      "ability": 2836,
      "sufficient": 2837,
      "phe": 2838,
      "pocket": 2839,
      "charm": 2840,
      "shop": 2841,
      "foreign": 2842,
      "parag": 2843,
      "equival": 2844,
      "distinguished": 2845,
      "TY": 2846,
      "sper": 2847,
      "rog": 2848,
      "eties": 2849,
      "Exam": 2850,
      "ils": 2851,
      "tears": 2852,
      "grad": 2853,
      "concerning": 2854,
      "continued": 2855,
      "yr": 2856,
      "ify": 2857,
      "bless": 2858,
      "married": 2859,
      "heads": 2860,
      "fresh": 2861,
      "mission": 2862,
      "ED": 2863,
      ",\"—": 2864,
      "filled": 2865,
      "entirely": 2866,
      "1st": 2867,
      "34": 2868,
      "Cour": 2869,
      "pick": 2870,
      "ali": 2871,
      "urally": 2872,
      "Part": 2873,
      "ote": 2874,
      "taining": 2875,
      "objects": 2876,
      "purch": 2877,
      "mix": 2878,
      "apt": 2879,
      "wanted": 2880,
      "moral": 2881,
      "glad": 2882,
      "educ": 2883,
      "heaven": 2884,
      "parent": 2885,
      "Ac": 2886,
      "reach": 2887,
      "lose": 2888,
      "Which": 2889,
      "admir": 2890,
      "transitive": 2891,
      "Bl": 2892,
      "Cor": 2893,
      "blue": 2894,
      "matical": 2895,
      "EL": 2896,
      "die": 2897,
      "lected": 2898,
      "streng": 2899,
      "virtue": 2900,
      "Brit": 2901,
      "aster": 2902,
      "defect": 2903,
      "turning": 2904,
      "Bible": 2905,
      "SI": 2906,
      "hors": 2907,
      "sn": 2908,
      "empt": 2909,
      "uttered": 2910,
      "exercise": 2911,
      "length": 2912,
      "church": 2913,
      "possib": 2914,
      "carriage": 2915,
      "curi": 2916,
      "apo": 2917,
      "tried": 2918,
      "instances": 2919,
      "Pope": 2920,
      "touch": 2921,
      "dig": 2922,
      "ease": 2923,
      "enorm": 2924,
      "worse": 2925,
      "accur": 2926,
      "happened": 2927,
      "raph": 2928,
      "anteced": 2929,
      "CON": 2930,
      "XX": 2931,
      "iers": 2932,
      "lod": 2933,
      "myn": 2934,
      "icial": 2935,
      "points": 2936,
      "honest": 2937,
      "adopt": 2938,
      "tongue": 2939,
      "lin": 2940,
      "wash": 2941,
      "Crit": 2942,
      "Pre": 2943,
      "PAR": 2944,
      "wed": 2945,
      "access": 2946,
      "cha": 2947,
      "imper": 2948,
      "une": 2949,
      "eved": 2950,
      "greatest": 2951,
      "bene": 2952,
      "eBook": 2953,
      "instru": 2954,
      "youth": 2955,
      "naturally": 2956,
      "higher": 2957,
      "Walk": 2958,
      "houses": 2959,
      "resem": 2960,
      "associ": 2961,
      "story": 2962,
      "aded": 2963,
      "key": 2964,
      "ishes": 2965,
      "content": 2966,
      "Col": 2967,
      "hill": 2968,
      "jour": 2969,
      "uff": 2970,
      "inno": 2971,
      "amber": 2972,
      "afford": 2973,
      "AG": 2974,
      "bb": 2975,
      "oppos": 2976,
      "difficulty": 2977,
      "obliged": 2978,
      "Dorothy": 2979,
      "paragraph": 2980,
      "Lorry": 2981,
      "taught": 2982,
      "distinct": 2983,
      "Jermyn": 2984,
      "arg": 2985,
      "chance": 2986,
      "lived": 2987,
      "conversation": 2988,
      "Fau": 2989,
      "bits": 2990,
      "hot": 2991,
      "counter": 2992,
      "supply": 2993,
      "conjunction": 2994,
      "exc": 2995,
      "tense": 2996,
      "justice": 2997,
      "direct": 2998,
      "variety": 2999,
      "37": 3000,
      "VER": 3001,
      "due": 3002,
      "exclaim": 3003,
      "court": 3004,
      "Arch": 3005,
      "gri": 3006,
      "aff": 3007,
      "benef": 3008,
      "doctrine": 3009,
      "lice": 3010,
      "mot": 3011,
      "party": 3012,
      "principal": 3013,
      "21": 3014,
      "likely": 3015,
      "regul": 3016,
      "ENT": 3017,
      "Rev": 3018,
      "bank": 3019,
      "forward": 3020,
      "conson": 3021,
      "save": 3022,
      "ishment": 3023,
      "184": 3024,
      "opport": 3025,
      "35": 3026,
      "thors": 3027,
      "clay": 3028,
      "heavy": 3029,
      "familiar": 3030,
      "kiss": 3031,
      "closed": 3032,
      "leaves": 3033,
      "tal": 3034,
      "ende": 3035,
      "ries": 3036,
      "prosper": 3037,
      "emies": 3038,
      "capable": 3039,
      "Priest": 3040,
      "36": 3041,
      "text": 3042,
      "raise": 3043,
      "drew": 3044,
      "influence": 3045,
      "universal": 3046,
      "IR": 3047,
      "bare": 3048,
      "enn": 3049,
      "forgot": 3050,
      "delic": 3051,
      "poses": 3052,
      "substant": 3053,
      "steps": 3054,
      "Cha": 3055,
      "blind": 3056,
      "cloth": 3057,
      "breath": 3058,
      "participles": 3059,
      "milk": 3060,
      "Em": 3061,
      "Lady": 3062,
      "pi": 3063,
      "trade": 3064,
      "aux": 3065,
      "observ": 3066,
      "barric": 3067,
      "result": 3068,
      "Bennet": 3069,
      "May": 3070,
      "enemies": 3071,
      "IL": 3072,
      "Mont": 3073,
      "Never": 3074,
      "oned": 3075,
      "superi": 3076,
      "independ": 3077,
      "luck": 3078,
      "original": 3079,
      "private": 3080,
      "Liter": 3081,
      "Sim": 3082,
      "dare": 3083,
      "pond": 3084,
      "neuter": 3085,
      "faction": 3086,
      "desc": 3087,
      "temper": 3088,
      "classes": 3089,
      "bottom": 3090,
      ").": 3091,
      "Mother": 3092,
      "dam": 3093,
      "mort": 3094,
      "print": 3095,
      "authors": 3096,
      "office": 3097,
      "sett": 3098,
      "profit": 3099,
      "sorrow": 3100,
      "scarce": 3101,
      "Key": 3102,
      "Rome": 3103,
      "bright": 3104,
      "oke": 3105,
      "winter": 3106,
      "whis": 3107,
      "lif": 3108,
      "Their": 3109,
      "silent": 3110,
      "ourselves": 3111,
      "race": 3112,
      "follows": 3113,
      "Mil": 3114,
      "hes": 3115,
      "presence": 3116,
      "relations": 3117,
      "Ge": 3118,
      "cred": 3119,
      "spl": 3120,
      "terrible": 3121,
      "depart": 3122,
      "possession": 3123,
      "Illustration": 3124,
      "cat": 3125,
      "tin": 3126,
      "ubl": 3127,
      "aving": 3128,
      "Am": 3129,
      "distribution": 3130,
      "rank": 3131,
      "ato": 3132,
      "liberty": 3133,
      "Priestley": 3134,
      "tries": 3135,
      "straight": 3136,
      "!\"—": 3137,
      "numer": 3138,
      "Lyon": 3139,
      "Are": 3140,
      "Gre": 3141,
      "Sp": 3142,
      "Wo": 3143,
      "yield": 3144,
      "arge": 3145,
      "aled": 3146,
      "lives": 3147,
      "deed": 3148,
      "dece": 3149,
      "passing": 3150,
      "cution": 3151,
      "quarter": 3152,
      "nest": 3153,
      "sion": 3154,
      "ldom": 3155,
      "concl": 3156,
      "ague": 3157,
      "franc": 3158,
      "positive": 3159,
      "12mo": 3160,
      "pup": 3161,
      "stead": 3162,
      "modern": 3163,
      "Mer": 3164,
      "adverbs": 3165,
      "pression": 3166,
      "governed": 3167,
      "Vasy": 3168,
      "consum": 3169,
      "myster": 3170,
      "flowers": 3171,
      "equivalent": 3172,
      "Vasya": 3173,
      "bird": 3174,
      "noble": 3175,
      "rote": 3176,
      "gloom": 3177,
      "pict": 3178,
      "ential": 3179,
      "ours": 3180,
      "valu": 3181,
      "OO": 3182,
      "fro": 3183,
      "ering": 3184,
      "chant": 3185,
      "amount": 3186,
      "unci": 3187,
      "thorough": 3188,
      "imagine": 3189,
      "floor": 3190,
      "stup": 3191,
      ".\"—\"": 3192,
      "minutes": 3193,
      "ET": 3194,
      "tho": 3195,
      "reck": 3196,
      "redu": 3197,
      "reached": 3198,
      "arrow": 3199,
      "precise": 3200,
      "Doctor": 3201,
      "Bing": 3202,
      "Hence": 3203,
      "feelings": 3204,
      "error": 3205,
      "bid": 3206,
      "ga": 3207,
      "revol": 3208,
      "emark": 3209,
      "grass": 3210,
      "While": 3211,
      "although": 3212,
      "consu": 3213,
      "lover": 3214,
      "aking": 3215,
      "commun": 3216,
      "struck": 3217,
      "seldom": 3218,
      "amb": 3219,
      "iments": 3220,
      "corres": 3221,
      "avoid": 3222,
      "horses": 3223,
      "Literary": 3224,
      "Jane": 3225,
      "ds": 3226,
      "named": 3227,
      "abund": 3228,
      "lot": 3229,
      "obsc": 3230,
      "rough": 3231,
      "rever": 3232,
      "liver": 3233,
      "outside": 3234,
      "Though": 3235,
      "marriage": 3236,
      "fles": 3237,
      "plies": 3238,
      "ovitch": 3239,
      "Def": 3240,
      "Say": 3241,
      "nice": 3242,
      "roche": 3243,
      "ains": 3244,
      "explan": 3245,
      "goes": 3246,
      "prices": 3247,
      "domestic": 3248,
      "gment": 3249,
      "exe": 3250,
      "greatly": 3251,
      "didn": 3252,
      "passage": 3253,
      "middle": 3254,
      "material": 3255,
      "thirty": 3256,
      "ude": 3257,
      "icer": 3258,
      "susp": 3259,
      "posing": 3260,
      "vict": 3261,
      "joined": 3262,
      "repeated": 3263,
      "propriety": 3264,
      "Ob": 3265,
      "Spe": 3266,
      "develo": 3267,
      "affection": 3268,
      "conscience": 3269,
      "Coll": 3270,
      "rupt": 3271,
      "solemn": 3272,
      "Walker": 3273,
      "superior": 3274,
      "sour": 3275,
      "tw": 3276,
      "forty": 3277,
      "species": 3278,
      "bal": 3279,
      "gate": 3280,
      "aly": 3281,
      "fallen": 3282,
      "paren": 3283,
      "strength": 3284,
      "Many": 3285,
      "Rom": 3286,
      "cou": 3287,
      "hall": 3288,
      "invent": 3289,
      "chap": 3290,
      "talking": 3291,
      "approach": 3292,
      "beneath": 3293,
      "Bingley": 3294,
      "Pres": 3295,
      "gall": 3296,
      "mir": 3297,
      "sit": 3298,
      "noticed": 3299,
      "shut": 3300,
      "seless": 3301,
      "Those": 3302,
      "ference": 3303,
      "Nothing": 3304,
      "admit": 3305,
      "LESSON": 3306,
      "oth": 3307,
      "King": 3308,
      "Pra": 3309,
      "mit": 3310,
      "mass": 3311,
      "pread": 3312,
      "forming": 3313,
      "actually": 3314,
      "grammatical": 3315,
      "necessarily": 3316,
      "extent": 3317,
      "francs": 3318,
      "theless": 3319,
      "rew": 3320,
      "asser": 3321,
      "beside": 3322,
      "music": 3323,
      "slowly": 3324,
      "Kames": 3325,
      "eld": 3326,
      "forts": 3327,
      "hero": 3328,
      "drawn": 3329,
      "satisfied": 3330,
      "critic": 3331,
      "opposite": 3332,
      "io": 3333,
      "ette": 3334,
      "century": 3335,
      "needs": 3336,
      "fortunate": 3337,
      "een": 3338,
      "tor": 3339,
      "twel": 3340,
      "weight": 3341,
      "progress": 3342,
      "ails": 3343,
      "Gav": 3344,
      "dinner": 3345,
      "pit": 3346,
      "rad": 3347,
      "vain": 3348,
      "pra": 3349,
      "distance": 3350,
      "clothes": 3351,
      "destroy": 3352,
      "bow": 3353,
      "died": 3354,
      "rom": 3355,
      "wrote": 3356,
      "asing": 3357,
      "lean": 3358,
      "dep": 3359,
      "manners": 3360,
      "pride": 3361,
      "deriv": 3362,
      "assist": 3363,
      "movement": 3364,
      "caught": 3365,
      "lative": 3366,
      "loves": 3367,
      "week": 3368,
      "clim": 3369,
      "cloud": 3370,
      "visible": 3371,
      "walking": 3372,
      "judge": 3373,
      "experience": 3374,
      "Gu": 3375,
      "tit": 3376,
      "vul": 3377,
      "serve": 3378,
      "medium": 3379,
      "yellow": 3380,
      "determined": 3381,
      "exactly": 3382,
      "PH": 3383,
      "wis": 3384,
      "straw": 3385,
      "forget": 3386,
      "tea": 3387,
      "finite": 3388,
      "streets": 3389,
      "keeping": 3390,
      "Archive": 3391,
      "Ma": 3392,
      "wret": 3393,
      "wide": 3394,
      "display": 3395,
      "afterwards": 3396,
      "putting": 3397,
      "Because": 3398,
      "maid": 3399,
      "considerable": 3400,
      "satisfaction": 3401,
      "Churchill": 3402,
      "Defarge": 3403,
      "Gavroche": 3404,
      "hence": 3405,
      "vill": 3406,
      "vey": 3407,
      "iving": 3408,
      "numbers": 3409,
      "breast": 3410,
      "endeav": 3411,
      "Ba": 3412,
      "IX": 3413,
      "pull": 3414,
      "vation": 3415,
      "nose": 3416,
      "proof": 3417,
      "attack": 3418,
      "running": 3419,
      "cape": 3420,
      "Ab": 3421,
      "Did": 3422,
      "pounds": 3423,
      "zz": 3424,
      "teeth": 3425,
      "countries": 3426,
      "confess": 3427,
      "trademark": 3428,
      "situation": 3429,
      ",--": 3430,
      "DE": 3431,
      "river": 3432,
      "ager": 3433,
      "illy": 3434,
      "goods": 3435,
      "positions": 3436,
      "servant": 3437,
      "ellips": 3438,
      "Again": 3439,
      "El": 3440,
      "nine": 3441,
      "inser": 3442,
      "neck": 3443,
      "----": 3444,
      "questions": 3445,
      "consequently": 3446,
      "exclaimed": 3447,
      "gro": 3448,
      "kes": 3449,
      "thrown": 3450,
      "removed": 3451,
      "levent": 3452,
      "gry": 3453,
      "ears": 3454,
      "ensive": 3455,
      "particularly": 3456,
      "frequent": 3457,
      "existence": 3458,
      "shadow": 3459,
      "conduct": 3460,
      "stupid": 3461,
      "Brown": 3462,
      "bent": 3463,
      "altogether": 3464,
      "sew": 3465,
      "loc": 3466,
      "prim": 3467,
      "distress": 3468,
      "importance": 3469,
      "creature": 3470,
      "calls": 3471,
      "divided": 3472,
      "barricade": 3473,
      "Gold": 3474,
      "hang": 3475,
      "nal": 3476,
      "uel": 3477,
      "chelevent": 3478,
      "tellect": 3479,
      "excellent": 3480,
      "stairs": 3481,
      "settled": 3482,
      "40": 3483,
      "Bishop": 3484,
      "aunt": 3485,
      "threat": 3486,
      "unto": 3487,
      "exhi": 3488,
      "female": 3489,
      "burst": 3490,
      "RO": 3491,
      "thick": 3492,
      "icious": 3493,
      "ump": 3494,
      "BLO": 3495,
      "Soc": 3496,
      "page": 3497,
      "ork": 3498,
      "stick": 3499,
      "pol": 3500,
      "shar": 3501,
      "phys": 3502,
      "handsome": 3503,
      "requires": 3504,
      "twice": 3505,
      "stro": 3506,
      "across": 3507,
      "stands": 3508,
      "possessed": 3509,
      "growth": 3510,
      "mistak": 3511,
      "science": 3512,
      "Fauchelevent": 3513,
      "aside": 3514,
      "states": 3515,
      "coach": 3516,
      "glance": 3517,
      "clean": 3518,
      "PRO": 3519,
      "preceding": 3520,
      "sitting": 3521,
      "escape": 3522,
      "parsing": 3523,
      "ception": 3524,
      "landlord": 3525,
      "grown": 3526,
      "Long": 3527,
      "Wick": 3528,
      "eleg": 3529,
      "oul": 3530,
      "althy": 3531,
      "search": 3532,
      "marked": 3533,
      "understanding": 3534,
      "Bet": 3535,
      "Sax": 3536,
      "cof": 3537,
      "ker": 3538,
      "rag": 3539,
      "omen": 3540,
      "obtain": 3541,
      "acquaint": 3542,
      "including": 3543,
      "lest": 3544,
      "pale": 3545,
      "reli": 3546,
      "sex": 3547,
      "weather": 3548,
      "scri": 3549,
      "contro": 3550,
      "surround": 3551,
      "drawing": 3552,
      "sand": 3553,
      "pleased": 3554,
      "TIC": 3555,
      "additional": 3556,
      "bly": 3557,
      "wound": 3558,
      "liked": 3559,
      "persu": 3560,
      "shout": 3561,
      "stopped": 3562,
      "treme": 3563,
      "custo": 3564,
      "rare": 3565,
      "leine": 3566,
      "modif": 3567,
      "shown": 3568,
      "syntax": 3569,
      "affected": 3570,
      "BLOOM": 3571,
      "bill": 3572,
      "donations": 3573,
      "direction": 3574,
      "ancing": 3575,
      "unciation": 3576,
      "extreme": 3577,
      "finished": 3578,
      "kinds": 3579,
      "secure": 3580,
      "Madeleine": 3581,
      "\"'": 3582,
      "Br": 3583,
      "Just": 3584,
      "Tell": 3585,
      "sch": 3586,
      "irregular": 3587,
      "board": 3588,
      "dread": 3589,
      "broad": 3590,
      "comparison": 3591,
      "German": 3592,
      "eper": 3593,
      "eks": 3594,
      "hide": 3595,
      "jol": 3596,
      "ois": 3597,
      "iner": 3598,
      "intellect": 3599,
      "learning": 3600,
      "provided": 3601,
      "memory": 3602,
      "twelve": 3603,
      "tur": 3604,
      "isters": 3605,
      "arts": 3606,
      "serious": 3607,
      "sche": 3608,
      "trying": 3609,
      "month": 3610,
      "phrases": 3611,
      "send": 3612,
      "usage": 3613,
      "derived": 3614,
      "UT": 3615,
      "VIII": 3616,
      "fond": 3617,
      "soever": 3618,
      "composed": 3619,
      "regarded": 3620,
      "arrived": 3621,
      "political": 3622,
      "Camp": 3623,
      "Have": 3624,
      "gin": 3625,
      "win": 3626,
      "notion": 3627,
      "conver": 3628,
      "ressing": 3629,
      "plants": 3630,
      "decided": 3631,
      "reference": 3632,
      "square": 3633,
      "38": 3634,
      "na": 3635,
      "spread": 3636,
      "isk": 3637,
      "forced": 3638,
      "aven": 3639,
      "TIV": 3640,
      "directly": 3641,
      "laughing": 3642,
      "prisoner": 3643,
      "va": 3644,
      "indust": 3645,
      "cheer": 3646,
      "advance": 3647,
      "asp": 3648,
      "soll": 3649,
      "umber": 3650,
      "languages": 3651,
      "summer": 3652,
      "contrad": 3653,
      "comparative": 3654,
      "philosopher": 3655,
      "scarcely": 3656,
      "ories": 3657,
      "boys": 3658,
      "distur": 3659,
      "leaving": 3660,
      "Wood": 3661,
      ";'": 3662,
      "Hist": 3663,
      "lex": 3664,
      "condem": 3665,
      "anti": 3666,
      "aked": 3667,
      "depends": 3668,
      "infer": 3669,
      "seek": 3670,
      "comma": 3671,
      "effort": 3672,
      "minister": 3673,
      "growing": 3674,
      "besides": 3675,
      "fifty": 3676,
      "Car": 3677,
      "umph": 3678,
      "looks": 3679,
      "collect": 3680,
      "jug": 3681,
      "ties": 3682,
      "fulness": 3683,
      "consent": 3684,
      "courage": 3685,
      "mistake": 3686,
      "VII": 3687,
      "dign": 3688,
      "toward": 3689,
      "safe": 3690,
      "adding": 3691,
      "choice": 3692,
      "Perhaps": 3693,
      "sacri": 3694,
      "precisely": 3695,
      "uf": 3696,
      "zen": 3697,
      "unk": 3698,
      "aby": 3699,
      "cool": 3700,
      "marry": 3701,
      "news": 3702,
      "months": 3703,
      "changes": 3704,
      "substit": 3705,
      "James": 3706,
      "York": 3707,
      "dance": 3708,
      "fish": 3709,
      "mes": 3710,
      "thro": 3711,
      "exceed": 3712,
      "minds": 3713,
      "More": 3714,
      "separate": 3715,
      "bon": 3716,
      "narrow": 3717,
      "pause": 3718,
      "resist": 3719,
      "mankind": 3720,
      "dia": 3721,
      "pronounced": 3722,
      "falling": 3723,
      "buy": 3724,
      "Barclay": 3725,
      "rant": 3726,
      "etc": 3727,
      "tray": 3728,
      "Inger": 3729,
      "efforts": 3730,
      "wants": 3731,
      "application": 3732,
      "education": 3733,
      "Campbell": 3734,
      "Ingersoll": 3735,
      "School": 3736,
      "stat": 3737,
      "proud": 3738,
      "anyone": 3739,
      "olt": 3740,
      "rence": 3741,
      "rooms": 3742,
      "varieties": 3743,
      "uniform": 3744,
      "offered": 3745,
      "witness": 3746,
      "Ju": 3747,
      "zed": 3748,
      "alley": 3749,
      "host": 3750,
      "presented": 3751,
      "junctive": 3752,
      "laughed": 3753,
      "America": 3754,
      "William": 3755,
      "32": 3756,
      "BE": 3757,
      "WH": 3758,
      "dust": 3759,
      "useless": 3760,
      "wet": 3761,
      "ander": 3762,
      "seated": 3763,
      "shame": 3764,
      "acity": 3765,
      "oting": 3766,
      "whenever": 3767,
      "tenance": 3768,
      "compared": 3769,
      "spot": 3770,
      "clearly": 3771,
      "explained": 3772,
      "Hen": 3773,
      "beast": 3774,
      "indif": 3775,
      "skin": 3776,
      "waiting": 3777,
      "Gill": 3778,
      "chamber": 3779,
      "ouns": 3780,
      "wear": 3781,
      "doctor": 3782,
      "coin": 3783,
      "definition": 3784,
      "dressed": 3785,
      "absolutely": 3786,
      "neighbour": 3787,
      "Charles": 3788,
      "Milton": 3789,
      "mut": 3790,
      "pin": 3791,
      "lege": 3792,
      "extr": 3793,
      "manif": 3794,
      "monstr": 3795,
      "choose": 3796,
      "necessity": 3797,
      "subjects": 3798,
      "osity": 3799,
      "bearing": 3800,
      "chiefly": 3801,
      "distinguish": 3802,
      "fifteen": 3803,
      "quis": 3804,
      "Fri": 3805,
      "deliver": 3806,
      "aced": 3807,
      "knowing": 3808,
      "Butler": 3809,
      "antecedent": 3810,
      "adopted": 3811,
      "opportunity": 3812,
      "Even": 3813,
      "Fir": 3814,
      "Ivan": 3815,
      "fancy": 3816,
      "pity": 3817,
      "tall": 3818,
      "idently": 3819,
      "intended": 3820,
      "fined": 3821,
      "final": 3822,
      "skill": 3823,
      "calm": 3824,
      "darkness": 3825,
      "zy": 3826,
      "suit": 3827,
      "cles": 3828,
      "consists": 3829,
      "instin": 3830,
      "instant": 3831,
      "bitter": 3832,
      "Ark": 3833,
      "shoes": 3834,
      "Enjol": 3835,
      "farmer": 3836,
      "Enjolras": 3837,
      ";\"—": 3838,
      "erable": 3839,
      "issu": 3840,
      "stones": 3841,
      "values": 3842,
      "ashes": 3843,
      "sky": 3844,
      "suffering": 3845,
      "ternal": 3846,
      "sufficiently": 3847,
      "rendered": 3848,
      "citiz": 3849,
      "charming": 3850,
      ",\"—\"": 3851,
      "AC": 3852,
      "IC": 3853,
      "god": 3854,
      "aves": 3855,
      "productive": 3856,
      "caused": 3857,
      "poetry": 3858,
      "thin": 3859,
      "recomm": 3860,
      "alarm": 3861,
      "leep": 3862,
      "lls": 3863,
      "compreh": 3864,
      "rows": 3865,
      "despair": 3866,
      "crowd": 3867,
      "West": 3868,
      "ba": 3869,
      "kno": 3870,
      "lor": 3871,
      "ti": 3872,
      "itary": 3873,
      "police": 3874,
      "contribut": 3875,
      "shows": 3876,
      "spirits": 3877,
      "provide": 3878,
      "powers": 3879,
      "apparent": 3880,
      "coll": 3881,
      "broke": 3882,
      "built": 3883,
      "magn": 3884,
      "established": 3885,
      "credit": 3886,
      "Ivanovitch": 3887,
      "Ph": 3888,
      "habits": 3889,
      "ille": 3890,
      "event": 3891,
      "division": 3892,
      "share": 3893,
      "rising": 3894,
      "animals": 3895,
      "quickly": 3896,
      "Chap": 3897,
      "loud": 3898,
      "obv": 3899,
      "Sect": 3900,
      "vision": 3901,
      "engaged": 3902,
      "members": 3903,
      "whisper": 3904,
      "Gen": 3905,
      "Gener": 3906,
      "Lic": 3907,
      "Old": 3908,
      "bul": 3909,
      "pill": 3910,
      "roots": 3911,
      "subl": 3912,
      "honor": 3913,
      "Example": 3914,
      "flesh": 3915,
      "Pract": 3916,
      "IT": 3917,
      "actions": 3918,
      "wished": 3919,
      "information": 3920,
      "arse": 3921,
      "legis": 3922,
      "duties": 3923,
      "urious": 3924,
      "ellipsis": 3925,
      "lack": 3926,
      "xion": 3927,
      "uted": 3928,
      "genius": 3929,
      "vowels": 3930,
      "religion": 3931,
      "Pron": 3932,
      "kin": 3933,
      "agement": 3934,
      "excess": 3935,
      "indul": 3936,
      "version": 3937,
      "highest": 3938,
      "wheat": 3939,
      "surprise": 3940,
      "communic": 3941,
      "39": 3942,
      "Cow": 3943,
      "da": 3944,
      "gay": 3945,
      "reply": 3946,
      "seat": 3947,
      "expresses": 3948,
      "carefully": 3949,
      "sorts": 3950,
      "holding": 3951,
      "windows": 3952,
      "connect": 3953,
      "continue": 3954,
      "fingers": 3955,
      "First": 3956,
      "dwell": 3957,
      "tenses": 3958,
      "vii": 3959,
      "matters": 3960,
      "organ": 3961,
      "enormand": 3962,
      "valuable": 3963,
      "PER": 3964,
      "fight": 3965,
      "nay": 3966,
      "asc": 3967,
      "stir": 3968,
      "bold": 3969,
      "auxili": 3970,
      "Gillenormand": 3971,
      "Di": 3972,
      "Gard": 3973,
      "ROM": 3974,
      "ially": 3975,
      "unknown": 3976,
      "tran": 3977,
      "Inst": 3978,
      "highly": 3979,
      "constantly": 3980,
      "introduced": 3981,
      "precious": 3982,
      "License": 3983,
      "2d": 3984,
      "45": 3985,
      "Ir": 3986,
      "fly": 3987,
      "iety": 3988,
      "inches": 3989,
      "extra": 3990,
      "100": 3991,
      "JEC": 3992,
      "yard": 3993,
      "iture": 3994,
      "alous": 3995,
      "wift": 3996,
      "immen": 3997,
      "accompl": 3998,
      "stop": 3999,
      "reasons": 4000,
      "maj": 4001,
      "causes": 4002,
      "errors": 4003,
      "000": 4004,
      "vest": 4005,
      "reput": 4006,
      "ams": 4007,
      "Three": 4008,
      "attered": 4009,
      "quarters": 4010,
      "parents": 4011,
      "Bes": 4012,
      "Lou": 4013,
      "Pa": 4014,
      "catch": 4015,
      "pens": 4016,
      "rust": 4017,
      "vice": 4018,
      "implies": 4019,
      "lier": 4020,
      "prep": 4021,
      "wore": 4022,
      "elle": 4023,
      "sigh": 4024,
      "hole": 4025,
      "custom": 4026,
      "midst": 4027,
      "46": 4028,
      ";—": 4029,
      "Take": 4030,
      "cen": 4031,
      "tum": 4032,
      "remo": 4033,
      "level": 4034,
      "vex": 4035,
      "ulous": 4036,
      "forest": 4037,
      "sphere": 4038,
      "working": 4039,
      "ission": 4040,
      "facts": 4041,
      "moments": 4042,
      "patience": 4043,
      "indicates": 4044,
      "treated": 4045,
      "card": 4046,
      "jections": 4047,
      "aston": 4048,
      "evidently": 4049,
      "happen": 4050,
      "founded": 4051,
      "signific": 4052,
      "faces": 4053,
      "graphy": 4054,
      "journey": 4055,
      "explanation": 4056,
      "CO": 4057,
      "Scare": 4058,
      "hol": 4059,
      "iley": 4060,
      "ching": 4061,
      "wholly": 4062,
      "special": 4063,
      "tens": 4064,
      "grammars": 4065,
      "fund": 4066,
      "mitted": 4067,
      "unexpected": 4068,
      "convent": 4069,
      "stranger": 4070,
      "strugg": 4071,
      "shape": 4072,
      "definite": 4073,
      "Word": 4074,
      "fil": 4075,
      "gun": 4076,
      "thed": 4077,
      "improper": 4078,
      "terday": 4079,
      "manure": 4080,
      "apply": 4081,
      "audi": 4082,
      "obtained": 4083,
      "els": 4084,
      "remains": 4085,
      "appropri": 4086,
      "figures": 4087,
      "philosophy": 4088,
      "sympa": 4089,
      "popular": 4090,
      "acquaintance": 4091,
      "manifest": 4092,
      "gs": 4093,
      "invol": 4094,
      "sees": 4095,
      "aming": 4096,
      "antine": 4097,
      "finally": 4098,
      "conditions": 4099,
      "truly": 4100,
      "constant": 4101,
      "freely": 4102,
      "Scarecrow": 4103,
      "gust": 4104,
      "sides": 4105,
      "thong": 4106,
      "edge": 4107,
      "contem": 4108,
      "arton": 4109,
      "Any": 4110,
      "calling": 4111,
      "falls": 4112,
      "exception": 4113,
      "lux": 4114,
      "argument": 4115,
      "consonant": 4116,
      "ape": 4117,
      "pes": 4118,
      "vast": 4119,
      "inn": 4120,
      "abstra": 4121,
      "conv": 4122,
      "objection": 4123,
      "acts": 4124,
      "pleasures": 4125,
      "Allen": 4126,
      "defined": 4127,
      "enjoyment": 4128,
      "possibly": 4129,
      "Cap": 4130,
      "Great": 4131,
      "Whe": 4132,
      "nur": 4133,
      "song": 4134,
      "eding": 4135,
      "veget": 4136,
      "plent": 4137,
      "emer": 4138,
      "foregoing": 4139,
      "yours": 4140,
      "discovered": 4141,
      "desp": 4142,
      "hither": 4143,
      "thinks": 4144,
      "perceived": 4145,
      "www": 4146,
      "independent": 4147,
      "sharp": 4148,
      "General": 4149,
      "IM": 4150,
      "tu": 4151,
      "ws": 4152,
      "ina": 4153,
      "enced": 4154,
      "chan": 4155,
      "omitted": 4156,
      "noise": 4157,
      "rob": 4158,
      "lied": 4159,
      "priest": 4160,
      "mons": 4161,
      "dangerous": 4162,
      "ka": 4163,
      "rhy": 4164,
      "sme": 4165,
      "ainted": 4166,
      "ulate": 4167,
      "ements": 4168,
      "disput": 4169,
      "space": 4170,
      "thrust": 4171,
      "pronunciation": 4172,
      "signs": 4173,
      "cultivated": 4174,
      "Mag": 4175,
      "bud": 4176,
      "ec": 4177,
      "iff": 4178,
      "estim": 4179,
      "istic": 4180,
      "affirm": 4181,
      "discover": 4182,
      "formerly": 4183,
      "cere": 4184,
      "ipt": 4185,
      "remed": 4186,
      "hers": 4187,
      "grate": 4188,
      "hearing": 4189,
      "REC": 4190,
      "laughter": 4191,
      "cultivation": 4192,
      "national": 4193,
      "believed": 4194,
      "correspond": 4195,
      "Holt": 4196,
      "iant": 4197,
      "itated": 4198,
      "heap": 4199,
      "unpleasant": 4200,
      "doors": 4201,
      "ems": 4202,
      "prepar": 4203,
      "flower": 4204,
      "Only": 4205,
      "wishes": 4206,
      "errone": 4207,
      "dropped": 4208,
      "touched": 4209,
      "North": 4210,
      "improvement": 4211,
      "bridge": 4212,
      "innocent": 4213,
      "splend": 4214,
      ".’": 4215,
      "47": 4216,
      "Fig": 4217,
      "Jon": 4218,
      "permission": 4219,
      "cord": 4220,
      "discus": 4221,
      "lighted": 4222,
      "viii": 4223,
      "Section": 4224,
      "mercy": 4225,
      "confusion": 4226,
      "bestow": 4227,
      "consideration": 4228,
      "accident": 4229,
      "cab": 4230,
      "attr": 4231,
      "height": 4232,
      "rot": 4233,
      "acious": 4234,
      "desir": 4235,
      "profound": 4236,
      "barr": 4237,
      "grew": 4238,
      "employment": 4239,
      "calcul": 4240,
      "limited": 4241,
      "belongs": 4242,
      "immediate": 4243,
      "31": 4244,
      "ture": 4245,
      "ators": 4246,
      "oup": 4247,
      "orge": 4248,
      "lock": 4249,
      "complain": 4250,
      "ardon": 4251,
      "igne": 4252,
      "flat": 4253,
      "interrog": 4254,
      "pointed": 4255,
      "larger": 4256,
      "promise": 4257,
      "walls": 4258,
      "thoroughly": 4259,
      "GH": 4260,
      "Mart": 4261,
      "Wil": 4262,
      "bing": 4263,
      "bir": 4264,
      "caut": 4265,
      "rates": 4266,
      "asleep": 4267,
      "advent": 4268,
      "imp": 4269,
      "utions": 4270,
      "export": 4271,
      "denote": 4272,
      "confidence": 4273,
      "published": 4274,
      "praise": 4275,
      "Tre": 4276,
      "ays": 4277,
      "esty": 4278,
      "desires": 4279,
      "Therefore": 4280,
      "brea": 4281,
      "careful": 4282,
      "needed": 4283,
      "quarrel": 4284,
      "economy": 4285,
      "forgotten": 4286,
      "battle": 4287,
      "seized": 4288,
      "amuse": 4289,
      "deter": 4290,
      "indis": 4291,
      "speaks": 4292,
      "collection": 4293,
      "grees": 4294,
      "logical": 4295,
      "culine": 4296,
      "ignorant": 4297,
      "Langu": 4298,
      "Red": 4299,
      "Was": 4300,
      "gutenberg": 4301,
      "butter": 4302,
      "estate": 4303,
      "countenance": 4304,
      "standard": 4305,
      "orders": 4306,
      "fourth": 4307,
      "souls": 4308,
      "prepositions": 4309,
      "Prof": 4310,
      "FORM": 4311,
      "building": 4312,
      "title": 4313,
      "Henry": 4314,
      "Youn": 4315,
      "vig": 4316,
      "enc": 4317,
      "eds": 4318,
      "assum": 4319,
      "evident": 4320,
      "phthong": 4321,
      "size": 4322,
      "termination": 4323,
      "remarkable": 4324,
      "BER": 4325,
      "San": 4326,
      "Sing": 4327,
      "gif": 4328,
      "nations": 4329,
      "acles": 4330,
      "pieces": 4331,
      "surprised": 4332,
      "qualities": 4333,
      ",]": 4334,
      "Jes": 4335,
      "La": 4336,
      "Liz": 4337,
      "SH": 4338,
      "fed": 4339,
      "repro": 4340,
      "assem": 4341,
      "absor": 4342,
      "worn": 4343,
      "Thom": 4344,
      "dull": 4345,
      "Wells": 4346,
      "sorry": 4347,
      "brief": 4348,
      "linen": 4349,
      "BLE": 4350,
      "Gl": 4351,
      "noon": 4352,
      "arest": 4353,
      "degrees": 4354,
      "reser": 4355,
      "scene": 4356,
      "attend": 4357,
      "lovely": 4358,
      "interests": 4359,
      "represented": 4360,
      "daughters": 4361,
      "preferred": 4362,
      "finger": 4363,
      "associated": 4364,
      "Collins": 4365,
      "Dav": 4366,
      "Love": 4367,
      "cart": 4368,
      "ife": 4369,
      "notes": 4370,
      "prose": 4371,
      "sheep": 4372,
      "copies": 4373,
      "itchen": 4374,
      "Lion": 4375,
      "bol": 4376,
      "brown": 4377,
      "report": 4378,
      "moon": 4379,
      "essential": 4380,
      "train": 4381,
      "somewhat": 4382,
      "misery": 4383,
      "resumed": 4384,
      "freed": 4385,
      "branches": 4386,
      "Fantine": 4387,
      "ban": 4388,
      "dish": 4389,
      "ost": 4390,
      "sisters": 4391,
      "atory": 4392,
      "loqu": 4393,
      "owner": 4394,
      "ashamed": 4395,
      "Still": 4396,
      "divine": 4397,
      "declared": 4398,
      "grandfather": 4399,
      "remembered": 4400,
      "purchase": 4401,
      "gloomy": 4402,
      "49": 4403,
      "80": 4404,
      "ait": 4405,
      "bag": 4406,
      "domin": 4407,
      "beat": 4408,
      "ades": 4409,
      "agent": 4410,
      "pretend": 4411,
      "thank": 4412,
      "drag": 4413,
      "infinite": 4414,
      "animal": 4415,
      "civil": 4416,
      "ME": 4417,
      "Sher": 4418,
      "US": 4419,
      "shot": 4420,
      "akes": 4421,
      "thered": 4422,
      "effects": 4423,
      "paying": 4424,
      "immense": 4425,
      "Besides": 4426,
      "Young": 4427,
      "bi": 4428,
      "sword": 4429,
      "alys": 4430,
      "leon": 4431,
      "odd": 4432,
      "worst": 4433,
      "igan": 4434,
      "cler": 4435,
      "discourse": 4436,
      "evol": 4437,
      "axim": 4438,
      "pleasing": 4439,
      "solic": 4440,
      "respects": 4441,
      "masculine": 4442,
      "drop": 4443,
      "indicative": 4444,
      "meeting": 4445,
      "empty": 4446,
      "prosperity": 4447,
      "Wickham": 4448,
      "igneur": 4449,
      "eating": 4450,
      "voc": 4451,
      "orous": 4452,
      "toler": 4453,
      "abs": 4454,
      "circumstance": 4455,
      "Loc": 4456,
      "og": 4457,
      "salt": 4458,
      "tes": 4459,
      "insu": 4460,
      "seigneur": 4461,
      "conqu": 4462,
      "cook": 4463,
      "umb": 4464,
      "events": 4465,
      "deny": 4466,
      "distant": 4467,
      "accurate": 4468,
      "BI": 4469,
      "Had": 4470,
      "eager": 4471,
      "mud": 4472,
      "pound": 4473,
      "behold": 4474,
      "beheld": 4475,
      "imperfect": 4476,
      "pover": 4477,
      "shire": 4478,
      "exists": 4479,
      "sail": 4480,
      "saved": 4481,
      "surface": 4482,
      "lands": 4483,
      "legal": 4484,
      "distributing": 4485,
      "yesterday": 4486,
      "alogy": 4487,
      "Works": 4488,
      "Arkady": 4489,
      "link": 4490,
      "army": 4491,
      "weep": 4492,
      "series": 4493,
      "izing": 4494,
      "expressions": 4495,
      "speaker": 4496,
      "practical": 4497,
      "breakfast": 4498,
      "neglect": 4499,
      "Syntax": 4500,
      "schol": 4501,
      "Alex": 4502,
      "Neither": 4503,
      "task": 4504,
      "ites": 4505,
      "earnest": 4506,
      "However": 4507,
      "definitions": 4508,
      "successful": 4509,
      "observe": 4510,
      "teaching": 4511,
      "bourge": 4512,
      "resolved": 4513,
      "hopes": 4514,
      "rapidly": 4515,
      "cow": 4516,
      "iable": 4517,
      "pent": 4518,
      "uity": 4519,
      "’,": 4520,
      "resh": 4521,
      "beha": 4522,
      "contain": 4523,
      "onel": 4524,
      "indu": 4525,
      "coal": 4526,
      "Prov": 4527,
      "taxes": 4528,
      "talked": 4529,
      "resul": 4530,
      "British": 4531,
      "consumption": 4532,
      "wretched": 4533,
      "Chapter": 4534,
      "Louis": 4535,
      "prepared": 4536,
      "Bro": 4537,
      "DI": 4538,
      "EO": 4539,
      "gest": 4540,
      "rance": 4541,
      "sar": 4542,
      "angry": 4543,
      "ares": 4544,
      "shill": 4545,
      "keeper": 4546,
      "lace": 4547,
      "community": 4548,
      "smith": 4549,
      "admitted": 4550,
      "oses": 4551,
      "occasions": 4552,
      "views": 4553,
      "opinions": 4554,
      "listened": 4555,
      "Look": 4556,
      "addressed": 4557,
      "Trans": 4558,
      "gradually": 4559,
      "numerous": 4560,
      "birth": 4561,
      "Since": 4562,
      "aper": 4563,
      "bas": 4564,
      "sla": 4565,
      "vague": 4566,
      "alus": 4567,
      "aband": 4568,
      "ulated": 4569,
      "bert": 4570,
      "bore": 4571,
      "commer": 4572,
      "lets": 4573,
      "smiling": 4574,
      "refund": 4575,
      "accented": 4576,
      "Lydia": 4577,
      "Monseigneur": 4578,
      "Saxon": 4579,
      "Irish": 4580,
      "UL": 4581,
      "hid": 4582,
      "nin": 4583,
      "loving": 4584,
      "uments": 4585,
      "raising": 4586,
      "desired": 4587,
      "stret": 4588,
      "servants": 4589,
      "probable": 4590,
      "applicable": 4591,
      "pupil": 4592,
      "Words": 4593,
      "Ded": 4594,
      "Hor": 4595,
      "glo": 4596,
      "snow": 4597,
      "anan": 4598,
      "ading": 4599,
      "irce": 4600,
      "served": 4601,
      "relate": 4602,
      "enses": 4603,
      "ension": 4604,
      "TED": 4605,
      "hurt": 4606,
      "foolish": 4607,
      "elder": 4608,
      "intellectual": 4609,
      "industry": 4610,
      "Buch": 4611,
      "Mull": 4612,
      "crown": 4613,
      "theory": 4614,
      "alty": 4615,
      "becoming": 4616,
      "amid": 4617,
      "unhappy": 4618,
      "convey": 4619,
      "willing": 4620,
      "interrup": 4621,
      "emphas": 4622,
      "shook": 4623,
      "listen": 4624,
      "recognized": 4625,
      "mixed": 4626,
      ";\"—\"": 4627,
      "citizen": 4628,
      "Day": 4629,
      "Pol": 4630,
      "bask": 4631,
      "kitchen": 4632,
      "ology": 4633,
      "reject": 4634,
      "sust": 4635,
      "contained": 4636,
      "loose": 4637,
      "doll": 4638,
      "umin": 4639,
      "actual": 4640,
      "intention": 4641,
      "severe": 4642,
      "expense": 4643,
      "Fow": 4644,
      "mour": 4645,
      "vir": 4646,
      "star": 4647,
      "haste": 4648,
      "uded": 4649,
      "check": 4650,
      "signification": 4651,
      "remarks": 4652,
      "represents": 4653,
      "leading": 4654,
      "planted": 4655,
      "uries": 4656,
      "protected": 4657,
      "inquir": 4658,
      "mistaken": 4659,
      "Buchanan": 4660,
      "Hu": 4661,
      "Hiley": 4662,
      "Sup": 4663,
      "iest": 4664,
      "iny": 4665,
      "reven": 4666,
      "extend": 4667,
      "Inter": 4668,
      "oblig": 4669,
      "overcome": 4670,
      "compet": 4671,
      "ruin": 4672,
      "legs": 4673,
      "Under": 4674,
      "concerned": 4675,
      "mistress": 4676,
      "sickness": 4677,
      "occupied": 4678,
      "Woodman": 4679,
      "bourgeois": 4680,
      "?'": 4681,
      "date": 4682,
      "nut": 4683,
      "recent": 4684,
      "itate": 4685,
      "peas": 4686,
      "este": 4687,
      "prud": 4688,
      "holy": 4689,
      "rub": 4690,
      "acquainted": 4691,
      "imagination": 4692,
      "preserve": 4693,
      "furnished": 4694,
      "Partici": 4695,
      "grief": 4696,
      "48": 4697,
      "uals": 4698,
      "wing": 4699,
      "aspect": 4700,
      "ulating": 4701,
      "grant": 4702,
      "grav": 4703,
      "sip": 4704,
      "smiled": 4705,
      "begun": 4706,
      "namely": 4707,
      "Peirce": 4708,
      "sensible": 4709,
      "killed": 4710,
      "favorable": 4711,
      "yrac": 4712,
      "Simon": 4713,
      "Ber": 4714,
      "Hall": 4715,
      "hate": 4716,
      "infle": 4717,
      "impression": 4718,
      "agger": 4719,
      "composition": 4720,
      "accoun": 4721,
      "femin": 4722,
      "feyrac": 4723,
      "ideal": 4724,
      "committed": 4725,
      "crimin": 4726,
      "Before": 4727,
      "END": 4728,
      "Most": 4729,
      "devil": 4730,
      "assured": 4731,
      "Courfeyrac": 4732,
      "COR": 4733,
      "NE": 4734,
      "Tom": 4735,
      "instr": 4736,
      "reign": 4737,
      "chim": 4738,
      "station": 4739,
      "contempt": 4740,
      "ivity": 4741,
      "boots": 4742,
      "obed": 4743,
      "angers": 4744,
      "strain": 4745,
      "spent": 4746,
      "finding": 4747,
      "opening": 4748,
      "Like": 4749,
      "curiosity": 4750,
      "source": 4751,
      "Language": 4752,
      "Bur": 4753,
      "Each": 4754,
      "Put": 4755,
      "tight": 4756,
      "thri": 4757,
      "itor": 4758,
      "lev": 4759,
      "perform": 4760,
      "thereby": 4761,
      "preach": 4762,
      "inking": 4763,
      "scr": 4764,
      "choly": 4765,
      "restri": 4766,
      "quantities": 4767,
      "particip": 4768,
      "enemy": 4769,
      "elements": 4770,
      "creatures": 4771,
      "exerc": 4772,
      "ignorance": 4773,
      "knees": 4774,
      "Scott": 4775,
      "vulgar": 4776,
      "scheme": 4777,
      "dignity": 4778,
      "Whether": 4779,
      "Locke": 4780,
      "41": 4781,
      "Mor": 4782,
      "Napo": 4783,
      "Pers": 4784,
      "QU": 4785,
      "gross": 4786,
      "hint": 4787,
      "ium": 4788,
      "pardon": 4789,
      "suitable": 4790,
      "aud": 4791,
      "ieu": 4792,
      "shoulder": 4793,
      "stomach": 4794,
      "showed": 4795,
      "petition": 4796,
      "literary": 4797,
      "delicate": 4798,
      "picture": 4799,
      "reduced": 4800,
      "Sub": 4801,
      "dic": 4802,
      "mess": 4803,
      "itals": 4804,
      "locution": 4805,
      "contrast": 4806,
      "separated": 4807,
      "observation": 4808,
      "thography": 4809,
      "barrass": 4810,
      "poverty": 4811,
      "Hart": 4812,
      "Nature": 4813,
      "Water": 4814,
      "whence": 4815,
      "rock": 4816,
      "rig": 4817,
      "agric": 4818,
      "melan": 4819,
      "acknowled": 4820,
      "upper": 4821,
      "scre": 4822,
      "mono": 4823,
      "silk": 4824,
      "aware": 4825,
      "ailed": 4826,
      "triumph": 4827,
      "surely": 4828,
      "judgment": 4829,
      "arrangement": 4830,
      "printed": 4831,
      "Roman": 4832,
      "agricult": 4833,
      "Other": 4834,
      "SU": 4835,
      "aire": 4836,
      "shade": 4837,
      "apped": 4838,
      "iles": 4839,
      "udes": 4840,
      "begins": 4841,
      "insist": 4842,
      "hung": 4843,
      "candle": 4844,
      "defective": 4845,
      "mysterious": 4846,
      "chapter": 4847,
      "obvious": 4848,
      "Martin": 4849,
      "Ano": 4850,
      "_s": 4851,
      "bull": 4852,
      "ee": 4853,
      "lat": 4854,
      "roof": 4855,
      "ache": 4856,
      "privi": 4857,
      "profitable": 4858,
      "famous": 4859,
      "Does": 4860,
      "exceptions": 4861,
      "histor": 4862,
      "benefit": 4863,
      "George": 4864,
      "inserted": 4865,
      "located": 4866,
      "plenty": 4867,
      "Napoleon": 4868,
      "Another": 4869,
      "Hom": 4870,
      "RAN": 4871,
      "Very": 4872,
      "bark": 4873,
      "bishop": 4874,
      "oy": 4875,
      "vary": 4876,
      "terror": 4877,
      "emin": 4878,
      "embarrass": 4879,
      "cording": 4880,
      "beings": 4881,
      "180": 4882,
      "marks": 4883,
      "substance": 4884,
      "avoided": 4885,
      "multitude": 4886,
      "obscure": 4887,
      "alysis": 4888,
      "melancholy": 4889,
      "ITH": 4890,
      "MAR": 4891,
      "Rus": 4892,
      "TA": 4893,
      "nons": 4894,
      "oh": 4895,
      "threw": 4896,
      "heat": 4897,
      "adap": 4898,
      "ctu": 4899,
      "sus": 4900,
      "moist": 4901,
      "proble": 4902,
      "emed": 4903,
      "likewise": 4904,
      "diff": 4905,
      "ician": 4906,
      "path": 4907,
      "cheap": 4908,
      "characters": 4909,
      "doubted": 4910,
      "entertain": 4911,
      "created": 4912,
      "advantages": 4913,
      "disappointment": 4914,
      "revolution": 4915,
      "Dedalus": 4916,
      "Cr": 4917,
      "YOU": 4918,
      "ias": 4919,
      "pan": 4920,
      "pack": 4921,
      "intim": 4922,
      "betray": 4923,
      "cture": 4924,
      "liament": 4925,
      "pel": 4926,
      "prejud": 4927,
      "attribut": 4928,
      "hearts": 4929,
      "advanced": 4930,
      "cript": 4931,
      "connexion": 4932,
      "included": 4933,
      "anxiety": 4934,
      "inferior": 4935,
      "Coun": 4936,
      "Som": 4937,
      "unfortunate": 4938,
      "illust": 4939,
      "shoulders": 4940,
      "speed": 4941,
      "udge": 4942,
      "couldn": 4943,
      "regret": 4944,
      "produces": 4945,
      "solid": 4946,
      "transl": 4947,
      "shadows": 4948,
      "arranged": 4949,
      "Jam": 4950,
      "June": 4951,
      "pha": 4952,
      "pages": 4953,
      "ware": 4954,
      "inhabit": 4955,
      "editions": 4956,
      "healthy": 4957,
      "sevent": 4958,
      "llen": 4959,
      "turns": 4960,
      "officer": 4961,
      "merit": 4962,
      "element": 4963,
      "accum": 4964,
      "failure": 4965,
      "Better": 4966,
      "Jondre": 4967,
      "determine": 4968,
      "reproach": 4969,
      "Mulligan": 4970,
      "57": 4971,
      "60": 4972,
      "House": 4973,
      "PLES": 4974,
      "emotion": 4975,
      "oo": 4976,
      "obey": 4977,
      "ingen": 4978,
      "ston": 4979,
      "wicked": 4980,
      "vert": 4981,
      "ico": 4982,
      "uncertain": 4983,
      "permitted": 4984,
      "evidence": 4985,
      "obst": 4986,
      "angle": 4987,
      "icks": 4988,
      "attended": 4989,
      "asking": 4990,
      "divers": 4991,
      "color": 4992,
      "sooner": 4993,
      "Adject": 4994,
      "interesting": 4995,
      "agreed": 4996,
      "occasionally": 4997,
      "religious": 4998,
      "anxious": 4999,
      "Ye": 5000,
      "apost": 5001,
      "kins": 5002,
      "eral": 5003,
      "amaz": 5004,
      "idi": 5005,
      "performed": 5006,
      "ounce": 5007,
      "fever": 5008,
      "antic": 5009,
      "jealous": 5010,
      "wouldn": 5011,
      "justly": 5012,
      "18mo": 5013,
      "join": 5014,
      "sentiment": 5015,
      "ordered": 5016,
      "fellows": 5017,
      "NOT": 5018,
      "fruits": 5019,
      "ridic": 5020,
      "consistent": 5021,
      "crop": 5022,
      "accepted": 5023,
      "alike": 5024,
      "substantive": 5025,
      "Green": 5026,
      "wisdom": 5027,
      "OL": 5028,
      "PE": 5029,
      "cous": 5030,
      "dying": 5031,
      "egg": 5032,
      "flour": 5033,
      "ashing": 5034,
      "increasing": 5035,
      "promised": 5036,
      "drinking": 5037,
      "comfortable": 5038,
      "senses": 5039,
      "OOK": 5040,
      "Profess": 5041,
      "Sanborn": 5042,
      "Aunt": 5043,
      "ATION": 5044,
      "Having": 5045,
      "Little": 5046,
      "Rep": 5047,
      "ox": 5048,
      "stim": 5049,
      "stated": 5050,
      "stuff": 5051,
      "entrance": 5052,
      "shel": 5053,
      "disagreeable": 5054,
      "telling": 5055,
      "179": 5056,
      "showing": 5057,
      "striking": 5058,
      "folded": 5059,
      "frightened": 5060,
      "Merchant": 5061,
      "ROMEO": 5062,
      "Give": 5063,
      "Matt": 5064,
      "Oz": 5065,
      "brow": 5066,
      "bited": 5067,
      "fare": 5068,
      "inher": 5069,
      "reve": 5070,
      "waste": 5071,
      "prop": 5072,
      "blow": 5073,
      "brain": 5074,
      "fled": 5075,
      "reality": 5076,
      "troubles": 5077,
      "Shall": 5078,
      "consciousness": 5079,
      "44": 5080,
      "ATIONS": 5081,
      "Tab": 5082,
      "ais": 5083,
      "cav": 5084,
      "gently": 5085,
      "env": 5086,
      "contains": 5087,
      "mel": 5088,
      "White": 5089,
      "everywhere": 5090,
      "passes": 5091,
      "purposes": 5092,
      "reasonable": 5093,
      "prince": 5094,
      "kingdom": 5095,
      "varied": 5096,
      "license": 5097,
      "borrow": 5098,
      "assume": 5099,
      "eBooks": 5100,
      "physical": 5101,
      "freedom": 5102,
      "bou": 5103,
      "leaf": 5104,
      "riches": 5105,
      "urity": 5106,
      "acle": 5107,
      "apposition": 5108,
      "clause": 5109,
      "disgust": 5110,
      "flag": 5111,
      "portends": 5112,
      "directed": 5113,
      "entering": 5114,
      "described": 5115,
      "smooth": 5116,
      "curious": 5117,
      "Romeo": 5118,
      "adapted": 5119,
      "Mus": 5120,
      "Pat": 5121,
      "cattle": 5122,
      "thread": 5123,
      "arise": 5124,
      "arbit": 5125,
      "chin": 5126,
      "bel": 5127,
      "owe": 5128,
      "neat": 5129,
      "ships": 5130,
      "excit": 5131,
      "pled": 5132,
      "ilities": 5133,
      "dozen": 5134,
      "aker": 5135,
      "prepare": 5136,
      "Tooke": 5137,
      "generous": 5138,
      "Ibid": 5139,
      "inside": 5140,
      "circle": 5141,
      "golden": 5142,
      "concealed": 5143,
      "Manette": 5144,
      "started": 5145,
      "neighbor": 5146,
      "gazed": 5147,
      "Among": 5148,
      "sewer": 5149,
      "elegant": 5150,
      "kerchief": 5151,
      "Au": 5152,
      "Ke": 5153,
      "sought": 5154,
      "thine": 5155,
      "income": 5156,
      "urs": 5157,
      "embr": 5158,
      "worked": 5159,
      "readily": 5160,
      "Pross": 5161,
      "setting": 5162,
      "ESS": 5163,
      "volume": 5164,
      "warning": 5165,
      "changing": 5166,
      "patient": 5167,
      "soldier": 5168,
      "sacred": 5169,
      "extraordinary": 5170,
      ":--": 5171,
      "Ser": 5172,
      "South": 5173,
      "cited": 5174,
      "isn": 5175,
      "stam": 5176,
      "stars": 5177,
      "supre": 5178,
      "opposition": 5179,
      "vessel": 5180,
      "careless": 5181,
      "supposing": 5182,
      "needless": 5183,
      "miserable": 5184,
      "respecting": 5185,
      "interested": 5186,
      "miles": 5187,
      "civili": 5188,
      "alog": 5189,
      "istocr": 5190,
      "previous": 5191,
      "According": 5192,
      "appropriate": 5193,
      "Jesus": 5194,
      "Jondrette": 5195,
      "JO": 5196,
      "conjug": 5197,
      "etr": 5198,
      "lovers": 5199,
      "emph": 5200,
      "coarse": 5201,
      "desper": 5202,
      "attached": 5203,
      "hosp": 5204,
      "curren": 5205,
      "busy": 5206,
      "governing": 5207,
      "planting": 5208,
      "mingled": 5209,
      "convenience": 5210,
      "absence": 5211,
      "55": 5212,
      "Des": 5213,
      "dim": 5214,
      "game": 5215,
      "slip": 5216,
      "|-": 5217,
      "encour": 5218,
      "haust": 5219,
      "cie": 5220,
      "discre": 5221,
      "Indeed": 5222,
      "kindness": 5223,
      "chosen": 5224,
      "Prin": 5225,
      "preceded": 5226,
      "faults": 5227,
      "auxiliary": 5228,
      "feminine": 5229,
      "BOOK": 5230,
      "Cob": 5231,
      "Chi": 5232,
      "Dis": 5233,
      "fate": 5234,
      "gle": 5235,
      "gown": 5236,
      "tail": 5237,
      "remove": 5238,
      "ald": 5239,
      "iring": 5240,
      "perman": 5241,
      "plate": 5242,
      "selfish": 5243,
      "Its": 5244,
      "dison": 5245,
      "comply": 5246,
      "Second": 5247,
      "ushing": 5248,
      "carrying": 5249,
      "knife": 5250,
      "perceive": 5251,
      "intelligence": 5252,
      "succeeded": 5253,
      "reckoned": 5254,
      "village": 5255,
      "legislative": 5256,
      "remedy": 5257,
      "Bright": 5258,
      "Carton": 5259,
      "Ev": 5260,
      "LY": 5261,
      "Que": 5262,
      "Ter": 5263,
      "hom": 5264,
      "san": 5265,
      "insur": 5266,
      "idan": 5267,
      "abrupt": 5268,
      "sover": 5269,
      "extens": 5270,
      "grim": 5271,
      "astic": 5272,
      "preter": 5273,
      "Thank": 5274,
      "creation": 5275,
      "cruel": 5276,
      "finds": 5277,
      "grammarian": 5278,
      "Addison": 5279,
      "spiritual": 5280,
      "devoted": 5281,
      "companion": 5282,
      "daily": 5283,
      "emphasis": 5284,
      "Sun": 5285,
      "inward": 5286,
      "encounter": 5287,
      "rophe": 5288,
      "folly": 5289,
      "foundation": 5290,
      "ENSE": 5291,
      "necessaries": 5292,
      "watched": 5293,
      "belief": 5294,
      "suggested": 5295,
      "develop": 5296,
      "alleys": 5297,
      "Sheridan": 5298,
      "Law": 5299,
      "gement": 5300,
      "pow": 5301,
      "ids": 5302,
      "rival": 5303,
      "exhaust": 5304,
      "appreh": 5305,
      "blame": 5306,
      "joint": 5307,
      "crack": 5308,
      "instit": 5309,
      "nearer": 5310,
      "powerful": 5311,
      "played": 5312,
      "utterly": 5313,
      "distribute": 5314,
      "humble": 5315,
      "fields": 5316,
      "description": 5317,
      "drive": 5318,
      "preserved": 5319,
      "soldiers": 5320,
      "gaze": 5321,
      "Foot": 5322,
      "lifted": 5323,
      "birds": 5324,
      "execut": 5325,
      "couple": 5326,
      "modific": 5327,
      "Phil": 5328,
      "reputation": 5329,
      "JU": 5330,
      "eign": 5331,
      "ore": 5332,
      "pier": 5333,
      "zes": 5334,
      "alle": 5335,
      "oms": 5336,
      "root": 5337,
      "moving": 5338,
      "weeks": 5339,
      "accompan": 5340,
      "trous": 5341,
      "sav": 5342,
      "ctionary": 5343,
      "singing": 5344,
      "paused": 5345,
      "retreat": 5346,
      "energy": 5347,
      "control": 5348,
      "significant": 5349,
      "Sometimes": 5350,
      "Ear": 5351,
      "Fisk": 5352,
      "Time": 5353,
      "_S": 5354,
      "rum": 5355,
      "retain": 5356,
      "idle": 5357,
      "thern": 5358,
      "partly": 5359,
      "mental": 5360,
      "itty": 5361,
      "disposition": 5362,
      "ERV": 5363,
      "diphthong": 5364,
      "advice": 5365,
      "metals": 5366,
      "atherine": 5367,
      "Poor": 5368,
      "Isch": 5369,
      "waist": 5370,
      "constitution": 5371,
      "burning": 5372,
      "branch": 5373,
      "Socrates": 5374,
      "basket": 5375,
      "Four": 5376,
      "Spect": 5377,
      "Vir": 5378,
      "WN": 5379,
      "WAR": 5380,
      "recon": 5381,
      "escap": 5382,
      "secur": 5383,
      "impul": 5384,
      "unch": 5385,
      "unte": 5386,
      "perpet": 5387,
      "plex": 5388,
      "subjunctive": 5389,
      "capitals": 5390,
      "request": 5391,
      "awk": 5392,
      "tendency": 5393,
      "playing": 5394,
      "nominatives": 5395,
      "inclined": 5396,
      "Roy": 5397,
      "occurred": 5398,
      "Life": 5399,
      "convenient": 5400,
      "abundance": 5401,
      "FORMULE": 5402,
      "Professor": 5403,
      "arbitr": 5404,
      "Catherine": 5405,
      "Mac": 5406,
      "fy": 5407,
      "fet": 5408,
      "faint": 5409,
      "wid": 5410,
      "agon": 5411,
      "illness": 5412,
      "asten": 5413,
      "Ital": 5414,
      "disposed": 5415,
      "sons": 5416,
      "acting": 5417,
      "firmed": 5418,
      "nevertheless": 5419,
      "tempor": 5420,
      "ashed": 5421,
      "indefinite": 5422,
      "connection": 5423,
      "governs": 5424,
      "waited": 5425,
      "demanded": 5426,
      "individuals": 5427,
      "coffee": 5428,
      "Buc": 5429,
      "City": 5430,
      "Den": 5431,
      "Rich": 5432,
      "sof": 5433,
      "inced": 5434,
      "ller": 5435,
      "improved": 5436,
      "ider": 5437,
      "gray": 5438,
      "everybody": 5439,
      "Being": 5440,
      "expenses": 5441,
      "bloody": 5442,
      "solete": 5443,
      "benevol": 5444,
      "injury": 5445,
      "violent": 5446,
      "population": 5447,
      "assistance": 5448,
      "instinct": 5449,
      "struggle": 5450,
      "sovereign": 5451,
      "Cer": 5452,
      "DIS": 5453,
      "Mary": 5454,
      "Pass": 5455,
      "pour": 5456,
      "amation": 5457,
      "unning": 5458,
      "convi": 5459,
      "mology": 5460,
      "frag": 5461,
      "aps": 5462,
      "ieson": 5463,
      "rights": 5464,
      "attent": 5465,
      "farther": 5466,
      "rested": 5467,
      "smaller": 5468,
      "sixty": 5469,
      "Harris": 5470,
      "conjunctions": 5471,
      "fatal": 5472,
      "families": 5473,
      "diminished": 5474,
      "admiration": 5475,
      "Gardiner": 5476,
      "Jamieson": 5477,
      "Bucke": 5478,
      ".:": 5479,
      "59": 5480,
      "fice": 5481,
      "iver": 5482,
      "match": 5483,
      "nes": 5484,
      "ère": 5485,
      "stage": 5486,
      "liable": 5487,
      "libr": 5488,
      "thanks": 5489,
      "obsolete": 5490,
      "Grant": 5491,
      "friendly": 5492,
      "reflection": 5493,
      "bloss": 5494,
      "Darnay": 5495,
      "intelligent": 5496,
      "wounded": 5497,
      "splendid": 5498,
      "desirable": 5499,
      "PRE": 5500,
      "bury": 5501,
      "native": 5502,
      "oil": 5503,
      "aristocr": 5504,
      "nod": 5505,
      "tery": 5506,
      "rier": 5507,
      "shed": 5508,
      "exped": 5509,
      "disco": 5510,
      "cester": 5511,
      "glory": 5512,
      "minded": 5513,
      "plainly": 5514,
      "receiving": 5515,
      "potato": 5516,
      "furniture": 5517,
      "brace": 5518,
      "protect": 5519,
      "murder": 5520,
      "High": 5521,
      "Hann": 5522,
      "Mal": 5523,
      "bones": 5524,
      "istr": 5525,
      "orph": 5526,
      "aling": 5527,
      "lease": 5528,
      "sugar": 5529,
      "Heaven": 5530,
      "timid": 5531,
      "inker": 5532,
      "brings": 5533,
      "Note": 5534,
      "voices": 5535,
      "sounded": 5536,
      "badly": 5537,
      "pains": 5538,
      "roads": 5539,
      "porter": 5540,
      "cotton": 5541,
      "brave": 5542,
      "companions": 5543,
      "dreadful": 5544,
      "TIVE": 5545,
      "COM": 5546,
      "DR": 5547,
      "Dou": 5548,
      "WIL": 5549,
      "a_": 5550,
      "gather": 5551,
      "ky": 5552,
      "pave": 5553,
      "rage": 5554,
      "absent": 5555,
      "loo": 5556,
      "nel": 5557,
      "meat": 5558,
      "orted": 5559,
      "disappeared": 5560,
      "fert": 5561,
      "rightly": 5562,
      "viz": 5563,
      "contact": 5564,
      "learner": 5565,
      "guest": 5566,
      "vanity": 5567,
      "CEP": 5568,
      "invest": 5569,
      "instruction": 5570,
      "Practical": 5571,
      "tranqu": 5572,
      "sympathy": 5573,
      "!--": 5574,
      ",[": 5575,
      "54": 5576,
      "90": 5577,
      "Cal": 5578,
      "Sat": 5579,
      "Wright": 5580,
      "hic": 5581,
      "thunder": 5582,
      "replace": 5583,
      "ctavo": 5584,
      "urer": 5585,
      "acing": 5586,
      "apple": 5587,
      "group": 5588,
      "ckets": 5589,
      "gets": 5590,
      "treas": 5591,
      "Art": 5592,
      "confused": 5593,
      "enterpr": 5594,
      "wonderful": 5595,
      "Black": 5596,
      "mortal": 5597,
      "Gould": 5598,
      "Str": 5599,
      "gend": 5600,
      "altern": 5601,
      "hell": 5602,
      "lebr": 5603,
      "celebr": 5604,
      "peach": 5605,
      "accusto": 5606,
      "umn": 5607,
      "whatsoever": 5608,
      "goodness": 5609,
      "Joe": 5610,
      "THER": 5611,
      "rude": 5612,
      "TIES": 5613,
      "200": 5614,
      "elsewhere": 5615,
      "harsh": 5616,
      "completely": 5617,
      "regulated": 5618,
      "grateful": 5619,
      "Nouns": 5620,
      "Tru": 5621,
      "cra": 5622,
      "mou": 5623,
      "saint": 5624,
      "yer": 5625,
      "ads": 5626,
      "amble": 5627,
      "amiable": 5628,
      "perfor": 5629,
      "doesn": 5630,
      "stream": 5631,
      "ENCE": 5632,
      "remaining": 5633,
      "shock": 5634,
      "measures": 5635,
      "existed": 5636,
      "designed": 5637,
      "Clinker": 5638,
      "blessed": 5639,
      "sacrifice": 5640,
      "Paul": 5641,
      "convinced": 5642,
      "accustomed": 5643,
      "AK": 5644,
      "Dubl": 5645,
      "rul": 5646,
      "inary": 5647,
      "impress": 5648,
      "somewhere": 5649,
      "eves": 5650,
      "parsed": 5651,
      "medic": 5652,
      "properties": 5653,
      "misfortune": 5654,
      "Both": 5655,
      "welcome": 5656,
      "defici": 5657,
      "smoke": 5658,
      "proceeded": 5659,
      "millions": 5660,
      "hideous": 5661,
      "results": 5662,
      "supreme": 5663,
      "AY": 5664,
      "Dry": 5665,
      "dressing": 5666,
      "intr": 5667,
      "iting": 5668,
      "stared": 5669,
      "uns": 5670,
      "mechan": 5671,
      "cock": 5672,
      "disease": 5673,
      "Weld": 5674,
      "respectable": 5675,
      "Aristo": 5676,
      "clever": 5677,
      "acquired": 5678,
      "destru": 5679,
      "critical": 5680,
      "delightful": 5681,
      "Philoso": 5682,
      "Nevertheless": 5683,
      "slave": 5684,
      "powder": 5685,
      "56": 5686,
      "Er": 5687,
      "Park": 5688,
      "vines": 5689,
      "inch": 5690,
      "intransitive": 5691,
      "ofty": 5692,
      "idents": 5693,
      "exper": 5694,
      "indign": 5695,
      "bosom": 5696,
      "syn": 5697,
      "angel": 5698,
      "expressing": 5699,
      "holder": 5700,
      "metap": 5701,
      "supplied": 5702,
      "Essays": 5703,
      "troubled": 5704,
      "papers": 5705,
      "burden": 5706,
      "gratitude": 5707,
      "sublime": 5708,
      "currency": 5709,
      "awkward": 5710,
      "Elocution": 5711,
      "Ham": 5712,
      "Lenn": 5713,
      "Nasten": 5714,
      "cil": 5715,
      "slo": 5716,
      "ority": 5717,
      "withstanding": 5718,
      "demo": 5719,
      "aging": 5720,
      "seeking": 5721,
      "igned": 5722,
      "fling": 5723,
      "current": 5724,
      "Without": 5725,
      "seeds": 5726,
      "affli": 5727,
      "depths": 5728,
      "exceedingly": 5729,
      "abstract": 5730,
      "Wilson": 5731,
      "obedience": 5732,
      "Lennie": 5733,
      "Nastenka": 5734,
      "],": 5735,
      "len": 5736,
      "inations": 5737,
      "edition": 5738,
      "confined": 5739,
      "lored": 5740,
      "feat": 5741,
      "umes": 5742,
      "flatter": 5743,
      "capacity": 5744,
      "supposition": 5745,
      "guess": 5746,
      "drunk": 5747,
      "labourer": 5748,
      "doubtless": 5749,
      "Perfect": 5750,
      "Philip": 5751,
      "contradict": 5752,
      "OUN": 5753,
      "daw": 5754,
      "rous": 5755,
      "reward": 5756,
      "chain": 5757,
      "chest": 5758,
      "united": 5759,
      "riot": 5760,
      "quot": 5761,
      "ifying": 5762,
      "partial": 5763,
      "earlier": 5764,
      "flow": 5765,
      "counsel": 5766,
      "crime": 5767,
      "charged": 5768,
      "feels": 5769,
      "guide": 5770,
      "metal": 5771,
      "mothers": 5772,
      "horror": 5773,
      "ornament": 5774,
      "eleven": 5775,
      "Edition": 5776,
      "queer": 5777,
      "concern": 5778,
      "suffered": 5779,
      "literally": 5780,
      "Verbs": 5781,
      "altered": 5782,
      "Present": 5783,
      "Dublin": 5784,
      "Sal": 5785,
      "flight": 5786,
      "gers": 5787,
      "lately": 5788,
      "tired": 5789,
      "beard": 5790,
      "abroad": 5791,
      "poch": 5792,
      "pear": 5793,
      "keys": 5794,
      "respon": 5795,
      "tear": 5796,
      "grain": 5797,
      "disci": 5798,
      "afternoon": 5799,
      "interval": 5800,
      "official": 5801,
      "product": 5802,
      "centre": 5803,
      "vote": 5804,
      "closely": 5805,
      "listening": 5806,
      "prayer": 5807,
      "conveni": 5808,
      "hitherto": 5809,
      "absorbed": 5810,
      "phabet": 5811,
      "inhabitants": 5812,
      "cousin": 5813,
      "Child": 5814,
      "Certain": 5815,
      "Jack": 5816,
      "TR": 5817,
      "XI": 5818,
      "eloqu": 5819,
      "ials": 5820,
      "lofty": 5821,
      "inal": 5822,
      "itives": 5823,
      "stress": 5824,
      "ador": 5825,
      "ceased": 5826,
      "roll": 5827,
      "poison": 5828,
      "perplex": 5829,
      "otion": 5830,
      "discer": 5831,
      "ferent": 5832,
      "barry": 5833,
      "directions": 5834,
      "shake": 5835,
      "accordingly": 5836,
      "teacher": 5837,
      "superlative": 5838,
      "quietly": 5839,
      "Bacon": 5840,
      "throat": 5841,
      "nonsense": 5842,
      "CAP": 5843,
      "Pet": 5844,
      "Pont": 5845,
      "Witch": 5846,
      "wn": 5847,
      "inse": 5848,
      "tot": 5849,
      "sets": 5850,
      "liqu": 5851,
      "union": 5852,
      "proc": 5853,
      "promin": 5854,
      "anywhere": 5855,
      "oked": 5856,
      "speare": 5857,
      "handkerchief": 5858,
      "merry": 5859,
      "dict": 5860,
      "wheel": 5861,
      "continually": 5862,
      "Debarry": 5863,
      "cellar": 5864,
      "————": 5865,
      "thesis": 5866,
      "Shakspeare": 5867,
      "exclus": 5868,
      "multi": 5869,
      "picked": 5870,
      "wedding": 5871,
      "lucky": 5872,
      "suspic": 5873,
      "surrounded": 5874,
      "accompanied": 5875,
      "58": 5876,
      "Du": 5877,
      "Would": 5878,
      "fi": 5879,
      "nment": 5880,
      "pisto": 5881,
      "enable": 5882,
      "tore": 5883,
      "liance": 5884,
      "shine": 5885,
      "ONE": 5886,
      "contri": 5887,
      "joys": 5888,
      "morality": 5889,
      "happens": 5890,
      "void": 5891,
      "versed": 5892,
      "supposes": 5893,
      "buried": 5894,
      "shillings": 5895,
      "performan": 5896,
      "3d": 5897,
      "94": 5898,
      "_The": 5899,
      "dur": 5900,
      "han": 5901,
      "hats": 5902,
      "retained": 5903,
      "onder": 5904,
      "improperly": 5905,
      "modes": 5906,
      "plans": 5907,
      "corrup": 5908,
      "dreamer": 5909,
      "portions": 5910,
      "monarch": 5911,
      "kindly": 5912,
      "beds": 5913,
      "prompt": 5914,
      "brill": 5915,
      "methods": 5916,
      "repeat": 5917,
      "difficulties": 5918,
      "VERBS": 5919,
      "consonants": 5920,
      "kissed": 5921,
      "erroneous": 5922,
      "GHT": 5923,
      "hospital": 5924,
      "Res": 5925,
      "Swift": 5926,
      "sco": 5927,
      "asse": 5928,
      "bears": 5929,
      "cease": 5930,
      "containing": 5931,
      "myon": 5932,
      "woo": 5933,
      "aved": 5934,
      "subs": 5935,
      "Semyon": 5936,
      "requis": 5937,
      "verses": 5938,
      "factory": 5939,
      "colour": 5940,
      "Boston": 5941,
      "plicity": 5942,
      "providing": 5943,
      "painful": 5944,
      "gained": 5945,
      "separately": 5946,
      "bringing": 5947,
      "injured": 5948,
      "feeble": 5949,
      "combat": 5950,
      "assumed": 5951,
      "debt": 5952,
      "pulled": 5953,
      "encies": 5954,
      "Hannah": 5955,
      ":\"": 5956,
      "AV": 5957,
      "Buck": 5958,
      "Cur": 5959,
      "Hy": 5960,
      "Hold": 5961,
      "Jacqu": 5962,
      "Men": 5963,
      "Tin": 5964,
      "gam": 5965,
      "ni": 5966,
      "vous": 5967,
      "aters": 5968,
      "mois": 5969,
      "poets": 5970,
      "strangers": 5971,
      "spark": 5972,
      "ceptible": 5973,
      "engage": 5974,
      "literature": 5975,
      "Lucie": 5976,
      "excited": 5977,
      "coffin": 5978,
      "extremely": 5979,
      "cheerful": 5980,
      "bestowed": 5981,
      "behavi": 5982,
      "?—": 5983,
      "Cæ": 5984,
      "Lit": 5985,
      "WITH": 5986,
      "baby": 5987,
      "fier": 5988,
      "ju": 5989,
      "lamp": 5990,
      "torn": 5991,
      "vine": 5992,
      "today": 5993,
      "nobody": 5994,
      "unusual": 5995,
      "extrem": 5996,
      "corpor": 5997,
      "--'": 5998,
      "attitude": 5999,
      "lightning": 6000,
      "friendship": 6001,
      "horrible": 6002,
      "bottle": 6003,
      "crying": 6004,
      "knee": 6005,
      "infant": 6006,
      "clouds": 6007,
      "disturb": 6008,
      "mutual": 6009,
      "Gover": 6010,
      "epoch": 6011,
      "py": 6012,
      "rang": 6013,
      "stiff": 6014,
      "adjun": 6015,
      "irrit": 6016,
      "exposed": 6017,
      "acre": 6018,
      "brush": 6019,
      "relates": 6020,
      "volunte": 6021,
      "student": 6022,
      "watching": 6023,
      "Liber": 6024,
      "faithful": 6025,
      "hoped": 6026,
      "descend": 6027,
      "departure": 6028,
      "indifference": 6029,
      "contempl": 6030,
      "!'": 6031,
      "Irel": 6032,
      "jum": 6033,
      "kov": 6034,
      "rat": 6035,
      "repetition": 6036,
      "orthography": 6037,
      "image": 6038,
      "essent": 6039,
      "ultim": 6040,
      "protest": 6041,
      "blunder": 6042,
      "ERC": 6043,
      "attach": 6044,
      "relatives": 6045,
      "producing": 6046,
      "drank": 6047,
      "Alger": 6048,
      "elev": 6049,
      "Conjun": 6050,
      "remarked": 6051,
      "belonging": 6052,
      "xxx": 6053,
      "intelligible": 6054,
      "resolution": 6055,
      "***": 6056,
      "gathered": 6057,
      "mirror": 6058,
      "condemned": 6059,
      "scholar": 6060,
      "library": 6061,
      "Ireland": 6062,
      "64": 6063,
      "Aug": 6064,
      "PLE": 6065,
      "Sc": 6066,
      "Ven": 6067,
      "WOR": 6068,
      "ethe": 6069,
      "pus": 6070,
      "thither": 6071,
      "isher": 6072,
      "ascertain": 6073,
      "alive": 6074,
      "chill": 6075,
      "confound": 6076,
      "convict": 6077,
      "deliber": 6078,
      "feed": 6079,
      "olom": 6080,
      "intend": 6081,
      "handed": 6082,
      "passions": 6083,
      "capt": 6084,
      "north": 6085,
      "copied": 6086,
      ".'—": 6087,
      "limit": 6088,
      "lively": 6089,
      "stronger": 6090,
      "distributed": 6091,
      "deeply": 6092,
      "eighteen": 6093,
      "prevented": 6094,
      "conceal": 6095,
      "arrival": 6096,
      "EXAM": 6097,
      "bbing": 6098,
      "threatened": 6099,
      "relief": 6100,
      "Moreover": 6101,
      "recommend": 6102,
      "moiselle": 6103,
      "Crun": 6104,
      "Mat": 6105,
      "Nay": 6106,
      "TT": 6107,
      "swell": 6108,
      "rev": 6109,
      "rejo": 6110,
      "aloud": 6111,
      "stable": 6112,
      "entit": 6113,
      "rified": 6114,
      "conception": 6115,
      "demonstr": 6116,
      "sober": 6117,
      "comput": 6118,
      "ums": 6119,
      "parties": 6120,
      "blank": 6121,
      "phical": 6122,
      "adds": 6123,
      "settle": 6124,
      "trial": 6125,
      "REE": 6126,
      "succession": 6127,
      "posted": 6128,
      "doubtful": 6129,
      "graceful": 6130,
      "possibility": 6131,
      "delivered": 6132,
      "Alexander": 6133,
      "chimney": 6134,
      "Fro": 6135,
      "List": 6136,
      "Sil": 6137,
      "TW": 6138,
      "Tis": 6139,
      "fame": 6140,
      "ock": 6141,
      "ral": 6142,
      "vic": 6143,
      "wings": 6144,
      "inity": 6145,
      "orch": 6146,
      "total": 6147,
      "lles": 6148,
      "idable": 6149,
      "expend": 6150,
      "bler": 6151,
      "udder": 6152,
      "wanting": 6153,
      "maintain": 6154,
      "separation": 6155,
      "Lect": 6156,
      "referred": 6157,
      "breaking": 6158,
      "fatig": 6159,
      "constitute": 6160,
      "trembling": 6161,
      "softly": 6162,
      "profession": 6163,
      "touching": 6164,
      "Goldsmith": 6165,
      "contradi": 6166,
      "Queen": 6167,
      "Footnote": 6168,
      "arbitrary": 6169,
      "discovery": 6170,
      "Bath": 6171,
      "Ety": 6172,
      "FRI": 6173,
      "dancing": 6174,
      "ivers": 6175,
      "naked": 6176,
      "tles": 6177,
      "tables": 6178,
      "uary": 6179,
      "’.": 6180,
      "enthus": 6181,
      "assa": 6182,
      "irty": 6183,
      "liv": 6184,
      "lotte": 6185,
      "nephe": 6186,
      "mee": 6187,
      "quet": 6188,
      "quoted": 6189,
      "saving": 6190,
      "boast": 6191,
      "Information": 6192,
      "longed": 6193,
      "captain": 6194,
      "charity": 6195,
      "ANY": 6196,
      "laying": 6197,
      "LIET": 6198,
      "decay": 6199,
      "teachers": 6200,
      "belonged": 6201,
      "phraseology": 6202,
      "borne": 6203,
      "propriet": 6204,
      "Verb": 6205,
      "Examples": 6206,
      "Court": 6207,
      "approaching": 6208,
      "assertion": 6209,
      "luxury": 6210,
      "smell": 6211,
      "caution": 6212,
      "interrupted": 6213,
      "Adjectives": 6214,
      "JULIET": 6215,
      "Cruncher": 6216,
      "66": 6217,
      "?--": 6218,
      "CI": 6219,
      "Ele": 6220,
      "Fl": 6221,
      "GR": 6222,
      "Mark": 6223,
      "pence": 6224,
      "zing": 6225,
      "—\"": 6226,
      "whir": 6227,
      "vet": 6228,
      "rice": 6229,
      "project": 6230,
      "blanc": 6231,
      "spend": 6232,
      "everyone": 6233,
      "county": 6234,
      "appeal": 6235,
      "whel": 6236,
      "Cooper": 6237,
      "neglected": 6238,
      "Marquis": 6239,
      "requirements": 6240,
      "constitutes": 6241,
      "mounted": 6242,
      "enormous": 6243,
      "excuse": 6244,
      "knock": 6245,
      "Fowler": 6246,
      "JOH": 6247,
      "(\"": 6248,
      "89": 6249,
      "BRO": 6250,
      "Isa": 6251,
      "Port": 6252,
      "Pray": 6253,
      "XII": 6254,
      "ride": 6255,
      "wax": 6256,
      "anno": 6257,
      "ert": 6258,
      "atmo": 6259,
      "oric": 6260,
      "ghost": 6261,
      "local": 6262,
      "meal": 6263,
      "plun": 6264,
      "fol": 6265,
      "doth": 6266,
      "anybody": 6267,
      "formidable": 6268,
      "wherein": 6269,
      "copying": 6270,
      "walks": 6271,
      "strongly": 6272,
      "bench": 6273,
      "hatred": 6274,
      "motions": 6275,
      "Span": 6276,
      "persuaded": 6277,
      "TIVES": 6278,
      "magnific": 6279,
      "problem": 6280,
      "foun": 6281,
      "isions": 6282,
      "liest": 6283,
      "del": 6284,
      "delay": 6285,
      "weigh": 6286,
      "wearing": 6287,
      "frame": 6288,
      "worship": 6289,
      "blance": 6290,
      "mighty": 6291,
      "cares": 6292,
      "halted": 6293,
      "examined": 6294,
      "indicate": 6295,
      "bourg": 6296,
      "virtues": 6297,
      "flew": 6298,
      "castle": 6299,
      "incident": 6300,
      "hurry": 6301,
      "Revol": 6302,
      "About": 6303,
      "hanging": 6304,
      "apparently": 6305,
      "Thomas": 6306,
      "CORREC": 6307,
      "Ash": 6308,
      "Bu": 6309,
      "Sci": 6310,
      "bath": 6311,
      "galleys": 6312,
      "iah": 6313,
      "lone": 6314,
      "mber": 6315,
      "isms": 6316,
      "assure": 6317,
      "bees": 6318,
      "adise": 6319,
      "implied": 6320,
      "utmost": 6321,
      "forgive": 6322,
      "weary": 6323,
      "ilty": 6324,
      "aft": 6325,
      "Anton": 6326,
      "sport": 6327,
      "offence": 6328,
      "throne": 6329,
      "cheek": 6330,
      "glanced": 6331,
      "fathers": 6332,
      "puzz": 6333,
      "realized": 6334,
      "Isra": 6335,
      "approached": 6336,
      "imagined": 6337,
      "precedes": 6338,
      "humour": 6339,
      "crossed": 6340,
      "developed": 6341,
      "endeavour": 6342,
      "desperate": 6343,
      "93": 6344,
      "DS": 6345,
      "Dear": 6346,
      "bought": 6347,
      "uit": 6348,
      "uine": 6349,
      "anz": 6350,
      "asped": 6351,
      "rath": 6352,
      "activity": 6353,
      "type": 6354,
      "overwhel": 6355,
      "lieu": 6356,
      "appearing": 6357,
      "refuse": 6358,
      "Poss": 6359,
      "sixteen": 6360,
      "agrees": 6361,
      "rises": 6362,
      "rational": 6363,
      "People": 6364,
      "candid": 6365,
      "million": 6366,
      "pursued": 6367,
      "frost": 6368,
      "Keep": 6369,
      "nephew": 6370,
      "42": 6371,
      "51": 6372,
      "72": 6373,
      "Cicer": 6374,
      "Job": 6375,
      "XIV": 6376,
      "mous": 6377,
      "tis": 6378,
      "thetic": 6379,
      "envelo": 6380,
      "utch": 6381,
      "ational": 6382,
      "Indi": 6383,
      "avail": 6384,
      "THAT": 6385,
      "bodies": 6386,
      "grey": 6387,
      "Peter": 6388,
      "delighted": 6389,
      "Mademoiselle": 6390,
      "contented": 6391,
      "pictures": 6392,
      "abundant": 6393,
      "JECT": 6394,
      "ctuation": 6395,
      "celebrated": 6396,
      "Frost": 6397,
      "Ox": 6398,
      "Pref": 6399,
      "VO": 6400,
      "_C": 6401,
      "cence": 6402,
      "fant": 6403,
      "flying": 6404,
      "sous": 6405,
      "lections": 6406,
      "iddy": 6407,
      "pockets": 6408,
      "compassion": 6409,
      "estics": 6410,
      "gos": 6411,
      "saf": 6412,
      "moreover": 6413,
      "forever": 6414,
      "ols": 6415,
      "denomin": 6416,
      "parliament": 6417,
      "genuine": 6418,
      "icip": 6419,
      "mines": 6420,
      "sentiments": 6421,
      "throughout": 6422,
      "brew": 6423,
      "supper": 6424,
      "grows": 6425,
      "placing": 6426,
      "reflect": 6427,
      "shore": 6428,
      "runs": 6429,
      "enjoyed": 6430,
      "injurious": 6431,
      "mountain": 6432,
      "instrument": 6433,
      "agriculture": 6434,
      "Homer": 6435,
      "Brightland": 6436,
      "65": 6437,
      "Ap": 6438,
      "Bre": 6439,
      "Ty": 6440,
      "mild": 6441,
      "rated": 6442,
      "inus": 6443,
      "analogy": 6444,
      "itudes": 6445,
      "storm": 6446,
      "enters": 6447,
      "peror": 6448,
      "worry": 6449,
      "spelling": 6450,
      "puts": 6451,
      "donate": 6452,
      "utenant": 6453,
      "OBSERV": 6454,
      "cutting": 6455,
      "horiz": 6456,
      "payment": 6457,
      "distinctly": 6458,
      "corrected": 6459,
      "appointed": 6460,
      "OUR": 6461,
      "attempted": 6462,
      "experienced": 6463,
      "Worcester": 6464,
      "positively": 6465,
      "depth": 6466,
      "Bramble": 6467,
      "philosophers": 6468,
      "antiqu": 6469,
      "Juli": 6470,
      "Treby": 6471,
      "August": 6472,
      "70": 6473,
      "87": 6474,
      ";)": 6475,
      "Fel": 6476,
      "Pal": 6477,
      "Right": 6478,
      "bowed": 6479,
      "lam": 6480,
      "pig": 6481,
      "waters": 6482,
      "invari": 6483,
      "cel": 6484,
      "haven": 6485,
      "bye": 6486,
      "sheet": 6487,
      "mayor": 6488,
      "spic": 6489,
      "subsequ": 6490,
      "gling": 6491,
      "colon": 6492,
      "Artic": 6493,
      "retired": 6494,
      "payments": 6495,
      "Exer": 6496,
      "strike": 6497,
      "Plural": 6498,
      "burgh": 6499,
      "negative": 6500,
      "throwing": 6501,
      "ublic": 6502,
      "shouted": 6503,
      "rarely": 6504,
      "development": 6505,
      "Dryden": 6506,
      "Jacques": 6507,
      "Far": 6508,
      "STE": 6509,
      "Zver": 6510,
      "_I": 6511,
      "auses": 6512,
      "sink": 6513,
      "attain": 6514,
      "lla": 6515,
      "nell": 6516,
      "resent": 6517,
      "artif": 6518,
      "readers": 6519,
      "younger": 6520,
      "holds": 6521,
      "lime": 6522,
      "correctly": 6523,
      "ugly": 6524,
      "driven": 6525,
      "deserted": 6526,
      "frightful": 6527,
      "mystery": 6528,
      "criticism": 6529,
      "destroyed": 6530,
      "trousers": 6531,
      "Israel": 6532,
      "Zverkov": 6533,
      "mun": 6534,
      "zation": 6535,
      "announ": 6536,
      "andy": 6537,
      "heir": 6538,
      "icol": 6539,
      "perf": 6540,
      "feather": 6541,
      "forehead": 6542,
      "berries": 6543,
      "eving": 6544,
      "march": 6545,
      "oping": 6546,
      "interpret": 6547,
      "visions": 6548,
      "sincere": 6549,
      "admire": 6550,
      "shaking": 6551,
      "Letters": 6552,
      "extended": 6553,
      "humanity": 6554,
      "observing": 6555,
      "painted": 6556,
      "drove": 6557,
      "signify": 6558,
      "originally": 6559,
      "Leblanc": 6560,
      "demands": 6561,
      "royal": 6562,
      "Adams": 6563,
      "violence": 6564,
      "recognize": 6565,
      "symbol": 6566,
      "antecedents": 6567,
      "observations": 6568,
      "displaying": 6569,
      "sacrific": 6570,
      "July": 6571,
      "whispered": 6572,
      "majority": 6573,
      "calculated": 6574,
      "hidden": 6575,
      "Waterloo": 6576,
      "Princi": 6577,
      "pavement": 6578,
      "Ay": 6579,
      "MENT": 6580,
      "boun": 6581,
      "bac": 6582,
      "leness": 6583,
      "mute": 6584,
      "maxim": 6585,
      "shalt": 6586,
      "prospect": 6587,
      "Thy": 6588,
      "ops": 6589,
      "denied": 6590,
      "brains": 6591,
      "armed": 6592,
      "modest": 6593,
      "Once": 6594,
      "admired": 6595,
      "Common": 6596,
      "strictly": 6597,
      "claims": 6598,
      "dependent": 6599,
      "wooden": 6600,
      "organs": 6601,
      "weakness": 6602,
      "EXCEP": 6603,
      "imperative": 6604,
      "conclusion": 6605,
      "converted": 6606,
      "gift": 6607,
      "insul": 6608,
      "participial": 6609,
      "Cicero": 6610,
      "52": 6611,
      "Crom": 6612,
      "Econom": 6613,
      "FIR": 6614,
      "MO": 6615,
      "Must": 6616,
      "SY": 6617,
      "URE": 6618,
      "XIII": 6619,
      "base": 6620,
      "pitch": 6621,
      "rushed": 6622,
      "scorn": 6623,
      "wrath": 6624,
      "rection": 6625,
      "refined": 6626,
      "ales": 6627,
      "alphabet": 6628,
      "accus": 6629,
      "erect": 6630,
      "asses": 6631,
      "dissol": 6632,
      "older": 6633,
      "commit": 6634,
      "crib": 6635,
      "helped": 6636,
      "penny": 6637,
      "returns": 6638,
      "fifth": 6639,
      "Jerry": 6640,
      "Luke": 6641,
      "machine": 6642,
      "descended": 6643,
      "Observ": 6644,
      "accomplished": 6645,
      "Brooke": 6646,
      "essentially": 6647,
      "JOHN": 6648,
      "atmosphere": 6649,
      "62": 6650,
      "Know": 6651,
      "Psal": 6652,
      "Su": 6653,
      "Stry": 6654,
      "pian": 6655,
      "insp": 6656,
      "icers": 6657,
      "soap": 6658,
      "pelled": 6659,
      "ulations": 6660,
      "dol": 6661,
      "Whatever": 6662,
      "spy": 6663,
      "lessons": 6664,
      "subordin": 6665,
      "masters": 6666,
      "utterance": 6667,
      "regularly": 6668,
      "strict": 6669,
      "Laurence": 6670,
      "Enter": 6671,
      "defend": 6672,
      "previously": 6673,
      "staircase": 6674,
      "improvements": 6675,
      "mixture": 6676,
      "WHI": 6677,
      "Pronouns": 6678,
      "ridiculous": 6679,
      "investig": 6680,
      "Revolution": 6681,
      "Stryver": 6682,
      "HE": 6683,
      "Kitty": 6684,
      "Make": 6685,
      "iance": 6686,
      "pace": 6687,
      "sic": 6688,
      "zard": 6689,
      "toil": 6690,
      "llo": 6691,
      "aments": 6692,
      "suspe": 6693,
      "performing": 6694,
      "shirt": 6695,
      "webs": 6696,
      "feared": 6697,
      "anticip": 6698,
      "prefix": 6699,
      "parted": 6700,
      "phan": 6701,
      "serves": 6702,
      "finish": 6703,
      "pointing": 6704,
      "instantly": 6705,
      "IND": 6706,
      "guilty": 6707,
      "commonwealth": 6708,
      "writings": 6709,
      "authorities": 6710,
      "150": 6711,
      "keeps": 6712,
      "studied": 6713,
      "patron": 6714,
      "phenomen": 6715,
      "schools": 6716,
      "describe": 6717,
      "secured": 6718,
      "absurdity": 6719,
      "buildings": 6720,
      "leaning": 6721,
      "audience": 6722,
      "levard": 6723,
      "behaviour": 6724,
      "113": 6725,
      "Aust": 6726,
      "Much": 6727,
      "Moses": 6728,
      "Octavo": 6729,
      "Upon": 6730,
      "Van": 6731,
      "eternal": 6732,
      "hay": 6733,
      "lap": 6734,
      "lane": 6735,
      "narr": 6736,
      "informed": 6737,
      "staring": 6738,
      "lict": 6739,
      "rict": 6740,
      "pole": 6741,
      "peep": 6742,
      "plus": 6743,
      "boat": 6744,
      "opposed": 6745,
      "parlor": 6746,
      "clothing": 6747,
      "compounds": 6748,
      "cheeks": 6749,
      "solitary": 6750,
      "ARE": 6751,
      "admits": 6752,
      "covering": 6753,
      "allowing": 6754,
      "moods": 6755,
      "Should": 6756,
      "function": 6757,
      "Scotch": 6758,
      "collective": 6759,
      "David": 6760,
      "eggs": 6761,
      "Sunday": 6762,
      "sofa": 6763,
      "entitled": 6764,
      "OBSERVATIONS": 6765,
      "\"--": 6766,
      "88": 6767,
      "Oc": 6768,
      "Out": 6769,
      "Obs": 6770,
      "Power": 6771,
      "bond": 6772,
      "liness": 6773,
      "analysis": 6774,
      "rect": 6775,
      "heed": 6776,
      "shudder": 6777,
      "embrace": 6778,
      "cannon": 6779,
      "avag": 6780,
      "officers": 6781,
      "compliance": 6782,
      "ization": 6783,
      "needful": 6784,
      "cries": 6785,
      "questionable": 6786,
      "Combe": 6787,
      "Comly": 6788,
      "Death": 6789,
      "ellipt": 6790,
      "Everything": 6791,
      "occurs": 6792,
      "combined": 6793,
      "dogs": 6794,
      "mountains": 6795,
      "harmony": 6796,
      "sensation": 6797,
      "digest": 6798,
      "motive": 6799,
      "execution": 6800,
      "History": 6801,
      "holes": 6802,
      "stretched": 6803,
      "Government": 6804,
      "FIRST": 6805,
      "95": 6806,
      "Less": 6807,
      "Rules": 6808,
      "Wait": 6809,
      "tast": 6810,
      "tort": 6811,
      "tions": 6812,
      "uct": 6813,
      "wand": 6814,
      "xi": 6815,
      "replaced": 6816,
      "leap": 6817,
      "notions": 6818,
      "depos": 6819,
      "fears": 6820,
      "proposed": 6821,
      "trick": 6822,
      "illumin": 6823,
      "disgu": 6824,
      "rail": 6825,
      "elf": 6826,
      "flung": 6827,
      "whereas": 6828,
      "interjection": 6829,
      "icians": 6830,
      "headed": 6831,
      "asks": 6832,
      "glor": 6833,
      "equip": 6834,
      "reasoning": 6835,
      "south": 6836,
      "destiny": 6837,
      "creating": 6838,
      "altar": 6839,
      "vanished": 6840,
      "conceive": 6841,
      "details": 6842,
      "hurried": 6843,
      "disappointed": 6844,
      "obscurity": 6845,
      "derivative": 6846,
      "indifferent": 6847,
      "commerce": 6848,
      "permanent": 6849,
      "53": 6850,
      "78": 6851,
      "Bank": 6852,
      "Cam": 6853,
      "MAN": 6854,
      "Six": 6855,
      "TS": 6856,
      "Were": 6857,
      "_d": 6858,
      "cation": 6859,
      "dies": 6860,
      "eur": 6861,
      "lament": 6862,
      "mould": 6863,
      "swift": 6864,
      "oration": 6865,
      "undoubted": 6866,
      "load": 6867,
      "perfection": 6868,
      "faulty": 6869,
      "strained": 6870,
      "hollow": 6871,
      "Produ": 6872,
      "nights": 6873,
      "ifications": 6874,
      "judges": 6875,
      "limits": 6876,
      "limitation": 6877,
      "satisfactory": 6878,
      "alties": 6879,
      "declare": 6880,
      "flood": 6881,
      "quiver": 6882,
      "stockings": 6883,
      "prosperous": 6884,
      "deceived": 6885,
      "pupils": 6886,
      "Spelling": 6887,
      "rags": 6888,
      "extravag": 6889,
      "Cowper": 6890,
      "BERG": 6891,
      "Providence": 6892,
      "shelter": 6893,
      "Cæsar": 6894,
      "43": 6895,
      "96": 6896,
      "GUT": 6897,
      "Lene": 6898,
      "Tur": 6899,
      "ai": 6900,
      "greg": 6901,
      "hed": 6902,
      "kick": 6903,
      "paces": 6904,
      "init": 6905,
      "theat": 6906,
      "hem": 6907,
      "nob": 6908,
      "vehic": 6909,
      "ribb": 6910,
      "losing": 6911,
      "fections": 6912,
      "trace": 6913,
      "bett": 6914,
      "diction": 6915,
      "mischief": 6916,
      "accordance": 6917,
      "particulars": 6918,
      "fortunes": 6919,
      "sweep": 6920,
      "plurality": 6921,
      "considering": 6922,
      "Essay": 6923,
      "explo": 6924,
      "completed": 6925,
      "qualified": 6926,
      "motionless": 6927,
      "compliment": 6928,
      "Britain": 6929,
      "washing": 6930,
      "invented": 6931,
      "exhibited": 6932,
      "issue": 6933,
      "Dictionary": 6934,
      "acknowledged": 6935,
      "suspicion": 6936,
      "Down": 6937,
      "SING": 6938,
      "fan": 6939,
      "nour": 6940,
      "pse": 6941,
      "rors": 6942,
      "sale": 6943,
      "tied": 6944,
      "itious": 6945,
      "inging": 6946,
      "novel": 6947,
      "amorph": 6948,
      "rolled": 6949,
      "unable": 6950,
      "notwithstanding": 6951,
      "whil": 6952,
      "acid": 6953,
      "fees": 6954,
      "appar": 6955,
      "failed": 6956,
      "cious": 6957,
      "disclaim": 6958,
      "tyran": 6959,
      "verbal": 6960,
      "joke": 6961,
      "childhood": 6962,
      "LET": 6963,
      "household": 6964,
      "amongst": 6965,
      "Byron": 6966,
      "azz": 6967,
      "characteristic": 6968,
      "returning": 6969,
      "Something": 6970,
      "Plato": 6971,
      "culture": 6972,
      "faced": 6973,
      "eighty": 6974,
      "favourable": 6975,
      "establishment": 6976,
      "resemblance": 6977,
      "ambition": 6978,
      "derivation": 6979,
      "PHEN": 6980,
      "substitute": 6981,
      "dispute": 6982,
      "quarrels": 6983,
      "temporary": 6984,
      "requisite": 6985,
      "Lenehan": 6986,
      "Burn": 6987,
      "Dan": 6988,
      "Dem": 6989,
      "Gar": 6990,
      "Hon": 6991,
      "IG": 6992,
      "MI": 6993,
      "Mich": 6994,
      "Vo": 6995,
      "fanci": 6996,
      "ket": 6997,
      "lend": 6998,
      "rou": 6999,
      "sang": 7000,
      "sque": 7001,
      "west": 7002,
      "eration": 7003,
      "whist": 7004,
      "icism": 7005,
      "suited": 7006,
      "rious": 7007,
      "urged": 7008,
      "depri": 7009,
      "quitted": 7010,
      "colored": 7011,
      "theirs": 7012,
      "Analy": 7013,
      "disorder": 7014,
      "format": 7015,
      "wherever": 7016,
      "finement": 7017,
      "scale": 7018,
      "attor": 7019,
      "Beaut": 7020,
      "ominal": 7021,
      "guine": 7022,
      "writes": 7023,
      "fairly": 7024,
      "include": 7025,
      "complex": 7026,
      "ULET": 7027,
      "defence": 7028,
      "ponding": 7029,
      "squire": 7030,
      "chairs": 7031,
      "protection": 7032,
      "travel": 7033,
      "status": 7034,
      "000_l": 7035,
      "adventure": 7036,
      "exercises": 7037,
      "privilege": 7038,
      "Country": 7039,
      "impulse": 7040,
      "CAPULET": 7041,
      "BROWN": 7042,
      "61": 7043,
      "BR": 7044,
      "Bal": 7045,
      "Dun": 7046,
      "Money": 7047,
      "Notes": 7048,
      "bay": 7049,
      "bind": 7050,
      "cru": 7051,
      "dared": 7052,
      "echo": 7053,
      "flies": 7054,
      "ien": 7055,
      "tid": 7056,
      "tomorrow": 7057,
      "assur": 7058,
      "beloved": 7059,
      "nois": 7060,
      "ambig": 7061,
      "imen": 7062,
      "imply": 7063,
      "forbid": 7064,
      "lift": 7065,
      "confounded": 7066,
      "sody": 7067,
      "weeds": 7068,
      "Anto": 7069,
      "disgrace": 7070,
      "intent": 7071,
      "lax": 7072,
      "passages": 7073,
      "presently": 7074,
      "happily": 7075,
      "ENBERG": 7076,
      "barrel": 7077,
      "awak": 7078,
      "hungry": 7079,
      "170": 7080,
      "refused": 7081,
      "steady": 7082,
      "limbs": 7083,
      "introduce": 7084,
      "crops": 7085,
      "tenderness": 7086,
      "twilight": 7087,
      "hastily": 7088,
      "blessing": 7089,
      "washed": 7090,
      "pipe": 7091,
      "leaned": 7092,
      "PROJECT": 7093,
      "indispens": 7094,
      "SHAK": 7095,
      "granted": 7096,
      "conviction": 7097,
      "GUTENBERG": 7098,
      "4th": 7099,
      ";--": 7100,
      "Cut": 7101,
      "Fal": 7102,
      "Sto": 7103,
      "UM": 7104,
      "XV": 7105,
      "bree": 7106,
      "ta": 7107,
      "reci": 7108,
      "imposed": 7109,
      "lian": 7110,
      "unities": 7111,
      "uneasy": 7112,
      "shining": 7113,
      "wealthy": 7114,
      "exempt": 7115,
      "button": 7116,
      "foli": 7117,
      "graf": 7118,
      "bride": 7119,
      "psy": 7120,
      "pressing": 7121,
      "scand": 7122,
      "lights": 7123,
      "THIS": 7124,
      "fewer": 7125,
      "copper": 7126,
      "Boy": 7127,
      "Poems": 7128,
      "....\"": 7129,
      "hyphen": 7130,
      "uttering": 7131,
      "inclination": 7132,
      "measured": 7133,
      "indicated": 7134,
      "Greece": 7135,
      "ladder": 7136,
      "trades": 7137,
      "seller": 7138,
      "operation": 7139,
      "inquired": 7140,
      "manufacture": 7141,
      "fundament": 7142,
      "excitement": 7143,
      "potatoes": 7144,
      "Spanish": 7145,
      "whilst": 7146,
      "fancied": 7147,
      "67": 7148,
      "Jud": 7149,
      "bred": 7150,
      "based": 7151,
      "drow": 7152,
      "eh": 7153,
      "knot": 7154,
      "lion": 7155,
      "sly": 7156,
      "sli": 7157,
      "tap": 7158,
      "renew": 7159,
      "cean": 7160,
      "complic": 7161,
      "shr": 7162,
      "ody": 7163,
      "tram": 7164,
      "clauses": 7165,
      "ferre": 7166,
      "epi": 7167,
      "redou": 7168,
      "izes": 7169,
      "certainty": 7170,
      "labourers": 7171,
      "mature": 7172,
      "penetr": 7173,
      "average": 7174,
      "slang": 7175,
      "slept": 7176,
      "ibly": 7177,
      "treatment": 7178,
      "superflu": 7179,
      "introduction": 7180,
      "model": 7181,
      "moderate": 7182,
      "farmers": 7183,
      "persist": 7184,
      "traveller": 7185,
      "lantern": 7186,
      "tiny": 7187,
      "exhibit": 7188,
      "Friend": 7189,
      "collar": 7190,
      "Singular": 7191,
      "Lizzy": 7192,
      "fierce": 7193,
      "5th": 7194,
      "Bour": 7195,
      "Swe": 7196,
      "dried": 7197,
      "fitted": 7198,
      "“‘": 7199,
      "refr": 7200,
      "ensible": 7201,
      "orter": 7202,
      "asper": 7203,
      "alas": 7204,
      "stout": 7205,
      "appreci": 7206,
      "park": 7207,
      "products": 7208,
      "centuries": 7209,
      "thyself": 7210,
      "metamorph": 7211,
      "queen": 7212,
      "00_l": 7213,
      "Robert": 7214,
      "critics": 7215,
      "males": 7216,
      "Charlotte": 7217,
      "Scotland": 7218,
      "Colonel": 7219,
      "invention": 7220,
      "disturbed": 7221,
      "abandoned": 7222,
      "Cobbett": 7223,
      "WARRAN": 7224,
      "destruction": 7225,
      "volunteers": 7226,
      "!—": 7227,
      "81": 7228,
      "Apo": 7229,
      "Dign": 7230,
      "Ever": 7231,
      "Master": 7232,
      "OE": 7233,
      "Pur": 7234,
      "Rad": 7235,
      "Spain": 7236,
      "eous": 7237,
      "honey": 7238,
      "silly": 7239,
      "vac": 7240,
      "repent": 7241,
      "itz": 7242,
      "imony": 7243,
      "unnecessary": 7244,
      "ripe": 7245,
      "posure": 7246,
      "external": 7247,
      "denoting": 7248,
      "store": 7249,
      "presents": 7250,
      "ruff": 7251,
      "joining": 7252,
      "crum": 7253,
      "108": 7254,
      "fourteen": 7255,
      "drun": 7256,
      "college": 7257,
      "acquire": 7258,
      "pati": 7259,
      "tomb": 7260,
      "Leo": 7261,
      "fastened": 7262,
      "gardens": 7263,
      "brothers": 7264,
      "cultivate": 7265,
      "onymous": 7266,
      "alteration": 7267,
      "slightly": 7268,
      "polite": 7269,
      "bills": 7270,
      "gods": 7271,
      "recommended": 7272,
      "sublim": 7273,
      "suspected": 7274,
      "85": 7275,
      "92": 7276,
      "FIN": 7277,
      "Lab": 7278,
      "aus": 7279,
      "bloom": 7280,
      "dated": 7281,
      "sending": 7282,
      "waking": 7283,
      "itating": 7284,
      "arose": 7285,
      "leather": 7286,
      "staff": 7287,
      "veil": 7288,
      "riages": 7289,
      "nearest": 7290,
      "accommod": 7291,
      "coinc": 7292,
      "Anglo": 7293,
      "sings": 7294,
      "cheese": 7295,
      "buck": 7296,
      "easier": 7297,
      "Adverbs": 7298,
      "huge": 7299,
      "gypt": 7300,
      "construc": 7301,
      "dependence": 7302,
      "bourn": 7303,
      "arrive": 7304,
      "murm": 7305,
      "disappointments": 7306,
      "opportunities": 7307,
      "corresponding": 7308,
      "beasts": 7309,
      "contribute": 7310,
      "conquer": 7311,
      "Republic": 7312,
      "civilization": 7313,
      "savage": 7314,
      "Children": 7315,
      "eloquence": 7316,
      "Antoine": 7317,
      "73": 7318,
      "86": 7319,
      "BEN": 7320,
      "Corn": 7321,
      "Fer": 7322,
      "GE": 7323,
      "Him": 7324,
      "IF": 7325,
      "Ned": 7326,
      "Sure": 7327,
      "bic": 7328,
      "bun": 7329,
      "dar": 7330,
      "dain": 7331,
      "emotions": 7332,
      "jack": 7333,
      "nail": 7334,
      "uge": 7335,
      "vit": 7336,
      "escrib": 7337,
      "ington": 7338,
      "chose": 7339,
      "omission": 7340,
      "idity": 7341,
      "abic": 7342,
      "degrad": 7343,
      "neys": 7344,
      "exchanged": 7345,
      "quit": 7346,
      "indescrib": 7347,
      "discour": 7348,
      "Toto": 7349,
      "sia": 7350,
      "flash": 7351,
      ".—\"": 7352,
      "offers": 7353,
      "differently": 7354,
      "wheels": 7355,
      "dram": 7356,
      "lieutenant": 7357,
      "reflected": 7358,
      "UNC": 7359,
      "abeuf": 7360,
      "decide": 7361,
      "ridge": 7362,
      "True": 7363,
      "attempts": 7364,
      "European": 7365,
      "quisite": 7366,
      "dwelling": 7367,
      "discussion": 7368,
      "Suppose": 7369,
      "peasant": 7370,
      "Author": 7371,
      "democr": 7372,
      "fountain": 7373,
      "Div": 7374,
      "Egypt": 7375,
      "NUR": 7376,
      "Script": 7377,
      "Te": 7378,
      "cows": 7379,
      "dirty": 7380,
      "nie": 7381,
      "rhet": 7382,
      "scan": 7383,
      "eries": 7384,
      "online": 7385,
      "omit": 7386,
      "suspect": 7387,
      "wasn": 7388,
      "abo": 7389,
      "abuse": 7390,
      "eteen": 7391,
      "usions": 7392,
      "plaster": 7393,
      "ilation": 7394,
      "presum": 7395,
      "predic": 7396,
      "bliss": 7397,
      "ferred": 7398,
      "flav": 7399,
      "scen": 7400,
      "newsp": 7401,
      "axe": 7402,
      "anguish": 7403,
      "equality": 7404,
      "ARD": 7405,
      "Jews": 7406,
      "stepped": 7407,
      "Alas": 7408,
      "Although": 7409,
      "LITY": 7410,
      "Greeks": 7411,
      "hills": 7412,
      "Tellson": 7413,
      "censure": 7414,
      "vigorous": 7415,
      "extensive": 7416,
      "escaped": 7417,
      "IE": 7418,
      "TENSE": 7419,
      "WAT": 7420,
      "cum": 7421,
      "damp": 7422,
      "gged": 7423,
      "kings": 7424,
      "mart": 7425,
      "mail": 7426,
      "mount": 7427,
      "nast": 7428,
      "phas": 7429,
      "swi": 7430,
      "tie": 7431,
      "yards": 7432,
      "inery": 7433,
      "repose": 7434,
      "isure": 7435,
      "island": 7436,
      "stal": 7437,
      "stories": 7438,
      "ica": 7439,
      "aren": 7440,
      "conject": 7441,
      "mob": 7442,
      "acute": 7443,
      "fron": 7444,
      "upright": 7445,
      "Grand": 7446,
      "relating": 7447,
      "cream": 7448,
      "cris": 7449,
      "brevi": 7450,
      "simplicity": 7451,
      "possessions": 7452,
      "doubled": 7453,
      "visited": 7454,
      ":—\"": 7455,
      "contracted": 7456,
      "judgement": 7457,
      "domestics": 7458,
      "palace": 7459,
      "missed": 7460,
      "military": 7461,
      "gravely": 7462,
      "consistency": 7463,
      "OUS": 7464,
      "boxes": 7465,
      "abruptly": 7466,
      "modifications": 7467,
      "blossom": 7468,
      "Certainly": 7469,
      "Pontmercy": 7470,
      "STEPHEN": 7471,
      "undoubtedly": 7472,
      "NURSE": 7473,
      ",’": 7474,
      "CL": 7475,
      "Dist": 7476,
      "Full": 7477,
      "Maxim": 7478,
      "PL": 7479,
      "Sam": 7480,
      "Ten": 7481,
      "Tem": 7482,
      "Use": 7483,
      "bounds": 7484,
      "job": 7485,
      "nasse": 7486,
      "oak": 7487,
      "pushed": 7488,
      "rite": 7489,
      "stor": 7490,
      "wilt": 7491,
      "ented": 7492,
      "verted": 7493,
      "forces": 7494,
      "icable": 7495,
      "abled": 7496,
      "consol": 7497,
      "usal": 7498,
      "keen": 7499,
      "whoever": 7500,
      "Third": 7501,
      "obtaining": 7502,
      "acks": 7503,
      "lesson": 7504,
      "letting": 7505,
      "parish": 7506,
      "structure": 7507,
      "ixon": 7508,
      "spiration": 7509,
      "satisfy": 7510,
      "ligence": 7511,
      "risk": 7512,
      "risen": 7513,
      "Hermes": 7514,
      "Prince": 7515,
      "riding": 7516,
      "firmly": 7517,
      "sleeping": 7518,
      "annual": 7519,
      "burned": 7520,
      "exclamation": 7521,
      "trod": 7522,
      "manufacturer": 7523,
      "reaching": 7524,
      "admirable": 7525,
      "accuracy": 7526,
      "AGE": 7527,
      "primitive": 7528,
      "fighting": 7529,
      "Instit": 7530,
      "preparation": 7531,
      "amusement": 7532,
      "tolerably": 7533,
      "seventy": 7534,
      "accumulation": 7535,
      "Italian": 7536,
      "TWO": 7537,
      "bounty": 7538,
      "drunken": 7539,
      "!’": 7540,
      "68": 7541,
      "83": 7542,
      "Acts": 7543,
      "Bless": 7544,
      "BEL": 7545,
      "Fort": 7546,
      "Has": 7547,
      "Mabeuf": 7548,
      "cree": 7549,
      "fow": 7550,
      "patch": 7551,
      "ré": 7552,
      "rush": 7553,
      "soften": 7554,
      "tip": 7555,
      "wol": 7556,
      "ès": 7557,
      "toss": 7558,
      "leisure": 7559,
      "select": 7560,
      "bewild": 7561,
      "wixt": 7562,
      "entity": 7563,
      "whither": 7564,
      "decre": 7565,
      "exagger": 7566,
      "propos": 7567,
      "worm": 7568,
      "berry": 7569,
      "mostly": 7570,
      "ERR": 7571,
      "dreaming": 7572,
      "lightly": 7573,
      "purity": 7574,
      "possesses": 7575,
      "particle": 7576,
      "Univers": 7577,
      "constructed": 7578,
      "hypo": 7579,
      "practised": 7580,
      "humili": 7581,
      "hasty": 7582,
      "victim": 7583,
      "links": 7584,
      "recently": 7585,
      "Participles": 7586,
      "envy": 7587,
      "emphatic": 7588,
      "exhausted": 7589,
      "safety": 7590,
      "artificial": 7591,
      "Analyt": 7592,
      "91": 7593,
      "AU": 7594,
      "Ec": 7595,
      "Five": 7596,
      "GER": 7597,
      "Nut": 7598,
      "Spr": 7599,
      "Up": 7600,
      "VEN": 7601,
      "Ward": 7602,
      "XVI": 7603,
      "ael": 7604,
      "bat": 7605,
      "fid": 7606,
      "jury": 7607,
      "oat": 7608,
      "wag": 7609,
      "inex": 7610,
      "recall": 7611,
      "ascri": 7612,
      "unite": 7613,
      "unjust": 7614,
      "prun": 7615,
      "cordi": 7616,
      "spell": 7617,
      "seriously": 7618,
      "thence": 7619,
      "parnasse": 7620,
      "finest": 7621,
      "nerves": 7622,
      "nervous": 7623,
      "compens": 7624,
      "lasting": 7625,
      "sombre": 7626,
      "maintained": 7627,
      "natured": 7628,
      "summon": 7629,
      "receipt": 7630,
      "shoe": 7631,
      "190": 7632,
      "drops": 7633,
      "Christmas": 7634,
      "thousands": 7635,
      "references": 7636,
      "facility": 7637,
      "conceived": 7638,
      "preferable": 7639,
      "espeare": 7640,
      "sibility": 7641,
      "surprising": 7642,
      "magistr": 7643,
      "furnish": 7644,
      "politics": 7645,
      "fashionable": 7646,
      "madam": 7647,
      "educated": 7648,
      "instructions": 7649,
      "Montparnasse": 7650,
      "OOD": 7651,
      "wretch": 7652,
      "Longbourn": 7653,
      "vault": 7654,
      "Cowley": 7655,
      "tumult": 7656,
      "interrogative": 7657,
      "BIBLE": 7658,
      "rejected": 7659,
      "esteem": 7660,
      "Simonov": 7661,
      "historical": 7662,
      "apostrophe": 7663,
      "Etymology": 7664,
      "WHICH": 7665,
      "website": 7666,
      "Combeferre": 7667,
      "Athen": 7668,
      "Apri": 7669,
      "Bha": 7670,
      "East": 7671,
      "Get": 7672,
      "Hand": 7673,
      "HIS": 7674,
      "Lind": 7675,
      "Mast": 7676,
      "Night": 7677,
      "Ric": 7678,
      "dining": 7679,
      "gas": 7680,
      "sam": 7681,
      "tale": 7682,
      "incapable": 7683,
      "enum": 7684,
      "enger": 7685,
      "adj": 7686,
      "adays": 7687,
      "wick": 7688,
      "entreat": 7689,
      "sul": 7690,
      "popul": 7691,
      "pline": 7692,
      "augment": 7693,
      "shew": 7694,
      "somebody": 7695,
      "Whose": 7696,
      "Italy": 7697,
      "acty": 7698,
      "opy": 7699,
      "morals": 7700,
      "itha": 7701,
      "TIN": 7702,
      "factor": 7703,
      "tones": 7704,
      "tribut": 7705,
      "Bos": 7706,
      "answers": 7707,
      "refers": 7708,
      "warrant": 7709,
      "sweethe": 7710,
      "elevation": 7711,
      "Molly": 7712,
      "Shakespeare": 7713,
      "sadness": 7714,
      "conducted": 7715,
      "excellence": 7716,
      "manufactures": 7717,
      "diminish": 7718,
      "paragraphs": 7719,
      "liffe": 7720,
      "deeds": 7721,
      "TICAL": 7722,
      "remote": 7723,
      "ceremon": 7724,
      "preparing": 7725,
      "borrowed": 7726,
      "Listen": 7727,
      "Indian": 7728,
      "indispensable": 7729,
      "April": 7730,
      "82": 7731,
      "Fin": 7732,
      "Hur": 7733,
      "Lis": 7734,
      "Liddy": 7735,
      "Place": 7736,
      "Turn": 7737,
      "bone": 7738,
      "fence": 7739,
      "gates": 7740,
      "gloves": 7741,
      "sap": 7742,
      "inval": 7743,
      "rear": 7744,
      "ensu": 7745,
      "orator": 7746,
      "heels": 7747,
      "likes": 7748,
      "conve": 7749,
      ".\"]": 7750,
      "poly": 7751,
      "comment": 7752,
      "shy": 7753,
      "ifies": 7754,
      "prospe": 7755,
      "prodig": 7756,
      "trag": 7757,
      "trap": 7758,
      "prey": 7759,
      "distrust": 7760,
      "discharge": 7761,
      "commission": 7762,
      "related": 7763,
      "purple": 7764,
      "barbar": 7765,
      "silently": 7766,
      "sket": 7767,
      "agreeably": 7768,
      "allows": 7769,
      "warns": 7770,
      "ISH": 7771,
      "regards": 7772,
      "petty": 7773,
      "destro": 7774,
      "Plant": 7775,
      "Baron": 7776,
      "IVE": 7777,
      "poetic": 7778,
      "preference": 7779,
      "literal": 7780,
      "trembled": 7781,
      "ECT": 7782,
      "absurdly": 7783,
      "situated": 7784,
      "prevail": 7785,
      "Philo": 7786,
      "professor": 7787,
      "President": 7788,
      "bonnet": 7789,
      "audible": 7790,
      "erroneously": 7791,
      "mourn": 7792,
      "moisture": 7793,
      "prejudice": 7794,
      "amazement": 7795,
      "security": 7796,
      "benevolent": 7797,
      "deficient": 7798,
      "performance": 7799,
      "Science": 7800,
      "icolon": 7801,
      "Observations": 7802,
      "attorney": 7803,
      "Radical": 7804,
      "69": 7805,
      "71": 7806,
      "Bou": 7807,
      "Cf": 7808,
      "Jen": 7809,
      "Met": 7810,
      "Noun": 7811,
      "Sain": 7812,
      "Stre": 7813,
      "TU": 7814,
      "bab": 7815,
      "bation": 7816,
      "bie": 7817,
      "bition": 7818,
      "fain": 7819,
      "hedge": 7820,
      "ram": 7821,
      "isons": 7822,
      "arises": 7823,
      "stalk": 7824,
      "suet": 7825,
      "hau": 7826,
      "pold": 7827,
      "management": 7828,
      "dost": 7829,
      "derive": 7830,
      "nowadays": 7831,
      "geance": 7832,
      "somehow": 7833,
      "formal": 7834,
      "eyed": 7835,
      "justify": 7836,
      "lawyer": 7837,
      "worldly": 7838,
      "destit": 7839,
      "evils": 7840,
      "starting": 7841,
      "preservation": 7842,
      "deserve": 7843,
      "proceeds": 7844,
      "Holy": 7845,
      "pursuits": 7846,
      "Collier": 7847,
      "displayed": 7848,
      "Pronoun": 7849,
      "astonishment": 7850,
      "vegetables": 7851,
      "reserved": 7852,
      "nineteen": 7853,
      "Tommy": 7854,
      "Russell": 7855,
      "alogue": 7856,
      "intervals": 7857,
      "EXAMPLES": 7858,
      "63": 7859,
      "75": 7860,
      "Bon": 7861,
      "BUT": 7862,
      "Could": 7863,
      "FE": 7864,
      "Mis": 7865,
      "Please": 7866,
      "SO": 7867,
      "pest": 7868,
      "pil": 7869,
      "xic": 7870,
      "thief": 7871,
      "insol": 7872,
      "invisible": 7873,
      "adjust": 7874,
      "amma": 7875,
      "suits": 7876,
      "dearest": 7877,
      "peril": 7878,
      "prohi": 7879,
      "plum": 7880,
      "cords": 7881,
      "corrupt": 7882,
      "grasp": 7883,
      "daylight": 7884,
      "pses": 7885,
      "interjections": 7886,
      "arian": 7887,
      "crushed": 7888,
      "pronominal": 7889,
      "carriages": 7890,
      "awake": 7891,
      "collected": 7892,
      "terminations": 7893,
      "decision": 7894,
      "teaches": 7895,
      "soils": 7896,
      "leads": 7897,
      "offering": 7898,
      "spectacles": 7899,
      "periods": 7900,
      "occupation": 7901,
      "gazing": 7902,
      "chapel": 7903,
      "resembled": 7904,
      "Emperor": 7905,
      "mistakes": 7906,
      "advancement": 7907,
      "abyss": 7908,
      "neighbourhood": 7909,
      "Friends": 7910,
      "astonished": 7911,
      "involved": 7912,
      "induce": 7913,
      "abandon": 7914,
      "sustained": 7915,
      "revenue": 7916,
      "dawn": 7917,
      "pistol": 7918,
      "brilliant": 7919,
      "annoy": 7920,
      "Crombie": 7921,
      "illuminated": 7922,
      "Bhaer": 7923,
      "!)": 7924,
      "114": 7925,
      "74": 7926,
      "84": 7927,
      "99": 7928,
      "Che": 7929,
      "None": 7930,
      "WE": 7931,
      "cough": 7932,
      "dazz": 7933,
      "fest": 7934,
      "fist": 7935,
      "gul": 7936,
      "matt": 7937,
      "mask": 7938,
      "rs": 7939,
      "wart": 7940,
      "waves": 7941,
      "thm": 7942,
      "revel": 7943,
      "hears": 7944,
      "tering": 7945,
      "agements": 7946,
      "shif": 7947,
      "frank": 7948,
      "apples": 7949,
      "tracted": 7950,
      "Hebrew": 7951,
      "prescri": 7952,
      "lessly": 7953,
      "betwixt": 7954,
      "submit": 7955,
      "eff": 7956,
      "103": 7957,
      "circulating": 7958,
      "aws": 7959,
      "winds": 7960,
      "Poets": 7961,
      "Except": 7962,
      "figur": 7963,
      "invited": 7964,
      "desert": 7965,
      "funeral": 7966,
      "occupy": 7967,
      "supported": 7968,
      "chaic": 7969,
      "AGREE": 7970,
      "victory": 7971,
      "derivatives": 7972,
      "pillow": 7973,
      "gesture": 7974,
      "commercial": 7975,
      "Philad": 7976,
      "Royal": 7977,
      "Grantaire": 7978,
      "totally": 7979,
      "Lindley": 7980,
      ");": 7981,
      "During": 7982,
      "Pot": 7983,
      "Tim": 7984,
      "TON": 7985,
      "Wel": 7986,
      "bite": 7987,
      "bows": 7988,
      "cad": 7989,
      "eu": 7990,
      "roar": 7991,
      "unconscious": 7992,
      "prox": 7993,
      "cane": 7994,
      "oped": 7995,
      "lessness": 7996,
      "handle": 7997,
      "useum": 7998,
      "redund": 7999,
      "angels": 8000,
      "ruined": 8001,
      "expressly": 8002,
      "pronounce": 8003,
      "ORS": 8004,
      "transport": 8005,
      "divisions": 8006,
      "maha": 8007,
      "judged": 8008,
      "increases": 8009,
      "declined": 8010,
      "grandeur": 8011,
      "111": 8012,
      "Syd": 8013,
      "trait": 8014,
      "designs": 8015,
      "doctrines": 8016,
      "graph": 8017,
      "diminution": 8018,
      "romantic": 8019,
      "transa": 8020,
      "estimated": 8021,
      "competition": 8022,
      "esteemed": 8023,
      "inherit": 8024,
      "caval": 8025,
      "features": 8026,
      "conveniences": 8027,
      "76": 8028,
      "BY": 8029,
      "Jose": 8030,
      "Land": 8031,
      "Min": 8032,
      "Till": 8033,
      "batt": 8034,
      "dine": 8035,
      "nam": 8036,
      "tick": 8037,
      "Épon": 8038,
      "inconsistent": 8039,
      "edy": 8040,
      "aret": 8041,
      "abbrevi": 8042,
      "concept": 8043,
      "poster": 8044,
      "appet": 8045,
      "someone": 8046,
      "therein": 8047,
      "grape": 8048,
      "Through": 8049,
      "intoxic": 8050,
      "phant": 8051,
      "flame": 8052,
      "synt": 8053,
      "courty": 8054,
      "diam": 8055,
      "104": 8056,
      "refuge": 8057,
      "conflict": 8058,
      "divide": 8059,
      "swear": 8060,
      "ancest": 8061,
      "corners": 8062,
      "promote": 8063,
      "towns": 8064,
      "destined": 8065,
      "Plain": 8066,
      "sprang": 8067,
      "detail": 8068,
      "murmur": 8069,
      "machinery": 8070,
      "Prepositions": 8071,
      "afforded": 8072,
      "delicacy": 8073,
      "clergy": 8074,
      "solicit": 8075,
      "inquiry": 8076,
      "Participle": 8077,
      "elementary": 8078,
      "Tabitha": 8079,
      "boulevard": 8080,
      "vessels": 8081,
      "waistcoat": 8082,
      "subsist": 8083,
      "Sydney": 8084,
      "Éponine": 8085,
      "118": 8086,
      "6th": 8087,
      "CK": 8088,
      "Cont": 8089,
      "FUL": 8090,
      "Gent": 8091,
      "Humph": 8092,
      "National": 8093,
      "gings": 8094,
      "mers": 8095,
      "muttered": 8096,
      "nical": 8097,
      "ern": 8098,
      "mock": 8099,
      "decor": 8100,
      "butt": 8101,
      "illa": 8102,
      "blest": 8103,
      "affirmed": 8104,
      "woke": 8105,
      "denial": 8106,
      "commence": 8107,
      "bron": 8108,
      "counted": 8109,
      "genial": 8110,
      "intercourse": 8111,
      "interior": 8112,
      "prize": 8113,
      "THIR": 8114,
      "1830": 8115,
      "solitude": 8116,
      "120": 8117,
      "124": 8118,
      "metre": 8119,
      "untary": 8120,
      "tends": 8121,
      "shoots": 8122,
      "Byc": 8123,
      "Wellington": 8124,
      "approved": 8125,
      "SECON": 8126,
      "correction": 8127,
      "enjoyments": 8128,
      "owels": 8129,
      "traversed": 8130,
      "combination": 8131,
      "honourable": 8132,
      "determination": 8133,
      "favourite": 8134,
      "punish": 8135,
      "departed": 8136,
      "reverend": 8137,
      "balance": 8138,
      "persuade": 8139,
      "alarmed": 8140,
      "exportation": 8141,
      "Transl": 8142,
      "treasure": 8143,
      "orchard": 8144,
      "magnificent": 8145,
      "Juliet": 8146,
      "Exerc": 8147,
      "Principles": 8148,
      "Economy": 8149,
      "piano": 8150,
      "Voice": 8151,
      "Joseph": 8152,
      "SECOND": 8153,
      "97": 8154,
      "BRE": 8155,
      "Cunning": 8156,
      "Ef": 8157,
      "Fru": 8158,
      "Yu": 8159,
      "cate": 8160,
      "file": 8161,
      "hated": 8162,
      "lle": 8163,
      "nun": 8164,
      "naught": 8165,
      "sins": 8166,
      "ata": 8167,
      "attained": 8168,
      "selling": 8169,
      "beating": 8170,
      "stuck": 8171,
      "impro": 8172,
      "allic": 8173,
      "uncommon": 8174,
      "unaccented": 8175,
      "mos": 8176,
      "deaf": 8177,
      "willingly": 8178,
      "tech": 8179,
      "indire": 8180,
      "iveness": 8181,
      "gracious": 8182,
      "diseas": 8183,
      "mary": 8184,
      "marble": 8185,
      "adequ": 8186,
      "ully": 8187,
      "scrup": 8188,
      "hoard": 8189,
      "versions": 8190,
      "glimp": 8191,
      "normal": 8192,
      "purse": 8193,
      "lowest": 8194,
      "EST": 8195,
      "accord": 8196,
      "wisely": 8197,
      "Alf": 8198,
      "domain": 8199,
      "studies": 8200,
      "concerns": 8201,
      "pretended": 8202,
      "specific": 8203,
      "muscles": 8204,
      "virtuous": 8205,
      "flee": 8206,
      "commanded": 8207,
      "candles": 8208,
      "glasses": 8209,
      "defects": 8210,
      "PARTIC": 8211,
      "bald": 8212,
      "confessed": 8213,
      "--------": 8214,
      "decidedly": 8215,
      "legisl": 8216,
      "emerged": 8217,
      "rhyme": 8218,
      "assuming": 8219,
      "prudence": 8220,
      "inflection": 8221,
      "inflections": 8222,
      "varying": 8223,
      "entertainment": 8224,
      "seventeen": 8225,
      "perpetual": 8226,
      "gathering": 8227,
      "lonely": 8228,
      "Octo": 8229,
      "fundamental": 8230,
      "Leopold": 8231,
      "Exercises": 8232,
      "glimpse": 8233,
      "116": 8234,
      "ACH": 8235,
      "Cast": 8236,
      "CRI": 8237,
      "Med": 8238,
      "Mod": 8239,
      "Mem": 8240,
      "NI": 8241,
      "Teach": 8242,
      "_Ex": 8243,
      "cision": 8244,
      "lon": 8245,
      "nails": 8246,
      "pile": 8247,
      "wy": 8248,
      "resolute": 8249,
      "sey": 8250,
      "belly": 8251,
      "impropriety": 8252,
      "user": 8253,
      "ula": 8254,
      "acknowledge": 8255,
      "managed": 8256,
      "aph": 8257,
      "outward": 8258,
      "ameter": 8259,
      "elbow": 8260,
      "whereby": 8261,
      "genitive": 8262,
      "stolen": 8263,
      "pauses": 8264,
      "beggar": 8265,
      "monster": 8266,
      "ART": 8267,
      "Soci": 8268,
      "receives": 8269,
      "expectation": 8270,
      "election": 8271,
      "Edin": 8272,
      "pettic": 8273,
      "plication": 8274,
      "remarkably": 8275,
      "occasioned": 8276,
      "Plum": 8277,
      "solely": 8278,
      "warmth": 8279,
      "devotion": 8280,
      "renders": 8281,
      "balls": 8282,
      "POSI": 8283,
      "scient": 8284,
      "reckon": 8285,
      "convert": 8286,
      "vegetable": 8287,
      "cabb": 8288,
      "coward": 8289,
      "revenge": 8290,
      "Moral": 8291,
      "eminent": 8292,
      "idiom": 8293,
      "executed": 8294,
      "widow": 8295,
      "Dignam": 8296,
      "prospects": 8297,
      "courtyard": 8298,
      "4_l": 8299,
      "Active": 8300,
      "Creat": 8301,
      "Light": 8302,
      "Mill": 8303,
      "ZOE": 8304,
      "brows": 8305,
      "cam": 8306,
      "eag": 8307,
      "tour": 8308,
      "ulet": 8309,
      "uously": 8310,
      "viv": 8311,
      "rep": 8312,
      "enlight": 8313,
      "isol": 8314,
      "cham": 8315,
      "omb": 8316,
      "wives": 8317,
      "conform": 8318,
      "loire": 8319,
      "agues": 8320,
      "soiled": 8321,
      "shrie": 8322,
      "shiver": 8323,
      "exem": 8324,
      "acob": 8325,
      "corpse": 8326,
      "Analogy": 8327,
      "longing": 8328,
      "scattered": 8329,
      "closing": 8330,
      "begged": 8331,
      "Chan": 8332,
      "modesty": 8333,
      "bucket": 8334,
      "123": 8335,
      "hunger": 8336,
      "retorted": 8337,
      "engagements": 8338,
      "sunshine": 8339,
      "expensive": 8340,
      "garret": 8341,
      "slender": 8342,
      "Read": 8343,
      "decline": 8344,
      "liberal": 8345,
      "injure": 8346,
      "eaten": 8347,
      "Fox": 8348,
      "deceive": 8349,
      "consumer": 8350,
      "maiden": 8351,
      "relieved": 8352,
      "monstrous": 8353,
      "auxiliaries": 8354,
      "COTT": 8355,
      "Magloire": 8356,
      "Liza": 8357,
      "virgin": 8358,
      "preterit": 8359,
      "Early": 8360,
      "discipline": 8361,
      "adjuncts": 8362,
      "Felton": 8363,
      "diamond": 8364,
      "October": 8365,
      "\";": 8366,
      "'-": 8367,
      "77": 8368,
      "Call": 8369,
      "DAM": 8370,
      "Either": 8371,
      "FECT": 8372,
      "Ha": 8373,
      "Jacob": 8374,
      "Nom": 8375,
      "Nur": 8376,
      "Number": 8377,
      "RY": 8378,
      "XVIII": 8379,
      "cant": 8380,
      "daring": 8381,
      "dishes": 8382,
      "eve": 8383,
      "fought": 8384,
      "lav": 8385,
      "lings": 8386,
      "oats": 8387,
      "pink": 8388,
      "rick": 8389,
      "sive": 8390,
      "sau": 8391,
      "tide": 8392,
      "thresh": 8393,
      "reverse": 8394,
      "token": 8395,
      "stit": 8396,
      "rosy": 8397,
      "iday": 8398,
      "define": 8399,
      "kee": 8400,
      "resign": 8401,
      "proposition": 8402,
      "akovitch": 8403,
      "grind": 8404,
      "oking": 8405,
      "blows": 8406,
      "Too": 8407,
      "sery": 8408,
      "parse": 8409,
      "icken": 8410,
      "scrap": 8411,
      "closet": 8412,
      "generations": 8413,
      "fortnight": 8414,
      "hearted": 8415,
      "105": 8416,
      "skirt": 8417,
      "contract": 8418,
      "steal": 8419,
      "bearer": 8420,
      "promises": 8421,
      "LIC": 8422,
      "observes": 8423,
      "dropping": 8424,
      "accents": 8425,
      "healthful": 8426,
      "energet": 8427,
      "poetical": 8428,
      "secrets": 8429,
      "costs": 8430,
      "passionate": 8431,
      "Germany": 8432,
      "civility": 8433,
      "peaceful": 8434,
      "establish": 8435,
      "travelling": 8436,
      "affords": 8437,
      "sources": 8438,
      "Between": 8439,
      "comprehend": 8440,
      "dishon": 8441,
      "Person": 8442,
      "Tabby": 8443,
      "Aristotle": 8444,
      "elliptical": 8445,
      "LETTER": 8446,
      "Sweet": 8447,
      "Mastakovitch": 8448,
      "Lismaha": 8449,
      "Cunningham": 8450,
      "Yulian": 8451,
      "Lismahago": 8452,
      "ATE": 8453,
      "CTION": 8454,
      "PS": 8455,
      "Vers": 8456,
      "cards": 8457,
      "lent": 8458,
      "lung": 8459,
      "pant": 8460,
      "sions": 8461,
      "tar": 8462,
      "thet": 8463,
      "recovered": 8464,
      "research": 8465,
      "restrain": 8466,
      "onet": 8467,
      "itative": 8468,
      "whit": 8469,
      "amend": 8470,
      "rod": 8471,
      "roses": 8472,
      "tered": 8473,
      "abound": 8474,
      "locked": 8475,
      "mead": 8476,
      "meil": 8477,
      "wept": 8478,
      "acit": 8479,
      "accompany": 8480,
      "resto": 8481,
      "tee": 8482,
      "trunk": 8483,
      "themat": 8484,
      "--\"": 8485,
      "clam": 8486,
      "spare": 8487,
      "lett": 8488,
      "fects": 8489,
      "hoe": 8490,
      "ulties": 8491,
      "throng": 8492,
      "airy": 8493,
      "carp": 8494,
      "suppressed": 8495,
      "gues": 8496,
      "resting": 8497,
      "alect": 8498,
      "Poet": 8499,
      "engagement": 8500,
      "effected": 8501,
      "shaken": 8502,
      "variation": 8503,
      "Parsing": 8504,
      "consciously": 8505,
      "cott": 8506,
      "dete": 8507,
      "invitation": 8508,
      "talents": 8509,
      "polished": 8510,
      "coachman": 8511,
      "ecst": 8512,
      "assembly": 8513,
      "obligation": 8514,
      "prudent": 8515,
      "screen": 8516,
      "differs": 8517,
      "ingenious": 8518,
      "Richard": 8519,
      "enthusias": 8520,
      "equipment": 8521,
      "Bossuet": 8522,
      "sweetheart": 8523,
      "Society": 8524,
      "115": 8525,
      "Cons": 8526,
      "Dutch": 8527,
      "Hume": 8528,
      "Over": 8529,
      "Past": 8530,
      "Sent": 8531,
      "Washing": 8532,
      "bend": 8533,
      "bund": 8534,
      "dess": 8535,
      "gence": 8536,
      "knight": 8537,
      "sowing": 8538,
      "tread": 8539,
      "taver": 8540,
      "ued": 8541,
      "inconvenience": 8542,
      "alleg": 8543,
      "chor": 8544,
      "beer": 8545,
      "utility": 8546,
      "rial": 8547,
      "poem": 8548,
      "agents": 8549,
      "agony": 8550,
      "agitation": 8551,
      "manage": 8552,
      "artist": 8553,
      "trim": 8554,
      "cili": 8555,
      "cible": 8556,
      "dislike": 8557,
      "fermeil": 8558,
      "angled": 8559,
      "commend": 8560,
      "parl": 8561,
      "paradise": 8562,
      "attie": 8563,
      "register": 8564,
      "seeming": 8565,
      "medical": 8566,
      "1832": 8567,
      "mond": 8568,
      "simpl": 8569,
      "treach": 8570,
      "respectful": 8571,
      "colonel": 8572,
      "155": 8573,
      "fortunately": 8574,
      "distinctions": 8575,
      "Nether": 8576,
      "plurals": 8577,
      "tower": 8578,
      "grandmother": 8579,
      "strangely": 8580,
      "suggestion": 8581,
      "Improved": 8582,
      "economic": 8583,
      "pursuit": 8584,
      "lodgings": 8585,
      "arguments": 8586,
      "regulate": 8587,
      "Montfermeil": 8588,
      "Spir": 8589,
      "affectionate": 8590,
      "eldest": 8591,
      "excessive": 8592,
      "accomplish": 8593,
      "breathing": 8594,
      "BILITY": 8595,
      "scratch": 8596,
      "institutions": 8597,
      "tranquil": 8598,
      "Lectures": 8599,
      "False": 8600,
      "scandal": 8601,
      "scenes": 8602,
      "Nutting": 8603,
      "tragic": 8604,
      "PARTICI": 8605,
      "Edinburgh": 8606,
      "112": 8607,
      "Bru": 8608,
      "Fitz": 8609,
      "Hal": 8610,
      "MOR": 8611,
      "Pic": 8612,
      "SCOTT": 8613,
      "Test": 8614,
      "Treat": 8615,
      "Women": 8616,
      "cod": 8617,
      "pane": 8618,
      "scold": 8619,
      "vy": 8620,
      "vices": 8621,
      "anne": 8622,
      "anap": 8623,
      "recur": 8624,
      "remind": 8625,
      "recalled": 8626,
      "stic": 8627,
      "rolling": 8628,
      "ghter": 8629,
      "hazard": 8630,
      "conquest": 8631,
      "congrat": 8632,
      "deemed": 8633,
      "shri": 8634,
      "shru": 8635,
      "pless": 8636,
      "apping": 8637,
      "presu": 8638,
      "achus": 8639,
      "vile": 8640,
      "1850": 8641,
      "pleases": 8642,
      "vention": 8643,
      "Beattie": 8644,
      "examination": 8645,
      "refresh": 8646,
      "ancies": 8647,
      "LIMI": 8648,
      "viewed": 8649,
      "imaginary": 8650,
      "declar": 8651,
      "crowded": 8652,
      "peculiarly": 8653,
      "peculiarity": 8654,
      "bottles": 8655,
      "drinks": 8656,
      "accused": 8657,
      "consisted": 8658,
      "consisting": 8659,
      "harvest": 8660,
      "prayers": 8661,
      "punishment": 8662,
      "meantime": 8663,
      "resembles": 8664,
      "stroke": 8665,
      "censu": 8666,
      "vexed": 8667,
      "nurse": 8668,
      "betrayed": 8669,
      "attribute": 8670,
      "expedient": 8671,
      "medicine": 8672,
      "exclusively": 8673,
      "Elements": 8674,
      "patiently": 8675,
      "Temple": 8676,
      "Netherfield": 8677,
      "LIMITED": 8678,
      "Act": 8679,
      "Abrid": 8680,
      "Bel": 8681,
      "Ep": 8682,
      "Mid": 8683,
      "Way": 8684,
      "ik": 8685,
      "iated": 8686,
      "nic": 8687,
      "nav": 8688,
      "pap": 8689,
      "push": 8690,
      "til": 8691,
      "xii": 8692,
      "xiii": 8693,
      "thmet": 8694,
      "charms": 8695,
      "wig": 8696,
      "iration": 8697,
      "abide": 8698,
      "convul": 8699,
      "weap": 8700,
      "exquisite": 8701,
      "resour": 8702,
      "hadn": 8703,
      "boiling": 8704,
      "dreamed": 8705,
      "hook": 8706,
      "complying": 8707,
      "Champ": 8708,
      "merits": 8709,
      "merchant": 8710,
      "venerable": 8711,
      "lawful": 8712,
      "princes": 8713,
      "hardy": 8714,
      "167": 8715,
      "pays": 8716,
      ",—\"": 8717,
      "successive": 8718,
      "consequences": 8719,
      "burg": 8720,
      "filling": 8721,
      "existing": 8722,
      "——,": 8723,
      "Lucas": 8724,
      "guarded": 8725,
      "purely": 8726,
      "consumed": 8727,
      "reverence": 8728,
      "endeavoured": 8729,
      "surroundings": 8730,
      "vexation": 8731,
      "rhythm": 8732,
      "attracted": 8733,
      "training": 8734,
      "clerk": 8735,
      "sustain": 8736,
      "susceptible": 8737,
      "encountered": 8738,
      "genders": 8739,
      "subsequent": 8740,
      "interpretation": 8741,
      "Bycliffe": 8742,
      "Diss": 8743,
      "Nob": 8744,
      "TRI": 8745,
      "Wis": 8746,
      "_T": 8747,
      "cities": 8748,
      "dil": 8749,
      "fury": 8750,
      "kens": 8751,
      "mouse": 8752,
      "ocean": 8753,
      "paint": 8754,
      "rab": 8755,
      "rout": 8756,
      "uated": 8757,
      "vivid": 8758,
      "wake": 8759,
      "analy": 8760,
      "recover": 8761,
      "ardo": 8762,
      "oman": 8763,
      "ceme": 8764,
      "idences": 8765,
      "suck": 8766,
      "unted": 8767,
      "abomin": 8768,
      "perse": 8769,
      "exasper": 8770,
      "residence": 8771,
      "provisions": 8772,
      "owns": 8773,
      "objections": 8774,
      "oppress": 8775,
      "oppressed": 8776,
      "duke": 8777,
      "spit": 8778,
      "brick": 8779,
      "district": 8780,
      "offended": 8781,
      "hotel": 8782,
      "surv": 8783,
      "caps": 8784,
      "etymo": 8785,
      "circles": 8786,
      "easiness": 8787,
      "taxed": 8788,
      "160": 8789,
      "employments": 8790,
      "Unless": 8791,
      "steel": 8792,
      "variations": 8793,
      "heavily": 8794,
      "approbation": 8795,
      "oneself": 8796,
      "aneous": 8797,
      "strikes": 8798,
      "Conmee": 8799,
      "signifying": 8800,
      "Rhetoric": 8801,
      "treating": 8802,
      "faculty": 8803,
      "woods": 8804,
      "thirteen": 8805,
      "Christianity": 8806,
      "madame": 8807,
      "purchased": 8808,
      "deceit": 8809,
      "torment": 8810,
      "Guard": 8811,
      "PERFECT": 8812,
      "100_l": 8813,
      "weeping": 8814,
      "gravity": 8815,
      "accounts": 8816,
      "scrut": 8817,
      "replacement": 8818,
      "enterprises": 8819,
      "experiment": 8820,
      "indignation": 8821,
      "invariably": 8822,
      "tidings": 8823,
      "sublimity": 8824,
      "adequate": 8825,
      "Bas": 8826,
      "Bay": 8827,
      "FAL": 8828,
      "Gal": 8829,
      "Kings": 8830,
      "Mess": 8831,
      "Sep": 8832,
      "craw": 8833,
      "lust": 8834,
      "pom": 8835,
      "patter": 8836,
      "inspe": 8837,
      "erie": 8838,
      "orange": 8839,
      "toms": 8840,
      "concre": 8841,
      "concur": 8842,
      "confirmed": 8843,
      "decent": 8844,
      "ounces": 8845,
      "females": 8846,
      "odor": 8847,
      "embod": 8848,
      "corrid": 8849,
      "assign": 8850,
      "parting": 8851,
      "straint": 8852,
      "regiment": 8853,
      "generation": 8854,
      "vial": 8855,
      "thoughtful": 8856,
      "contents": 8857,
      "106": 8858,
      "107": 8859,
      "109": 8860,
      "bush": 8861,
      "129": 8862,
      "151": 8863,
      "princip": 8864,
      "skir": 8865,
      "effectual": 8866,
      "sixth": 8867,
      "doubts": 8868,
      "approve": 8869,
      "hundreds": 8870,
      "temptation": 8871,
      "prisoners": 8872,
      "advantageous": 8873,
      "includes": 8874,
      "functions": 8875,
      "funny": 8876,
      "tongues": 8877,
      "hoping": 8878,
      "Preface": 8879,
      "substantives": 8880,
      "DEAR": 8881,
      "groan": 8882,
      "primary": 8883,
      "physician": 8884,
      "persuas": 8885,
      "breathe": 8886,
      "Thomson": 8887,
      "vocal": 8888,
      "tolerable": 8889,
      "conquered": 8890,
      "induced": 8891,
      "basis": 8892,
      "Polit": 8893,
      "insisted": 8894,
      "emphat": 8895,
      "Virg": 8896,
      "enterprise": 8897,
      "discern": 8898,
      "indescribable": 8899,
      "nasty": 8900,
      "Sainte": 8901,
      "Cy": 8902,
      "Cir": 8903,
      "Fra": 8904,
      "Hun": 8905,
      "Nixon": 8906,
      "Ted": 8907,
      "Write": 8908,
      "_the": 8909,
      "nis": 8910,
      "sne": 8911,
      "ssing": 8912,
      "—'": 8913,
      "tha": 8914,
      "rector": 8915,
      "rebell": 8916,
      "itations": 8917,
      "inged": 8918,
      "beau": 8919,
      "stanz": 8920,
      "ceiling": 8921,
      "impatience": 8922,
      "soo": 8923,
      "ifully": 8924,
      "provision": 8925,
      "woe": 8926,
      "tension": 8927,
      "create": 8928,
      "charges": 8929,
      "102": 8930,
      "advancing": 8931,
      "spoiled": 8932,
      "trifling": 8933,
      "statement": 8934,
      "horn": 8935,
      "hearth": 8936,
      "confident": 8937,
      "agreeing": 8938,
      "144": 8939,
      "imported": 8940,
      "130": 8941,
      "133": 8942,
      "plays": 8943,
      "classification": 8944,
      "hyper": 8945,
      "successfully": 8946,
      "NOUN": 8947,
      "expended": 8948,
      "zee": 8949,
      "treats": 8950,
      "PRON": 8951,
      "specified": 8952,
      "royalties": 8953,
      "System": 8954,
      "crystal": 8955,
      "rapidity": 8956,
      "POS": 8957,
      "independently": 8958,
      "Romans": 8959,
      "elegance": 8960,
      "safely": 8961,
      "statue": 8962,
      "communication": 8963,
      "sighed": 8964,
      "nursery": 8965,
      "criminal": 8966,
      "intimate": 8967,
      "diversity": 8968,
      "discretion": 8969,
      "corruption": 8970,
      "available": 8971,
      "inspired": 8972,
      "Michael": 8973,
      "swim": 8974,
      "destitute": 8975,
      "lungs": 8976,
      "Fire": 8977,
      "Gra": 8978,
      "MIX": 8979,
      "Num": 8980,
      "Od": 8981,
      "Rush": 8982,
      "Tory": 8983,
      "ae": 8984,
      "cig": 8985,
      "cure": 8986,
      "hiding": 8987,
      "jar": 8988,
      "mire": 8989,
      "rison": 8990,
      "—”": 8991,
      "rele": 8992,
      "outer": 8993,
      "ands": 8994,
      "section": 8995,
      "stif": 8996,
      "immortal": 8997,
      "alled": 8998,
      "aines": 8999,
      "exts": 9000,
      "feast": 9001,
      "felic": 9002,
      "plu": 9003,
      "goose": 9004,
      "upstairs": 9005,
      "geon": 9006,
      "aks": 9007,
      "umbled": 9008,
      "grou": 9009,
      "assass": 9010,
      "partner": 9011,
      "affections": 9012,
      "bery": 9013,
      "dissip": 9014,
      "owned": 9015,
      "wool": 9016,
      "uding": 9017,
      "brass": 9018,
      "interpre": 9019,
      "hio": 9020,
      "TIO": 9021,
      "ORY": 9022,
      "drain": 9023,
      "examine": 9024,
      "126": 9025,
      "services": 9026,
      "shoot": 9027,
      "continues": 9028,
      "ISE": 9029,
      "identical": 9030,
      "LIO": 9031,
      "entertained": 9032,
      "SEL": 9033,
      "ibility": 9034,
      "PRES": 9035,
      "prevents": 9036,
      "philosophical": 9037,
      "accidents": 9038,
      "harness": 9039,
      "materials": 9040,
      "URR": 9041,
      "alien": 9042,
      "ELL": 9043,
      "strengthen": 9044,
      "yielded": 9045,
      "superiority": 9046,
      "Maj": 9047,
      "villain": 9048,
      "substituted": 9049,
      "indulged": 9050,
      "guns": 9051,
      "correspondence": 9052,
      "Greenleaf": 9053,
      "Passive": 9054,
      "guests": 9055,
      "ultimately": 9056,
      "Conjunctions": 9057,
      "whirl": 9058,
      "plunged": 9059,
      "horizon": 9060,
      "subordinate": 9061,
      "ERRORS": 9062,
      "Ricardo": 9063,
      "figurative": 9064,
      "enthusiasm": 9065,
      "Spirit": 9066,
      "110": 9067,
      "Dom": 9068,
      "Fam": 9069,
      "Fif": 9070,
      "Les": 9071,
      "Last": 9072,
      "Ohio": 9073,
      "Pick": 9074,
      "Sch": 9075,
      "Sever": 9076,
      "Subl": 9077,
      "Tit": 9078,
      "Tro": 9079,
      "Twenty": 9080,
      "bted": 9081,
      "bars": 9082,
      "poured": 9083,
      "swarm": 9084,
      "wre": 9085,
      "incess": 9086,
      "enabled": 9087,
      "iscu": 9088,
      "oring": 9089,
      "chast": 9090,
      "chants": 9091,
      "sters": 9092,
      "vell": 9093,
      "amoun": 9094,
      "imitation": 9095,
      "terior": 9096,
      "livery": 9097,
      "unlike": 9098,
      "uneasiness": 9099,
      "wasted": 9100,
      "eting": 9101,
      "deeper": 9102,
      "plur": 9103,
      "wholes": 9104,
      "sheets": 9105,
      "Whom": 9106,
      "Int": 9107,
      "earn": 9108,
      "pho": 9109,
      "serge": 9110,
      "wrought": 9111,
      "wrink": 9112,
      "financi": 9113,
      "attending": 9114,
      "stopping": 9115,
      "minis": 9116,
      "crim": 9117,
      "athol": 9118,
      "meanwhile": 9119,
      "possessing": 9120,
      "examining": 9121,
      "missing": 9122,
      "hunting": 9123,
      "indebted": 9124,
      "sinister": 9125,
      "152": 9126,
      "skull": 9127,
      "grounds": 9128,
      "figured": 9129,
      "garments": 9130,
      "explaining": 9131,
      "believing": 9132,
      "deserves": 9133,
      "influences": 9134,
      "iambic": 9135,
      "debts": 9136,
      "favorite": 9137,
      "apartment": 9138,
      "LAW": 9139,
      "professed": 9140,
      "Accent": 9141,
      "PARSING": 9142,
      "talent": 9143,
      "descending": 9144,
      "Obj": 9145,
      "Maunder": 9146,
      "script": 9147,
      "schemes": 9148,
      "funds": 9149,
      "interrogation": 9150,
      "assumes": 9151,
      "reserve": 9152,
      "earnestly": 9153,
      "inquiries": 9154,
      "instruments": 9155,
      "TAX": 9156,
      "neighborhood": 9157,
      "insurrection": 9158,
      "aristocratic": 9159,
      "Petit": 9160,
      "fatigue": 9161,
      "antiquity": 9162,
      "_I_": 9163,
      "theatre": 9164,
      "refrain": 9165,
      "cavalry": 9166,
      "scientific": 9167,
      "79": 9168,
      "Domin": 9169,
      "Emer": 9170,
      "Fle": 9171,
      "Farm": 9172,
      "MERC": 9173,
      "Museum": 9174,
      "Pun": 9175,
      "War": 9176,
      "Wonder": 9177,
      "furious": 9178,
      "gal": 9179,
      "oress": 9180,
      "rical": 9181,
      "rants": 9182,
      "upro": 9183,
      "yaw": 9184,
      "inct": 9185,
      "thew": 9186,
      "isha": 9187,
      "ouch": 9188,
      "arrested": 9189,
      "cting": 9190,
      "uting": 9191,
      "termed": 9192,
      "liken": 9193,
      "noted": 9194,
      "loaded": 9195,
      "polic": 9196,
      "quay": 9197,
      "ifice": 9198,
      "proportions": 9199,
      "thereof": 9200,
      "yourselves": 9201,
      "Into": 9202,
      "actical": 9203,
      "undertak": 9204,
      "flowing": 9205,
      "paralle": 9206,
      "righteous": 9207,
      "afterward": 9208,
      "passers": 9209,
      "tooth": 9210,
      "smart": 9211,
      "expressive": 9212,
      "chem": 9213,
      "127": 9214,
      "awful": 9215,
      "leges": 9216,
      "171": 9217,
      "Frank": 9218,
      "volumes": 9219,
      "147": 9220,
      "connects": 9221,
      "articulate": 9222,
      "131": 9223,
      "draws": 9224,
      "warned": 9225,
      "promising": 9226,
      "plicit": 9227,
      "Harry": 9228,
      "probability": 9229,
      "declares": 9230,
      "breaks": 9231,
      "leader": 9232,
      "ponder": 9233,
      "lowered": 9234,
      "deserved": 9235,
      "proceeding": 9236,
      "ADJEC": 9237,
      "knitting": 9238,
      "universally": 9239,
      "Imperfect": 9240,
      "kneel": 9241,
      "physi": 9242,
      "beneficial": 9243,
      "damages": 9244,
      "consult": 9245,
      "reverie": 9246,
      "issued": 9247,
      "obviously": 9248,
      "objectionable": 9249,
      "gifts": 9250,
      "insult": 9251,
      "obstin": 9252,
      "embraced": 9253,
      "insects": 9254,
      "overwhelmed": 9255,
      "metamorphos": 9256,
      "predicate": 9257,
      "concrete": 9258,
      "PRONOUN": 9259,
      "MIXED": 9260,
      "Introdu": 9261,
      "policy": 9262,
      "117": 9263,
      "?’": 9264,
      "Bast": 9265,
      "Der": 9266,
      "Del": 9267,
      "Haines": 9268,
      "Jour": 9269,
      "Lam": 9270,
      "Sister": 9271,
      "Twi": 9272,
      "Wy": 9273,
      "balt": 9274,
      "cli": 9275,
      "mate": 9276,
      "oe": 9277,
      "oath": 9278,
      "swo": 9279,
      "tres": 9280,
      "tig": 9281,
      "wer": 9282,
      "wounds": 9283,
      "xviii": 9284,
      "ini": 9285,
      "inaccurate": 9286,
      "oral": 9287,
      "esy": 9288,
      "omachus": 9289,
      "stain": 9290,
      "lyn": 9291,
      "images": 9292,
      "rocks": 9293,
      "unworthy": 9294,
      "unfavorable": 9295,
      "pool": 9296,
      "agitated": 9297,
      "compose": 9298,
      "umbre": 9299,
      "interview": 9300,
      "stove": 9301,
      "addle": 9302,
      "Prosody": 9303,
      "Nove": 9304,
      "glow": 9305,
      "solution": 9306,
      "ffs": 9307,
      "153": 9308,
      "particles": 9309,
      "163": 9310,
      "severally": 9311,
      "mathemat": 9312,
      "Comp": 9313,
      "rane": 9314,
      "block": 9315,
      "Whoever": 9316,
      "ridges": 9317,
      "movements": 9318,
      "referring": 9319,
      "bells": 9320,
      "fearful": 9321,
      "Lux": 9322,
      "thirst": 9323,
      "punct": 9324,
      "suggests": 9325,
      "compounded": 9326,
      "trot": 9327,
      "manufactured": 9328,
      "stayed": 9329,
      "accurately": 9330,
      "motives": 9331,
      "barely": 9332,
      "catast": 9333,
      "attacks": 9334,
      "loudly": 9335,
      "songs": 9336,
      "Horne": 9337,
      "Others": 9338,
      "prophet": 9339,
      "Ischomachus": 9340,
      "impressions": 9341,
      "metaphor": 9342,
      "extremity": 9343,
      "folks": 9344,
      "Articles": 9345,
      "SYN": 9346,
      "vehicle": 9347,
      "roubles": 9348,
      "grafting": 9349,
      "Maximus": 9350,
      "Nurse": 9351,
      "cemetery": 9352,
      "Frazee": 9353,
      "Teddy": 9354,
      "FA": 9355,
      "JUNC": 9356,
      "LOR": 9357,
      "Sou": 9358,
      "Same": 9359,
      "cue": 9360,
      "gue": 9361,
      "jest": 9362,
      "mint": 9363,
      "oon": 9364,
      "tm": 9365,
      "tut": 9366,
      "inth": 9367,
      "incur": 9368,
      "erog": 9369,
      "estern": 9370,
      "chi": 9371,
      "haired": 9372,
      "hered": 9373,
      ".\"[": 9374,
      "depreci": 9375,
      "pots": 9376,
      "quir": 9377,
      "pling": 9378,
      "traced": 9379,
      "upt": 9380,
      "aug": 9381,
      "auto": 9382,
      "illes": 9383,
      "umps": 9384,
      "grating": 9385,
      "okes": 9386,
      "timber": 9387,
      "inton": 9388,
      "brisk": 9389,
      "desk": 9390,
      "subjection": 9391,
      "offensive": 9392,
      "relish": 9393,
      "contest": 9394,
      "survey": 9395,
      "voy": 9396,
      "breeding": 9397,
      "carpet": 9398,
      "charitable": 9399,
      "cared": 9400,
      "10th": 9401,
      "advise": 9402,
      "spots": 9403,
      "transcri": 9404,
      "honoured": 9405,
      "143": 9406,
[...]
