#version: 0.2
Ġ t
h e
Ġ a
i n
Ġ s
Ġ w
r e
o u
Ġt he
h a
n d
Ġ o
Ġ m
i s
e r
Ġ b
i t
Ġ f
l l
â Ģ
e n
o r
o n
e s
Ġ d
Ġ c
e d
Ġo f
a r
Ġt o
Ġ p
Ġ l
Ġa nd
in g
Ġ h
Ġ y
a n
Ġ n
ha t
Ġ he
Ġ in
Ġy ou
a t
Ġt h
o m
o t
a s
Ġ I
Ġ ha
v e
âĢ Ļ
Ġ g
o w
Ġb e
l e
s e
s t
c e
c h
i m
l d
e t
Ġt hat
Ġ e
a y
u t
i ll
it h
g h
i r
en t
Ġ is
i d
a l
Ġ u
Ġ it
a d
Ġo n
Ġw ith
Ġn ot
T he
Ġ re
Ġm y
Ġf or
r i
Ġh is
l y
i on
Ġw h
o o
Ġm e
a m
t er
he r
v er
Ġw e
Ġs t
k e
r o
ou r
u r
gh t
Ġw as
r a
Ġa s
Ġw ill
âĢ ľ
Ġyou r
Ġh im
Ġ Ġ
âĢ Ŀ
u s
i c
Ġs e
o re
Ċ Ċ
A nd
es s
a in
Ġha ve
Ġl i
om e
Ġth is
Ġa n
Ġd e
c t
Ġhe r
ou ld
Ġs o
Ġ M
Ġ k
i l
t h
i ch
g e
Ġth ou
p e
Ġa t
a nd
Ġha d
T o
Ġ C
Ġ S
Ġd o
oo d
or d
Ġs u
i f
Ġ A
Ġ H
c k
r om
es t
Ġa ll
ar d
u n
Ġa re
Ġb y
Ġn o
a ll
Ġl o
Ġb ut
e ll
ou t
Ġwh ich
u l
T h
b le
Ġ v
Ġm an
ou s
re s
i ght
q u
Ġs h
Ġs ha
Ġn e
an t
Ġ B
E N
Ġ The
Ġs he
ha n
re d
se l
Ġ P
Ġf rom
a k
Ġ W
Ġc on
r u
ar t
E R
a ke
Ġ L
Ġk n
er s
e m
Ġu p
Ġo r
o l
in e
Ġon e
i e
in d
Ġ G
âĢ Ķ
Ġs a
Ġw he
on g
I N
p p
Ġf a
A R
i g
l a
f e
u st
Ġu n
on e
Ġc om
A N
r y
U S
as t
Ġ F
Ġth y
o se
am e
sel f
Ġ E
Ġthe re
Ġthe m
is t
at ion
e ar
i ve
t he
or t
Ġthe y
t o
Ġa m
e nd
r ou
r ow
v en
at e
T hat
u re
. âĢĿ
Ġse e
re at
u m
Ġsha ll
Ġd re
a u
Ġg o
Ġw hat
e l
W h
Ġe x
Ġwe re
Ġ our
Ġ D
Ġ O
Ġg ood
o st
Ġthe ir
e p
Ġ âĢľ
E S
Ġ R
it y
Ġw or
ver y
Ġwh o
Ġm ore
Ġl e
[ _
Ġw ould
Ġdre am
Ġthe e
o s
ot h
r an
Ġp ro
i es
Ġa r
Ġkn ow
Ġ j
is h
Ġa l
ĠĠ ĠĠ
O N
oo k
ot her
u e
as s
Ġ T
Ġt han
Ġs p
Ġ out
. _
id e
H e
t her
Ġc an
a re
n g
Ġp r
Ġ if
at her
Ġ r
o p
Ġb l
n t
Ġd is
o d
Ġu s
O R
a p
i ce
at h
Ġ en
Ġa g
Ġlo ve
f f
Ġs w
._ ]
ĠH e
Ġ J
in k
Ġs ay
ad e
I O
Y ou
en ce
o nd
Ġli ke
Ġa b
v es
Ġn ow
f ore
o ld
Ġ qu
c he
im e
t e
ur n
Ġl ord
Ġsa id
Ġwhe n
m ent
i re
Ġd id
Ġthe n
ou nd
it t
a g
Ġs ome
c i
S T
B ut
n ess
Ġha nd
W hat
Ġ V
a ble
F or
Ġc h
ig n
Ġsh ould
Ġo ther
Ġt w
Ġhe re
Ġs pe
Ġl et
res s
Ġm ay
a ge
Ġwe ll
Ġup on
p t
Ġ ro
ing s
Ġ hat
a ve
Ġbe en
C H
c c
Th is
f ul
or n
v ed
Ġs ir
an ce
n ter
Ġb r
Ġc ome
b l
Ġto o
Ġag ain
Ġp o
Ġf ri
Ġ N
ic k
w n
A L
T H
Ġm ust
A s
IN G
Ġa d
is e
ow n
Ġm ake
er t
Ġd en
u d
Ġe y
e an
u ch
, âĢĿ
Ġf l
Ġd ay
w ay
i ld
i us
re e
O L
Ġan y
Ġd es
Ġt ime
o y
it e
Ġc ha
Ġthe se
h ing
Ġw om
Ġp e
Ġc l
nd er
L E
Ġg reat
v ing
le as
W he
n e
Ġp l
I f
Ġf e
Ġin to
E x
Ġ âĢĻ
Ġfri end
a ck
i le
? âĢĿ
on s
c es
p er
Ġ K
Ġg ra
Ġf o
Ġsu ch
M y
b er
u ll
Ġ im
Ġl ook
p l
Ġ very
Ġhat h
a ch
Ġ ri
R O
Ġhe art
E L
itt le
ar k
ou nt
Ġof f
Ġden ot
ct ion
' s
I n
Ġtw o
Ġ ra
Ġm ade
re t
Ġp er
b e
Ġdenot es
w e
Ġt ru
Ġm uch
m an
K ING
Ġf ather
Ġwhe re
Ġh on
Ġli fe
w ard
at ed
Ġth ink
re n
ad y
I US
Ġm en
f t
Ġh ow
Ġo ld
Ġl ong
i ed
! âĢĿ
Ġbe t
Ġl ittle
Ġa f
a b
I t
Ġspe ak
Ġw ord
Ġne ver
ĠM ar
i er
un t
in t
o ve
ou l
i p
L O
a ce
Ġhim self
Ġy et
ir st
ĠI t
Ġha s
Ġo ver
ar ri
Ġp art
ou se
Ġwom an
ain t
s s
Ġo wn
Ġp leas
Ġe ar
Ġc ould
Ġt ake
T ER
in ce
Ġhe ad
Ġs c
I A
Ġcon t
Ġ ent
Ġyou ng
ĠĠ Ġ
Ġm ost
n ot
Ġc all
Ġn ight
Th ou
Ġw ay
Ġre m
i ous
a c
Ġey es
it her
as ter
ent le
Ġhe ar
rou gh
Ġf ore
AR D
in ess
he d
I R
Ġde ath
Ġp la
Ġs er
d e
Ġbe fore
o ck
Ġh o
Ġg ive
Ġhe a
i gh
Ġp ass
t y
i z
Ġg l
W ith
s h
Ġthou ght
Ġw r
e ct
is s
on t
i o
Ġd own
Ġt ell
ll ow
l ess
f or
g er
Ġbe ing
an s
ion s
Ġ [_
o f
Ġw ar
Ġre s
Ġar m
W e
Ġp re
Ġe very
N o
Ġcom m
Ġm ine
Ġu nder
ear s
Ġch ild
e et
U C
c ed
' d
Ġth ose
ar y
Ġbe g
au se
H ow
Ġcom p
Ġs m
or s
os s
Ġp res
B e
L A
Ã ©
Wh y
Ġl a
I C
ĠK ing
S o
Ġ ke
Ġnot hing
Ġn ame
ul t
E T
A M
c l
Ġar t
en e
v ent
ĠI f
Ġbl ood
Ġa way
a ir
A P
al k
Ġg entle
row n
p s
au gh
i v
Ġha r
Ġat t
ow er
Ġab out
Ġre p
or row
Ġ _
Ġth rough
Ġc o
Ġm ight
O f
Ġt r
Ġb re
Ġt urn
Ġs l
Ġe ven
Ġne w
rou nd
Ġf irst
pe ct
Ġc our
Ġe m
The re
oo l
Ġst ill
un e
Ġbe c
ĠW hat
en s
T I
Ġaf ter
Ġh ouse
m e
ĠB ut
Ġli ght
Ġman y
Ġwor k
Ġa cc
ĠI I
at ter
I L
Wh ich
Ġse em
E nter
Ġe nd
l es
w h
Ġwor ld
Ġre t
as e
j ect
ow s
che d
Ġfa ir
if e
Ġsw eet
Ġtru e
Ġb ack
Ġon ly
ĠG od
ES S
Ġk ing
Ġ And
om et
Ġd one
Ġs oul
ha r
Ġf ind
Ġo b
Ġf ear
t ell
Ġst re
- -
op le
Ġhon our
Ġit s
Ġa p
Ġde ad
Ġ You
at er
i x
Ġ Th
Ġha st
all y
Ġp ers
l ed
Ġn or
p en
Whe n
Ġcan not
ĠV al
Ġhea ven
in s
ar s
Ġt ra
Ġd ist
Ġfriend s
ou gh
Ġp ut
is on
Ġpo or
Ġa pp
Ġst and
Ġh our
Ġd oth
Ġp ur
i an
I s
Ġm ind
C EN
it s
Ġcon s
a v
j ean
Ġfa ce
Ġs et
Ċ ĠĠĠ
Ġpla ce
D U
l i
or y
Ġe ver
Ġbr other
e unt
i ble
Ġfo llow
Ġim p
e f
Ġwith out
Ġb us
d er
Ġf all
ic t
t te
Ġs ame
ĠĠĠĠ ĠĠĠĠ
ar ry
ĠE nter
Ġ Y
a il
e e
A T
g ed
ĠO F
t is
Whe re
Ġj ust
l f
Ġs ign
Ġs on
i ly
Ġha pp
Ġri ght
l and
m en
Ġcon f
Ex eunt
: âĢĶ
Ġm ad
augh ter
Ġon ce
Ġf ell
Ġb oth
Ġpr ay
k s
ĠVal jean
S he
Ġ This
at es
at ch
Ex it
Ġfor t
c y
AN T
Ġpe ople
L et
u ck
ose tte
Ġagain st
im es
ĠMar ius
Ġc han
ert ain
Ġas s
it ion
Ġbe l
g et
Ġg r
B y
Q U
u nd
t hat
Ġt re
Ġth us
ĠThe re
K E
u ke
e w
I S
Ġre st
ak ing
ation s
i a
Ġt ri
The n
Ġfor m
ak es
Ġn at
U R
n ing
Ġfore tell
ent s
s w
Ġre c
Ġforetell s
Ġ To
Ġbet ter
Ġthou gh
is hed
ra w
ie ld
a id
C ome
O r
ĠL ord
Ġin d
ver s
Ġke ep
d s
Ġle ave
Ġg u
fe ct
_ .
Wh o
et s
th ing
S E
Ġl ast
Ġ ru
N ow
Ġc ame
Ġbus iness
Ġm other
Ġli ve
Ġbe ar
Ġth ree
is ter
F F
ran ce
Ġhand s
le ep
a ut
u p
I CH
Ġan other
E D
Ġs omet
Ġw ind
C E
ĠJ ean
Ġb est
Ġf ull
Ġse c
Ġsu b
The y
e red
Ġcom es
o ice
Ġc ount
Ġh old
Ġd aughter
Ġw ife
Ġwh om
Ġse en
n ce
Ġmy self
e ver
Ġw it
Ġno ble
R U
Ġm er
Ġb ra
Ġm aster
T is
Ġ ill
Ġh um
as on
sel ves
v il
Ġne ar
Ġcha r
Ġe l
Ġpres ent
w as
la ck
Ġword s
a le
ut h
Ġap pe
Ġth ing
ĠS he
CEN E
f ort
Ġo pen
ro ss
A y
Ġl ady
Ġc he
ĠI n
Ġb ed
s o
ĊĊ ĊĊ
h y
Ġdis c
Y our
ut e
Ġst ran
Ġt er
, âĢĶ
A C
Ġm is
ĠA n
Ġa ff
AP TER
b t
Ġf ar
Ġser v
Ġm on
Ġh us
Ġh or
b and
en ed
E M
W ell
ĠE ng
a red
ment s
Ġde ar
Ġret urn
Ġp oss
ICH ARD
w ell
Ġhe ard
al th
en er
ur y
Ġle ft
Ġother s
IR ST
S CENE
c ome
Ġdo or
AN D
he s
Ġm om
i al
Ġs ur
Ġg i
et h
Ġsa w
p le
at t
Ġbe h
che s
Ġey e
m ed
EN T
Ġp ri
Ġth ings
Ġk ind
Ġm o
ĠF or
we en
F IRST
l t
n er
u res
w ith
ha ll
Ġf ool
He re
Ġwor th
Ġg one
Ġd ie
Ġd ou
Ġsh ow
ĠW he
is ed
Ġpers on
H is
P H
p h
Ġg et
ĠC osette
ci ous
Ġhus band
Ġd r
m ost
Ċ Ġ
c ene
Ġas k
C A
d ay
Ġin st
DU KE
Ġne ed
D o
d en
Ġc ur
Ġm atter
ĠR ome
k en
E EN
ir t
ĠThe y
Ġwh ose
Ġpl ay
Ġla w
Ġb reat
Ġad v
Ġh ome
at ing
OR D
Ġm ist
ar ge
ce pt
ĠD uke
S t
m s
Ġpo int
A B
ant s
Ġear th
od y
in ed
Ġpr ison
R Y
c ess
o g
Ġt ong
re st
Ġdo es
s and
âĢ ĺ
Ġtoo k
Ġfor th
Ġli e
Ġh igh
ot t
Ġre ad
Ġb u
QU EEN
Ġin f
il t
Ġe ach
Ġa ir
ct or
p r
Ġf ound
Ġen em
l s
Ġc ou
Ġho pe
Ġs il
ar is
Ġy ears
Ġbr ing
T han
a z
Ġp ower
ĠP r
U L
Ġmom ent
Ġlet ter
Ġ 1
Ġwh ile
Ġk ill
Ġg ri
Ġme an
Ġst r
e x
Ġg re
le t
ce i
Ġb es
Ġpe ace
Ġsu n
Ġbe aut
Ġyour self
Ġc are
m er
n ard
s u
Ġc ause
Ġj oy
Ġsp ir
Ġb o
Ġu se
I AN
N ot
er y
Ġme et
Ġad d
l ing
Ġel se
Ġw ent
Ġst ate
Ġfort une
ak en
Ġw all
an g
ain ed
A ll
o int
b y
G ood
Ġsu ff
Ġv oice
ON D
Ġde p
n ed
Ġf ire
A t
Ġthou sand
Ġb oy
sh ip
Ġb ro
ce ed
Ġs ince
Ġf our
Ġsw ord
Ġs leep
ĠF rance
Ġhe l
r ing
Ġc ond
ver t
_. ]
Ġc ap
Ġn one
Ġnat ure
i red
at i
B ER
ou ght
v ol
w he
Ġ '
u c
Ġst e
Ġst ay
an y
Ġbet ween
Ġw alk
O M
s c
Ġwith in
Ġwr ong
sw er
id es
ST A
Ġa c
os ed
Ġarm s
L UC
i et
Ġs ing
ĠR ue
H AM
ri ght
Ġc ertain
Ġsu pp
LE T
est y
Ġex t
or m
Ġl ay
ĠII I
Ġv is
Ġf al
e c
n o
o ke
or k
Ġto ward
Ġso on
Ġst ri
Ġs ound
g s
Ġm arri
Ġtong ue
Ġs ort
Ġw a
on y
Ġs ide
Ġso ld
get her
m p
Ġro om
r ant
Ġme ans
Ġcour t
ĠD o
way s
pp ed
A n
Ġw ant
Ġd ark
ĊĊ Ċ
EN RY
ut ion
Ġc rown
Ġb lack
ra ce
Ã© nard
ri ed
ĠP aris
y ou
U n
Ġpro f
Ġdis p
Ġt ill
Ġm ar
Ġb an
ain s
Ġ That
Ġth ine
S ir
c om
Ġs ent
' ll
al s
Ġd an
Ġo cc
Ġin ter
ĠM r
Ġan swer
la im
Ġp rom
Ġin t
Ġin de
Ġal one
Ġcall ed
rou ght
Ġre l
G o
Ġv ill
Ġl ess
N ay
Ġsomet hing
u se
H ave
ren ce
ie ur
Ġgra ce
e y
Ġt alk
RO M
h is
S S
as h
Ġhar d
e en
ĠC a
Ġr ather
W ill
it ed
i ers
Ġt rou
Ġit self
ES TER
Ġlong er
Ġsign if
Ġfa ith
Ġnew s
Ġg ir
Ġcount ry
ĠS t
Ġfal se
v y
Ġsu re
ĠB e
Ġlo st
ĠW e
. âĢĶ
T US
ent ly
IC K
Ġs k
wh ich
Ġc or
us ed
ct ed
IN E
u red
Ġha lf
Ġtr uth
Ġstran ge
Ġb ody
one y
p on
Ġw ater
o ver
ĠA t
ons ieur
Ġc r
Ġhel p
c le
Ġhe nce
Ġg row
Ġal most
Ġm orn
I D
Ġm akes
it ies
c on
Ġha ving
Ġre g
Ġex c
Ġex p
Ã©nard ier
U N
h o
air s
Ġin s
Ġdou bt
Ġs orrow
or ry
ie ve
O n
Ġre d
Ġde l
Ġen ough
st er
u al
u bl
Ġgo ld
C OND
Ġent er
F rom
r ay
ou th
Ġgo ing
Ġs ad
ĠA nt
Ġfell ow
Ġr un
S hall
ard on
ie f
o or
Ġb id
und red
P R
ha d
ve l
cc ess
er v
Ġwh y
Ġun to
ce ive
A G
M AR
Ġs ick
m bl
es c
Ġc le
Ġg ener
ĠP ro
Ġbre ak
Ġc old
ve re
ic es
Ġv irt
Ġday s
b ed
n s
o om
ic al
I T
a pp
g es
Ġhapp y
m ber
Ġ .
Ġl and
ent y
RO S
Ġ Q
Ġpleas ure
Ġstr ong
if f
Ġfe el
y al
Ġp ra
at s
ĠI V
Ġre f
Ġs ight
ou ch
Ġpleas e
Ġinde ed
Ġof t
SE COND
Ġf am
Ġre ason
ĠS ir
Ġwho le
Ġgentle man
h im
u ff
es ar
Ġgra ve
Ġhor se
g g
Ġfa v
Ġm in
Ġwom en
Y es
Ġw ish
Ġwh ite
ĠL et
Ġthere fore
Ġto ld
Ġor der
Ġ ran
Ġchild ren
cei ved
n ow
Ġk iss
Th y
Ġal ways
N or
Ġt ears
Ġturn ed
Ġe re
Ġseem ed
ĠN o
Ġto gether
Ġdream s
Ġspir it
Ġs at
LO UC
Ġstre et
LOUC ESTER
Ġ âĢĺ
har d
W N
ĠA r
ĠH ENRY
ul ar
re m
y ing
Ġab s
STA FF
Ġt imes
Ġt aken
ut en
Ġpro p
Ġqu est
G LOUCESTER
U M
ir d
ĠM y
ĠH ow
Ġthan k
Ġin c
st and
Ġlo ss
Ġfe w
Ġdan ger
Ġf ree
Ġfo ot
Ġsha me
AL STAFF
Ġb ad
Ġc ry
Ġthem selves
ĠR ICHARD
Ġmorn ing
F ALSTAFF
Ġl ow
Ġo pp
Ġd ire
M ar
u es
Ġt em
Ġlo se
ra c
el t
Ġkn ew
ond er
ress ed
Ġst ra
Ġqu ar
Ġbeh ind
B O
Ġm aid
Ġf ight
ish op
Ġrem em
I ST
Ġbreat h
b s
ad s
ANT ON
I I
Y et
Ġc arri
Ġb rought
Ġc a
ren ch
Ġg ave
Ġu nd
Ġfa ult
O ur
ard s
Ġsha d
Ġv al
A l
i ol
li ke
ne y
b ut
Ġs ister
ĠE d
a vert
f ter
Ġd raw
ĠB r
R A
a j
p ar
t ing
Ġposs ess
Ġ (
Ġm ur
Ġsee k
Ġqu een
Ġgri ef
R ESS
Ġa ge
ĠWhe n
H E
R E
Ġp ar
i b
as k
PR IN
Ġw in
Ġyou th
Ġha ng
Ġsu ccess
Ġlord s
itt ed
ĠC ome
l o
Ġy e
Ġha ir
am p
Ġpur p
Ġwe ep
Ġhon est
r as
Ġw ound
Ġe le
ull y
re ady
ĠS aint
ĠEng land
ubl ic
Ġsh ort
for m
Ġappe ar
Ġh undred
ous in
Ġun t
Ġcl ose
U pon
Ġm ark
Ġdo st
_ ,
Ġad m
Ġg round
Ġlook ed
iz ed
Ġthought s
Ġbec ome
a w
Ġt end
Ġm oney
Ġsm all
Ġse a
ĠJ o
L AN
ĠS o
O ST
Ġ ve
A re
i ke
r on
an c
ĠC H
ĠH er
M AN
Ġh ither
ot s
Ġst ru
Ġpro ve
Ġj ud
A ST
v id
ou d
Ġp ast
O TH
Ġtoward s
m b
Ġde ep
Ġde ed
Ġgo ds
E TH
our s
Ġcomm and
c han
Ġs it
ĠA s
Ġsay s
pl ied
l ish
re w
en se
rou d
Ġde c
Ċ ĠĠĠĠ
Ġse nd
u ri
ri ble
Ġsu m
ĠThe n
el s
en ry
Ġg all
Ġal so
Ġapp ro
L I
U T
u b
Ġd ut
Ġgra nd
au ght
Ġ i
Ġdr ink
et er
if t
Ġf r
Ġp ort
ĠI s
Ġam ong
ĠCH APTER
ĠH is
Ġsignif ies
Ġb ar
CH APTER
Ġbec ause
ĠCa esar
L ES
us h
in es
Ġm et
Ġd iv
Ġc orn
Ġher self
LE ON
Ġc ol
ction s
O ne
u g
Ġa ct
Ġc ut
Ġdes p
ĠY ork
Ġp ol
OR K
Ġenem ies
Ġsuff er
G O
on es
Ġcom fort
oth ing
Ġsub ject
ĠM ad
ĠA ll
Ġknow s
G AR
f er
m orrow
Ġp ati
Ġmad am
Ġf ur
Ġde m
un g
Ġpr ince
M EN
Ġs ix
Ġd ra
Ġc ra
ow ed
Ġany thing
C OR
d den
Ġp ay
Ġde vil
As ide
P ER
Ġf ill
Ġp ret
Ġpass ed
g ain
ow ers
Ġwe ar
end s
att le
om an
Ġwe l
Ġgir l
c ha
Ġ ir
Ġm id
et y
Ġe at
ud e
w ick
Ġb orn
Ġp ity
R I
Ġd ro
IN IUS
Ġal ready
Ġsec ond
Ġaff airs
d u
Ġre qu
Ġfa il
ĠF rench
Ġpro s
Ġmist ress
D Y
f ully
i or
r or
Ġf ast
Ġro yal
a ct
Ġc reat
Ġli es
Ġc ast
oo f
Ġdes ire
Ġf ield
us ic
Ġan g
ber g
Ġgi ven
Ġknow n
Ġcour se
I M
Ġ est
Ġp al
ie ce
Ġbeaut y
h n
Ġa w
um ber
Ġp ost
ic hard
ĠC la
R e
ĠH enry
Ġquest ion
Ġc ousin
B RU
Ġ ide
ar wick
Ġp ardon
Ġsee ing
Ġbl ess
Ġab ove
Ġcont ent
ĠTh Ã©nardier
c ul
u nder
Ġs la
Ġf ly
Ġf elt
Ġst ood
Ġse lf
Ġsha lt
T R
Ġem b
Ġchan ge
aj esty
a ched
c her
ĠS cene
Ġsu dden
ard en
oth y
Ġl arge
BRU TUS
e k
x t
it or
Ġp en
Ġp ap
Ġ round
Ġle ad
Ġserv ice
uten berg
a ff
ha ve
or othy
Ġqu ick
W ARD
Ġw o
Ġre plied
Ġhour s
P E
fe nd
ran c
ĠN ow
i res
Ġd on
ĠO ne
we re
S h
Ġm outh
Ġcom ing
ab ly
Ġvill ain
S cene
Ġt en
Ġen g
Ġf ive
Ġde v
Ġtw enty
Ġt a
it iz
Ġyour s
ert y
d om
u ous
Ġc ross
Ġhe alth
Ġfa ct
Ġatt end
Ġbel ieve
ĠEng lish
J UL
Ġs im
Ġb ound
Ġh ur
Ġman ner
Ġt ran
Ġs in
p ro
Ġw atch
it ing
ĠC h
HAM LET
Ġb arri
Ġc ase
ĠS c
EL LO
ot ion
ru st
Ġcou n
Ġpurp ose
H ath
is f
Ġl ear
CH IO
t w
Ġli ves
ue en
V OL
t ain
M ad
M ore
Ġb ur
te red
Ġask ed
ĠEd ward
Ġwel come
Ġc ir
ĠW arwick
bl es
Ġworth y
H er
Ġ Thou
th is
ĠHe re
l ou
Ġc al
A h
Ġl ate
Ġg ar
ir m
Ġ X
ot e
ĠW hy
ru pt
IN A
Ġsw ear
Ġhea vy
Ġbeg an
Ġy ield
ĠL orry
ĠJo hn
Ġ ut
Ġb ene
if fe
E ven
g ing
or th
C LO
b it
re ad
Ġg az
ci al
Ġsec ret
ĠQ ueen
PRIN CE
Ġw ine
Ġre al
Ġgener al
Ġw ret
Ġf oul
E O
J ean
o ly
Ġc ity
ĠR ichard
Ġal ong
ag es
A TH
T ES
am ent
ĠL e
Ġp roud
Ġhe ld
Ġfur ther
D id
il ed
Mar ius
oo se
Ġres pect
F irst
c ent
Ã ¨
is es
Ġb ook
ri b
Ġl ab
The se
Ġri ch
m ing
if ul
Ġfe et
ces ter
Ġbeg in
Ġhum an
Ġf in
an ces
Ġe vil
id er
ĠM ont
AN IO
whe re
Ġtrou ble
W ould
res h
ĠT HE
Ġgre en
j oy
n ight
Ġcomm on
P ET
o ll
Ġdut y
ĠM onsieur
ap pe
Ġlook s
G ive
R ICHARD
Ġw ilt
Ġb it
Ġb urn
EN IUS
Ġcon st
Ġhat e
ROM EO
MEN ENIUS
O P
Ġl ad
id ent
ĠA l
G od
ĠJ avert
Ġunder stand
A D
h ood
Ġ esc
ce nd
un es
the re
Ġtend er
a pe
ĠS ee
Ġcont in
Ġoft en
Ġt able
re r
Ġkn e
ee ch
o le
Ġc e
Ġfor g
LA DY
il es
Ġne ither
Ġstra ight
Ġto wn
Ġhar m
Ġl ist
ur s
pe ak
ck s
RU CHIO
PET RUCHIO
Ġmarri age
P ro
Ġt ouch
Ġf at
ur se
ent ion
Ġne xt
ci ence
Ġevery thing
Ġchar ge
m in
o c
Ġw ood
as y
OR T
app oint
Ġb ir
Ġd est
al t
Ġst ep
Ġfa re
Ġtru st
Ġprison er
Ġlo ver
ĠD orothy
TH E
i ant
Ġw is
Ġb ri
Ġre ven
th s
ĠPr ince
z e
Ġm arry
Ġg ot
Ġli ving
il ity
ĠO n
ick ed
M ON
f fect
is ing
Ġli ps
Ġind ic
gain st
u ed
Ġo ath
Ġblood y
er ved
Ġl augh
ĠL uc
Ġen c
ag ue
r id
Ġwe alth
ro che
Wh ose
os ition
Ġpros per
S ome
c ade
h il
w ill
Ġm ove
en ess
Ġd am
Ġp a
Ġgu ard
Ġreturn ed
ha pp
Ġm od
Ġf ine
ri es
Ġsp oke
Ġbeh old
Ġbro ken
lou cester
k es
o is
qu e
ie w
Ġcomp any
av roche
ef arge
AC T
Ġm ount
Ġd are
Ġle a
IO LAN
Ġear s
IOLAN US
l ight
Ġw ise
ce ll
ĠA N
Ġar ri
Ġho ly
Ġpap er
m y
Ġb attle
ve ll
ĠM aster
Ġpret ty
b b
Ġw ild
le vent
iz e
L ook
L AND
Ġs us
it ude
Ġe ffect
Ġgo es
COR IOLANUS
re nt
Ġin te
Ġsh o
k ing
s p
Ġm aking
Ġe ither
row s
Ġenem y
Ġvirt ue
n own
se t
Ġso vere
th ough
C T
he ad
ur ing
che levent
Ġbre ast
ĠPro ject
W as
it he
Ġp ale
an e
as ion
em ent
em pt
Ġ1 8
Ġcle ar
O B
Ġdo g
in ing
Ġh ide
Ġsa ve
Ġun cle
g ar
i ves
ha l
Ġlo ves
au chelevent
Ġen joy
Ġcha mber
Ġpl ain
Ġgra cious
AB EL
ha ps
Ġm usic
ER V
la ce
Ġdis appoint
Ġb old
Ġwe ak
Ġne cess
ie u
ci ent
aint ed
Ġunt il
S IR
W ICK
i ence
s es
Ġp ublic
Ġg arden
pect ed
IST RESS
GAR ET
f l
ĠB ishop
AR WICK
bl ed
Ġhast e
Ġremem ber
ĠMad ame
Ġm ed
ll y
ĠG utenberg
Ġrep ort
Ġhapp iness
s he
re l
ABEL LA
C an
M ISTRESS
a ire
en ch
ess en
ĠThe se
um b
Ġpres ence
Ġob s
Ġstre ng
ranc s
b our
g ue
EN CE
ate ly
W ARWICK
o b
Ġw onder
ar ch
Ġh ot
Ġre ady
ĠG loucester
Ġla id
Ġf it
Ġc ried
Ġbes eech
E US
ha m
le ine
ĠE D
ade leine
S H
Ġc arry
ROS AL
Ġt e
er ve
ter s
Ġde f
Ġjust ice
g in
es h
OL I
Ġsold ier
OTH ELLO
ĠED WARD
Ġy ear
al ity
um e
itt ing
Thou gh
Ġeven ing
Ġs ake
id ed
ro om
Ġun f
Ġspe ed
Ġheart s
IA GO
L ike
T ill
g l
ĠC ap
Ġpr in
Ġqu ite
Ġwind ow
Ġposs ible
Ġc ar
Ġmarri ed
D ER
c o
u ally
oo p
ĠW ho
Ġex ist
Ġent ered
Ġseem s
r ous
Ġfor ce
ĠT ro
ove red
d le
Ġbe at
Ġle ast
Ġhead s
D EM
v al
Ġso ft
Ġse ver
Ġde al
Ġlo ved
Ġpleas ant
Ġbra ve
Ġopen ed
ĠC har
ĠL a
ink s
Ġser ve
CA SS
Ġshad ow
. âĢĻ
it ch
and er
are well
ĠWhe re
B EN
Ġd et
Ġst ud
Ġthy self
' t
C om
Ġs ense
Ġm al
ENT LE
Ġac qu
CLO WN
M ay
T ake
p re
Ġf ing
Ġhe ll
Ġbe ast
Ġrem ain
Ġinte rest
D IO
Ġth reat
Ġst one
Ġv iew
Ġfri ght
Ġob ject
Y ORK
ĠC l
ĠG race
um ed
ĠD efarge
IS ABELLA
f ather
in ct
ar ing
Ġl im
pe nd
ĠR e
Ġres ol
We re
ĠAnt ony
Ġbarri cade
r ist
Ġ id
ut ure
ad es
ur ch
ĠM AR
Ġsa c
i ent
j ol
Ġl ack
as ure
un k
Ġter rible
Ġsat isf
n on
it ions
Ġre vol
Ġmer ry
laim ed
Ġwo e
ithe e
I ET
g u
Ġb ott
Ġst ir
Ġv ict
Ġsp o
ANTON Y
A U
m ore
Ġf rancs
ĠG o
Ġpro ceed
Ġmer cy
s we
Ċ ĠĠ
Ġc ru
ver n
Ġwor se
Ġro se
Ġpri v
Ġdep art
JUL IET
e ch
Ġa ble
en orm
Ġnot e
Ġsomet imes
LEON TES
S IC
n jol
Ġd ri
Ġc ent
et te
Ġde li
Ġoff ic
Ġconf ess
njol ras
w hat
Ġo p
am es
ER S
ĠV I
Ġgentle men
Ġ ign
it er
ur al
Ġsu it
Ġpr ot
be y
Ġmo on
Ġadd ed
S ay
he art
Ġf uture
Ġun k
ist ress
Ġcoun sel
C osette
d is
Ġp et
Ġr ise
Ġlook ing
Ġgl ass
CEN T
Ġsil ence
. [
Ġf ig
ing ly
ĠM adeleine
Ġcom b
Ġro ad
Ġstre ets
A S
B AST
L Y
Ġt y
he ld
Ġw oo
at ure
Ġli b
Th us
Ġj e
ond on
Ġgl oom
Ġwar rant
Ġke pt
Ġsovere ign
e ur
Ġs le
ro ke
Ġv iol
ress ion
Ġsold iers
ĠDo ctor
Ġfr ont
ENTLE MAN
P AR
Y R
a ven
c row
g r
Ġne igh
ĠP er
fe ction
s ue
Ġb ig
Ġd a
Ġin v
ore d
Ġex ec
Ġcorn er
Ġstreng th
C AL
c er
d d
h old
u ght
ou n
IN CENT
the m
There fore
Ġstru ck
INCENT IO
or able
ri f
ĠW ell
Ġcon ce
ĠL ondon
os om
Ġpro v
cl ock
Ġserv ant
essen ger
g o
i ans
Ġc ow
ut us
Ġso l
ĠP al
ol k
Ġfl esh
og n
Ġdem and
Ġfare well
Ġf if
ru m
Ġsay ing
UN T
AG E
enorm and
A r
s ide
Ġm ir
Ġth r
ill enormand
al ous
KING HAM
UC KINGHAM
Ġcomp an
Ġsm ile
p ass
Ġbl ind
Ġent reat
Ġsoul s
ĠMAR GARET
SIC INIUS
un ate
ĠĠĠĠĠĠĠĠ ĠĠĠ
H ad
Ġs qu
Ġan cient
Ġrem ained
b re
c ause
i en
m on
Ġb right
ĠC our
ĠC ass
Ġsl ow
IL IA
B UCKINGHAM
I TI
l an
Ġ ed
Ġt ry
Ġa ction
Ġb osom
Ġc and
ell ow
IN D
Ġle g
Ġjud ge
P RO
i ar
Ġb le
Ġd i
Ġin no
our ney
Ġcom pl
US E
Ġletter s
ash ion
Ġir on
M ost
k ed
u f
w ise
Ġ er
se mbl
il s
ĠC om
Ġun happ
ĠO r
Ġr ing
ci us
Ġpo ck
Ġcons cience
Ġinst ant
c um
â Ħ
Ġt aking
Ġm ort
Ġv an
ĠG avroche
ust om
AN G
AN TI
the y
Ġex cept
are crow
âĦ ¢
K ATH
c ceed
n y
in y
Ġw ed
Ġf resh
Ġc op
Ġp ain
ĠL u
Ġkn ight
Ġtra itor
IAN A
Ġfam ily
Ġe ight
Ġe qu
Ġwit ness
ĠRome o
S ee
f rom
w er
Ġm ock
Ġm ajesty
Ġgl ad
C LE
a ld
h ouse
Ġs y
Ġd u
ar n
Ġe vent
ver se
s on
Ġb are
Ġp iece
Ġfor ward
Ġdre ad
Ġfollow ing
Ġform er
Ġpati ence
H ER
Ġ U
Ġc re
Ġin j
Ġth ri
Ġstand s
Ġchan ce
hy s
Ġinst ru
LUC IO
Ġocc asion
Ġd ied
ut es
Ġst art
e a
y rac
Ġb ase
en g
ed s
il ing
Ġno ise
ĠL ORD
âĢĶ âĢĶ
Ġfl owers
Ġdel ight
c ing
r am
t s
t ed
Ġto p
te en
iss ion
Ġgr ant
Ġa uth
Ġd iff
at ive
ic ious
ĠP l
Ġcon v
Ġpro b
Ġwall s
Al as
t end
an cy
Ġe ff
ra ct
ĠB y
Ġwhe ther
Ġspe ech
Ġtre es
Ġche er
T w
o ved
it es
Ġg ain
ĠF auchelevent
are r
Ġpl uck
pl oy
VOL IO
f ord
in ation
ch ool
ter n
us ion
ĠM on
Ġsu cceed
ell e
ant ine
Ġbl ow
Ġfore st
IC E
wh ile
G H
y our
Ġt it
Ġs ons
Ġc aught
Ġfor get
ge l
ant age
OL K
Ġper fect
d ing
l er
Ġth row
ĠG u
Ġbec ame
Ġpal ace
D ES
M ER
M AC
S ince
p he
r un
ĠD e
Ġsc orn
led ge
Ġpur su
Ġcarri ed
Ġg ro
ch oly
Ġas ide
Ġne ck
ĠE m
Ġoff ice
Ġbec om
TI MON
Sh ould
D e
as c
Ġlo ving
ast e
are nt
Ġsc ar
ANTON IO
ĠCh rist
B ETH
Z AB
p it
p her
is m
im on
ĠM an
ĠE LI
Ġex am
Ġdes ert
Ġoff er
ors es
Ġadv ance
ZAB ETH
ĠELI ZABETH
H N
H EL
O HN
p ed
ha nd
Ġre ceive
ĠR oom
oss ible
Ġneed s
Ġstri ke
ron ic
L ord
N OR
Ġan swe
Ġra ge
Ġra ised
Ġpass ion
AT RA
Mad am
OP ATRA
l u
y s
Ġs igh
Ġf et
Ġre ceived
ri c
am ed
ign eur
Ġarm y
Ġrec ogn
itiz en
Ġanswe red
T ell
ĠG illenormand
Ġthan ks
Ġr id
ag ed
Ġim ag
EL O
ix t
Ġsick ness
Ġtran s
CLE OPATRA
C US
C LA
D ON
J A
in a
Ġh op
ĠS YR
EN G
Ġj ourney
Ġcan st
AC USE
Ġje alous
ĠSYR ACUSE
a ult
h or
t le
u ct
Ġa v
Ġa round
Ġs n
Ġf ashion
ill e
ĠL ady
Ġfav our
uri ous
Ġreven ge
Ġauth or
B RO
Ġre pe
ra nd
Ġli ved
Ġsu per
Ġsh ows
Ġpro du
Ġdanger ous
Ġide a
ROSAL IND
Ġsever al
N ever
Ġb ow
en ge
Ġe ld
Ġcha ir
EL IA
ip s
Ġpart ic
Ġbeaut iful
Ġpra ise
ĠBr utus
i pp
Ġd ish
Ġp aid
le x
ay s
Ġso le
ish ment
Ġem pt
Ġacc ord
Ġbel ong
Ġter ms
CLA U
D O
e ks
ou nter
Ġfor b
Ġsh ut
Ġsa fe
Ġch urch
Ġtru mp
eth inks
Ġdou ble
Ġdark ness
ĠSc arecrow
ANG ELO
M ESS
M arry
S uch
m n
Ġt on
in al
en ing
Ġpr ide
we et
Ġheaven s
* *
M ake
P ray
Z EN
Ġc at
Ġin cl
at or
if ic
IR D
Ġsl ain
Ġgi ves
med i
Ġsing le
Ġmar ch
IM O
ITI ZEN
CLAU DIO
b ury
p ir
Ġto morrow
al ed
Ġqu iet
Ġexc laimed
Ġmur der
P e
U LET
V IA
d o
l ict
Ġg ate
se igneur
ra h
ak ed
ĠW ill
ol ute
Ġour selves
Ġsp ort
ci ety
AP ULET
Ġgri e
erv ant
Ġcreat ure
Ġsudden ly
Ġesc ape
ENG ER
c an
m it
ou red
Ġp ure
Ġp hys
Ġst o
ous es
ĠW ood
ĠG ood
ĠJ ul
Ġpresent ly
Ġund ert
Ġval iant
Ġappro ach
f all
Ġf ru
am b
Ġv ain
Ġun p
ĠV INCENTIO
Ġent ertain
Ġem ploy
ĠY our
Ġsur pr
Ġlie ge
ĠAN D
ERV ANT
A gainst
P A
Ġp at
Ġme m
Ġsp ring
Ġdid st
EL L
Ġpre p
Ġprom ise
Ġang ry
Ġbene ath
V AL
ou is
or al
Ġst op
Ġse ven
ĠL ion
Ġex pect
Ġlib erty
N E
g y
n ers
Ġf ie
Ġd iffe
Ġy es
Ġhe ir
im ent
ĠM iss
Ġdo ing
um ph
Ġex pl
per or
eet h
Be fore
Ġvis it
Ġbit ter
Ġt or
as ons
Ġme lan
qu es
ĠG ENTLEMAN
LE AR
Ġacc om
G ON
y ond
Ġm otion
Ġf le
en ces
Ġc row
Ġth ird
Ġcon qu
Ġro b
Ġra in
ock s
Ġmelan choly
w ould
Ġd ull
ar m
ĠW h
Ġwar s
Ġdesp air
Ġindic ates
BRO KE
F arewell
H a
Ġt eeth
Ġw on
Ġm ag
Ġe p
Ġme re
Ġj o
wh o
Ġsil ver
Ġwret ched
Ġdeli ver
Ġop in
Ġa id
Ġs ens
Ġd in
an k
The ir
Ġv o
Ġsha r
ist ol
AL L
Ġfe ast
Ġdist ress
Ġfill ed
Ġdiff ic
Ġton ight
a ith
Ġh ost
Ġre b
Ġk ings
ĠC or
Ġj est
Ġfollow ed
Ġpri est
Ġdeed s
Ġt akes
Ġw id
Ġbe held
fe yrac
Ġpo ison
OL US
Ġdes ires
Ġpass ing
Ġacc ount
ix ed
ang u
ĠBe fore
Ġcir cum
Ġh id
id ence
Ġsh out
ĠW ith
Ġkn ave
TH IRD
Ġpleas ures
Ġco ll
Ġwit hal
ĠAn other
Ġpra ct
, --
i ance
t on
Ġa ud
Ġf ier
Ġcl ot
Ġwr ite
PH OLUS
Ġac cept
TR ANIO
ANTI PHOLUS
s ing
Ġm ut
Ġb row
our ish
Ġlo d
ĠP age
the ir
ort une
Ġcha rac
Ġpla ced
Ġwork s
ott en
Ġpol ice
Ġign or
L e
P ROS
b o
l ook
w oman
ge lo
ĠB ar
Ġpers ons
ail s
EM ILIA
PER O
ĠCla rence
Ġquick ly
Ġcow ard
Ġpock et
PROS PERO
T ru
Ġ rough
Ġl ust
Ġas leep
ĠC ITIZEN
if ied
Ġper haps
Ġbes ide
MESS ENGER
C O
s ed
Ġt ear
Ġf urn
ĠH el
qu is
Ġex cell
ON A
ĠV II
OL Y
Ġspeak s
Ġbu y
Ġcou nter
Ġgold en
Ġsla ve
Ġut ter
! âĢĶ
e ep
Ġm our
Ġb ond
Ġl ine
Ġden y
pher d
O ut
r ate
Ġm ass
Ġb ent
Ġh orses
ent ed
Ġsw orn
itt en
ud io
Ġprof it
ey s
Ġsim ple
ĠWood man
A fter
M ust
T A
Ġu r
Ġhis t
Ġst ar
ol es
la w
ĠT it
Be cause
AM IL
Ġspir its
Ġwin ter
B E
b ly
e em
Ġn umber
Ġme ant
Ġse es
AR US
Ġus ed
Ġcont r
Ġbott om
l ong
p id
Ġb ran
ve y
Ġbe ars
Ġst ars
Ġst ory
Ġfe e
Ġgl ance
Ġres umed
Ġking dom
Ġstand ing
Ġappe ared
ĠAn gelo
Ġdra wn
Ġkne es
ĠChar les
A way
F L
a fter
f o
g ers
t ic
Ã ¦
Ġt ale
re ed
Ġbe ll
ĠE x
ond ret
Ġdes cend
Ġtru ly
sh op
Ġwalk ed
Ġsk y
B A
S peak
a be
d ig
k er
Ġs al
Ġw at
Ġo bey
Ġd uke
Ġp un
Ġl ater
le ct
ĠE njolras
the n
um p
Ġspe ct
Ġpre vent
Ġbre ad
Ġbel ow
Ġlad ies
HEL EN
d y
re y
Ġc atch
ill es
ir ty
ĠC ha
fe red
ward s
With in
Ġcond em
Ġtit le
Ġt ou
Ġo bl
Ġon es
Ġde fend
il ty
ĠP om
AR M
ig ence
Ġam b
Ġpro g
Ġag o
Ġser ious
Ġfear ful
Ġsur round
E W
e ed
Ġd om
ck ed
Ġv ent
Ġv ile
EN S
ist s
Ġdre w
Ġcl osed
for med
Ġco at
uck ing
ec ond
Ġempt y
C OM
Ġc ost
Ġbe yond
Ġsha pe
Ġcon vent
el come
Ġle an
Ġknow ledge
ON E
ff ic
ĠV ol
ĠN ap
Ġfl atter
ac her
Ġport ends
Ġhur t
DEM ONA
DES DEMONA
b roke
Ġd rown
Ġof fend
ow ing
Ġre ached
ra id
Ġde g
Ġso ciety
ĠM ay
Ġno se
ĠP et
end ed
Ġwor st
ING BROKE
OL INGBROKE
per ate
Ġstran ger
Ġcarri age
Ġlea ves
D ROM
M onsieur
O WN
t ime
Ġth ro
ch ief
Ġwh is
ĠM istress
un s
Ġv ar
Ġdis g
ĠK ate
Ġimp ort
up id
Ġsum mer
ĠCla udio
Ġcal m
DROM IO
O T
P AND
S U
er able
Ġf ra
Ġf irm
Ġl uck
st e
Ġe asy
Ġis sue
the less
Ġgo vern
Ġle gs
Ġpro c
ĠT y
Ġch oose
Ġpart s
Ġocc up
P r
P OM
j ust
u gh
Ġs chool
ad ed
Ġfa ces
ĠT ell
ound s
Ġhear ing
ĠĠĠĠĠĠĠĠ ĠĠĠĠĠĠĠĠĠĠĠ
Ġkill ed
Ġbro ke
ĊĠĠĠĠ ĠĠĠ
Ġshar p
C on
N othing
c a
Ġ ver
Ġt ree
ou ds
Ġm orrow
ar l
ĠC art
Ġlo vers
Ġob sc
Ġbra in
Ġhard ly
ondret te
L AR
b ar
v ious
in ite
er c
ut ed
Ġst ones
Ġun c
Ġwor ship
ĠJ OHN
ign ior
Ġgreat er
Ġcond uct
BER OWN
iet y
ID A
PE Y
Ġbir th
Ġunhapp y
Ġcharac ter
POM PEY
BEROWN E
F RI
a x
o pe
s ome
er ry
or ge
on a
Ġp or
Ġl ion
Ġh ig
Ġh ung
Ġe vid
ut ation
am s
il st
AN O
ĠR oman
Ġpr ithee
Ġoff ence
Ġfool ish
Ġprosper ity
CAL US
Ġcircum st
FRI AR
Ġm iss
Ġf aint
Ġin tell
Ġth rust
Ġg ates
Ġre ach
ĠF ather
ist ed
ES CALUS
Ġsl ight
Ġstep s
a cc
b ody
is ion
Ġth ither
Ġal ive
Ġsp ite
are st
OL D
Ġear ly
Ġcons ider
Ġfall en
Ġbri ef
Ġunk nown
Ġfet ch
Ġdin ner
F ORD
u ge
es p
es ides
Ġd ry
Ġto day
ul f
fe it
os op
ĠN or
Ġra re
Ġgl ory
Ġsm o
Be ing
Ġmight y
appe ared
Ġcru el
S econd
b r
h ost
u a
Ã ī
er ving
Ġl ed
Ġl oud
an ced
as ed
ord s
ĠA d
ĠP ross
Ġkn ock
CH ESS
Ġper ceive
Ġpla ces
DU CHESS
ENT INE
Ġmo ved
Ġdire ction
RESS IDA
Ġte ach
VAL ENTINE
ucking ham
B UR
Ġ et
re et
Ġc iv
us hed
um ent
Ġbl ue
Ġdis s
Ġim m
Ġcall s
Ġcour age
Ġpray ers
Ġtre mbl
Ġmis ery
Ġbu ild
Ġtem p
Ġfault s
Ġeng age
Ġnecess ary
Ġgloom y
Ġeff ort
C RESSIDA
H OST
S weet
z en
Ġs en
Ġha bit
ĠT OB
ap t
Ġfl oor
Ġcl oud
Ġcl ouds
St and
ĊĊĊ ĠĠĠĠĠĠĠĠĠĠĠĠĠĠĠĠĠĠĠ
Ġprof ound
Ġdire ct
Ġshad ows
Ġlear n
Ġpartic ular
PAND ARUS
ĠTOB Y
a is
g ment
er ing
Ġc ell
Ġg ift
al es
Ġpr oof
Ġwr ath
Ġfort unes
Ġwound s
Ġwis dom
Ġmort al
a it
r at
re ls
ed ing
Ġh ill
Ġha lt
ĠC ount
if y
Th Ã©nardier
ĠO z
Ġfl ed
be en
LO W
Ġrem ark
Ġnat ural
Ġinf lu
ĠAt tend
Ġstru gg
ĠMan ette
Pe ace
O h
Y ea
a ction
g ood
Ġb all
Ġb od
Ġd ust
Ġh ouses
Ġbe ard
Ġso cial
ard inal
han t
Ġdis m
ĠHe ctor
Ġwhen ce
Ġwar m
Ġexp ress
Ġabs olute
Ġquar ter
Ġenc ounter
SH AL
Q u
T EUS
a f
Ġs orry
Ġd ress
Ġc red
Ġth ick
im p
ur g
Ġv ir
ĠB uckingham
Ġcon cer
Ġcons ent
Ġcur se
him self
UM BER
Ġcontin ued
Ġpriv ate
PRO TEUS
A b
B AN
H ORT
c ont
m ble
p lace
Ġt ent
ic les
Ġan n
ĠL A
Ġun less
ĠF l
ĠF antine
Ġam az
Ġsw ift
Ġhonour able
Ġdist ance
Ġbur st
arn ay
HORT ENS
Ġt aste
Ġf rown
Ġl eng
Ġth under
le y
Ġre sembl
Ġst raw
Ġst orm
all ed
ort ed
Ġim medi
de rer
Ġatt ack
Ġgr ass
ĠPal ace
MAC BETH
Ġfru it
Ġvo ices
HELEN A
Ġciv il
t was
Ċ ĠĠĠĠĠĠĠĠ
or ous
Ġd well
Ġl angu
ĠI N
ra in
Ġse par
Ġse ized
ĠC ast
Ġex per
ĠT imon
Ġthen ce
ĠV en
Ġres ult
Ġenter pr
Ġquar rel
Ġinno cent
Ġconv ict
C AMIL
j o
re p
Ġm ing
or ious
ing u
st ood
Ġre nd
Ġse ated
Ġcon cl
Ġun fort
Ġgo d
Ġwould st
Ġlord ship
Ġdes ign
Ġway s
itiz ens
Ġbecom es
Ġopin ion
CAMIL LO
B US
H OR
P AL
a unt
Ġs ong
Ġo w
Ġm il
Ġc art
Ġme asure
ic ed
Ġse at
ĠC on
Ġdo ors
Ġor d
for ce
Ġtra vell
Ġsit u
KATH AR
B EL
G R
a h
o ci
p an
Ġc ustom
Ġp it
Ġbe nd
Ġe as
ro ad
Ġun e
Ġun s
ast ard
ES AR
OL LES
Ġem er
ĠY et
Ġlab our
C all
m ond
it ation
at ors
se qu
ĠM ajesty
pe y
sel ess
el ve
SE BAST
Ġmon ths
Ġvirt uous
Ġbless ed
Ġspo ken
Ġfig ure
PAR OLLES
ĠCour feyrac
Ġdish on
Ġexcell ent
SEBAST IAN
A CH
H old
I ER
Ġf un
Ġf ond
Ġn ar
Ġre ign
ĠE PH
Wh ile
ES US
Ġar g
TH UMBER
Ġfl at
Ġaf fection
FF OLK
Ġdr unk
Ġcond ition
Ġappear ance
Ġfat al
Ġcop y
ĠEPH ESUS
THUMBER LAND
) ,
P l
p ri
re he
Ġm ill
ll ed
om er
st aff
Ġwe ary
pp ing
Ġj ew
Ġser ved
Ġwr it
AM ON
Ġatt ention
Ġimp ossible
Ġtri b
Ġche ek
Ġpati ent
Ġrequ est
Ġbegin ning
ĠCart on
HORTENS IO
PAL AMON
c il
Ġw icked
le te
Ġst uff
ro y
us es
Ġse wer
ĠA h
Ġsh ip
ĠG e
Ġlike ly
ĠN ot
ING S
Ġfall s
ĠThere fore
Ġmon st
Ġdiv ine
CASS IUS
SHAL LOW
B AP
b orn
i ver
t were
en ance
Ġp in
Ġh unt
ri pt
ĠS ome
ĠS ervant
Ġsha ke
Ġsa v
ĠR os
ish ing
Ġru st
Ġbear ing
CA ESAR
Ġste al
Ġlear ned
ole on
Ġarri ved
Ġhop es
SU FFOLK
BAP TI
. ]
A UT
G E
P ORT
f it
g ged
p es
Ġf la
om en
ĠG entle
Ġch oice
Ġcl im
TI TUS
Ġwa it
IT E
RE Y
Ġwound ed
Ġsho es
Ġmem ory
BAPTI STA
A m
c our
w orth
re g
our ge
Ġan x
ĠS h
Ġsh ore
Ġkn ee
Ġal though
are t
leas e
ĠY ORK
Ġgu ilty
Un less
Ġreg ard
Ġbir ds
Ġhist ory
ĠCast le
A V
C LI
n al
p ers
re es
it ors
Ġp ict
Ġl end
Ġde ce
ĠP ED
Ġun ex
the ns
Ġr oof
Ġfl ight
Ġwr itten
Ġrep ly
ED ICK
Ġadv antage
Ġve x
Ġgrand father
Ġdro p
BEN EDICK
Ġeld er
OLY CUS
AUT OLYCUS
PORT IA
ĠPED RO
D oth
b us
Ġm ud
is c
Ġd im
Ġn ames
un ning
ĠP ol
ol ing
ie ces
Ġr asc
Ġbl ows
RO IL
ft y
for th
Ġpre cious
Ġob ed
whe n
Ġinc re
Ġforg ot
Ġcomb at
NOR THUMBERLAND
COM INIUS
ROIL US
C ITE
S aint
T ROILUS
Ġb and
se c
ur b
ĠC an
ĠS en
ĠH ast
Ġv ol
Ġne g
art ius
ĠL ook
ĠL ove
ĠG ree
AR CITE
ĠF ortune
Ġsp ot
ful ness
Ġaf raid
sh ould
Ġco ff
Ġlight ed
ster ious
ĠQ u
Ġca used
ĠCass io
Ġsole mn
Ġsto pped
Ġunp leas
. ,
C Y
P er
U nder
p art
Ġw ings
ou bt
ĠS e
EN ES
Ġsa f
ran ge
Ġpr on
Ġdes perate
Ġper form
Ġthink ing
Ġaf fect
ac y
Ġass oci
Ġform ed
Ġmaster s
Ġmon th
ask et
Ġneigh b
Ġthr one
Ġprob ably
Ġclot hes
a bl
Ġhe ed
Ġe ag
Ġdo ctor
ak er
OR LAND
Ġper m
fort une
Ġwalk ing
Ġmin utes
cul iar
Ã¨ re
hil osop
oun ced
ĠPom pey
oling broke
C l
J avert
M AL
P O
V ER
i est
Ġw ide
Ġm atch
Ġf old
ar se
at o
Ġe ase
al staff
Ġfor ced
Ġan gel
ĠF ri
Ġpro per
Ġqu oth
Ġfl ower
AT O
Ġext rem
iff ord
Ġslow ly
r s
t han
w ork
en cy
Ġd uring
Ġd rum
Ġbe w
Ġfor ty
ĠH igh
ive red
ort un
ĠD arnay
ĠN orth
RU M
oint ed
LUC IUS
Ġmin ute
Ġval our
AST INGS
Ġunex pected
A d
L ORD
S IM
h um
he re
Ġb as
Ġre ally
ĠS al
ĠB olingbroke
ĠL ouis
Ġout side
ĠJ ondrette
Ġfriend ship
ac ed
ac les
Ġpre c
Ġatt empt
Ġwind ows
Ġsub st
Ġprof ess
Ġdisp leas
Ġprop erty
Ġopp os
Ġmid st
Ġemb race
BEN VOLIO
ĠMon seigneur
Ġwid ow
G RUM
I nd
K ENT
N IA
g aret
Ġw ore
Ġo d
Ġb uck
it ated
ed y
le v
ic s
il us
ĠC y
ĠS il
ant ly
ĠT ower
ag ain
Ġtw elve
be red
Ġspeak ing
Ġap art
Ġhum ble
Ġche eks
Ġter ror
Ġfool s
Ġread er
Ġbu ried
Ġhide ous
Ġoffic er
GRUM IO
O U
i vers
l ittle
n at
p et
Ġs our
Ġm ater
ar um
Ġto mb
Ġp ack
ot ed
al b
Ġre asons
ĠE arl
Ġbl ame
Ġhow ever
Ġpart y
Ġho llow
up on
vol ution
Ġgrow ing
tw o
Ġwret ch
Ġdisappoint ment
Ġfing er
C UT
P IST
in ary
Ġf ears
Ġd eter
Ġp le
Ġg rown
Ġg ross
ay ed
Ġse arch
em et
Ġbr id
TH ES
Ġru in
Ġfam il
Ġgaz ed
Ġsac red
MER CUT
ĠJul iet
ĠAttend ants
CLI FF
PIST OL
MERCUT IO
H ASTINGS
Ġb ones
it ary
Ġf ro
Ġc amp
Ġh orn
Ġn ine
Ġin qu
Ġde bt
Ġall ow
Ġv ow
ĠG ive
AN S
Wh om
Ġcl o
pl es
Ġper ceived
Ġpleas ed
Ġbeg gar
Ġke y
omet imes
Ġpers u
Ġmon ster
ENT IO
Ġsword s
Ġcap tain
Ġste el
LUC ENTIO
Ġocc ur
Ġscar ce
N e
V IO
d raw
o ff
Ġa im
Ġa while
in ius
Ġf ancy
Ġf ixed
Ġl ament
ill ed
Ġst at
Ġlo v
Ġour s
Ġcont em
Ġsm ell
IC LES
BO T
Ġpossess ion
VOL UM
Ġkne el
B et
a ul
c ol
s ay
u x
v ost
re ction
ou nce
Ġp hilosop
an us
Ġst ock
Ġse al
ĠH ouse
ous ly
au g
Ġsp y
ag ger
Ġbr ings
pen se
Ġpur se
Ġtre ason
Ġappe ars
Ġban k
Ġrel ig
Ġadm ir
PER ICLES
Ġprin ces
Ġfing ers
run cher
Ġav o
enge ance
ĠHel en
Ġunfort unate
VIO LA
G U
G EN
S P
e very
Ġt all
Ġw ag
Ġd ying
Ġc overed
Ġl ower
Ġhe ap
Ġre ve
Ġfor sw
ur ity
Ġse ason
il ia
Ġbr ide
Ġfo lly
Ġear n
Ġpre fer
Ġmind s
Ġbrother s
Ġhigh ness
uff olk
LEON ATO
Ġstud y
Ġexec ution
ĠGe orge
ORLAND O
THES EUS
B oth
E V
F l
b et
b alt
w ind
Ġ [
Ġ Un
Ġd ue
Ġc laim
Ġp ier
ent er
am ing
ke ep
Ġv ague
ĠW est
Ġbet ray
Ġob st
Ġfall ing
Ġinf inite
Ġgaz e
Ġburn ing
Ġsus p
Ġvict ory
Ġcand le
HER M
Ġauthor ity
Ġcrow d
Ġleng th
omer set
Ġunpleas ant
P AGE
c ons
Ġt um
Ġs now
re me
Ġc ries
Ġp op
Ġn urse
Ġth ief
Ġg own
ill y
ĠS EN
ĠH arry
ĠB l
ĠL anc
Ġkn ife
Ġad vent
Ġpe as
Ġhon or
Ġtri umph
og ue
UL INA
Ġmean ing
Ġadd ress
Ġvis ible
ĠLuc ie
OLI VIA
ĠCl ifford
Ġviol ent
IMO GEN
PA ULINA
ĠCor iol
Ġvir gin
F aith
S A
S PE
g an
i pe
Ġw ol
Ġw ert
ou lev
Ġb ird
Ġd ign
Ġp ress
Ġp ains
Ġy ellow
Ġth rown
ra cted
Ġyour selves
ĠC runcher
ĠE very
ES T
Ġar rest
ret urn
ĠMar garet
ac le
Ġbeg un
omet hing
Ġlaw s
Ġcap t
Ġabs ence
Ġborn e
AD O
Ġprot est
BUR Y
SPE ED
C ESS
I TH
M r
m ia
s aid
in to
Ġs ought
Ġb ull
on ed
Ġd ance
Ġd ressed
Ġp ick
ĠS omerset
ĠW itch
ĠF alstaff
um in
ĠT in
Ġcha in
Ġcomp lete
Ġtr oth
EM IO
ener al
Ġbreat he
Ġbo x
Ġboy s
Ġsupp er
Ġmid dle
Ġforb id
Ġtou ched
ĠNap oleon
GR EMIO
F ather
n et
Ġa ug
ha s
Ġp ot
Ġp owers
ic ated
ĠM other
Ġsh op
Ġsp ent
Ġsp ace
old iers
ĠV er
Ġra pid
Ġcomm end
Ġtri ed
Ġform s
Ġcount enance
Ġhold s
Ġbra ins
Ġhum our
Ġnear ly
Ġdisc har
ex t
Ġabs ent
Tw o
LAR ENCE
Ġsaf ety
P OLI
X ENES
a ves
f ace
Ġb ore
on io
Ġd ies
Ġl est
Ġbe ha
ch ild
id ius
Ġme at
Ġst ol
ic ate
Ġli ft
ĠM essenger
ĠP hil
Ġsa il
AR BUS
ĠD id
Ġsp le
Ġtw ice
Ġspe nd
Ġdes c
Ġfe ed
Ġfo e
Ġhon esty
Ġthink s
Ġent ire
ac ques
Ġpla gue
With out
Ġtri al
Ġref le
Ġid le
Ġprot ect
Ġcompan ions
VOLUM NIA
ĠLanc aster
POLI XENES
C ON
E n
i pped
Ġ ing
Ġa st
or ies
Ġd ig
Ġp ull
Ġhe ight
at he
Ġth irty
as es
im ney
Ġwe ap
ro ach
Ġan on
Ġsh ot
EN OB
ĠP ont
ĠP AGE
Ġle is
Ġus ur
bl anc
In to
Ġper il
Ġover come
Ġcomm itted
Ġsil ent
BO Y
Ġpossess ed
Ġcol our
Ġsubject s
Ġthro at
Ġmonst rous
ENOB ARBUS
D E
M aster
g reat
r ation
Ġb ab
Ġl ines
Ġas pect
us s
ĠC itizen
ĠS uffolk
ĠA thens
Ġman ners
ol ph
Ġpe culiar
de red
Ġcomm un
Ġco ach
Ġtr ade
Ġturn ing
AT R
Ġsing ular
Ġexc use
chan ce
Ġaccord ing
apt ist
Ġnar row
F O
S e
l oo
m end
m ade
Ġa y
Ġf ood
Ġc unning
Ġp air
Ġl atter
Ġg ently
se en
id ings
am let
Ġde pend
ĠM ac
ĠC le
est ic
ul ous
Ġv ast
em ois
ink ing
ne w
Ġpl an
Ġhea v
Ġconf idence
Ġchar ity
Ġgir ls
Ġtem pt
Ġweep ing
Ġele ct
CASS IO
Ġsatisf ied
Ġcent ury
ĠHast ings
alb ot
emois elle
, âĢĻ
W elcome
f olk
s hall
Ġwe ight
ĠC ardinal
Th ose
em ber
Ġgood ly
Ġdream er
ĠT H
Ġch ief
Ġho le
AT IO
men se
Ġtre acher
with out
Ġwant on
Ġban ish
CT OR
Ġdread ful
Ġprog ress
HOR ATIO
Ġleis ure
B el
C LARENCE
O O
S IL
S ERVANT
d es
f ast
k in
p ly
v is
Ġo we
Ġb ark
Ġf ate
Ġf ought
Ġp osition
Ġp ainted
om y
as se
ĠP e
os es
Ġdis ag
ag o
Ġarm ed
Ġcomp ass
Ġwork ing
Ġfollow s
Ġill ness
Ġgi ving
Ġkind ness
Ġmist ake
Ġgre w
Ġcertain ly
Ġban ished
ĠBr it
Ġprince ly
OLD IER
C ELIA
H ENRY
c ould
i um
u le
z z
Ġf ury
Ġl ying
Ġn aked
Ġg ay
Ġme nd
Ġwas te
ard olph
qu et
Ġcon vers
Ġen er
Ġim per
Ġturn s
IL L
ian ca
ĠLord s
Ġdisc our
Ġdro pped
ĠTro y
Ġjo in
Ġdiffic ult
Ġobl ig
ĠHigh ness
L est
c ase
d ain
m a
o ch
u ce
Ġs ides
Ġf ame
Ġre nder
Ġmy sterious
Ġme lt
Ġst ret
Ġv ault
ĠW as
Ġfa ire
fe rence
ry ver
ound ed
Ġother wise
Ġob tain
Ġchar ming
vere nd
JUL IA
Ġacqu aint
Ġignor ant
Ġeas ily
C ont
a ches
b ow
e ous
Ġ 2
Ġt one
Ġt idings
Ġc her
Ġp ieces
an io
Ġhe els
as p
id able
Ġwas t
ic ation
Ġan ger
ĠC am
ĠH ave
ol er
Ġpro vid
ĠT albot
Ġri ver
Ġra ce
Ġpre ced
Ġrep utation
Ġem p
Ġtra vel
Ġchan ges
Ġru de
Ġdaughter s
Ġhor rible
Ġmin ister
Ġquar rels
Ġca res
Ġmove ment
Ġwed ding
ĠLu cius
BE ATR
Ġdisg race
Ġpor ter
ĠRos al
BEATR ICE
B r
E X
L EN
N urse
O S
e au
v ish
Ġm ask
Ġd ru
ent io
ĠM ag
Ġk ins
ĠS ha
ĠF ord
ĠF rom
Ġpro cess
ĠJ ove
ĠJ ew
ave ment
ater loo
Ġru le
Ġmis fortune
Ġaff air
UN D
Ġremem b
Ġgall eys
umber land
Ġphys ic
B Y
B l
M A
M ine
n othing
Ġb ourge
ri but
Ġwh ore
Ġan t
ĠS ignior
ord er
ĠB aptist
ĠD on
Ġwar ning
ĠTh us
UR DER
Ġtong ues
Ġac ross
Ġtrou bled
Ġgrow s
Ġaw ake
ĠX V
ĠTro ilus
Ġcompan ion
BA SS
Ġmater ial
oulev ard
C APULET
p res
s m
v i
y d
Ġb ill
Ġdo om
ĠA CT
est s
Ġsh ook
ĠB ianca
Ġsa ved
ist ance
Ġex act
Ġwor n
ran k
ĠT w
ĠT ake
Ġbeg ins
Ġmis erable
Ġprom ised
ĠAnt onio
vel op
Ġmaid en
Ġmur m
RE G
PRIN CESS
Ġjud gment
Ġfail ure
TR AM
Ġevent s
Ġprodu ced
ĠTit us
Ġhig her
Ġlangu age
Ġming led
Ind eed
H OT
S c
s y
Ġ eter
Ġt ort
Ġt ap
re qu
Ġm ess
is p
Ġb aw
Ġf ish
Ġp ill
Ġhe at
Ġin vent
Ġth in
om ach
Ġha ll
st one
Ġhad st
ĠS hall
Ġall owed
Ġshe pherd
ive ly
os ing
Ġsp ark
OR I
Ġen vy
Ġshould er
Ġpass age
LA F
UR SE
Ġhands ome
Ġaff lict
St ay
Ġgre et
BER TRAM
Ġpol it
ĠMont ague
rid ge
Ġtrump et
H ear
N URSE
Ġs ous
Ġm ild
Ġm ention
Ġm ethinks
Ġb orrow
en ius
Ġy onder
Ġin form
ke y
Ġwas h
ĠA fter
est ed
Ġab road
Ġshould ers
AP EM
Ġhar sh
Ġlight ning
Ġacc ess
Ġret reat
AT OR
ANT US
Ġpresent ed
Ġmeet ing
Ġdep ths
Ġtalk ing
ID IUS
uten ant
ĠLe on
ĠLe blanc
Ġprosper ous
bour g
BAST ARD
Ġfif ty
UNT ESS
ĠChrist ian
Ġfier ce
CO UNTESS
ARM ADO
Ġdeg ree
SP UR
APEM ANTUS
I P
L o
L ove
Ġt im
Ġt ail
Ġm ult
is hes
Ġc up
Ġin n
at ri
om in
Ġg rou
Ġg host
Ġan im
ĠM URDER
ĠB E
Ġcon j
Ġr ide
ĠHe aven
ound ation
Ġro pe
Ġro ck
OL PH
ARD OLPH
Ġend ed
Ġgr at
ED GAR
Ġprison ers
mer cy
Ġcourt es
Ġint ent
Ġobs erved
Ġsqu are
Ġrepe ated
HOT SPUR
? âĢĶ
I EL
V IR
o on
Ġst ro
ĠH amlet
Th ink
EN D
Ġgood ness
ep t
ĠT O
ĠN ever
be fore
ab out
ĠIt al
Ġind iffe
Ġbook s
Ġwis hes
Ġmal ice
Ġsac rif
Ġrevol ution
Ġep och
ĠNor folk
F ER
G reat
H ark
M on
P oor
S ON
S AL
T IUS
b ack
c us
Ġb asket
Ġl an
ill o
ter ing
Ġst ick
Ġse ll
ĠM artius
Ġdo gs
Ġcon vey
Ġcon sequ
the se
ort ion
ree able
Ġfe ver
Ġfo es
ĠMar s
Ġunder stood
Ġsm oke
Ġfell ows
Ġchan ged
Ġcond itions
Ġcr ime
Ġrun ning
Ġfeel ing
Ġfav or
Ġopp ortun
Ġtem per
Ġfif teen
ĠEm peror
Ġmour n
Ġcontr ary
Ġoppos ite
LAF EW
E re
F ie
K now
V al
Ġt reat
he st
Ġm aint
Ġg un
Ġre cei
ur st
us hing
ĠA re
ĠB er
ĠR ep
ON IUS
Ġdis e
Ġlove ly
ci p
Ġspe cial
Ġro gue
Ġfind s
Ġpur cha
ott ed
Ġwrong s
Ġcor rupt
Ġsuccess ful
ĠX I
AD R
rehe nd
Ġcontem pl
Ġbourge ois
O W
s ur
Ġa x
er ves
Ġc hat
Ġp h
Ġl in
Ġn ay
ent ine
Ġu g
Ġnot ice
ver ty
all s
ĠB el
Ġshe d
ĠO ur
Ġknow ing
Ġcan non
Ġpo verty
Ġfl ood
Ġgreat est
ove l
Ġhonour s
ph in
Ġmatter s
Ġadv ice
St ill
Ġbes ides
Ġvill age
ĠSt ryver
Ġcor p
ĠAr ch
Ġdrink ing
Ġide as
Ġty rant
Ġequ al
ORI Z
ĠMURDER ER
D AU
a che
d em
s a
u let
Ġa ught
Ġw its
is k
Ġp ause
at isf
ch illes
ad em
ro p
Ġde arest
ru ction
fe ctions
Ġr ad
ount ain
Ġra ise
Ġpre y
Ġco ver
Ġsl ander
Ġend ure
Ġkeep s
Ġhold ing
Ġmom ents
Un to
Ġcle an
Ġgar ments
Ġut tered
Ġprep are
R IUS
d ed
n a
v ail
Ġt ask
Ġs ore
Ġw ing
Ġb astard
ot o
ch io
ic ally
ĠB ardolph
ie ved
Ġsw all
bl ing
ĠMar quis
iz ation
Ġrep ent
TI ON
Ġmad ness
Ġcare ful
Ġbro ad
whe l
Ġsk ill
Ġprop he
ib ly
chan t
Ġcreat ures
Ġrecogn ized
ĠTy balt
ugh ter
Ġpict ure
! âĢĻ
M ade
e av
Ġw ench
or se
Ġd er
Ġn ation
ay ing
Ġst ore
ain ing
ĠM en
th ou
Ġv ows
ru chio
to ine
Ġj oint
Ġdis appeared
Ġmay or
oy al
Ġgreat ly
Ġwhere fore
Ġrem ains
Ġtra in
Ġass ured
ĠPr ay
Ġdam ned
Ġcondem ned
C ould
V ery
b el
e at
Ġ 5
Ġ QU
Ġ ought
Ġs ou
it able
Ġl oose
Ġst omach
us ing
ĠM ur
th ought
ul s
Ġsh ri
ĠG reat
Ġab and
Ġqu e
Ġshould st
ĠN ay
Ġim mense
Ġafter wards
Ġacc ident
Ġgu ess
Ġbo ot
Ġsuff ic
Ġext reme
Ġtrou bles
Ġran k
Ġdraw ing
Ġdest roy
Ġfie nd
abe uf
Ġug ly
d ge
g n
g on
k now
s om
v ia
Ġb ench
Ġp ath
Ġth read
Ġre ck
th ree
ich mond
Ġlo yal
ĠB OLINGBROKE
Ġcon ne
ie ves
ĠF oundation
um n
Ġsp r
Ġsp read
Ġsw ell
ĠJ erry
TH ERS
Ġwhere in
ET RIUS
Ġend s
Ġrec om
Ġru ff
ĠAn ne
Ġread ing
Ġenter ing
Ġfree ly
Ġhang ing
Mad ame
Ġdest iny
ĠLuc entio
ĠCap ulet
DEM ETRIUS
Ġdiffe rent
bo ard
C h
F IDIUS
P ardon
m aster
t a
Ġt orn
Ġm oral
er ies
Ġb ount
en et
Ġp arent
Ġp istol
ad ing
am on
ĠC APULET
Ġlo ck
ul ty
ĠB o
Ġout ward
Ġus ual
OR A
Ġsir rah
Ġsc ene
Ġrem oved
iv ity
Ġseem ing
Ġpray er
Ġtre asure
Ġsleep ing
Ġwa iting
IT ES
Ġaccom pl
FL ORIZ
Ġwhis per
Ġcoff in
THERS ITES
FLORIZ EL
P OST
_ ]
g ra
o cc
r ass
r ont
he ard
Ġs aint
re ement
Ġf il
Ġc ock
Ġin her
ve t
Ġre verend
ter day
Ġwe ather
Ġwe ek
est ion
to gether
um er
Ġr ul
ĠJ ack
Ġim pl
Ġdist ant
vers ed
On ly
RE W
fer re
Ġdro ps
Ã¨ s
AU FIDIUS
Ġdepart ure
Ġsle pt
Ġneigh bour
B AL
M OTH
Z AL
o es
o llow
t led
v est
z ard
Ġt une
Ġs itting
Ġw ond
is bury
or ough
Ġn et
se e
ri a
Ġv ice
ust ice
AN NE
ran g
ap ed
Ġmay st
Ġfri ar
Ġfl ies
Ġcont ro
Ġend eav
Ġdead ly
Ġcons cious
Ġserv ants
no on
Ġint end
Ġsuffer ing
Ġfright ful
Ġrevol t
rif ied
GON ZAL
HOST ESS
Ġcred it
Ġrend ered
ript ion
Ġclim b
GONZAL O
C K
E very
G entle
P ut
i as
n asse
t es
w ar
in ter
Ġs om
Ġo dd
ar ies
id ing
ri e
Ġst ain
ain e
Ġde ceived
ge ls
ĠA m
Ġshe ep
pp er
ĠF ORD
au phin
Ġr ising
ST AN
Ġgreat ness
Ġfriend ly
be ferre
Ġwr iting
Ġsweet heart
Ġhapp ened
Ġfort unate
Ġgu ilt
Ġpoint s
Ġjoy s
Ġdisp atch
par nasse
cha mber
appe ar
MON T
Ġlea ving
Ġ18 3
Ġthreat ened
uf idius
ĠAND REW
Ġcircumst ances
Ġintell igence
Ġbod ies
MAL VOLIO
Ġearn est
Ġelect ronic
P OL
b ishop
l ock
Ġw aking
Ġw ives
Ġm essenger
en es
Ġc ab
ow ards
Ġe ating
ent h
Ġwe igh
Ġas cend
ic ion
ĠB ass
ĠO h
ĠR ob
Ġsp are
ci an
Ġcl ass
Ġrem edy
Ġpre par
iv al
Ġget ting
Ġinst inct
Ġlaw ful
Ġsad ness
Ġest abl
Ġmod est
Ġty ran
Ġperfect ly
Ġsmo oth
Ġimmedi ately
Ġrasc al
Ġneighb or
CLIFF ORD
EV ANS
POL ONIUS
B I
C our
M e
u pt
Ġ 6
Ġf ain
Ġf art
Ġd il
Ġc ure
Ġp red
Ġh it
ir on
ĠS peak
ĠS OLDIER
Ġsh ock
ĠW aterloo
ind s
Ġpro dig
Ġdis gu
Ġdis dain
Ġch imney
Ġpl ant
aint y
iv id
SE Y
ĊĊĊĊ Ċ
uri es
Ġest eem
Ġwo es
Ġconst ant
Ġdam n
iter ary
Ġed ge
Ġthri ce
Ġtrembl ing
Ġstrugg le
ĠVen ice
ĠNorth umberland
Ġdeter m
Ġlin en
C a
F R
H UM
N ON
c ite
h ow
s pe
Ġw ont
Ġd ate
Ġto il
Ġin k
at tered
ro pe
ur ance
ra p
ĠM oor
ĠA b
Ġthere in
ook s
Ġro ads
ĠN othing
Ġdes erve
Ġcha st
ious ly
IR AND
ĠTh y
Ġheaven ly
IS H
Ġtri ck
Ġdisc ont
Ġkind ly
Ġbo ots
Ġsoon er
Ġland s
Ġfav orable
Ġfr ame
Ġbur den
Ġlist ened
Ġdisappoint ments
ĠCass ius
Ġobed ience
IRAND A
C OST
M BEL
M IRANDA
S O
s er
t urn
Ġs alt
re en
Ġm ain
Ġf em
ll en
Ġc la
Ġg le
ir ing
ur rection
ic le
Ġher s
ĠM il
ĠC al
ĠA lex
ĠA chilles
ĠP ri
ort ens
ĠO ffic
ĠR ichmond
ĠT oto
Ġqu ality
Ġpl ot
Ġpleas ing
Ġtri f
Ġwind s
Ġperson al
ĠCa ius
Ġbid s
Ġye a
Ġmark et
Ġpen et
Ġoath s
Ġdemand ed
Ġtrump ets
Ġdom estic
Ġgovern ment
ĠCam illo
COST ARD
MBEL INE
E ng
M ethinks
S p
T oo
T was
e ction
r is
u che
w r
on ce
Ġin ha
at ic
Ġth rew
om as
Ġg ather
ir l
ic y
Ġde w
ĠM AC
ĠM abeuf
pe l
ĠS ERVANT
ĠA ufidius
un ch
Th ree
ĠW ould
ER INA
ĠD auphin
ran io
ĠĠĠĠ ĠĠĠ
ud ed
Ġent rance
Ġwar ns
Ġcomp osed
Ġdist ingu
Ġimp r
Ġsomet ime
Ġvis ion
Ġwa ist
rant aire
Ġsent ence
con f
Ġfield s
Ġeng aged
Ġ18 1
Ġda wn
Ġconce al
KATH ERINA
Ġsigh s
Ġconqu er
Ġmere ly
Tru e
Ġbran ches
Ġeffort s
Ġinflu ence
ĠGentle man
worth y
Ġdece it
CY MBELINE
ĠFri ar
ĠSal isbury
ĠBaptist a
B RA
B esides
B ARDOLPH
C R
D es
I GH
M UND
a cious
b ear
c har
d ist
e ven
r ated
w ear
z y
Ġw et
Ġw ished
Ġm or
Ġb ay
ll ing
es sel
Ġin ward
st ery
id ents
ri el
ro g
pe red
Ġlo ath
Ġsh rew
ast ed
ĠO f
os ity
Ġen orm
Ġqu al
Ġwom b
Ġform idable
ED MUND
Ġhor ror
Ġinf ant
az z
Ġext ra
Ġwa x
Ġfaith ful
ĠIs ab
Ġwear ing
Ġest ate
Ġsla ughter
Ġmod esty
Ġnecess ity
umb ers
Ġproc laim
Ġenterpr ise
Ġjew el
ĠSEN ATOR
Ġcourtes y
E TER
K eep
L ong
M OR
R ome
Y SS
a res
b on
c arri
i od
l eness
u et
Ã §
Ġw ake
Ġc ool
om s
Ġg am
Ġst upid
ĠA g
Ġv essel
Ġwhe el
Ġex ceed
Ġal as
Ġhat red
Ġsm iling
cl es
Ġrep res
Ġright s
Ġbest ow
UL YSS
Ġsupp ort
Ġcrown s
pon ine
con st
esc rib
Ġspirit ual
Ġgrief s
Ġsus pect
Ġunf old
co at
Ġacqu ainted
Ġjudge ment
Ġdesert ed
ĠMay or
Ãī ponine
KATHAR INA
Ġdishon our
Ġpeas ant
ĠPont mercy
Ġusur p
Ġrememb rance
Val jean
ULYSS ES
D ost
E njolras
P UC
Y LO
a wn
b eth
c ount
d oor
Ã ª
Ġt aught
Ġb al
Ġc itizens
Ġn aught
Ġhe ro
Ġg ent
Ġbe lly
id s
th ose
ge on
ĠC ity
Ġlo fty
one l
Ġex pected
ign ed
OL SEY
ne ver
Ġem peror
DU FF
Where in
Ġshow ed
OND ELLO
Sir rah
Ġdire cted
Ġseek ing
mb ers
Ġgall ant
Ġdut ies
Ġcra ck
Ġta x
Ġpa used
SH YLO
Ġexist ence
Ġadvance ment
Ġimag ine
ker chief
BOY ET
Ġoblig ed
ĠTw o
ĠRep ublic
ADR IANA
ortens io
SHYLO CK
F air
O nce
W OLSEY
b es
r al
s ha
w ife
Ġm ot
er n
Ġb att
it al
Ġp u
an ct
Ġn ail
Ġn amed
im ents
Ġwh ither
oo ps
th y
Ġv engeance
Ġsh own
ĠThe ir
la ced
US T
Ġgo ss
Ġwhat ever
Ġal t
He aven
Ġag ed
Ġro ar
Ġden ied
Ġdes ired
Ġsc and
Ġtre ad
Ġsec ure
Ġopen ing
Ġplay ed
Than ks
Ġsupp osed
Ġexc han
MAR IA
Ġfin ished
Ġunk ind
Ġconce aled
Ġinno c
Ġgro an
Ġmag n
Ġtemp est
Ġsitu ation
Ġwol f
Ġax e
BI ONDELLO
HUM US
R em
T EN
c al
d id
i que
l ove
m und
p ul
s ame
Ġw ander
re c
Ġm us
er al
Ġp ace
Ġl aughter
Ġh ol
at ra
Ġwh ilst
Ġst air
th ink
ĠS ic
Ġun just
ĠD es
Ġab rupt
CH IMO
orn ey
Ġcl oth
Ġra gs
Ġper f
Ġaf fections
Ġsc r
IA CHIMO
ty ard
Ġcomm ission
Ġbre ed
Ġapp arent
Ġadv anced
Ġsure ly
Ġexp ression
Ġmaid s
ĠHer o
Ġrequ ired
Ġmouth s
CLO TEN
Ġbeast s
Ġlim bs
Ġpet ty
Ġmir th
Ġthr ong
ĠDe ath
Ġundert ake
Ġprep ared
gy pt
Ġdiffe rence
ĠPet ruchio
Ġkins man
ĠSha llow
POST HUMUS
E ach
E ither
H ence
e ad
g ic
g entle
i am
y ss
he n
Ġs and
is ible
Ġb on
Ġc ro
Ġc ens
Ġp aint
Ġp icked
ĠI ago
im er
Ġst amp
ro se
ic ense
Ġde cl
ĠM ore
ĠP ar
ĠP ort
ĠW H
ER LE
ig ent
Wh ilst
Ġad ieu
ĠK ING
Ġover th
Ġfore ign
sh ot
Ġevery where
ĠVal entine
Ġbel oved
Ġchar m
Ġdisc over
Ġmo ving
Ġadd ition
UM ERLE
lo ire
Ġcol ours
Ġce ase
Ġlaugh ing
PAR IS
Ar t
Ġpursu ed
Ġwat ers
Ġamb ition
ĠVol s
Ġobsc ure
Ġmil k
nat ural
Ġfamil iar
ĠMur derer
I E
j ax
m om
r Ã©
u rope
Ġt ig
Ġa unt
Ġb ud
Ġp age
Ġh uge
om ed
ut s
Ġre nown
Ġfor ces
Ġwe pt
ĠS erving
IN S
ast ing
ĠR om
op atra
ĠN e
ac ity
Ġwr ink
Ġdist inct
Ġrec on
ati ence
ICK LY
Ġdel ivered
II I
Ġhang ed
Ġdesp ite
Ġpros pect
Ġcast le
ĠPal amon
Ġarg ument
yd ney
ĠQU ICKLY
B IAN
S OM
T urn
T OU
f ive
h on
p ter
p ret
y m
Ġ 3
Ġ 4
er man
Ġb ite
Ġb rows
Ġf ountain
or a
or ation
Ġc urious
Ġof fered
Ġp ear
Ġl am
Ġhe s
om orrow
as ped
Ġg ru
Ġse vere
Ġli ber
Ġsha de
ĠP aul
Ġor n
Ġwor ry
are l
ag ues
ST ONE
CH STONE
Ġcha ste
Ġim age
Ġri pe
Ġwar like
Ġpre vail
Ġsl ang
IL LES
Ġtra itors
Ġapp et
Ġmother s
Ġwit ch
Ġmer it
Ġmon arch
Ġcare less
Ġsing ing
com p
Ġadm it
Ġmid night
Ġforg ive
urs ed
Pro vost
ROSAL INE
Ġthri ve
JA QU
Ġsurpr ise
Ġdiffic ulty
Ġhalt ed
ACH ILLES
Ġfla g
Ġincre ase
Ġdispleas ure
Ġforsw orn
Ġsusp icion
ĠCoriol anus
Ġdign ity
Ġsom bre
BIAN CA
TOU CHSTONE
B ring
G RA
G avroche
h us
k ind
w ixt
y r
Ġs its
Ġw ra
er o
Ġf an
Ġc av
Ġst ates
Ġwill ing
Ġde b
Ġso il
pe ople
ĠS uch
ĠS oldiers
Ġsu f
Ġsh r
ĠL y
ĠE gypt
ation al
Ġam id
Ġle vel
od e
Ġqu it
ci ally
Ġcl er
Ġfe ather
Ġwhere of
Ġbeg g
me il
Ġret ire
Ġdist urb
AT CH
Ġsign s
Ġgr ay
Ġstran gers
Ġinst ead
Ġsupp ose
MAR C
Ġremem bered
Ġund one
fer meil
Ġtran sp
ote us
Ġbene fit
Ġwealth y
Ġpa ces
oop ing
ĠPer cy
ĠCom beferre
Ġmotion less
Ġbran ch
ĠTell son
Ġanx iety
Ġextrem ity
ĠMac beth
Ġdiscour se
BASS ANIO
0 0
B OLINGBROKE
F auchelevent
F OLK
H el
V IUS
W ER
f ri
f old
k n
m et
p ur
p iece
v re
y ard
Ã ł
Ġt ed
Ġt ur
Ġa pt
Ġa ctions
in c
Ġp avement
at hed
st ep
ad ies
Ġmy stery
ri us
ro ve
ul ation
Ġne phe
ĠB ened
ĠP is
Ġsa ck
Ġun us
the e
Ġal ar
Ġro ot
Ġper iod
ĠMar cius
Ġnight s
oss uet
Ġstre am
av y
Ġbus y
Ġnat ive
Ġhum bly
Ġche st
Ġpri ze
Ġpower ful
Ġste ep
Ġinter rupt
Ġfam ous
Ġcry ing
ĠMad emoiselle
Ġcontent ed
ĠHere ford
Ġreal m
ERV ING
Ġer ror
Ġsucceed ed
Ġmeant ime
Ġavo id
keep er
Ġprovid ed
REG AN
Ġnephe w
E PH
S ave
U E
b ook
c ame
e g
n ity
r ase
y ram
Ġs anct
Ġw ants
Ġm at
Ġb ought
Ġp ow
Ġl aug
Ġn ice
ot ect
ch ing
ke ys
us hes
ic ant
Ġse as
th rough
ĠC han
ul ated
Ġsh ud
ant ag
Ġshe l
ĠF RI
ĠF arewell
ĠD ian
Ġal oud
Ġbl ush
ST ER
bl ood
AL BOT
Ġfl o
Ġover whel
Ġcont empt
Ġres p
Ġcomp lex
Ġafter noon
Ġhouse hold
ĠY es
Ġass ure
Ġsound s
Ġran som
Ġquest ions
Ġang le
Re ads
Ġide al
tw ixt
ĠAl b
Ġmount ain
Ġbeat en
Ġinj ury
Ġjealous y
FL U
Ġsav age
Ġprec ise
emet rius
ĠMag loire
Ġenorm ous
ĠFRI END
D on
I ONE
c ies
Ġf reed
Ġto ler
Ġp il
Ġp os
ing er
Ġh oney
as que
Ġha zard
se ll
ce an
Ġst age
Ġst ared
âĢľ âĢĺ
ĠS p
ĠH ad
un ger
Th ird
ig o
Ġar ch
Ġdis pl
Ġus ing
ap s
Ġen vious
Ġdes erved
IA M
Ġres c
cl am
ĠTh omas
AT ES
Ġhor iz
com m
Ġfin ally
Ġforg otten
Ġsatisf action
Ġpriv ile
Ġgrie v
Ġsens es
fo ot
Ġhung ry
Ġet c
Ab out
Ġpron ounced
HERM IONE
Ġadvent ure
ĠRosal ind
Ġmaint ain
? âĢĻ
A cc
N one
l it
l est
m aid
r ors
v als
w or
x ford
Ġ es
Ġb oulevard
Ġd umb
Ġp our
ing ing
ot he
Ġwe eds
ic it
ĠP res
Ġcon g
AR IEL
Ġun b
ran ged
Ġab use
Ġfl ame
OL O
ab s
Ġwr ote
Ġtell s
oss ess
Ġput ting
Ġass ail
IS BURY
Ġind escrib
ED WARD
Ġmon ument
St ri
Ġpoint ed
Ġbu ilt
ĠPr oteus
Ġdel ay
Ġbreak fast
Ġvirt ues
Ġere ct
COR N
Ġrequ ire
Ġgaz ing
Ġce rem
ĠOn ly
Ġresol ved
PRO V
ĠEm ilia
Ġexam ple
NOR FOLK
Ġsurpr ised
Ġtor ch
Ġfier y
ĠVII I
Pr ithee
Ġbuild ing
Ġexper ience
ĠItal y
sa fe
pul ch
Ġted ious
G et
H as
_ ;
c st
m ind
y er
in ate
Ġb ishop
Ġf ol
Ġd azz
Ġc ud
ar rass
Ġl amb
an other
Ġn un
se em
ad ua
ri al
Ġwh it
Ġsu gg
Ġlo sing
Ġman age
ĠW ATCH
ĠT ranio
ĠJ une
Ġcl am
Ġcl ock
My self
Ġri val
Ġfather s
Ġcont ract
Ġfore head
Ġarm our
TI ANO
Ġconf usion
Do es
Ġplay ing
Ġbreat hing
Ġsort s
Ġdisp osition
LAN CE
Ġcir cle
ATH ER
ĠMont parnasse
Ġharm ony
Ġdef ence
heart ed
Ġinv isible
Ġmir ror
Ġble eding
ELL EN
Ġtort ure
Ca esar
ĠServing man
GRA TIANO
ERVING MAN
FLU ELLEN
, '
1 8
K ing
S AND
b od
d own
f our
m as
p ost
t ake
u ish
v o
Ġthe ft
Ġo m
Ġb red
Ġd ar
Ġc rest
Ġp ed
ing ton
Ġn in
Ġn ails
Ġis land
ri ous
ra ced
Ġse vent
ain te
Ġan gels
Ġde af
ĠS ay
ĠH a
ul ate
Ġv en
Ġsh irt
ru e
other s
Ġr otten
Ġag reement
Ġad vers
Ġpl un
ĠK ent
iz ing
Ġcomm it
Ġsm iles
Ġbre aking
IL ER
Ġmad ame
Ġaff ord
Ġcur rent
Ġcur sed
ĠPr in
Ġadd ressed
An other
Ġsorrow s
ĠAr cite
Ġmur derer
Ġappro ached
Ġcra ve
Ġemb arrass
Ġtran qu
Ġobs erv
Ġexist ed
ĠCour t
âĢĶâĢĶ âĢĶâĢĶ
Ġapproach ing
Ġcopy right
Ġtum ult
FO OL
ĠCle opatra
Ġgrou p
Ġfart her
ISH OP
Ġscand al
C har
I m
M ight
M ark
M ont
S ha
a way
f irst
g round
n ame
s uch
Ġt est
ha ust
Ġm art
Ġm eth
Ġc uck
ar us
Ġp ound
Ġh y
Ġin fect
ĠI m
st ri
ad ise
ra ph
ĠM ort
Ġdo ll
ĠH ence
Ġno bl
ĠE v
ĠE ven
ĠE urope
to p
Ġr ash
ap art
Ġag ree
Ġab yss
Ġspe cul
Ġcha se
LE Y
leas ed
Ġper j
be ing
Ġyoung er
Ġgl o
Ġgl orious
Ġapp ointed
av our
vers es
Ġbra nd
Ġill umin
MAR CUS
stand ing
Ġele v
Ġshort ly
Ġdec la
Ġsum mon
Ġinterest s
Ġdri ve
Ġpat ri
Ġyes terday
Ġshout ed
ĠSil via
Ġsple nd
Ġdisag reeable
ĠBrit ain
Ġbaw d
ĠLeon ato
Ġinher it
Ġlaug hed
antag enet
! _
. '
C ha
D is
S u
U nt
i ven
i ving
Ġt ide
Ġs cept
re ct
re ck
Ġo ri
Ġb ol
Ġb rown
it ate
Ġc itizen
Ġl amp
Ġg ame
se mble
Ġe cst
Ġse pulch
Ġde fe
ĠH ortensio
Ġsh ining
Ġal ter
Ġsp ake
ide red
Ġpr int
Ġsw ore
ĠJ acques
Ġch o
ĠN ature
ud es
ret ion
Ġpart ed
Ġser p
Ġco z
Ġput s
Ġapp l
Ġconf used
Ġtre mble
CA S
BER T
ĠEd mund
Ġcommand ed
Ġbar ren
Ġattend ed
Ġlad der
Ġmount ed
Ġsho ot
ĠRe volution
Ġresol ution
Ġfig ures
Ġprov ide
GH TER
Ġrecogn ize
Ġpract ice
ĠBar on
Ġevid ently
Ġdirect ly
Ġabsolute ly
Ġresembl ed
PO INS
Ġphilosop hy
PROV OST
D raw
H ast
O PH
d el
f ig
i qu
in ent
Ġb ade
it ol
Ġf ant
ll o
on ly
ar ter
as ing
Ġg a
Ġg est
Ġbe ings
im ate
Ġe ch
ad v
Ġre ar
Ġre ver
Ġst roke
Ġse ize
Ġli est
ĠS ERVINGMAN
Ġsu st
ĠP adua
ER IUS
Ġkn ot
ol s
âĢĶ âĢĿ
au x
Ġal ike
ST EPH
Ġbr ook
Ġpo et
Ġfe ared
iz es
Ġnew ly
Ġcour tyard
Ġfair ly
Ġnor th
Ġset ting
Ġgr im
Ġrec over
Ġkeep ing
Ġinf am
Ġsil k
Ġgre y
vol io
Ġstri ve
ey es
Ġmark s
anc ing
Ġdeep ly
Ġlab or
Ġwood en
Ġwonder ful
Ġcarry ing
ĠCap itol
ERS ET
Ġsle w
JA ILER
Ġcounter feit
oles ome
Ġoccup ied
Ġgift s
Cl own
DAU GHTER
Ġimpr ison
ĠRom ans
Ġappet ite
STEPH ANO
A lack
B id
F ear
I ll
K n
R et
R ep
S et
b its
f ound
i omed
w ord
z ed
Ġ Ãīponine
Ġo cean
Ġf ed
or ce
es e
Ġd art
Ġc ook
Ġp all
Ġn est
Ġn iece
Ġn umbers
Ġu seless
Ġnot iced
ra b
ore ss
ĠA jax
ĠB urg
ĠW ales
Ġun l
ĠF ore
ag ing
Ġhand kerchief
ress id
CH ARM
ĠMar ch
Ġrep air
Ġapp arel
Ġfollow ers
Ġrec o
Ġmis chief
Ġdear ly
cept ion
Ġcou ple
ati ves
Ġvis age
MAR INA
Ġpar ag
Ġdev ise
Ġattend ing
Ġsin ister
Ġcontin ue
rer s
ĠPer icles
Ġda res
Ġda ily
Ġtry ing
Ġinstru ment
Ġstart ed
Ġforb ear
Ha ving
Ġignor ance
Ġfee ble
Ġdescend ed
Ġcondem n
Ġsurround ed
Ġann oy
Ġtravell er
Ġeag le
Ġbrid ge
Ġdischar ge
Ġstol en
Bel ieve
ILL IAM
Mon seigneur
Ġstair case
CHARM IAN
B ear
M ED
f ellow
g ive
i ation
m ake
n el
o e
r im
r ong
s ar
s per
Ġw ail
Ġm ood
Ġb ury
Ġf urious
Ġd urst
Ġc ave
ĠI nd
Ġre nt
Ġwh ip
ĠM al
ĠM erc
ĠC upid
qu in
Ġne arer
ĠP eter
ER TES
em ple
um es
ĠD emetrius
ĠO ct
ĠO xford
Ġar ise
Ġch ide
Ġhere after
Ġfl ourish
ARD IN
Ġbeg u
LA ERTES
ET TA
ĠTh ree
Ġhast y
Ġcons ul
Ġhapp en
ates by
und y
Ġrec ord
Ġgu est
Ġpri ce
Ġbo ard
Ġdel icate
Ġrun s
Ġstrong er
ouch safe
Ġprop ortion
Ġang uish
Ġfly ing
ĠSc ot
DIO MED
Ġvan ished
Ġformer ly
Ġtor ment
Ġaud ience
Ġcircumst ance
KATHAR INE
Ġrapid ly
Ġast on
Ġeter nal
Ġcorp se
Ġsuf fered
ĠBurg undy
DIOMED ES
C U
C la
D ear
F rance
H ang
I GO
P aris
V ERS
W ilt
b ility
c hard
h ind
s ix
w ers
Ġ rou
in ction
in ia
Ġw rought
Ġb abe
Ġf its
Ġc u
an qu
Ġn on
ad ually
ri bed
Ġli p
il ight
ĠB esides
ust er
ĠE p
Ġshall ow
Ġdream ing
ĠĠĠĠ Ġ
Ġch in
ud ing
Ġcha ll
Ġpe ep
Ġra il
Ġper ish
ĠMar cus
How ever
Ġrep ose
Ġset s
Ġkind red
Ġbreat hed
mer ald
su ed
Ġcrown ed
Ġmar ble
Ġexp ed
Ġins urrection
Ġref use
Ġve h
Ġdec ided
cha ir
Ġcreat ed
Ġsim ply
Ġsoft ly
Ġcent re
Ġoffic ers
Ġinstant ly
Never theless
ific ent
Ġaud ible
Ġwat ched
Ġsurround ings
Ġobsc urity
Ġenterpr ises
Ġhorn s
Ġbeha lf
Ġentire ly
Ġmess age
Ġmention ed
SAL ISBURY
dem ona
Ġfem ale
ĠMAC BETH
SOM ERSET
B ISHOP
E d
l or
m ight
o qu
Ġt ame
in st
Ġw ither
re ak
Ġd uc
Ġd agger
Ġth orn
as ions
Ġbe fall
st ones
ld om
Ġwith draw
Ġme as
Ġst out
ra ve
ic a
Ġli v
Ġan tic
Ġso oth
il ence
ĠC ressid
Ġsha re
ĠP ost
Ġcon vert
ol omy
the llo
Wh ither
Ġex erc
ĠD iomed
ĠR oss
Ġle ads
os pit
Ġout l
You ng
Ġqu itted
Ġro ses
Ġfl ung
Ġday light
OL M
Ġtell ing
Ġrep roach
Ġtra versed
Ġind ign
Ġind ivid
Ġbed s
Ġdisc overed
CA DE
let s
Ġcap able
Ġwant ed
you ng
Ġban ishment
com es
ID ERIUS
Ġadm ire
Ġbless ing
Ġcross ed
Ġweak ness
Ġhid den
Ġcoll ect
fo llow
Ġevid ent
Ġengage ments
ĠLA W
Ġmud dy
Ġperm itted
Ġfold ed
Ġsubst ance
Ġple ad
GU IDERIUS
Ġsacrif ice
UST ICE
Ġalt ar
Ġinnoc ence
JAQU ES
ĠBened ick
olomy Ã¨s
D orothy
F ollow
P lease
j on
s pect
s had
Ġ 7
Ġ 9
Ġ âĢĿ
Ġ ze
Ġt ied
he mia
it ure
Ġl ap
Ġh ind
Ġin ex
Ġha unt
Ġe B
âĢĿ ;
ĠM ark
ge ant
ĠS at
Ġsu ck
Ġbut cher
Ġv ig
ĠP o
ĠP and
ĠP istol
ĠW icked
em ents
Ġup right
ast ic
end ing
Ġle ague
os ure
Ġpro ved
ĠT ar
nt y
Ġab hor
ire ct
Ġtw ain
TH UR
Ġpl ans
RO DER
Ġunder go
Ġpres erve
Ġlight s
Ġacc use
Ġconf lict
UR N
Ġext ent
Ġcr im
vel vet
Ġkiss ed
Ġloss es
aw s
chan ge
Ġsend s
Ġpap ers
Sh ow
Ġwatch ing
Ġgrant ed
MAC DUFF
Ġprodu ce
Ġbelong ed
umph rey
Ġexper ien
ĠGree k
ivers al
Ġclo ak
Ġacquaint ance
Ġdru ms
Ġexact ly
atri ce
Ġlan tern
Ġph rase
ATES BY
RODER IGO
C ons
C ATESBY
F LA
G AV
M akes
P IS
T ALBOT
Y ER
c orn
m uch
m ark
o ot
p ap
v ity
w art
w ater
Ġm ent
Ġf ist
Ġf ulf
Ġl un
at ory
Ġth orough
Ġg ard
Ġbe re
Ġdo zen
ĠA way
ĠH all
un ken
Th rough
Ġsh ine
ie ge
AR ON
AR IUS
Ġun m
Ġam ount
au d
el ess
Ġr is
Ġag ony
Ġfl ow
Ġrem orse
Ġhear s
Ã© t
Ġgentle woman
Ġhar k
Ġatt itude
Ġacc us
av inia
Ġbest owed
Ġdr am
og en
Ġbo ast
Ġste ad
Ġstri fe
Ġtalk ed
Ġhence forth
ĠAr m
Ġdev ice
ĠMont fermeil
pass ed
bre ak
ĠGu ard
Ġgro ans
ronic us
Ġimmedi ate
BEL ARIUS
Fl ourish
ĠUn ited
Ġweap ons
SIL VIA
Ġconvers ation
Ġfaire st
EX ETER
cip al
Ġsuffic ient
IGH T
mom ent
Ġcomplex ion
OPH ELIA
Ġchall enge
PIS ANIO
A ARON
M en
T omorrow
W D
W ALL
a bles
c or
e re
p us
t ree
Ã ¢
Ġ 8
it ute
it ution
Ġp itch
Ġth ieves
as hes
ut ions
ad d
ad o
ly ing
Ġst y
Ġst um
Ġst aff
ĠC O
ĠS CENE
ĠS ydney
Ġsu pre
ĠH al
rom io
qu iet
Ġun natural
AN C
ĠF au
ĠE l
Ġgo dd
ĠO thello
Ġwor m
ĠT ime
Ġus ually
ĠJ USTICE
AL D
Ġper pet
ab ility
Ġpass es
sh ire
Ġco arse
Ġacc ent
Ġass ass
Ġserv ices
Ġsur m
ple x
Ġdr unken
Ġcare fully
su b
Ġbo ar
Ġabs or
HE CTOR
Ġpol icy
Ġyield ed
Ġtouch ing
Ġenc ount
head ed
Ġenjoy ment
Ġed uc
Ġprob able
ĠWill iam
Ġemploy ment
Ġoffend ed
ĠFl ore
pan ied
Ġemer ged
Ġtrib unes
LEN DER
Ġimpl ies
ĠOffic ers
ĠDes demona
Ġprospect s
Hel p
Ġunus ual
ĠFore st
Ġsupre me
? _
A men
A UNT
C UR
I BAN
N ES
k y
p hant
s l
s aint
t re
w all
Ġs tern
it ive
Ġf requ
Ġc ard
Ġl ent
Ġg ild
le ans
le cted
ut y
ra ld
Ġas hes
Ġwill ingly
Ġde ceive
il ar
ell o
ĠB ab
ru jon
ĠG erman
Ġthere of
ĠT ur
Ġbl est
od er
Ġsw eat
Ġhand ed
Ġpe ers
Ġri ches
EL BO
Ġra gged
Ġsc ru
iz ard
ene ath
Ġtr oops
Ġbre ach
Ġsl ip
Ġacc used
av orable
Ġchar ged
Ġreturn s
Ġjoy ful
Ġprom pt
Ġins ide
Ġins urg
erv ants
Ġstrong ly
Ġfeel s
rem io
Ġbad ly
ib ility
Ġsecret s
ĠAl as
ĠCap tain
gu ard
Ġviol ence
CAL IBAN
Ġcre ep
Ġbecom ing
Ġgrie ve
ĠWh ich
Ġaccept ed
BA WD
ĠCha mp
Ġimport ant
BAN Y
Ġfriendship s
Ġinqu ired
Ġdise ase
ĠPri am
IE F
otect or
Ġfreed om
ELBO W
A JA
D OL
G u
L US
O K
R ENCE
S LENDER
b ble
c ast
d in
m ay
n es
o at
t r
t ri
u ced
v aire
w it
w ing
w ood
Ġ ice
Ġt al
Ġs ins
Ġb la
en ial
Ġh om
an ley
Ġhe rald
ill s
Ġre v
ro s
Ġde fect
th ings
ord inary
Ġno bles
Ġv antage
Ġman if
ĠB oy
em bourg
ĠG aunt
ĠG eneral
AR CH
Ġex cess
oth s
ĠT emple
Ġen cl
ĠJ es
Ġsome what
ress es
Ġro ll
CH IEF
AL BANY
Ġgra ces
Ġrem ove
Ġres ign
Ġco in
Ġtr unk
wh ite
DU MA
Ġru m
cei ving
Ġuse ful
Ġrel ative
Ġsignif icant
Ġreg ret
Ġins ult
Ġkiss es
BO OK
Ġele ven
Ġve il
ĠHer mia
ranc is
Ġhate ful
Ġlist en
Can not
Ġexist s
Ġfright ened
rum io
Ġunhapp iness
Ġentertain ment
Ġreb ell
Ġod ds
ĠPe ople
Ġener gy
Ġopportun ity
Ġreck on
ĠMil an
Rome o
ĠMort imer
ĠLAW RENCE
Ġgodd ess
AJA X
DUMA INE
C or
F antine
H OLO
M istress
P res
W ILLIAM
a ces
b oy
m es
o ft
s omething
t ra
w ed
Ġm aj
Ġb ars
Ġf ence
Ġc el
Ġto oth
at in
Ġth irst
as hed
Ġg ulf
ill ain
ill ery
ad le
Ġre ward
ri be
Ġme chan
Ġwe ars
Ġst oop
Ġse est
ĠM aire
il ful
pe cially
ĠC o
Ġlo ad
Ġlo cks
Ġbut ter
Ġwhe els
ig nty
ĠF are
Ġam bit
Ġmore over
Ġpro ject
ath ieu
ond s
ick s
EL LE
Ġra v
Ġper force
Ġpart ly
AM EM
Ġatt ached
ens ion
Ġconf irm
Ġass ist
UR ENCE
so oth
Ġadv ise
Ġdoubt ful
AG UE
AG AMEM
MAR IANA
Ġbreak s
Al though
act ory
gl ass
Ġdri ven
them selves
Ġsol id
ĠPl antagenet
De ath
Ġlod ging
Tru ly
Ġfurn ished
Ġmour ning
ĠLA URENCE
Ġamaz ement
Ġcivil ization
ĠCon st
Ġneg lect
Ġperm ission
Ġrelig ion
ĠHelen a
Ġreve rence
Ġweap on
Ġtreacher y
Ġindiffe rent
FER NES
Ġgoss ip
ĠPort ia
Ġtig er
clam ation
Ġhoriz on
ĠPres ident
Ġom ens
Ġindivid ual
Ġencount ered
HOLO FERNES
AGAMEM NON
B R
G ENTLEMAN
P ic
S ignior
b ray
c ertain
g one
h undred
l iv
p ier
Ġ &
Ġ velvet
Ġs ink
Ġw ot
re ason
Ġf ix
on ius
Ġd ial
ar ily
ow ard
st airs
al ing
Ġli qu
Ġsu bl
ĠH umphrey
Ġno bility
Ġv ul
Ġsh ield
ĠP lace
Ġun worthy
ĠF e
ĠE merald
el ing
el ia
Ġex ile
ĠD romio
Ġbl unt
Ġsw ay
ĠJ ud
ĠN urse
AL ON
ĠK ather
Ġcomp et
ps es
Ġatt ent
ens ive
IL LE
Ġfair y
ĠTh ose
Ġset tled
Ġass urance
Ġche ck
Ġpri ck
Ġcur t
sand er
Ġinf irm
ĠPr otector
Ġsupp l
Ġstri kes
Ġsound ed
Ã©nard iers
Ġmar vel
Ġval ue
Al arum
Ġpurp oses
Ġsix ty
Ġsla ves
tw enty
rib ute
Ġguard ed
ĠAN NE
Ġpet ition
Ġexec uted
Ġsy mp
Ġrepe at
Ġphys ical
Ġhig hest
Ġdism iss
imp se
Ġsepar ation
Ġresult s
Ġfun eral
Ġprofess ion
Ġpreced ing
Ġindescrib able
CORN WALL
Ġscept re
C AP
G BER
G ILIA
H U
H ail
M any
S ings
U p
c r
c est
d r
f aced
p oll
u ary
v ir
v ict
in o
in ity
Ġs ings
Ġw ard
Ġw ink
Ġo ak
Ġm ale
Ġb ind
Ġb ag
on apart
Ġc raw
Ġp up
Ġl ux
ow bray
ut ter
ill ing
Ġfor feit
Ġst am
Ġst ation
Ġst ab
Ġst airs
ĠC Ã¦
ĠS im
Ġsu its
est ial
ĠP ers
ĠW IT
Ġkn aves
ĠG REY
ĠG remio
IN US
Ġun iversal
ĠR o
Ġle agues
ass ad
Ġsp ur
Ġab ide
Ġab und
Ġtw ilight
Ġhat ed
ick ly
Ġgra ves
Ġri ot
RO SS
Ġsc ore
Ġret orted
ĠAnd ronicus
Ġhast ily
li a
Ġgr adually
ĠTo by
Ġmer chant
so ever
Ġstran g
Ġter rified
CA IUS
Ġlie utenant
Ġ1 7
Ġstri ct
Ġwa ves
Ġwa ited
Ġinter ior
Ġprom ises
ĠSt ates
Ġfalse hood
Ġsk in
ho e
Ġins p
Ġred oubt
More over
Ġobs erve
Ġobject s
Ġresol ve
Ġproceed ing
Ġble ed
Ġdi am
Ġcheer ful
DO GBER
Ġfle et
ĠWh ile
ĠEx eter
Ġord ers
emet ery
Bet ween
every thing
bet ween
ĠPhil ip
Ġmult itude
ĠBo hemia
umer le
Ġprepar ation
Ġinha bit
Ġgam in
Ġori gin
Ġduc ats
HU BERT
DOGBER RY
2 3
C AN
E AR
F AB
G utenberg
I B
J ust
T OM
b u
b ell
b ows
c at
e ach
f ield
i able
j ud
m ong
u ly
w omen
Å ĵ
Ġw est
re am
ou g
Ġm ire
is ons
Ġf est
Ġc aut
Ġc emetery
Ġp ant
Ġp ressed
Ġl ing
Ġh ovel
Ġn uns
Ġhe dge
om me
Ġha m
st reet
ce l
Ġe g
Ġe ast
ri pp
âĢĿ .
Ġde er
ĠM ant
ĠM AN
th ur
ĠC ON
ĠC atesby
ous saint
Ġshe et
ER IL
ĠL ear
AR LES
el ine
ĠO ld
ĠO liv
Ġr hy
Ġqu ench
Ġhand le
ress ing
CH ARLES
Whe ther
ne cess
arri ed
Ġpart ing
Ġcont ri
Ġpre vious
Ġsm iled
ult iv
Ġacc ustom
Ġtra gic
Ġdist inction
Ġconf ound
Ġind ul
Ġsub tle
Ġfar mer
Ġpri oress
Ġearth ly
mp et
ho le
Ġref uge
Ġsister s
form ation
Ġve ins
RI VERS
Ġlead ing
Ġcoun cil
Ġlear ning
Ġgar land
Ġbene f
Ġpa wn
ĠThese us
ĠOr leans
Ġexam ined
Ġeld est
DO CTOR
GON ERIL
Ġpull ed
velop ed
VIR GILIA
Ġpurcha se
adem ark
Ġillumin ated
Ġrever ie
ĠOct av
ALON SO
FAB IAN
C ame
D IT
E AS
M an
O X
O ld
O UR
W EST
a ver
a iting
b lack
d on
m ir
u it
y l
Ġ ident
Ġt ro
Ġt ired
Ġo ra
Ġo il
Ġo men
Ġd ot
Ġl es
Ġh unger
Ġy oke
Ġn im
om p
ĠI X
Ġha ught
ent ered
id ow
Ġwill s
Ġse x
Ġat e
ĠS ince
ĠB oul
ĠB ossuet
ĠP H
ĠG rantaire
Ġcom r
ĠF rancis
.âĢĿ âĢĶ
Ġtheir s
Ġle ap
os en
Ġal together
ert es
ĠK ATHER
Ġoff ices
Ġbet wixt
Ġcall ing
Ġser ves
for ced
ans as
Ġres ist
Ġatt ain
Ġtr ous
Ġsl umber
Ġpur ple
Ġroom s
Ġrel ations
Ġcor on
MAR GARET
MAR TIUS
Ġtem ple
Ġfight ing
Ġpar adise
PER DIT
cul es
Ġdev otion
tw ill
ĠThou gh
Ġhuman ity
Ġunderstand ing
Ġlist ening
rid ges
Ġmed ic
Ġunf avorable
Ġprin cess
ĠCl own
LY SAND
Ġdi vers
Ġconqu est
look ing
Ġamaz ed
Ġjew els
Ġoccur red
Ġstat ue
Ġpop ular
Ġrefle ction
Ġing en
Ġcompass ion
STAN LEY
ĠBass anio
ĠIsab el
Ġexchan ge
Ġoverth row
Ġcav al
yram us
Ġpow der
Ġcud gel
Ġgest ure
ĠWIT CH
ĠOliv ia
ĠKATHER INE
PERDIT A
LYSAND ER
1 6
D en
J o
N ER
R ight
S AT
T AM
W orth
c ades
e ff
g rand
m ers
o v
p ol
u gg
w d
Ċ ĠĠĠĠĠĠĠĠĠĠĠ
in ous
in cent
Ġb owed
Ġd ow
Ġd un
Ġn ap
om b
Ġg uns
Ġbe ams
le nder
ut or
Ġre de
am em
our n
ra ge
âĢĿ ,
ĊĊ ĠĠĠ
Ġso iled
ĠS und
ell a
Ġsh ru
EN CR
Ġcon c
ru d
Ġup per
Ġor chard
ĠG en
ĠG on
ast ille
ort al
um et
ĠR oyal
Ġr ate
ci ans
Ġch oler
ud den
Ġfl ash
ĠK eep
Ġfo x
Ġri bb
Ġheart ily
Ġnever theless
Ġwar n
LA IN
IL IP
Ġret ired
Ġpur sue
Ġhapp ily
ANT Z
Ġass ault
QU IN
Ġrec all
Ġfull y
Ġel bow
Ġbeaut eous
Ġfour th
Ġsleep s
com b
Ġdan cing
Ġcor rid
Ġsad ly
Ġgener ally
ROS ENCR
Ġstra in
Ġca uses
Ġund o
Ġyouth ful
Ġhang s
uri osity
Ġeat en
Ġdev our
Ġgar ret
Ġarri val
Ġconce it
Ġsol itary
ĠCom inius
Ġinstru ments
Ġimag ination
** **
Ġemploy ed
Ġfle e
dig ger
Ġdesign s
Ġune asy
pri l
hum an
hum us
again st
Ġrelig ious
Ġtreacher ous
Ġemp ress
Ġphysic ian
Ġtyran ny
Ġshrew d
Ġorn ament
Ġparag raph
URN INUS
Pic pus
Ġsymp ath
SAT URNINUS
TAM ORA
amem non
ROSENCR ANTZ
I G
L OR
b arri
c ond
d est
d one
g ues
m ian
z ing
in ations
Ġs outh
is her
Ġf ret
Ġf ires
or ms
Ġd ine
ar re
Ġp ark
Ġh oles
Ġha il
Ġg ait
ce let
Ġis le
Ġfor s
ri ly
ri ct
ro ar
ur bed
âĢľ _
ĠM ake
ĠM owbray
Ġlo c
ĠB our
ĠB us
ĠB OO
ĠL iterary
ie utenant
ĠG re
ĠG rumio
ig le
ust ration
Ġsee ks
Ġgood s
Ġpro ble
Ġsp it
Ġbl own
Ġdis aster
od ule
Ġag ent
Ġdes erves
Ġinto x
Ġgra pe
oul on
LO U
Ġgl impse
Ã© odule
Ġtr im
Ġtr ades
Ġworld ly
Ġsweet ly
Ġass ume
Ġmer c
Ġadv ised
UL T
Ġpeace ful
Ġfour teen
Ġwalk s
LUC ETTA
Ġvill ains
Ġcountry men
Ġcor se
over n
Ġweep s
mb eline
Ġcorn ers
Ġdon ations
Ġtown s
Ġfat ig
min ation
Ġeffect s
Ġsho e
Com m
Ġpock ets
Ġknight s
Le ave
Ġpun ish
Ġconcl usion
Ġobed ient
HERM IA
Ġstret ch
Ġfaire r
Ġconne cted
Ġrecom pense
Ġparent s
Ġabrupt ly
ĠWH ICH
Ġliber al
Ġes pecially
Ġplun ged
ĠPrin cess
Ġment al
Ġabsor bed
Ġtrous ers
Ġrede em
ĠBOO K
A nt
C ry
I V
J OHN
J acques
L ay
R es
S m
S LY
Z O
c ap
d ra
m outh
p ing
p ort
p oint
w alk
Ġ Z
Ġt iny
Ġa rose
Ġs ed
ha med
Ġm ile
Ġb atter
or ing
Ġd ared
Ġd ried
Ġc ord
ar on
Ġp ile
Ġp ush
Ġl ark
as ks
Ġg e
Ġg id
Ġbe ating
st ru
Ġre leased
Ġst ub
ur ally
ic ity
ĠA y
ĠH or
Ġno bly
Ġv ic
Ġv oy
EN ZO
Ġcon ference
ĠL avinia
IN O
Ġfa res
Ġun w
Ġun if
el sh
ĠR E
Ġar ranged
Ġbl oss
OR GE
Ġag reed
ĠJ ustice
Ġfl int
Ġdes ir
LE AN
Ġpl ate
Ġper plex
Ġcont ained
Ġwar ned
Be hold
Ġhar vest
Ġwork ed
Ġtra p
Ġdist ribut
li ament
ict ion
land o
Ġgr ating
Ġgr asp
Ġgu ide
Ġru b
ĠAn toine
Ġinst ance
Ġplay s
Ġmist aken
AB LE
Ġbring ing
Ġste pped
Ġwrong ed
Ġban quet
Ġrel atives
Ġsignif y
ĠBe atrice
Ġcor rect
Ġcr it
Ġreg ular
ster n
AG US
Ġfav ours
Ġroyal ty
Ġsim ilar
Ġreal ity
oll es
Ġsovere ignty
ĠTro j
Ġmal icious
more land
Ġproceed ed
Ġsle e
gr im
ĠWell ington
Ġcre ation
Ġrid ing
Ġincl ined
Ġaccom panied
Ġfle w
Ġfurn ish
ĠPet it
Ġfun ction
GE ORGE
Am ong
BOT TOM
Ġmurm ured
Ġtim id
VIR AGUS
Ġconsequ ence
Ġbount y
occ up
Ġwond rous
Ġqual ities
step s
Ġprivile ge
Ġserp ent
Ġze al
FLA VIUS
poll o
ĠPH ILIP
LOR ENZO
A pp
C ertain
D IANA
J E
L ady
S ound
S HE
V INCENTIO
a ving
b ri
e enth
g ent
h ib
l ife
m ust
p han
Ġs illy
Ġm ute
or g
Ġc am
Ġc ott
Ġc ultiv
Ġp ul
Ġp ipe
at io
Ġha p
Ġha bits
ill on
Ġre j
Ġwh ist
Ġas pir
Ġli king
ĠM in
ge nd
and ria
ĠC orn
Ġsu cc
ck now
ul ace
qu estion
Ġsh un
Ġsh ift
Ġne at
ĠB rujon
ER D
ĠL ong
Ġkn itting
ol ation
ĠF irst
ĠE ast
Ġthere by
reat h
Wh iles
Ġle ather
Ġpro st
ĠT rib
op en
Ġbl ock
Ġbl iss
OR Y
old ier
Ġqu ant
Ġch ur
CH AM
Ġpo le
ick le
ert ainty
ĠK ansas
Ġgra in
pl ed
Ġra ising
TI S
Ġimp ression
ew is
Ġtri cks
Ġtri ump
Ġnat ures
Ġrec alled
Ġind ust
Ġter m
Ġsur vey
Ġbu rial
pr us
Ġstay s
Ġmar vell
Ġstrange ly
Ġadm itted
Ġce ased
Ġindic ated
Ġenc our
Ġthreat en
Ġbott le
Ġvict im
Ġinstru ct
hor se
Ġbelong s
can not
ĠJul ia
Ġlod ge
Ġlust y
Ġprofit able
Ġvent ure
ĠNap les
Con f
Ġtrembl ed
Ġremark ed
Ġconcer ns
Ġaffect ed
ĠCy mbeline
Ġpersu ade
Ġstock ings
bet ter
Ġobst acles
Ġheav ily
Br other
turn ed
Ġven om
ĠIm ogen
Unt il
Ġsepulch re
ĠPost humus
Ġsty le
Ġeduc ation
Ġvul gar
ĠMant ua
D EN
F ull
N Y
R AT
h ol
k nown
l ar
l ot
m athieu
o ard
p ress
Ġ z
Ġ Ãł
Ġt arry
Ġa ch
in th
re ce
Ġb ree
it che
Ġd ang
Ġp ushed
Ġp hant
ing ed
Ġh ue
Ġh ospit
Ġin vol
Ġin sc
at har
Ġg n
le br
ut ch
Ġwh irl
Ġwh olesome
ra ction
Ġas hamed
ĠC LO
ĠS ol
ĠA ng
ĠA pril
ĠB i
ĠP at
ak ings
ĠW elsh
Ġcon ven
ĠL ittle
em per
AR VIRAGUS
ig hed
ĠF ab
ist en
ĠD or
Ġj ury
ĠT am
Ġsp rang
Ġbl ot
Ġen force
Ġsw im
Ġbr ill
Ġcha pel
Ġra ven
Ġra ging
ss es
Ġown er
Ġfore ver
Ġpass ers
Ġsl ay
ĠTh olomyÃ¨s
ĠTh Ã©nardiers
Ġimp ress
Ġass istance
Ġrec re
Ġkeep er
up iter
PH ERD
Ġneed ful
ken ess
pr ison
Ġelse where
Ġcap ital
BER LAIN
mp ire
An toine
com ing
Ġocc asions
ĠSt anley
Ġmark ed
ĠHer cules
Ġdiv ision
Ġdevil s
Ġlead er
Ġta vern
Ġesc aped
Ġmount ains
Ġprin cipal
Ġwoe ful
Ġcand les
Ġcompl aint
Ġeight y
tern al
ipp ing
Ġexpl ain
Ġdrown ed
Ġvar ious
Ġparticular ly
Ġinflu ences
Ġbend ing
Ġune as
mond e
Ġeag er
ĠCy prus
Ġclo ister
ĠWest moreland
ĠVer ona
Ġlift ed
Ġrefle cted
Ġbab y
Ġpill ow
Ġanim al
Ġconj ure
OW BRA
ĠArch bishop
ĠMen enius
Ġruff ians
Ġcontro l
Gentle men
MONT AGUE
PUC ELLE
Ġmagn ificent
rÃ© monde
Ġshel ter
Ġtoler ably
Ġecst asy
ĠEp hes
oder igo
Ġcel estial
ĠCÃ¦ sar
SHE PHERD
ĠCLO WN
OWBRA Y
A EN
C al
K ne
M ur
M uch
M usic
P et
c old
g arden
i ved
j ac
n ost
r ot
t oo
t able
y ears
Ġw and
re al
Ġm ould
Ġm ouse
it ating
it udes
Ġd aring
Ġc ases
Ġp omp
Ġl ar
at ru
ch ol
Ġe v
ill ot
ir ass
ent ing
al ways
ad vent
Ġnot ed
Ġfor sooth
am ents
Ġst aring
us p
il ion
ĠS weet
ĠS ometimes
ĠS ervants
ĠS lender
Ġdo ve
ord ing
all ey
out s
Ġv ener
ous ed
Ġshe ets
ĠW inds
ĠL ewis
ĠF OR
Ġam iss
Ġdis ci
Ġdis order
Ġlike wise
che ster
ĠV incent
Ġch osen
ĠN ational
EL AND
Ġcont ents
ac ing
Ġpass ions
Ġgl ove
Ġpres erved
LA UN
IC ER
Ġke en
AM P
cl us
Ġapp la
Ġcons um
Ġcons idered
Where fore
She pherd
ĠThis be
Ġbel ieved
Ġrest ed
CE LET
Ġdisc retion
Ġposs ibly
Ġcur ses
Ġcap s
Ġsupp ly
Ġinter pret
ĠBe au
ID ES
ĠPro vost
ĠPro sper
Ġran ks
ĠAr thur
Ġele ments
Ġport ion
Ġta bles
Ġcal am
rib ution
Ġtender ness
Pro ject
Ġdest ruction
bb ing
Ġclear ly
Ġresol ute
Ġpain ful
Ġdu ked
HER O
Ġpursu it
Ġmag ic
Ġjo ined
look ed
TA IN
ĠVol t
Ġdism al
ĠVen us
ĠSen ator
Ġbew are
Ġfamil ies
Ġadmir able
Ġrad iant
Ġaband on
BAL TH
MOR ELAND
ĠMore over
ĠLy sander
vre rie
Ġprecise ly
Ġantic ip
Ġrebell ion
Ġora cle
udden ly
Ġcorrid or
LEAN OR
CHAM BERLAIN
AEN EAS
atru elle
LAUN CELET
2 0
B es
C ousin
D OR
D own
H IP
O ff
T ut
W O
b ast
c alled
e vish
m ont
n ear
p or
r t
t rees
w w
w ent
y et
re land
ha ving
en c
en ches
Ġc y
Ġto ss
Ġl at
Ġl ot
Ġy awn
an im
an ger
at is
Ġth umb
Ġg end
ow l
se y
et ch
ut io
al a
ly s
ion e
Ġwh iles
Ġme nder
Ġme mber
ro phe
Ġli keness
Ġan cest
ĠM usic
Ġk in
ĠC all
ĠA bb
ĠA riel
ĠA umerle
Ġsh ips
ĠB asque
ĠP hoe
ĠP yramus
ĠW ITH
ru ly
fe w
ĠF le
Ġwor ries
ĠT oussaint
Ġr ush
ond ello
Ġab omin
ci o
Ġany one
Ġpe evish
Ġper mit
Ġper formed
Ġent ang
Ġevery one
Ġchild hood
ens ed
ars ad
Ġconf er
ANT IO
Ġrec overed
Ġlady ship
Ġask ing
Ġ1 0
Ġdep os
LUC IANA
Ġexc laim
ĠAnt ip
Ġgener ous
Ġdec ay
ub ert
under stand
Ġfact s
resh old
Ġcommon we
ĠLuc rece
Ġbehold ing
UNT RY
Ġexcept ion
ĠPl umet
quis ite
pers on
SIM P
Ne ither
Ġvague ly
Ġinform ation
ĠRob ert
Ġcens ure
Ġcong enial
ĠEv rÃ©monde
Ġdecla red
Ġexerc ise
ĠTar quin
ĠCO UNTRY
Ġambit ious
Ġaccustom ed
Ġrej oice
! '
D efarge
I ON
L ON
O US
T Y
f ell
i ently
k ins
m ission
r ants
s ign
Ġ verse
Ġa ut
Ġa cknow
in ated
Ġs iege
Ġw arri
Ġo per
Ġb ald
it uted
on st
Ġc ove
Ġy ond
Ġn ought
at re
ĠI reland
Ġnot es
Ġre jo
Ġst iff
ra ined
Ġse ldom
Ġso ber
ĠC ol
ĠC oll
ĠS ister
ĠS outh
Ġbut t
Ġv ap
ĠB astille
ĠP ER
ĠP RO
ĠL EW
Ġup roar
ast s
ĠE ach
Ġex haust
ĠD en
ĠO ut
Ġdream ed
ON IDES
Ġr out
Ġr ushed
ap h
ap ing
Ġsw eep
ĠJ uly
ĠJ upiter
ime ly
ag n
Ġpl enty
Ġper fection
Ġcont ag
Ġfore bod
Ġthought ful
IL IUS
Ġback s
Ġfear ing
-- âĢĿ
Ġtri p
Ġind isc
Ġappe al
Ġhusband s
Ġcur st
Ġkill s
Ġjoy ous
Ġstri king
An on
gg ing
Ġdraw s
Ġsuccess ion
Ġadm ired
Ġcommand s
uri o
Ġcol onel
Ġself ish
Ġwood s
Ġpa ving
Ġarri ve
Ġplain ly
dis c
AS AR
Ġdemand s
ĠLu x
Ġcre ate
Lord s
Ġsuper ior
Ġsafe ly
ELL US
Ġrob bed
ĠEx eunt
Ġsal ute
Ġprevent ed
Ġconsider ation
ĠAd am
Ġdiss ol
Ġsepar ated
Ġmil itary
Ġflat te
cour t
cour se
Per haps
Ġbew ild
SIM ONIDES
Ġfro st
Ġsple en
Ġdifficult ies
Ġopportun ities
Ġcontempl ation
Ġswall ow
Ġaband oned
Ġdeterm ined
ĠAg amemnon
Ġdistinct ly
ĠPis anio
Ġinterrupt ed
Ġpil grim
Ġcuck old
Ġunl uck
ĠSat urn
corn er
Ġinsurg ents
Ġcaval ry
ĠEphes us
ĠWinds or
BALTH ASAR
ĠCOUNTRY MAN
ĠLEW IS
1 4
D IN
D el
E l
N ARD
b ridge
d aughter
d og
f le
f act
i ot
l ain
m id
r ite
s aw
s ometimes
t ran
u il
v ius
w ords
in er
Ġs ine
Ġw ave
it ious
en ced
Ġto t
Ġl ur
at ched
Ġha w
Ġg oose
al ty
ri an
Ġst ing
âĢĿ ?
Ġse qu
ĠM ess
ĠM any
ĠS pan
ĠH ark
Ġall ey
ĠB arri
ĠL atin
ol og
ĠF air
ate ful
Ġex ter
ĠD ou
Ġal arm
ĠĠĠĠ ĠĠ
ĠT han
Ġpe er
be cause
Ġser geant
Ġ_ âĢľ
Ġsl and
Ġking ly
Ġfind ing
Ġapp ar
Ġapp rehend
DU L
Ġimp ro
Ġimp art
Ġel bows
Ġlaw yer
rest ed
Ġdep th
com ple
Ġcr imes
Ġins ol
Ġred ress
mbl ed
Ġopp ression
Ġquar ters
Ġele phant
vid ence
PE TER
Ġbound s
Ġlate ly
Ġfin al
Ġce iling
pend ed
Ġprov o
go ing
Ġer rand
ĠOr lando
ĠGu ards
pir ation
Ġundert akings
Ġexpl ained
Ġobey ed
Ġlean ed
Ġdeg rees
LAR TIUS
Ġimm ortal
Ġstuff ed
Ġrust y
Ġdim in
Ġarrest ed
Ġstret ched
Ġinvent ion
Ġafflict ed
Ġpolit ical
Ġindiffe rence
FER DIN
Ġdisgu ised
Ġchast ity
Ġ181 5
ĠVols ces
ĠPaul ina
Ġcler k
avour ite
Ill ustration
anqu o
GAV ILLE
Ġsubl ime
ĠPers on
WEST MORELAND
ĠTam ora
bast ian
LON GAVILLE
ĠLux embourg
FERDIN AND
A TION
C OLM
F ind
L a
P OLY
R ichard
S ervant
S AMP
W OO
d ark
l iness
m is
m ant
m ean
m ione
r oth
s pr
y e
Ã ®
Ġ ou
Ġt ip
he red
in chester
Ġb ru
Ġb raw
Ġb ache
Ġf ile
Ġto re
Ġh ie
Ġy ard
an n
ĠI S
st ill
st em
ch or
ri ff
Ġwas ted
ĠM a
il ius
ĠH oly
ĠH ugh
Ġall eg
Ġsha king
Ġsha pes
EN CH
ĠP oor
Ġkn it
em b
Ġor gan
Ġun pro
ĠF ield
ĠE X
Ġthem e
to ld
ĠR oderigo
Ġwho lly
ran ean
ĠT r
Ġab oard
Ġqu iver
CH E
Ġbr ass
Ġdes cent
ĠK athar
Ġri g
Ġper chance
ĠMar ia
Ġpart ies
Ġsc ope
Ġcomp rehend
Ġart icles
Ġatt ic
Ġrep ro
Ġtr oop
ĠTh Ã©odule
ian o
ĠĠĠĠĠĠĠĠ Ġ
Ġgr asped
Ġmo v
Ġhigh ly
su pp
Ġdep uty
no bar
Ġwant ing
Ġless er
Ġsk ull
Ġpra ises
ĠHow ever
Ġinc ur
Ġhair s
Ġact s
GO WER
Ġbur nt
Did st
Ġburn s
Ġlea f
Ġwise ly
Ġdeal ings
Ġbrave ly
Ġthreat ening
Ġspo il
LY SIM
Ġvan ity
Ġsy ll
ĠMon keys
Ġjourney s
Ġwretched ness
Ġopin ions
Ġbond s
Ġur ged
long er
ĠCha mber
ĊĠĠĠĠĠĠĠĠ ĠĠĠĠ
Ġsong s
ACH US
rehe ns
Ġmill ion
Ġpin ch
MAL COLM
Ġbuck et
Ġphilosop her
Ġaug ment
Ġwhore son
Ġjoint s
Cour feyrac
upt ial
Ġdiscont ent
Rem ember
Ġscr atch
ym ph
Ġresc ue
Ġgriev ous
Ġcerem ony
Ġnin et
Ġdefe at
CAS CA
Ġrou se
Ġcu irass
Ġexperien ced
Ġthorough ly
CUR TIS
ARCH BISHOP
Ġhaught y
Ġstub born
ĠBi ondello
Ġuneas iness
illot ine
ĠVincent io
HIP POLY
SAMP SON
LYSIM ACHUS
HIPPOLY TA
1 2
A gain
C ARDIN
C IB
H on
R ue
S omething
W it
c ra
f av
j ection
m other
p ut
s peak
w s
Ġ rom
Ġa fe
Ġw ipe
Ġo min
Ġm ak
Ġm ail
Ġm att
Ġm iles
Ġf rank
Ġd rank
ar ius
Ġp row
Ġp atter
Ġp ubl
Ġl ac
Ġl ane
Ġh ounds
Ġg enius
ut in
id el
al se
al us
ter y
Ġst uck
ic ing
Ġli ked
Ġsu p
res p
Ġne gl
ant ic
ĠB ank
ĠB anquo
ĠW or
ĠL adies
Ġsa u
IN CU
Ġcom pe
ven ge
el f
Ġex pense
Ġex quisite
ĠO nce
Ġal ms
Ġr ises
Ġbl ouse
Ġen m
Ġen ri
ĠJ a
ag er
ci pit
ST ABLE
Ġro cks
Ġro sy
orn ing
AL CIB
Ġad op
Ġad ored
ite ous
Ġpl ane
ren ces
Ġsc ale
IA DES
Ġdeath s
Ġgl anced
Ġatt ach
Ġtr ademark
Ġacc idents
ix enes
Ġbus h
Ġjust ly
Ġchan ces
Ġchan ced
Ġbel ie
Ġrest ored
Ġlast ing
Ġhum il
Ġdisc ord
Ġmis eries
Ġsur face
Ġmo ves
Do ctor
sc ape
Ġcourt ier
Ġdisp ers
Ġsent ine
Ġclose ly
Ġsubject ive
Ġdra g
Ġcra ft
Ġpret t
Ġcontent ment
TR INCU
Ġpen it
Ġhur ried
Ġcal cul
Ġbri g
Ġreven ged
Ġdisappoint ed
essen gers
Ġprin ci
ĠChar mian
pre ced
Ġlim it
Ġoffic ial
Ġpet tic
Ġvan ish
Ġchair s
ific ation
Ġsens ible
Ġreb els
Ġfurn iture
Ġpun ishment
Ġprog nost
Ġflatter y
Ġluck y
Ġunc ons
Ġanx ious
ĠSen ators
ĠSe ine
Ġbull et
CON STABLE
Cont ents
Ġant ique
ĠArch ive
Ġshri ek
appear ance
Ġestabl ished
Eng land
Ġextra ordinary
MARC IUS
ĠChan vrerie
lit z
Kn ock
uster litz
ĠChamp mathieu
ĠGre cian
Ġgid dy
Ġdisci pl
nobar bus
CARDIN AL
ALCIB IADES
TRINCU LO
1 5
B ORA
C LUS
F ive
G ives
L ouis
M iss
M aking
N EST
P AT
P ID
S UR
T E
T were
W ALD
g ress
h our
l ive
l arge
m at
p ast
p oor
Ġ esp
Ġt res
Ġs ly
re nd
Ġo x
Ġo pe
Ġm ach
Ġb ath
Ġf er
Ġc rows
Ġc uriosity
ar ms
at us
at cl
ot ions
Ġha ply
se ver
im ation
Ġe cl
ri ef
ly sses
Ġst ool
Ġas p
Ġli vid
ct s
ĠM ond
ĠC he
Ġsu ng
ĠA UMERLE
ĠH ost
un ction
Ġv ine
Ġv ac
Ġman hood
Ġsh ines
ĠW atch
ĠW ilt
ĠW inchester
ĠL aw
Ġor phan
ol ate
ie l
la c
fe e
ĠF our
Ġar range
ook ed
old en
Ġlet s
Ġad ore
RO CLUS
ĠMar ina
Ġcont ain
Ġyoung est
sh ine
Ġcomp let
IC AN
So ft
Ġart icle
Ġart illery
wh ole
Ġtra ce
Ġass umed
Ġche ap
Ġdisc o
Ġgi ant
Ġdr ooping
Ġcur tain
Ġsound ly
An y
Ġrel ief
Ġbid ding
mbl ing
Ġfav ors
ĠAr t
BO ULT
Ġvillain y
Ġbarri er
Ġyield ing
Ġut most
Ġfin ish
gl as
ĠLa ertes
Ġmal ady
Ġlack ing
dis p
Ġcompl ain
Ġvan qu
ANTI GON
ĠGu ild
Ġmarch ing
Ġshout s
bo x
ĠBar nard
law s
Ġlean ing
Ġoccup ation
Ġtemp or
Ġsen seless
ĠFl ourish
Ġuns atisf
ĠGree ce
Ġpron ounce
Ġlament able
Ġpier ce
child ren
athe red
FO UR
OS WALD
Ġtail or
ĠNever theless
Ġtrif le
Ġbay on
gentle man
ĠDian a
Ġpos itions
Ġfol ks
seem ed
Ġinherit ance
iqu ity
ĠMal volio
ĠMerc utio
ĠScot land
Ġgild ed
ĠSund ay
QUIN CE
Ġvoy age
Ġunif orm
Ġmarvell ous
Ġdang ers
Ġomin ous
BORA CHIO
NEST OR
PAT ROCLUS
ANTIGON US
A UMERLE
B L
B AR
B ah
B reak
F ore
I F
N ew
T en
T owards
a ille
b ited
f ire
g ins
l in
l ast
l orn
n ut
p ossess
r ary
s ort
t les
Ġ verses
Ġs ize
Ġs chol
Ġw ig
re ne
ha lf
Ġm ice
Ġb ul
ll s
Ġc ul
Ġto ken
Ġp est
Ġl ions
Ġn ations
Ġre n
Ġwh ipped
am ong
Ġst ale
ic ations
il ities
ĠH on
un celet
Ġv ouchsafe
Ġman ly
ight ed
Ġne arest
ĠB ou
ĠG rey
Ġfa c
Ġfa wn
Ġam orous
Ġj ack
Ġsp urn
Ġr he
Ġr ay
ap es
Ġen v
Ġab used
itt y
Ġcha ins
Ġcl ad
Ġgra vity
ount ed
Ġpart ner
Ġear l
de ad
Ġgl ow
Ġsl ipp
Ġem otion
Ġrest ore
Ġgu ests
Ġcount ed
Ġchar ms
ĠFor ce
Ġshow ing
day s
Ġbu zz
Ġinf er
ati ent
Ġgrow th
Ġsick ly
Ġref used
Ġopp osition
ĠBr ook
Ġbar bar
Ġdiv ided
Ġfast ened
Ġpal m
Ġsim pl
Ġgar ment
Ġce lebr
Ġindic ate
happ y
Ġarri ving
my self
OLI VER
Ġspeed y
ĠLa igle
Ġlim b
Ġsatisf y
Ġstir ring
Ġdeli ber
Ġbig ger
ĠU lysses
ram atis
Ġcontr ad
Ġfra g
Ġdiss atisf
Ġcell ar
Ġresembl es
Ġsitu ated
Ġpit iful
ĠPol ixenes
ĠSe bastian
Ġassoci ated
Ġassoci ations
Ġsour ce
Ġadmir ation
Ġpop ulace
Ġprotect ed
Ġcoach man
Ġimper ial
Ġmourn ful
FR ANC
Ġdistingu ished
Ġshud der
Ġhy p
Ġsummon ed
Ġveh icle
ĠPand arus
Ġnim ble
Ġmedic ine
ĠHor atio
Ġquant ity
itche n
El se
ĠPerson Ã¦
WOO ER
Ġenm ity
Ġtres pass
! --
E m
H omme
P IR
S ometimes
S ainte
V IC
a ited
c re
g ard
i Ã¨re
l am
m ine
p ick
r one
r ament
s la
v ille
Ã ¼
Ġt in
he alth
Ġa le
in u
in ence
Ġs cience
Ġm onsieur
it us
en u
Ġc as
Ġp iteous
Ġl oo
an ation
Ġn uptial
Ġha re
Ġbe ats
Ġe ats
ut land
gh ter
id us
Ġre vel
Ġre new
Ġst able
ro ken
ra ces
ic able
Ġse ar
Ġli very
Ġli kes
ĠC amb
ĠS yrac
Ġdo ct
Ġsu itor
ĠA then
ĠA pollo
ĠH ubert
un ately
qu er
Ġsh roud
ĠB en
Ġcon ject
ĠL ike
ĠG rand
Ġun seen
ast rophe
ure r
ĠD uche
ĠR utland
Ġj ump
Ġout rage
Ġr isk
Ġch ose
Ġro be
bl er
own e
Ġfl ock
ull us
Ġra g
man ner
Ġent hus
Ġhear se
Ġres erved
No ble
Ġpres ents
ene as
Ġhar ness
ject ed
Ġsweet est
Ġdist urbed
Ġsign al
Ġright ly
IS SA
Ġmer rily
Ġchar itable
Ġpoint ing
Ġhigh way
Ġsuff ice
At tend
mp ets
ĠSt ill
ĠWe re
Ġsk irt
Ġhelp ed
Ġreg iment
Ġcle ver
Ġkiss ing
rem ained
Ġinc idents
Ġpar ley
Ġele ment
Ġve get
Ġgall op
Ġamong st
Ġpay s
Ġpost ed
Ġhealth y
Ġcir cles
lou p
ĠX X
Ġconst antly
min ate
Ġspeed ily
Ġdet ail
Com es
Ġinterest ed
Ġmir acle
sembl ed
Ġdelight s
arer s
HEL ICAN
Ġmag ist
Ġpract ise
Ġutter ly
Ġspect acles
Ġthro ats
ĠCount ess
Ġdwell ing
Ġow es
Ġcart ridges
ĠPol onius
Ġcombat ants
Ad v
Ġscarce ly
Ġavo ided
Ġbetray ed
ITH OUS
Ġdischar ged
Ġbeha vi
CON STAN
Ġmelt ed
eau x
Ġprocess ion
Ġanim als
Ġstro kes
Ġloyal ty
Ġrul ed
Ġtyran n
Ġdeterm ine
FR ENCH
Ġdistingu ish
Ġbon net
Ġbegg ars
Ġoverwhel med
Ġtranqu il
Ġinfam y
Ġperpet ual
onapart e
NER ISSA
ĠTroj an
RAT CLIFF
hol us
Ġduked om
Ġabomin able
ĠDou glas
Ġbache lor
PID US
PIR ITHOUS
HELICAN US
CONSTAN CE
2 4
A Y
C ESTER
H app
H enry
I mp
O CT
R ather
S C
S end
W H
b ra
c arry
d ers
g all
g utenberg
i ac
l ers
o pp
p any
r iment
s im
s il
s ire
t aken
v oice
Ġ QUEEN
Ġa th
Ġs ire
ha el
er ation
it a
Ġf um
or ity
Ġd ed
Ġp i
Ġp ine
Ġl ou
ot en
as per
Ġg ets
Ġg room
id ity
id ated
al most
Ġme mbers
ter ranean
Ġwe eks
us ions
ore l
ĠC ur
Ġdo le
Ġsu e
Ġsu gar
ard ed
Ġno body
Ġv ass
ĠB ert
ĠB lack
ĠB arsad
ĠW izard
ĠL icense
ĠG U
Ġun st
Ġun will
ĠF er
ĠE n
ĠE mpire
ĠE nobarbus
ĠO R
ĠO ther
Ġgood man
ep idus
Ġal arum
Ġcan n
Ġpr ime
Ġbl ade
Ġdis in
OR CESTER
Ġen ig
Ġsw ears
ĠJ ac
ĠV engeance
Ġad jo
ert ed
Ġoff ers
be au
unt s
Ġcould st
Ġsc ur
Ġsc old
Ġpre cipit
Ġcomm ons
vent ion
ens es
Ġlight ly
Ġdist rict
Ġapp ly
ail er
Ġbel ief
Ġnat urally
Ġlast ed
Ġlive ly
Ġel oqu
Ġche m
Ġfar m
eth ought
irt ue
Ġhome ly
Ġbo at
ĠDo ver
Ġban ks
ĠSt ate
Ġdoubt s
ĠPro vidence
Ġcold ly
Ġref rain
Ġsight s
Ġprop hes
Ġopp ressed
rew s
Ġgall ows
UT EN
Ġcol oss
Ġcomfort s
Ġcomfort able
MEN AS
Ġpay ing
Ġhur ry
fl owers
Ġdet ails
Ġcounsel s
Ġdelight ful
Ġstop s
Ġhost ess
Ġbell s
Ġspect acle
Ġrare ly
Ġsen ators
Ġremark able
Ġstrugg les
Ġow l
Ġord inary
Ġmill ions
ĠGentle men
ĠQu ickly
Ġwag er
Ġexecution er
Ġpier ced
Ġbab es
Ġener get
ĠRosal ine
ĠXV III
Ġextreme ly
Ã§ on
Ġbatt les
Ġwander ing
Ġmus k
Stri ke
Ġsplend id
Ret urn
THUR IO
ĠFlore nce
ĠBab et
ĠTur k
Ġmanif est
Worth y
Ġdow ry
NY M
advent ure
ĠProsper o
ĠVolt aire
ĠAntip holus
Ġafe ard
Ġuncons cious
1 7
A IS
F are
G UN
G iving
I OR
P L
W ORCESTER
_ âĢĶ
b an
b oth
c if
f ar
f urn
f ull
f Ã©
l ord
m o
m ar
m ons
p ool
r ising
t ook
t owards
Ġ row
Ġt ren
Ġa lack
in f
in the
in ces
Ġf ired
Ġf ero
or us
on ious
ar th
Ġl ame
Ġin cess
Ġth reshold
le an
st ra
al ter
Ġre pl
Ġst ained
ur ation
ic ide
ic ates
and s
ĠC ade
ĠC ons
ĠS ur
ĠH im
ĠH IS
Ġlo cked
qu ire
ant ial
art in
ĠL epidus
IN CH
Ġun g
Ġam en
Ġam ends
ĠD is
ĠO UT
Ġbl ank
Ġbl ushing
Ġdis o
ign ant
pt ion
Ġbr ist
Ġad verse
ild ing
Ġpl ants
man y
Ġhon ors
ĠMar ry
Ġover fl
Ġsc ra
Ġcont ains
Ġent ers
Ġchild ish
Ġback ward
ĠYou ng
Ġdist ressed
li hood
Ġconf ident
Ġgr ind
Ġhum ours
Ġ1 4
Ġ1 6
vert ed
Ġext ingu
Ġlay ing
Ġcr ushed
Ġthank ful
Ġpossess ions
Ġmur dered
Ġunt imely
Ġdrink s
ĠMad am
Ġir r
Ġpen ny
aff old
Ġlist s
oc ation
Ġsus pected
Ġdef y
Com mend
Ġid ol
Ġproceed ings
Ġcomb ined
Ġexec ute
Ar m
Ġbosom s
Ġcand lest
Ġwed ded
Ġsy stem
Ġevent ually
Ġcre pt
Ġinstru ction
Ġsuper fl
Ġbow l
Ġcoll ar
Ġur ge
Ġfra il
Ġunc ertain
br other
Ġsen ate
Ġconcer n
PO ET
Ġprec aut
Ġwol ves
Ġtempt ed
Ġafflict ion
Ġretreat ed
Ġrad iance
Ġswell ing
BAL T
Ġ183 2
Ġascend ed
Ġprodig al
uche loup
count ry
Ġrenown ed
Ġwrink led
Ġpear l
fri end
Ġalar ming
Ġmeth od
Ġimprison ment
Ed ward
Ġbrill iant
Ġcalam ity
TY BALT
FOUR TH
BAR NARD
ĠDuche ss
Ġfero cious
A IN
E E
L ittle
M essenger
S leep
T y
T ON
b urn
i verse
k ens
l od
l ings
m od
m aking
m orning
n z
r ates
s k
s ent
s oul
s ince
t ies
u pe
v ial
v iol
w ine
y es
z el
Ã ´
Ġ ess
Ġt u
ha ired
Ġm a
Ġm uff
Ġf ath
ar med
om on
Ġha gg
ce iv
ir s
ent ial
Ġre semble
Ġfor lorn
ro clus
ic ular
ic ulous
ic hael
Ġde ck
Ġde arer
ĠA eneas
est or
Ġv ag
Ġsh ower
ĠP R
ĠP h
ĠP u
ĠP ed
ĠG et
ĠG oths
Ġwhe at
IN TER
fe lt
ĠF R
ist ered
ĠD el
ĠD ost
ĠO NE
ran ch
Ġsp ider
Ġr ats
Ġdis cl
Ġag es
ĠJ un
Ġab st
Ġbr isk
Ġcha mbers
LE PIDUS
Ġpl ed
Ġoff ences
Ġra ck
Ġra pier
be aut
be hind
Ġhon oured
Ġbet imes
LO DO
Ġcont act
igh b
Ġpass er
Ġbeg et
Ã© e
Ġke ys
Ġco ast
Ġbre eding
TI T
IL DEN
wh y
wh om
Ġap ace
Ġtra ged
Ġapp le
Ġapp oint
Ġpur ity
Ġconf ine
Ġconf ront
QU O
Ġsec urity
Ġsub du
ĠAn y
Ġneed ed
Ġmist rust
ott ing
Ġfound ation
Than k
Ġsun shine
su ccess
Ġhel m
Ġcond u
OM AN
Ġstri ving
Ġint ended
con ven
con vict
ĠAr ras
Al most
Ġele g
Ġclose t
anc ies
AST ER
Ġmet al
Ġdev oted
Mad emoiselle
Ġbur d
Ġevil s
Ġburn ed
Ġconst ru
Ġtrust y
Ġeffect ed
ĠLa uncelet
Ġremain ing
Ġwoo ing
Ġcow ards
ien ne
See ing
asc a
hand s
Ġexpect ation
Ġpriest s
Ġhid ing
Ġmut tered
Ġhist or
esp air
Ġbuild ings
Ġconcer ned
BAN QUO
Ġconcl ude
Ġconcl uded
Ġtrib ute
Ġrasc als
Ġneg lected
ĠGree ks
rs ites
Bet ter
Ġforsw ear
ĠEvery thing
Ġcommun ity
ĠPe ace
Ġcher ish
Ġmurm ur
Ġconne ction
Ġaccompl ished
Ġ183 0
Ġneighbor hood
Ġpred ict
PUC K
Ġperf ume
MARC ELLUS
STER N
Char les
Ġglo ves
Ġsust ain
ĠArm Ã©
ĠFau bourg
Ġreckon ing
Ġinsp ired
ĠPhilip pe
Ġcoron ation
Ġslee ve
Ġtriump hant
Ġconsum m
ĠPER CY
Ġsau cy
VIC O
cif ix
upe f
LODO VICO
ILDEN STERN
A US
C ORD
J ondrette
M ean
M adeleine
R un
S it
S ure
b are
c laim
d ro
d ire
d oubt
l ogue
m aker
p o
p rom
r oof
t imes
Ġt ales
he l
Ġw rest
Ġm ast
Ġf ray
Ġd int
Ġd ainty
Ġp ate
Ġin ner
Ġg la
Ġbe like
Ġe con
Ġe jac
am our
her n
Ġst ories
ra int
Ġse mbl
ore nz
Ġher d
ĠM ust
ĠC amp
ĠC itizens
ĠS ure
ord ered
ord elia
Ġsu llen
if th
ĠA unt
ĠA usterlitz
ard y
Th ings
Ġv est
Ġman tle
ous and
Ġsh ovel
ĠB et
ĠW elcome
Ġcon ceive
ĠG all
la b
la ps
ĠF IS
ĠD er
Ġj ot
Ġsp l
Ġr ings
Ġr uth
Ġdis quiet
Ġen ra
Ġen sued
Ġen forced
te ous
ĠV ir
Ġsir s
bl ess
ick ness
TH AIS
Ġcl ay
Ġfe at
pl ice
ret ched
ier re
Ġhear th
LA W
Ġhar ass
Ġmight st
Ġstre w
ĠTh ink
ough s
Ġapp rehens
Ġimp atient
Ġrest ing
Ġwind ing
Ġwit hered
CA STER
Ġprom is
ĠSt reet
ID OW
Ġexp ressed
IT Y
ĠEd gar
Ġstru mpet
Ġjud ged
vid ed
Ġappro ve
Ġport ress
Ġdiv orce
ug ust
ug ub
Ġcra ves
du ced
Ġpost er
Ġcal f
Ġrespect ed
oc ate
Ġsus pended
Ġreport ed
Ġdri ving
ĠLu cio
HER MAN
Ġtit les
De ad
Ġbow els
Ġincl uding
Ġheir s
Ġrob es
Ġmut iny
Ġspect re
Ġamb ush
Ġwhis pered
ĠTy re
Ġintell igent
Ġball s
Ġconcer ning
Ab ove
Ġow ed
Ġhunt ing
Ġregard ed
Ġsusp icious
ĠSEN IOR
Ġbull ets
Ġminister s
Ġmask ed
ĠMars hal
Ġtreat ed
Ġrecei pt
Ġque er
Ġcab in
Ġdil igence
carri age
Ġrepres ented
Ġgent leness
Ġpaint ing
Ġstamp ed
Ġwra ck
Ġalar med
Ġdazz led
pap er
Ġris en
ĠJes us
ĠConst able
Ġdial ogue
EAR L
Ġrhy me
Jo hn
Ġcommonwe alth
ĠBarnard ine
GUN DY
CORD ELIA
orenz o
ĠFIS HERMAN
THAIS A
1 3
9 3
C he
C itizens
D ies
F ri
F our
F all
G rantaire
K EN
M other
P art
Y e
b ird
d ep
d uff
e le
e lect
g room
i ard
i ated
i ally
m ith
m iss
m atter
r ish
r ather
s ol
u illy
v at
v ag
Ġt ie
in ning
Ġw an
re volution
Ġthe atre
ha st
er il
er ate
ll es
en stern
or ter
Ġd ame
Ġd iet
Ġto wer
Ġl ace
Ġn ymph
Ġhe el
st re
st rong
et he
et tes
ut ing
al ready
Ġre in
ri ck
her self
Ġst ole
ur bs
ic ole
ess ica
Ġli ly
Ġli ver
Ġan sw
Ġde velop
ĠM unch
pe mant
ĠA ss
Ġv io
Ġsh one
ĠB ec
ĠB astard
Ġcon verse
ĠL am
Ġor dered
ĠG arden
ĠG host
ĠG arter
AR T
AR INO
ĠF avourite
ist inct
um ents
um bered
ĠD uc
ĠD ieu
Ġwor ms
op y
Ġen veloped
Ġsw ain
ĠJ essica
Ġab ility
ci le
ci ation
CH ANT
ĠN estor
Ġfl ames
per haps
ĠK now
Ġim pe
Ġra bble
ab elle
de ath
io ch
Ġarm chair
ĠAnd rew
Ġob t
ĠTh urio
Ġtra ve
ian a
ian us
Ġimp atience
Ġgu ards
Ġdisc om
Ġdisc reet
Ġaff right
att orney
with standing
Ġcur Ã©
ott om
Ġread iness
Ġkill ing
cei ves
Ġdep osed
Ġthousand s
Ġext ended
com fort
Ġinter rog
ĠSt ep
.âĢĶ âĢľ
Ġcr ush
Ġcr adle
Ġins inu
Ġpra ised
Ġref und
Ġprop ri
Ġinc ident
Ġcry st
Ġtem ples
ĠHer mione
Ġdra gged
Ġaw ak
Ġcoun sell
Ã¨ d
oll y
min ated
oc al
Ġinte gr
Ġstud ied
Ġdepart ed
Ġconfess ion
Ġcop ies
Ġequ ally
Ġwitness es
Ġglad ly
Ġinj ured
Ġpassion ate
Ġentertain ed
Ġconqu ered
Ġcatch ing
Ġtou ches
Ġobl iv
Ġflatter ing
Ġfirm ly
ĠAd ieu
rat iano
Ġfrown s
Ġtravell ing
Ġemer ge
Ġpict ures
bus iness
ĠFri ends
Ġinqu ire
Ġdebt s
Ġprefer red
wind ow
Ġpier cing
Ġcomplete ly
ĠVer non
Ġdesc ription
SAL ARINO
Ġrecei ves
Ġprophe t
Ġdisgu ise
Eng lish
Ġbatt al
Ġscr utin
Ġsanct uary
Ġshud dered
âĢĶâĢĶâĢĶâĢĶ âĢĶâĢĶâĢĶâĢĶ
Ġappl ied
Ġech o
Ġech oes
ĠRoss illon
ĠeB ook
Ġlun gs
DOL L
CAP TAIN
Ġham mer
necess ary
Ġsympath y
barri cade
LOU IS
Certain ly
Ġindust ry
ĠSol omon
Ġexhaust ed
Ġunluck y
Ġalleg iance
Ġpatter n
Ġdispers ed
ĠGuild enstern
FRANC IS
ĠBert ram
Ġejac ulated
ugub rious
icole tte
Ġansw ers
pemant us
1 0
A p
A lex
B u
B oy
C ER
D ramatis
E ver
F ly
G illenormand
G eneral
G REG
I nt
I LO
J e
L ive
M OWBRAY
O pen
P re
P ost
P atience
S ix
V ELL
a ctor
b est
b ert
c ock
e ight
e ches
f ind
g ot
g reen
i ber
m ad
n icious
s ir
s ic
s um
s ound
t ry
t alk
u ity
Ġa pe
Ġa we
Ġs lack
is ement
Ġb ail
en Ã§on
Ġd itch
Ġc ords
ar que
Ġto ps
Ġl iterary
Ġh ire
as hing
Ġg ust
Ġg age
Ġg ains
le nd
id ers
ri er
Ġst ocks
Ġst orms
ro l
us c
us k
ĠC ordelia
ĠS ix
ĠS ainte
if ying
ĠA pemantus
ĠH old
Ġall iance
Ġno on
Ġsh iver
ĠB ra
ĠP re
ĠW inged
ĠL o
ĠG or
IN N
Ġun like
ear th
ĠO phe
Ġsp ots
Ġcan ker
ĠJ ust
age ment
Ġro bb
Ġro aring
CH IR
Ġbr at
Ġpe op
LE ANS
unt il
Ġho arse
Ġres idence
Ġcomp are
Ġhar bour
Ġco ats
Ġtr ad
Ġsl ope
Ġsl ipped
Ġacc ursed
Ġdist racted
av ilion
li ver
Ġimp ed
Ġconf ined
Ġpray ing
atch ing
Ġchan ging
fect ure
Ġru ined
hy lock
Ġeye b
Ġmo an
with in
PH IN
Ġadv ancing
cept ible
AB ANTIO
pr ay
Ġcou ch
Ġmean while
Ġsince re
sc ribe
Ġinter vals
Ġint ention
Ġrel ieve
ĠBe ing
Ġcor pses
Ġref er
Ġref lect
Ġreason able
Ġran g
Ġopp ress
Mar ch
ues day
BO TH
Ġcarri es
Ġpar liament
Ġsmall est
LAN CASTER
Ġgrand am
Ġgrand sire
Ġbar gain
Ġcol or
Ġsix teen
Ġaw are
cher s
Ġlead en
Ġbarri cades
Ġrespect s
Ġfin an
oll ect
urs day
cell e
cell ent
Ġdisappoint ing
Ġbold ly
Ġmed itation
Ġreport s
ĠWhere fore
Ġbeast ly
Ġid leness
Ġvict orious
Ġsy mb
Ġbare ly
Ġinj uries
Ġthrow ing
Ġincl ination
do es
PA INTER
Ġrob ber
Ġevid ence
rat itude
Ġhill s
Ġexpress ly
Ġattack ed
jo in
Ġpit ied
Ġvex ed
Ġbas in
Ġpersu aded
Ġbride groom
cons ider
ĠBl unt
Ġcup board
Ġrecei ving
DAU PHIN
Ġaccompl ish
ĠBass ianus
ĠAlex ander
Ġwaist coat
ĠIsab ella
ĠSic ilia
Ġmonarch y
Ġresp ond
Ġmeth ought
Ġspecul ations
iven ess
Ġga oler
Ġbegu ile
Ġcollect ed
Ã©t our
Ġscru ple
BR ABANTIO
Ġlux ury
assad or
ĠBoul atruelle
Ġloc ated
Ġbloss om
ĠDor set
comple te
Ġou ter
Ġmatt ress
Ġecl ip
laps ed
Ġintegr ity
GREG ORY
CHIR ON
; âĢĶ
C o
D uring
E mb
F e
H o
L uc
M ethought
O BER
P PA
R ICH
S aw
V er
W IDOW
c reat
f ret
f right
f inger
g eneral
l ate
m or
m al
p ower
r it
t ong
v ice
w are
w orn
z es
Ġ iv
Ġt ext
he ar
he ads
Ġa head
in us
Ġw ip
Ġw reck
ou bled
ha ble
Ġm ars
is a
Ġb und
it self
Ġf ren
es ter
Ġd ined
Ġd ote
Ġc age
Ġc ities
Ġto wers
Ġl ance
Ġl ads
hat h
Ġin und
Ġin fection
Ġg ames
Ġbe es
se ven
Ġre ap
ver ns
Ġst ake
Ġst upef
ro ll
Ġwas hed
ic ian
ic ial
Ġan te
ĠM ichael
Ġk itchen
ĠS y
ĠA aron
ĠH ucheloup
un al
ul ations
Ġv i
ĠB ed
ĠThe rsites
sel s
ĠW ink
ER IA
ĠL ieutenant
Ġfa ction
ist ic
ort s
to ck
Ġam use
ĠD avy
ĠO N
ĠR ivers
Ġpro long
Ġpro clamation
Ġar d
ĠT ha
ĠT om
Ġr at
ap idated
Ġab ode
Ġtw ink
Ġro lled
ave ments
Ġden ial
Ġey el
Ġany where
Ġdes erv
Ġcha mp
Ġim ages
Ġwhere on
Ġhon orable
Ġlong ing
Ġaf oot
int ell
Ġsc affold
Ġcont racted
de c
ock et
ET TE
Ġrep laced
Ġco al
Ġbre eds
me red
Ġfair ies
Ġcons pir
Ġcons isted
Ġsub terranean
Ġill ust
Ġsur v
Ġworth less
Ġcur ts
Ġsil ently
Ġbeaut ies
by e
Ġdep ri
Ġstay ed
Ġins pect
MAR IUS
Ġopp ose
Ġopp osed
OTH SA
Ġdeep er
Ġdem ol
Ġcra cked
Ġmid day
RI PPA
Ġang les
Ġaw aken
uous ness
ote ction
Ġswear ing
Ġyield s
oly ta
ming led
appe ars
min ster
oc rat
vell ed
Ġbreast s
Ġmed dle
gin ning
Ġdeal ing
ĠCl oten
Ġbott les
swe et
Ġglass es
ĠPer haps
Ġble m
Ġcompl icated
Ġthri ft
eng ers
Tw enty
Ġblow ing
ipp olyta
** *
Ġgrie ved
VAL ERIA
Ġbitter ly
Ġcoll ection
Ġcoward ly
Ġkingdom s
ĠPom fret
ste ad
Ġoccup y
Ġschool master
Ġcruel ty
BUR GUNDY
Ġproof s
ĠSh ould
Ġroof s
Ġvex ation
ĠSen ate
Ġbas eness
GU ILDENSTERN
Ġcapt ive
Ġgreet ing
ept une
ĠBer owne
Ġcorrupt ion
ĠXI V
Ġder ived
Ġsaint s
Ġguilt less
Ġgle am
ĠAlex andria
Ġpenet rated
Ġconquer or
Ġunkind ness
Ġcro ps
Ġdispl ayed
Ġdazz ling
ĠPo ins
Ġgard ener
Ġassass in
din and
Ġcurt ains
Ġribb on
IG N
Ġproble m
ĠPat roclus
usp icious
ĠBarri Ã¨re
Ġcuirass iers
Ġpettic oat
ĠMond Ã©tour
Ġdisco very
Ġtempor ary
Ġdissatisf action
ĠAthen ian
Ġbehavi our
Ġath wart
rews bury
Ġhagg ard
Ġsembl ance
ĠBec ause
ĠOphe lia
OBER ON
OTHSA YER
1 9
C ap
D ION
G LA
H Y
H im
L ie
M OND
O ver
R IC
S eem
T ime
T will
U r
Y OR
a ved
b ru
b eneath
c ir
f rancs
o it
s ight
s chool
Ġ Upon
Ġw akes
Ġm ixed
er m
er iss
Ġb one
it imate
ll ies
en ger
Ġc ough
Ġc ardinal
ar ison
Ġp an
Ġp uff
Ġin come
om ont
ot ism
Ġha l
Ġg ig
Ġbe que
ch in
Ġe bb
ir med
Ġwe b
Ġst if
ra it
Ġwill ow
ĠM aine
th ren
th ousand
ge ons
ĠC asca
est abl
Ġno d
ul a
Ġv ot
Ġman kind
res pect
qu ar
qu al
EN ET
ol t
ĠG ower
ĠG AUNT
ĠG ratiano
Ġun able
Ġun iverse
ĠE sc
rou vaire
Ġex hib
Ġex ternal
ĠD E
ĠD u
ost ard
ĠR est
ĠR em
Ġle wd
Ġj ade
ĠT ars
Ġsp ies
Ġr ot
Ġr am
Ġus es
Ġus her
OR LEANS
ap able
Ġsw ept
ĠJ ailer
Ġab ject
Ġqu ay
Ġwhen ever
ag on
ĠV aug
orn s
Ġmust er
Ġday break
Ġcl os
Ġcl asped
ne ath
Ġpl ent
ber ries
pl ess
pl ain
Ġri vals
Ġra w
Ġper nicious
ip es
Ġsc atter
Ġsc attered
Ġwr ites
ont es
Ġres ort
Ġart s
Ġatt ract
Ġco pper
Ġend ing
Ġsweet er
omet ime
ater nity
Ġdist rust
Ġdist ribution
Ġcons ult
Ġimp rove
ĠY OU
Where of
Ġmad man
ANT AG
ister s
Ġbra ce
Ġhum ility
Ġchar ges
Ġmis chance
ph il
su ffic
ang s
OM AS
Ġext end
ĠDo es
Ġdisp os
Ġprom inent
Ġint ri
Ġreg ion
AG RIPPA
Ġland ed
Ġfoot ing
Ġbreath less
Ġcarri ages
Ġappear ing
Ġadm in
ĠJo ly
ĊĠĠĠĠ Ġ
Ġsend ing
Ġappro aches
Ġcol umn
Ġdesp ise
Ġdesp ised
Ġdem onst
Ġdra gon
Ġrequ ite
Ġfail ed
Ġbless ings
Ġpen alty
Ġeng ulf
Ġcross es
Ġhur led
pro p
Ġsecret ly
Ġwret ches
Ġharm less
Ġbri ck
Ġmed ium
Ġunf aith
Ġdet est
ĠRe gan
oun cil
Ġsol icit
Ġsqu ad
ien na
Ġleg ions
Ġhop ed
Ġsn uff
Ġundert aking
Ġbitter ness
Ġaccom pany
Ġvo id
Ġdistress ing
Ġreb el
Ġshout ing
Ġclot hed
Ġbond age
Ġdescend ing
ax e
acc om
Ġengage ment
Qu ick
Ġswift ly
Ġattack s
ĠSh rewsbury
Ġvol ume
Ġbank rupt
ĠWest minster
Ġvirgin ity
umin ous
Ġgay ety
Ġeter nity
Ġborrow ed
Ġswall owed
Ġruff ian
Ġfil th
Ġconscious ness
Ġclimb ing
Ġclass es
Ġtrif les
ĠPar olles
Ġlam ps
Ġlam bs
Ġfeather s
Ġelev ation
Su pp
Ġexped ition
irect ly
WILLIAM S
oug omont
Ġfest ival
ripp a
ĠGon eril
Ġhospit al
Bes eech
Ġsine ws
ĠSpan ish
Ġsyll able
ĠWor cester
Ġdiscipl ine
SUR REY
atcl iffe
Ġrhe um
Ġbarbar ous
Ġhyp oc
ĠOUT LAW
Ġobliv ion
Ġbund le
ĠWink ies
eriss a
ĠTars us
ANTAG ENET
2 2
A w
B ED
D isp
G AUNT
H al
L ies
S wear
b all
b ank
c ounter
d st
d ish
f ess
f aith
h orses
k new
l ost
r ating
s ou
Ġt ar
Ġt ight
Ġt ents
Ġa ctor
in qu
Ġw ww
Ġo st
Ġo mn
is ions
Ġf ert
Ġf rant
Ġf itted
ll a
en a
Ġd irt
Ġd irty
Ġc ess
Ġc rou
Ġto y
Ġto ols
Ġp ha
Ġl it
Ġl one
Ġh ing
Ġy on
Ġin ch
Ġth rows
Ġha y
Ġha ck
âĢĻ ,
Ġg athered
Ġbe am
ce ls
ch imney
im ony
ent on
Ġwe ed
Ġst ature
ra ils
ĠM ir
ĠC ostard
ĠS pir
ĠH ear
un te
Ġv ices
qu ality
ĠB ring
ĠB ona
ĠB ah
ER OS
ĠL ight
Ġkn ives
ĠG l
la ces
fe et
Ġun wise
AN IEL
ĠF ive
ĠF ollow
ĠE ros
Ġam iable
row ing
um ing
Ġex it
Ġex asper
Ġj u
ĠT WO
Ġpr im
Ġpr isons
Ġpr otection
od es
Ġsw oon
Ġsome where
ci vil
Ġch id
Ġch op
Ġro de
Ġhat s
Ġbr ut
Ġbr ood
Ġfri vol
ĠN eptune
Ġfl out
Ġcha f
Ġpl aster
Ġri vers
Ġaf ar
ab b
int ed
Ġear ned
Ġsc enes
Ġpass ages
Ġbeg ot
Ġpres ume
Ġla zy
AM US
Ġblood s
Ġwork man
Ġret ain
ĠTh ursday
Ġpur ge
ail or
Ġsub urbs
Ġche ese
Ġneed le
Ġsil ken
let ter
su ff
Ġsuff iced
Ġste ed
Ġste ward
rant z
Ġdisp osed
Ġint ro
ĠSt and
Ġcr ooked
ĠAnt ioch
erv ation
Ġfam ine
ĠMy riel
Ġinc or
Ġlow ered
Ġpossess es
Ġpar ish
ib an
Ġhang man
ĠJo an
ots pur
Ġdec re
Ġdec ree
Ġmet tle
Ġdiv ide
Ġact ive
Ġsuffer ance
Ġpati ently
Ġcra vat
uous ly
ĠCh urch
ATH ANIEL
Ġlab ors
night s
Ġcontin u
Ġmod e
vell e
esh rew
co ach
Ġacqu ired
Ġview ed
Ġstir s
Ġstir red
Ġdri ft
Ġinv est
Ġfif th
Ġleg al
Ġdi est
Ġer rors
ĠU r
Tw ixt
Ġexam ine
Ġimag ined
Ġsuper st
Ġpartic ip
medi ately
Ġgrie ves
Ġsto pp
Ġpat ron
Ġdespair ing
Ġmut ual
Ġlod g
Le ad
Ġver d
Ġver ge
Ġmiss ing
Ġthick et
Ġstorm y
Ġreign ed
Ġshore s
Ġband s
sec ond
Ġextrem es
Ġapart ment
Ġpersu asion
Ġpeas ants
ĠCoriol es
Ġpot ent
ĠMac duff
Ġheav ier
ĠTH AT
vis ible
Ġdise ases
Ġwing ed
Ġfil thy
war f
ĠRob in
SO OTHSAYER
even ing
Ġloath some
Ġhol p
Ġwrink les
ĠSp ain
wor ld
mind ed
Ġfol i
Ġsugg ested
Ġadvers ity
Ġobserv ation
Ġinfect ed
Ġaston ished
shad ows
ĠeB ooks
Ġfulf il
Ġbere ft
Ã¢ te
Ġtal ents
ĠKather ina
Ġdiam onds
Ġinhabit ants
Ġprevious ly
ĠOctav ia
OX FORD
Ġcomr ades
JE AN
Ġcultiv ate
Ġphant om
Ġwhirl wind
Ġconven ient
Wit ness
idel ity
Ġcomplet ed
Ġschol ar
Ġvass al
ĠFer dinand
INCH ESTER
ĠDer by
KEN BURY
elect ronic
Ġobt ained
Ġcryst al
RICH MOND
A c
B less
D r
D uke
G l
J ESS
L IUS
L isten
M OP
M AMIL
N ature
N ATHANIEL
O ther
O FF
O UN
T ouch
W arwick
W INCHESTER
a ur
b id
b rought
c as
c ur
d iv
d les
d rew
f in
f ree
f ac
h igh
l ine
l asting
m itted
n or
o ons
r ons
s al
s leep
s uddenly
Ġa ven
Ġs che
Ġw enches
er ver
Ġb ou
Ġb ast
it ations
Ġf aster
on is
Ġd at
Ġc ards
Ġc ertainty
Ġl icense
Ġn igh
Ġn urs
Ġn umer
Ġin formed
at ine
Ġth re
ot te
Ġg ained
Ġbe think
le g
le ft
se mb
st ock
Ġre verses
Ġre ceiv
ri ce
ter ns
ter rible
ro it
ic ip
ĠM is
il ess
ĠC ouncil
ĠS E
ĠS T
Ġsu l
ĠA G
ĠA ugust
ĠH ippolyta
ĠH otspur
Ġall owing
Ġno is
Ġno dd
all el
Ġlo ins
Ġlo aded
Ġman s
ĠL orenzo
Ġup ward
Ġup hold
Ġfa cing
AR R
AR RO
la che
Ġun se
Ġun health
Ġam end
um ps
el an
Ġex agger
ep ing
Ġal oof
Ġal oft
ĠT oulon
Ġsp urs
Ġsp lit
Ġr ites
Ġen sue
ĠHe c
itt ance
Ġch ronic
ign ier
Ġro ots
ĠN ew
Ġad o
Ġad ul
Ġdes per
Ġcl ub
Ġcl osing
ile t
Ġfo llies
unt ary
Ġpleas es
Ġsc ape
Ġnight ly
Ġnight fall
Ġrem ote
ac on
Ġser ving
Ġdown fall
Ġarm ies
Ã© s
IC A
Ġrep lace
Ġthrough out
Ġco x
Ġbre thren
ens ity
TI MER
Ġacc ents
IL OR
Ġend ured
Ġpers ist
li est
Ġimp ert
Ġhapp ier
Ġtre asons
Ġrest s
Ġru bb
Ġmo ist
Ġcur b
Ġplay ers
AB HOR
su es
Ġfire place
Ġcap acity
any thing
Ġlay s
Ġprof ane
Ġint ents
Ġrel ation
Ġrel ate
Ġgrace ful
Ġcor rection
Ġins ist
erv ais
rem ember
Ġthank ed
Ġdire ctions
Ġjud ges
Ġdec ision
Ġgrand eur
Ġdiv ined
COR IN
Ġemb ass
Ġemb raced
cher y
ĠX II
ĠX III
Ġbene vol
ĠLe ontes
ĠAl arum
Pro ceed
Ġmod el
Ġmount ing
fl ies
Ġdet ect
Ġstud ies
Ġid iot
Ġcent uries
Ġop ens
Ġpain ter
Ġeight een
Ġdelight ed
Ġpluck ed
GH OST
Ġscar let
Ġdesert s
Ġrid iculous
Ġauthor ities
Ġdouble t
Ġquiet ly
Ġexpect ations
arm es
ĠHel p
Ġstar ve
Ġdom in
Ġvent ured
Ġvar let
Ġgovern or
Ġreach ing
Ġslight ly
Ġknock ed
Ġcloud y
Ġball ad
Ġencounter s
cont in
Ġsepar ate
BUS HY
Ġincre ased
Ġvol upt
Ġneg ro
VER NON
Ad ieu
Ġod or
Ġinqu ir
Ġheap s
Ġaug ust
Ġshop s
En ough
OS RIC
ĠXV I
Ġspark s
ĠBer nard
ĠBel arius
Ġspr ings
Cour age
BRA KENBURY
Ġextra vag
carri ed
const ant
hen omen
hon our
Ġdar ling
Ġperj ury
fig ured
Ġhind er
Ġgard ens
oward ly
Ġpup il
Ġeg gs
Ġfors ake
ĠBus iness
Ġmerc iful
overn ment
Ġfatig ue
Ġach ieve
Ġancest ors
ĠPhoe be
Ġacknow ledge
Ġcove t
ĠLaw rence
Ġvanqu ished
Ġunsatisf actory
Ġcelebr ated
Ġprophes y
Ġenerget ic
PL ANTAGENET
Ġsuperfl uous
Ġpled ge
lend ower
Ġrespond ed
Ġeyel ids
JESS ICA
MOP SA
MAMIL LIUS
OUN G
lache velle
ABHOR SON
4 8
: --
D re
F rench
F alse
H ard
L u
M erry
N ear
P ol
S te
S OL
S top
T r
T alk
Y ield
a ctions
b roken
d et
d am
f at
f ly
f ool
h ouses
o bs
p op
s qu
u zz
v ous
v ied
w ild
Ġt aint
Ġt ainted
Ġa h
Ġs ne
Ġs ang
re ements
ha pen
Ġo mit
er cy
Ġb its
Ġf el
Ġf ancies
en ough
Ġto ad
Ġp ir
Ġp avilion
Ġp henomen
Ġl ime
Ġl ugubrious
Ġh ides
an ge
Ġhe y
Ġin conven
Ġth igh
Ġg orge
Ġg aunt
le ave
se par
st ers
st ud
ce t
Ġe gg
ill a
ir ation
ion ed
Ġme al
Ġme ad
ur red
ra ise
Ġse wers
Ġde gr
ĠM ine
ĠH ol
rom well
un ciation
Ġlo g
ĠP ir
ĠP ubl
ĠP ope
ĠW idow
ĠW alter
ru de
ĠL ife
Ġkn ocks
em aker
ĠG reen
ĠG olden
Ġsa ils
ĠF ROM
Ġthere to
ĠD ant
ĠR uss
Ġwor ser
Ġpro ver
Ġar ray
Ġal tered
ĠT er
Ġr att
Ġr attle
Ġr ider
Ġr ushes
Ġdis hes
Ġen chan
Ġen light
ci ble
Ġch ick
Ġhere in
Ġspe ll
Ġspe cies
bl ind
TH ER
Ġcl othing
ne ighb
Ġfe ature
It em
ĠMar iana
Ġnight ing
Ġway ward
Ġrem o
ans wer
of fee
Ġunder neath
Ġcomp ly
Be aut
ult ure
ult ies
Ġcour ses
Ġcour teous
Ġem otions
ens ions
wh ose
Ġsweet ness
Ġhour ly
ĠĠĠĠĠĠĠĠ ĠĠ
ĠĠĠĠĠĠĠĠ ĠĠĠĠ
Ġsign ior
Ġmad ly
Ġru ins
aut hor
Ġmer its
fort unes
Ġdisc uss
Ġaff ords
Ġkind s
Ġmist ook
Ġinf all
sc ore
Ġext ric
Ġvis its
Un cle
Ġrel ish
Ġexp iration
ster ies
Ġfoot steps
Ġlow ly
Ġlow est
Ġdraw er
ib us
ĠHer ald
Ġappro ved
Ġbar red
Ġpol ished
Ġsecond s
IM ON
Ġest range
Ġest imation
Ġpost s
pro b
Ġreal ized
Ġconst ruction
Ġcar p
Ġthreat s
Ġrevol utions
Ġmoon light
Ġwoo llen
Ġinv ited
oun cing
Ġsol ic
Ġble w
Ġstart s
Ġcheer fully
Ġscorn s
Ġchurch yard
Ġcat astrophe
ĠHel ic
ĠTit an
Ġspect ators
Ġproc ure
ĠCount ry
Ġball oon
Ġresembl ance
Ġdwell s
Ġconvict ion
Ġming le
Pl ay
ĠRos enc
Per chance
Ġneighb ours
Ġfold s
GU E
Ġadvent ures
Ġaug urs
Ġsail ors
Ġdesc ribed
Ġdisag reements
Cont ent
Ġkins men
ribut ed
Sc arecrow
ĠItal ian
Ġpurcha sed
uls ive
Ġsuffic iently
Ġspr ung
Ġestabl ishment
Ġdil apidated
Ġdiscont ented
ĠCal iban
ĠOffic er
Ġinfant ry
ĠAg rippa
Ġrepres ent
Ġbal ance
Ġhero ic
rec ogn
Ġpear ls
Ġhes itation
Ġshr ill
ĠPis a
Ġflo ating
Ġreco iled
Ġthorn s
ĠCressid a
Ġconvert ed
Ġcrim son
Ġcrim inal
Ġliqu or
ĠKather ine
Ġpup ils
Ġstam mered
ĠSim plice
Ġdistribut ing
Ġcrit ic
Ġaspir ations
ĠTrib unes
Ġgn aw
Cal vaire
Ġvener able
ĠAbb Ã©
Ġappar ition
ĠChamber lain
Ġadop ted
Ġcontrad ict
Ġadjo ining
Ġscur vy
Ġincess antly
Ġdiso bed
Ġextingu ished
Ġcandlest icks
ĠPu celle
ĠJun o
Ġtraged y
Ġsubdu ed
Ġfinan cial
bru ary
ĠRosenc rantz
5 2
A g
A TER
B an
B ishop
C han
C ond
D ICK
E t
F etch
K iss
P AN
S w
S ub
V illain
W ELL
W OMAN
b i
b bed
b read
c ity
f if
f its
g a
h ill
j e
k ers
l ow
l ay
m ill
m ell
p in
p ot
p ill
p ose
p ublic
p ossible
s n
u ated
Ġt il
Ġt ick
Ġa u
Ġa fore
Ġa cted
in ch
in ies
Ġw ages
re f
ha ir
Ġo y
Ġd ower
Ġd ash
Ġd amp
Ġd rows
Ġd ining
Ġc ows
ed nes
Ġp rud
Ġl ass
Ġl ute
Ġin eff
Ġha ven
Ġg ilt
le ar
le ad
Ġis sued
Ġnot withstanding
ri o
ri ot
Ġme ets
our ing
Ġse ed
Ġse asons
Ġli ef
Ġan ointed
ct ure
ct urn
Ġher bs
ĠM ost
Ġk en
ĠS H
Ġsu ret
Ġsu ms
Ġbut ton
ul ating
Th ine
ous ins
Ġsha ken
ant ages
ĠB ig
ĠThe bes
han o
ĠP art
ĠP lease
ru it
ĠL ark
Ġor ator
ĠG lendower
Ġsa p
Ġwhe t
Ġfa ub
la us
Ġun sc
ĠF ool
ĠF ifth
ĠF enton
Ġwhat soever
Ġex empt
Ġour self
Ġwor ried
Ġknow est
Ġj ar
Ġj aws
op ened
Ġdis like
od s
Ġag reeable
te enth
Ġbr ats
ĠN ed
ĠN OT
AL EX
As s
Ġcl own
per fect
ach ing
Ġri bs
Ġdenot e
ab eth
Ġsc ent
iz abeth
Ġgl ances
llow ed
for mer
Ġres our
Ġcomp ound
Ġcomp osition
Ġrep ublic
Ġseem ingly
ĠTh rough
ars on
Ġever more
Where to
Ġconf ed
Ġtre mend
Ġrec ently
vers ing
Ġill icit
Ġdisc laim
Ġreturn ing
Ġshow ers
Ġcur s
Ġforth with
Ġhope ful
Ġmoment ary
ex ec
su ing
ang le
iet ies
Ġcourt s
Ġinter change
ey ed
Ġcor resp
Ġcr am
con ce
Ġshame ful
Ġca vern
Ġshad es
RE IGN
Ġpast ime
Ġgall ery
ug by
Ġfail ing
ĠLe ave
rib ly
ĠAl enÃ§on
urs ions
Ġmed itated
Ġdet ested
ĠPer d
Ġsol itude
Ġed if
Ġsy m
MER CHANT
Ġgro ve
ixt ure
Ġcat hed
Ġexpl anation
Ġlod ged
Ġtear ing
Ġmass es
ĠTit inius
Ġpun ished
Ġvar ied
Ġvar iety
Stand s
Ġprofound ly
ĠCount y
ĠLA DY
Ġfruit ful
Ġsitu ations
Pl uck
Ġclim bed
reg ular
ĠLove ll
Ġsolemn ity
Ġproper ly
Ġdispleas ed
keep ing
cons cience
Ġing ratitude
Ġperil ous
SIL VIUS
Ġacquaint ances
Ġpreced ent
Br utus
pres ence
Ġbill s
Ġlan terns
gn ant
Ġwhisper ing
Ġendeav or
Every thing
ĠAm ong
MONT ANO
Ġplant ed
Ġpenet rate
Ġgather ing
Ġdeceit ful
Ġunfold ed
Ġmot ive
Ġnail ed
Ġhol id
Ġorn aments
Ġsevent y
Ġsevent een
Ġinfam ous
Ġdart ed
Ġmeas ures
Ġfrequ ently
Ġhom age
Ġthirst y
Ġingen ious
ĠKeep er
Ġintox icated
Comm and
Ġwhist le
ĠCorn wall
Ġlar ger
SIMP LE
ĠColl atine
ĠDen mark
Ġcontag ion
spr ing
cra ft
Ġenv iron
Ã¼ cher
Ġchem ise
Ty balt
Ġapprehens ion
phil osop
Ġfrant ic
ĠBah orel
OFF ICER
Ġrubb ish
ednes day
Ġineff able
Ġfaub our
REIGN IER
. )
A dd
C art
D esp
E BE
G ain
L ast
M ENT
O EBE
P ers
P OR
S ister
S OLDIER
S ilence
T ra
T ush
V E
V EN
Y OUNG
b ation
c art
c ary
d ress
d ressed
d anger
e vid
g est
g un
g az
g irl
g iving
h ome
h ine
i ate
l ady
m os
n ant
o ble
p ow
p se
p leas
p osed
p ieces
p laced
s ad
v an
v oc
v iew
y n
Ġt un
he res
Ġa z
in cul
Ġs ow
Ġs urn
Ġw ilful
re nder
re cy
re pid
ou ble
Ġm ap
Ġm use
is se
Ġb aker
Ġf iles
en ched
Ġd uck
Ġd warf
Ġc ake
Ġc ush
ar p
Ġp ell
Ġp end
Ġp ane
Ġp oured
Ġp ounds
Ġl ull
Ġl uminous
Ġh ut
Ġn our
Ġn ick
Ġhe inous
Ġin ches
ĠI ras
im o
Ġe lapsed
ut tered
Ġwh ir
Ġme ed
Ġst ated
Ġst alk
ro lled
ur ous
ra ble
ra ised
ore s
Ġde uce
ge ois
pe ar
and a
ĠC romwell
ĠS hylock
if er
ĠA ud
un icip
Ġv ouch
ĠB a
ĠP ant
ĠP rouvaire
Ġcon sec
Ġkn a
em p
em broke
ol a
ĠG r
ĠG ue
ĠG ervais
Ġsa ving
AR THUR
fe its
ust ere
Ġun ruly
AN IA
ist ing
Ġam ity
.âĢĿ _
au nd
ĠD oth
ĠR ou
Ġar bit
ather ine
Ġbl ast
Ġdis appear
Ġlike lihood
Ġab ound
ag re
ag ne
Ġhand ful
ĠV ienna
Ġspe eches
Ġpo x
ĠN ear
ĠN ym
AL A
Ġdes erving
Ġcha os
Ġpl aint
Ex c
Ex cept
Ġfo il
pl ay
Ġra pt
Ġaf resh
LO VELL
ĠIt s
Ġsc ant
de ep
Ġpass engers
Ġpass enger
sh ow
sh ort
ger y
Ġpre jud
Ġcomm od
IC IAN
Ġatt ained
Ġatt orney
Ġco als
Ġacc um
Ġob sequ
Ġap ron
Ġdist ribute
Ġdist emper
av arre
li ved
Ġever lasting
Ġpray s
Ġgr ated
Ġtre as
Ġtri als
Ġru e
Ġbra zen
Ġsur feit
PH OEBE
Ġhope less
ĠPr ithee
Ġ1 5
Ġstr ing
ex cept
Ġsuff ers
Ġhel ps
whe ther
ĠParis ian
Ġprof its
Ġsent iment
ey e
ĠSt ay
Ġsk ilful
Ġwater y
ĠAt t
Ġred oubled
app ro
rac ing
ib ilities
ask ed
Ġele ction
anc er
Ġsum mit
Ġgall ey
Ġmet ap
Ġact ually
Ġfill s
ĠFrench man
Ġpost ing
Ġquestion ed
Ġself same
Ġvillain ous
Ġcross ing
ĠEnglish man
Ġhur l
Ġcir cul
Ġlab yr
appe aring
Ġconst ancy
Ġtender ly
Pro ve
Ġdest ined
Ġmod ern
set tled
Ġbold ness
bour geois
room s
.âĢĻ âĢĿ
Ġlack s
Ġsuit ors
Ġlib rary
Ġsle nder
Ġviol ently
Had st
Ġmock ing
Ġinj ustice
Ġpursu ing
ric al
DO WER
Ġshut ters
Ġtor ches
Ġrob ust
Ġsens ation
ĠWith in
Ġaccept ance
ĠCha pter
Ġimport ance
Ġfra gment
Ġproc laimed
Ġsmo king
Ġship w
Ġhunt ed
Ġsteal ing
Ġgross ly
Ġbrid al
say ing
Ġwag on
ĠCle on
Ġobtain ing
Ġcher ished
Ġtravel ers
LEN DOWER
Ġspark ling
Ġgrou ps
Ġchat eau
Ġdestroy ed
Ġwond ers
ias m
Ġcla p
ĠCal ais
Ġbal m
Ġpu iss
ĠNe ither
hon est
Acc ording
othe cary
Ġclam our
Ġembarrass ment
Ġcuck oo
Ġnobl eness
Ġperj ured
Cha pter
Ġveh icles
ĠDiomed es
Ġindign ation
follow ed
Ġaccus ation
ĠEl izabeth
DOL ABELLA
oft en
Ġabund ant
Ġabund ance
ĠOctav ius
Den is
grand father
Ġbatter y
Ġcord ial
Ġvic inity
Ġcott age
Ġlat est
Ġdepos ited
Ġbewild ered
Ġpilgrim age
ĠMess ala
DUL PH
Ġnegl igence
ĠJa ques
preced ented
Ġsimpl icity
ĠSyrac use
Ġeloqu ence
ĠSur rey
TIT ANIA
Ġenra ged
CER IMON
ĠGor beau
BED FORD
Hal f
Ġlone ly
Ġfoli age
Ġnumer ous
ĠPubl ius
cturn al
ĠPerd ita
POR TER
) .
B est
C ut
C ass
F ool
G ra
G loucester
G ARDIN
G LENDOWER
H arry
L ight
L end
M ars
N IGHT
N OX
O SS
R el
S oldiers
S ometime
T YR
b al
c all
f am
g am
g own
h ide
h oles
l im
m il
n ature
o bl
p as
p ence
p ardon
t aking
t rue
u bs
v ation
z ier
Ġ |
Ġt ut
Ġt ack
Ġt utor
Ġw rang
Ġw reath
re vet
nd om
Ġm as
Ġm um
Ġb at
it an
it ches
Ġc offee
Ġp ent
Ġp ig
Ġp ud
Ġp atch
Ġp avements
Ġl atch
Ġl iter
Ġl ouis
Ġh ired
Ġhe m
at han
Ġth und
Ġbe to
ce mber
im s
Ġe cc
Ġe pit
ad ays
Ġre he
Ġre ass
Ġmy steries
her s
ver tis
Ġst ove
Ġas sembled
Ġse rene
ess ion
Ġde formed
ĠM OR
ĠM ene
pe ace
and y
ĠC hat
ĠC AR
ĠC ertain
ĠS n
ĠS u
ĠS omething
Ġdo l
ord ers
un cle
all ow
Ġlo cal
ul ent
Ġv ous
Ġv iv
Ġv icious
Ġsha m
ant ime
ĠB ull
ĠB onaparte
ĠP oly
ĠL ou
ĠL and
ĠL od
ĠL artius
Ġup rising
ol ated
pp ers
Ġcom ment
ast rous
ĠF la
ĠF OUR
ĠE r
ĠE LEANOR
to e
row ard
ven u
um s
um aine
Ġgo ver
ĠD ion
ĠO ver
ost er
Ġpro ves
Ġpro logue
ĠT R
ĠT uesday
Ġsp in
Ġsp ar
Ġcan e
Ġr ays
Ġbl oom
Ġen gend
Ġqu aint
che st
Ġdid n
ci bi
Ġch oke
ign or
Ġhat es
ĠN icolette
ĠN erissa
AL ICE
Ġden ies
Ġfl ing
Ġdes k
Ġpl ains
Ġra ndom
Ġper ceiving
be it
ren ity
Ġhow ling
ĠMar qu
Ġsc ars
Ġsc ourge
Ġent rails
Ġfore run
de vil
Ġwr ing
io gn
Ġdown right
for ward
Ġbeg ged
Ġcomp rom
Be comes
Ã© es
cl osed
vent ry
Ġmight ily
ĠTh rone
Ġhast ened
Ġtra ck
li ving
ail ing
Ġfort ress
Ġrest less
UR SU
Ġind istinct
vers ion
Ġsub mit
Ġmis fortunes
ener ate
att ention
Ġmo le
Ġmo ons
Ġmo iety
ĠWhe ther
Ġperson age
ex c
ex p
ang led
Ġsuff ices
Ġdisp ose
com er
Ġtalk s
Ġcountry man
Ġfalse ly
con bridge
Ġfellow ship
Ġinc apable
Ġfight s
RA DE
Ġbar ber
Ġfill ing
Ġir re
Ġfast ing
Re ady
Re volution
aff ord
Ġattend ant
Ġbit es
there fore
Ġbehold s
Ġwild ly
Ġuncle an
Ġhot el
Ġsever ity
Ġinterest ing
Ġthreat ens
Ġlim its
Ġty pe
gr at
Ġinv ite
ien venu
Ġmock ed
Ġsy n
ĠPl ut
Ġconv uls
ĠGu illotine
Ġscar f
Ġsn ake
Ġaccord ingly
Ġvisit ation
Ġreb uke
Ġpoison ous
ĠWith out
Ġcoward ice
fo oted
Ġfaint ly
Ġknock ing
ĠAttend ant
Ġdress ing
Ġann ounced
Ġfrown ing
Ġcustom ers
Ġreign s
draw ing
col ored
Ġaddress ing
Ġcapt ured
Ġprotect or
CON RADE
Ġheight s
Ġdepend s
Ġplan et
Ġimper ious
ĠMag non
sm all
Ġpolit ic
Ġrevolution ary
Ġconsequ ently
Ġboot less
Ġbount eous
occ asion
Ġrul es
Ġprodig ious
bear ing
Ġpu pp
Ġexchan ged
Ġsand s
Ġwra pped
fri ends
Ġresp ons
ĠAlb any
wor ks
Ġassail ed
Ġnobl er
Ġglo be
Ġsplend or
Ġbol t
Ġga ol
Cla rence
pap ers
ĠHall es
Ġdram a
Ġattent ive
mong st
Ġtro d
Ġnap kin
dra wn
occup ied
Ġinsc ription
Mur der
DOR CAS
Ġwarri ors
uil eries
ĠKathar ina
Ġpenit ent
Ġdoct r
ĠGU ARD
Ġunwill ing
ĠJac ob
stra ight
Ġprecaut ion
Ġcondu cted
Ġruth less
Ġpropri et
Ġeclip se
Ġfren zy
ĠTha isa
quar ters
ĠRest oration
semb ly
Ġunhealth y
elan choly
PAN DULPH
Ġsuret y
Ġtremend ous
Gain st
incul o
GARDIN ER
cibi ades
: '
A IR
B oul
B ened
B ossuet
C orn
C ROM
D iv
E nd
E LEANOR
F ire
H igh
I X
I ES
I LE
L orry
M is
N ight
N ap
N ESS
P ed
P LA
P rep
S ad
T LE
V ENT
W ear
W alk
Y S
a cted
b ing
b by
b ring
c ross
d ue
f ine
f ixed
g ate
g age
g rown
i ards
i hil
j ou
l ion
l oyal
m ur
s ong
s oldier
t en
t rou
u ver
w ant
Ġt ak
Ġt asks
Ġt ardy
Ġw itty
Ġm ic
er ness
Ġb en
Ġb ait
Ġf en
Ġf ists
Ġf roward
on us
Ġc rew
ar ce
ar ming
Ġto ys
Ġp ink
Ġl ink
Ġl ends
Ġh ose
ot hes
Ġbe ads
le m
le mer
se au
st ate
st range
Ġnot orious
Ġre se
Ġre verse
ri ls
ter bury
Ġwe bs
Ġst are
ke pt
ur d
ur ther
ra g
ra ll
Ġas under
ic an
ic acy
Ġli ar
Ġan chor
Ġde em
ĠC ould
ĠC ont
ĠC OM
Ġdo ves
if ies
ard in
Ġno ses
Ġno cturnal
Ġlo ses
Ġsha kes
Ġsha mes
ĠB oulevard
ak ers
ru p
Ġkn ell
ol erable
ind eed
ĠG abelle
ig ation
la id
Ġun fe
AN MER
ast ical
ĠF ort
ĠF illes
ĠF roth
ĠE ver
ist ory
ort ing
um ption
ĠD un
ĠD aughter
ĠO liver
ĠR ed
ĠR atcliffe
ĠR ugby
Ġdream t
os m
Ġj olly
Ġbl asted
Ġus age
Ġen f
Ġsw e
Ġsw an
Ġab bey
Ġnow adays
fore seen
Ġqu art
ci er
What e
Ġspe c
Ġlet ting
Ġro d
Ġro pes
Ġro lling
Ġro gues
Ġbr ush
Ġpo ll
Ġad der
Ġad just
ne ither
Ġpl ight
Ġpl ots
Ġfe eding
Ġfo am
Ġri ve
Ġtru er
Ġhow l
Ġold er
Ġhead long
Ġsc rap
Ġcont end
Thou ght
Ġrem ind
Ġpla c
Ġgl im
Ġres istance
Ġcomm er
Ġcomp act
Be yond
Ġhar ms
Ġatt ends
Ġacc ost
Ġstre ams
pen et
Ġapp les
Ġcons p
av o
Ġfort night
Ġchan g
Ġrest rain
Ġbra very
ĠIn n
Ġdisc ern
Ġaff irm
Ġhus h
EM BROKE
cess ion
Ġbes eem
Ġsupp orted
Ġvis iting
Ġfal con
Ġint ently
Ġinde pend
Ġless on
Ġreg al
Ġreg ions
Ġexp enses
ho en
Ġdoubt less
Ġsorrow ful
erv ice
Ġfeel ings
Ġgrave ly
Ġinc ense
Ġinc ensed
Ġca using
Ġval u
ib erty
Ġappro bation
Ġact ivity
Ġcut ting
Ġsix th
Ġpay ment
Ġdevil ish
Ġfail s
ĠFrench men
Ġfast en
Ġcreat ing
Ġaw ry
Ġaw oke
Ġaw aiting
Re ad
itor ies
Ġpen ance
Ġeng ine
Ġattend ants
Ġwatch ful
tw ould
Ġcir c
Ġreal ities
Ġproud ly
Ġconst ituted
Ġtrust ed
Ġwis er
Ġwis est
Ġreven ue
Ġpa ved
my sterious
sp read
Ġobs erving
Ġdef in
Ġstud ying
Ġobject ive
Ġproceed s
Ġlib ert
ITI ON
Ġcompl iment
sembl ing
Ġinj ure
Ġspeech less
your self
Ġjealous ies
ipp i
Ġmurder ous
do ing
Ġfru its
Ġsurpr ises
Ġsurpr ising
Ġpat rol
Ġfeast s
Ġhost ile
Ġjest s
Ġpract ised
Ġfurn ace
Ġmass ac
Ġshape less
Ġfra ught
ĠTy r
Ġintell ect
Ġslight est
Ġcourage ous
Ġcloud ed
ĊĠĠĠĠĠĠĠĠ ĠĠĠĠĠĠĠ
Ġord in
Ġtravell ers
Ġpit iless
Ġeas ier
Ġtrib une
Ġsubst antial
Ġdispleas ing
Bet wixt
wind ows
Ġdig est
Ġpeculiar ity
SIL ENCE
Ġmend ed
LEN NOX
Ġpolit ics
ĠBE COM
Ġgrat itude
Ġconvey ed
Ġcorrupt ed
ĠBel mont
Ġcorp oral
Ġprophe cy
Ġprophe tic
Ġpath s
gra ve
Ġneighbor ing
once au
CR ANMER
MOR TIMER
Ġexceed ing
ĠAlb ans
Ġwhit eness
Ġrival ry
Ġadvers aries
Ġtumult uous
ĠEv ans
Ġprint ed
Draw s
Ġfant astic
Ġmood y
Ġaston ishment
Ġoutl ined
follow ing
shad ow
ĠFlore nt
wit hal
Cor iol
Ġmechan ically
ĠCo ventry
ĠFe bruary
assad ors
Ġcomr ade
Ġdun geon
Ġtrades man
stru ck
Ġdesir ous
Ġpul se
Ġchur lish
Ġbree ze
ĠFab ian
Ġrecre ation
Ġgend armes
Ġflatte rer
Ã® t
Ġbraw l
fav oured
Ġsentine ls
Ġprett iest
Ġprinci ples
Ġbayon ets
Ġsear ched
Ġmagist rate
Ġcoloss al
zel ma
stre ets
Ap pear
Ġpeop les
Ġard ent
Ġcurts y
Ġinspect or
Ġhing es
Ġfrivol ous
ĠSE COND
Lu cius
Ġcathed ral
unicip al
Ġkna very
Ġlabyr inth
ĠMene laus
CROM WELL
9 6
A ng
A ff
B ar
B LE
C AM
C INN
F it
F ENT
G ES
G race
N ame
O ft
P al
P ED
P roud
R EL
T ran
T akes
V ouchsafe
a fe
b ag
c ut
c and
g le
g ies
h ound
h ip
h ours
j ourn
l ie
l ips
p able
p aid
p ocket
r ide
s in
t ish
t ied
w elt
Ã ĩ
Ġ EN
Ġ UN
Ġt row
Ġt ink
Ġa ustere
Ġw aked
re plied
ou ched
ha le
Ġm oss
is ms
Ġb ully
Ġb oughs
it iff
Ġf res
Ġf iring
on ies
Ġd ul
Ġd au
Ġto m
Ġp ages
Ġp ipes
Ġl ake
Ġh ood
an th
Ġn ort
Ġin e
Ġg y
Ġg ull
Ġg av
Ġbe ck
se ed
im ag
ay ette
Ġis olated
al y
ad mir
Ġwith drew
Ġre la
Ġme ek
Ġst ag
ro be
ro ads
ra cks
Ġas h
ic o
Ġse aled
Ġde form
Ġde jected
ĠM er
ĠM am
ĠM US
th us
th rust
ĠC in
ĠC owardly
ĠS er
ĠS on
ĠS oldier
Ġsu ited
ĠA R
ĠA zelma
ĠH O
ĠH ar
ĠH ath
ĠH AV
Ġall eys
out ed
ul se
Ġv ary
Ġman uf
res ist
qu ite
qu arter
Ġsha red
Ġsha ft
Ġne cks
ĠB ell
ĠB rab
ĠW ol
ER ICK
Ġkn itted
Ġsa le
fe nder
Ġun ion
Ġun precedented
Ġun foreseen
ĠF ie
ĠE ve
Ġam ain
Ġam ple
Ġgo al
Ġex pend
ĠD own
ĠD uns
ran ks
Ġpro sec
Ġj ug
Ġal ias
ON T
ass es
ĠT ill
ĠT iber
Ġsp otted
Ġsp iders
He art
He ctor
Ġag itation
Ġsw ans
ĠHe ad
Ġsay st
Ġab b
Ġab us
Ġqu ake
te xt
ag ot
ci ed
Ġch oo
orn ed
Ġbr ink
Ġfl aming
Ġpl ough
Ġfe eds
Ġgra ft
Ġfo g
EL Y
be come
be ginning
Ġover heard
Ġcont aining
Ġfore told
Ġpre gnant
Ġevery body
Ġsm other
Ã© n
Ġla vish
So on
Ġhar der
Ġatt ire
Ġtr ot
Ġtr un
ens ible
Ġsweet s
Ġcons ists
av ille
Ġimp ass
Ġimp ud
Ġimp osed
ĠĠĠĠĠĠĠĠ ĠĠĠĠĠĠĠĠ
ail ed
Ġconf in
Ġconf ounded
Ġgr ateful
Ġrest raint
sw ain
sw ord
Ġind isp
ED ERICK
Ġsec recy
Ġsub mission
Ġnoble man
Ġchar ter
Ġdisc us
ĠAn swer
Ġmon aster
Ġposs ibility
AND RA
ial s
Ġneed less
Ġbreat hes
Ġinf ancy
pr in
ĠPr uss
Ġstr at
ex am
su le
Ġste eds
Ġvis or
Ġvis ited
An swer
Ġint repid
ĠCa wd
ĠCa fÃ©
ĠBe hold
Ġreg ained
Ġsad dle
vel ope
app roach
gg art
Ġorder ly
rem pt
onder ful
Ġmur ders
Ġpar cel
Ġsuccess ive
Ġsmall er
Ġve in
Ġhither to
Ġdec rees
ift ed
Ġcut s
Ġcra fty
du ce
Ġaw ful
Ġrespect able
Ã¨ ve
ĠAl though
ĠAl cibiades
Ġkne els
Ġharm onious
Ġlaugh s
Ġmove ments
Ġmount s
Ġnecess ities
Ġpublic ly
Can st
arch y
ham ps
Ġdef iance
Ġdet ached
Ġlack ed
Ġvict or
Ġprov ost
Ġprov oke
Ġsqu ares
bre ast
bre aking
Ġleg itimate
Ġcompl ications
Ġmock s
Ġpursu es
Ġpursu its
Ġexam ining
Ġtrans g
Ġtrans l
Ġbelong ing
Ġincl uded
Ġrough ly
Ġcost s
ĠVol umn
Ġdrown ing
Ġwhis pers
Ġconsider able
ĠAd onis
Ġunfort unately
Ġdesign ing
ĠCon vention
GR EEN
Ġfun ctions
Ġdrunk ard
Ġmonst ers
AV IUS
Ġreply ing
Ġincre asing
ĠCan terbury
Ġcoff er
Ġeag les
Ġobst acle
Ġtriumph s
Ġpress ing
mend er
Ġheav iness
Bel ike
ĠBrit ish
ĠBaptist ine
pres ent
sm ith
Ġtap er
Ġinvent ed
Ġstomach s
Ġreck less
Ġpistol s
Ġearnest ly
Ġcab rio
ĠAb bey
Ġmor sel
Ġusurp ing
Ġdecl ine
Ġoverth rown
Ġrecon cile
Ġwitch craft
hus band
Ġfan cied
Ġarch bishop
Ġdispl ay
aps ack
Ġresc ued
comm un
Ġassail ants
Ġrequire ments
Ġembarrass ed
Ġtest imony
Ġspecul ation
Ġpatri ot
Ġpatri cians
Ġdecided ly
Ġmeas ured
spect or
Ġfrequ ent
Ġbla ze
ĠJes u
boy s
Ġmechan ical
Ġliqu id
ĠFe uilly
Ġinfirm ity
Ġstab bed
Ġdiam ond
Ġcontri ve
ĠGon z
Ġdistribut ed
ĠBeau fort
Ġtoss ed
Ġentang led
Ġaut umn
Del iver
Ġinsol ence
Ġninet een
Ġenri ch
Ġmach ine
ĠWatch man
Ġbul k
Ġfac ulties
OCT AVIUS
Ġcann ons
Ġenig ma
Ġbrist ling
ĠPed ro
ĠFR EDERICK
Ġburd ens
Ġimpe ach
Ġdiscom fort
ĠStep hano
Ġwip ed
Ġstupef ied
ĠBed ford
Ġillust rious
Ġsurv ive
ĠEsc alus
Ġfert ile
unte ers
Ġmans ion
Ġcox comb
Ġaz ure
Ġepit aph
Ġmic ro
CINN A
FENT ON
PED ANT
ĠCawd or
; '
; âĢĿ
C LEON
D ie
D ep
F oul
J ud
K ind
L ives
M eet
O UL
O OLM
P ar
P ur
P ass
P age
P hil
P EMBROKE
R est
R ec
S on
T rust
T each
W omen
W aterloo
W rite
Y Z
_ âĢľ
b ad
b ons
b rand
c ar
d ur
d ling
e z
f ashion
f illed
f ront
g ne
h ot
h ors
i i
k ne
n ine
o ir
r ings
r oop
s it
s en
s ick
t il
v ar
v ill
v illain
w l
w aiting
Ġt ire
Ġt umb
Ġa in
in ha
in ally
Ġs inking
Ġw ick
ou st
Ġm essengers
Ġb athed
it tering
Ġf itting
Ġf owl
en or
on c
Ġd ict
Ġd ug
Ġc ed
Ġc ash
Ġc ured
ar io
ar ian
Ġto ilet
Ġp oo
Ġp ard
Ġp ensive
Ġin val
ot ing
as ies
as phe
ve ying
Ġg ear
le ment
st retched
et ition
ill ity
ith ous
ent ious
Ġis n
al ong
ri g
Ġme l
Ġme agre
Ġwe al
Ġwe ighed
Ġst ew
ro yal
âĢĿ âĢĶ
Ġan ew
Ġso bs
ĠM et
th inking
To gether
ĠC r
ĠC er
ĠC ar
ĠC ond
ĠS i
ĠS ac
ĠA RE
ĠA rab
ĠH y
est ienne
un uch
Ġlo af
Ġlo athed
ell en
ĠB u
ĠB oth
ĠP embroke
ĠW oe
em ned
em pered
Ġup l
ind a
Ġsa ge
Ġsa uce
ig onus
Ġun settled
ĠF ear
ĠF lu
end om
um ped
Ġex cl
ran ces
ran Ã§
Ġj et
Ġj our
ĠT ri
ĠT ra
Ġsp here
Ġpr ate
op es
Ġdis astrous
ap ly
Ġen com
ĠJ er
Ġsay est
fore st
ound ing
ci ences
ĠV iol
For give
Ġch ival
CH OOLM
bl eness
ĠN ight
ĠN avarre
Ġfl our
Ġfl owed
Ġany body
Ġcha l
Ġcha sed
Ġpl at
Ġfe es
Ġfe ign
ile y
per ceived
Ġgra ced
Ġri pen
RO OP
Ġra ft
Ġra iling
be arer
Ġtru ce
TER BURY
ac qu
de v
Ġthought fully
Ġwar med
Ġres isted
Ġcomm ends
cl oth
Ġrep roof
Ġco pe
Ġtr am
Ġem ig
une real
Ġend less
Ġap ost
pen ny
Ġpur ses
Ġfollow er
:âĢĶ âĢľ
Ġass ur
Ġform al
Ġgu ise
ED Y
Ġcount y
Ġbra zier
ĠShe pherd
so on
Ġter rif
Ġhor rid
ph ine
Ġinst alled
Ġadv is
Ġadv ocate
Ġmist akes
og s
Ġlie u
Ġstr ay
Ġstr ides
su per
Ġadd ing
Ġste ady
Ġvis ions
you th
Ġdisp lace
Ġdisp utes
Ġanswer ing
Ġprom ising
Ġint im
Ġrel ent
Ġrel ated
Ġrel ieved
Ġfaith fully
Ġgir dle
Ġcr ushing
Ġgener osity
Ġland lord
gg ar
Ġstra it
Ġca itiff
Ġpar as
Ġwin ning
ĠAs k
UT E
Ġport rait
Ġact ual
fer red
Ġdra in
Ġwel kin
RI ER
Re ally
xt on
Ġhealth ful
AD E
Pro claim
Ġ18 23
Ġmusic ian
Ġcar ved
co al
val ides
Ġsever ally
pre he
ĠRe ignier
Ġid ly
Ġdri ves
Ġconfess ed
Ġign oble
Ġprov ision
Ar ch
Ġblind ness
Ġentreat y
mon th
Ġmort ality
âĢĶâĢĶ ,
pher ds
Ġtrans form
Ġaccord ance
MESS ALA
Pe ople
Ġphys iogn
Ġsto pping
ĠJul ius
ĠCor inthe
Ġcharac ters
Ġutter ing
Ġutter ance
Ġur chin
law ful
ĠEx c
Ġspect res
Ġconvent ion
ĠVol ume
Ġdisg ust
Ġdisg raced
Ãī lys
ĠAd rian
Ġdiss ip
Ġvir gins
ĠFl or
ah lia
Ġune ven
Ġemer ging
Ġarg uments
Ġflat tered
Ġhunt s
Ġdece iv
ĠPol ice
Ġassoci ates
Ġunexpected ly
Ġattempt s
Ġsubst itute
ĠSil ence
ĠSil vius
Ġpack et
Ġdeter mination
Ġsearch ing
Ġoccur rence
Ġadmir ing
Ġreve ls
Ġunpleasant ness
Ġdign ities
ĠDid o
Ġing rate
Se ction
Ġplan ks
Ġchief est
Ġemp ire
Ġtap ster
Ġtim ber
Ġder iv
Ġassured ly
Ġtroubles ome
Ġendeav our
Ġendeav ors
Ġchast isement
ĠMil ford
ĠMAC DUFF
Ġmor ality
ĠSic inius
Ġapparent ly
Ġbud s
Ġrecon cil
Ġnobl est
Ġelev ated
Ġdecla re
Ġpoet ry
Ġreco very
Ġstead ily
ĠGerman y
Ġrum our
Ġmaj estic
Ġcaut ion
Ġpant ing
omb ard
Ġplate au
ĠLong aville
Ġinvol ved
ĠAng iers
Ġappla use
Ġresolute ly
Ġyawn ing
Ġwarri or
Ġprovo ked
dark ness
Ġaugment ed
Ġninet eenth
rend ing
Ġconject ures
Ġtyrann ous
Ġdisin her
UTEN ANT
Ġrepl ies
Ġirr itated
BARNARD O
Ġconsumm ation
dire ction
Ġcounsell or
Ġtwink ling
DION YZ
GLA S
Ġgig antic
Ġbeque ath
Ġunfaith fulness
Ġcess pool
Ã¢te au
Ġbast ards
Ġsul ph
Ġprover b
Ġnighting ale
ĠHelic anus
Ġdrows y
Ġcorresp ond
ĠAud rey
ĠBa iley
TYR REL
URSU LA
Ped ant
hoen ix
Ġnort hern
ĠBrab ant
rempt ory
ĠFlu ellen
CHOOLM ASTER
DIONYZ A
' re
B BO
B eshrew
C ast
C ount
C ITIZEN
D ef
D arnay
F ree
G AD
H ush
J es
L ea
M ist
N CAN
O u
R oyal
S ET
S CHOOLMASTER
T ro
U GLAS
V irtue
W oe
Y onder
Z ounds
_ .âĢĿâĢĶ
a i
b bles
b urst
c ers
e ither
e rer
f ish
g led
g race
i astic
m ove
o Ã®t
r ations
s ac
s oldiers
t ail
w arm
y ear
z a
Ġt attered
in te
in ane
Ġs ke
Ġs ighed
Ġw ak
re ci
ou p
ou ches
Ġm ason
is ive
Ġb ows
Ġb iting
Ġf aded
Ġf isher
or gan
Ġd ing
Ġd ans
Ġd welt
Ġc it
Ġc ask
Ġc asket
ar me
ar vis
Ġp ious
Ġp angs
Ġh ook
an ed
Ġhe al
Ġth ir
as ci
ĠI mp
Ġg ap
Ġbe ach
Ġbe ef
se wer
Ġe unuch
ent ric
al o
al one
Ġre ct
Ġre ek
Ġre lease
ly mp
ic ating
Ġse renity
Ġso ci
ĠM ed
ĠM ESS
ĠM IS
ĠM estienne
Ġk er
Ġk ick
th ri
Ġat mos
and ra
ĠH app
ĠH ougomont
un er
all owed
ell ed
Th row
Ġman aged
ous seau
Ġsh ivered
ant ing
ĠB all
ĠB ARDOLPH
red er
ĠP ut
ĠW ednesday
ĠL UC
em and
Ġor atory
ol as
AR Y
ig ible
la gr
ĠE re
ort ions
Ġex clamation
ĠD uring
ĠT ru
Ġout look
Ġr oused
Ġbl ushes
Ġdis d
ap ol
Ġen chant
Ġen velope
Ġag ents
Ġag itated
itt any
Ġsome body
pt on
Ġhat ch
Ġbr im
Ġpo pp
Ġad vertis
own ed
Ġden se
Ġden ounced
Ġfl ashes
Ġcha riot
Ġcl asp
ne ck
Ġpl um
Ġfe ats
Ex cellent
ack ed
ons ense
ĠK n
pl ing
Ġri cher
RO CHE
Ġra ges
Ġper sec
be came
we red
Ġover take
Ġpart ition
ac cept
IR AS
igh ter
Ġgl oss
Ġgl owing
Ġwar y
Ġbeg ging
Ġcomp arison
Ġpres c
Ġhar lot
Ġrep etition
Ġco vert
Ġco zen
Ġafter ward
Ġback ground
-- âĢľ
Ġpers pect
Ġtra ces
Ġtra verse
Ġset tle
DU NCAN
Ġimp ure
ef fect
Ġjust ify
Ġsign ed
Ġhapp ens
vers y
Ġcount ries
Ġhold er
ever al
Ġmer riment
Ġill usion
Ġappe ll
ĠIn valides
Ġdisc onc
Ġmon k
Well ington
Ġdear th
Ġworth ier
Ġworth iness
Ġworth iest
PH ILO
Ġearth qu
Ġbu ff
Ġair y
Ġmean er
Ġbes et
Ġcare er
Ġdep ression
whe el
ĠDo ll
Ġmar ched
com pl
com prehe
Ġinter se
Ġsk ies
ĠAnt ium
ĠAnt igonus
Ġgener ation
Ġgener als
vere nt
iff ic
Ġabs urd
Ġprop osed
Ġbreath s
ĠBr ittany
Ġsuccess fully
amp ed
Ġmet e
GO BBO
RI B
Ġdro ve
Ġrequ ires
Ġfail ures
Ġroyal ties
Ġcast ing
under stood
Ġhur ts
rust ed
Ġlab oured
Ġrich ly
min ating
Ġbri ghter
Ġreven ges
ĠLuc ilius
Ġarri v
Ġsho emaker
Ġenjoy ed
Ġenjoy ing
Ġmed itating
she et
ob sc
SH ILL
Ġte a
ĠLa few
Ġstud ent
Com ing
Ġfright ed
Ġsatisf actory
Ġcru cifix
Ġpet rified
Ġty rants
cer ity
Ar ise
pass ion
Ġentreat ies
lan che
Ġer r
ĠCom te
Ġwed lock
Ġcop ying
Ġmock ery
Ġbare foot
Ġdread ed
ĠU nder
Ġgain ing
Ġsucceed ing
ĠDe cember
De v
ĠChrist endom
Ġexam ination
Ġoffer ing
Ġsigh ing
ric ane
Ġimag inary
Ġhop ing
DO UGLAS
can non
ques ous
ĠWh ither
Ġdeliver ance
Tru mpets
CO X
Ġexcell ence
Ġmass ive
Ġdescend s
Ġsal on
Ġones elf
Ġdefend ed
Ġamb assador
Ġserious ly
Ġvent ures
Pr ince
Ġver itable
Ġbrief ly
Ġsen ator
Ġexpress ive
imp ossible
Ġburst ing
fit able
reg n
Ġvex ations
Ġassoci ation
Ġneighb ors
VER GES
Ġsour ces
Ġkneel ing
col our
Ġreve aled
Ġsail or
Ġdesc ried
athe mat
Ġaspect s
Ġay e
Ġdru gs
MA YOR
Ġmult ip
Ġghost s
Ġstick s
Ġcontempl ate
eat en
Ġ5 0
Ġshri eks
Ġfiend s
Ġnet tles
see ing
Me antime
Ġpred omin
Ġcla pped
conf idence
Ġhero es
Ġgoss ips
Ġunjust ly
Ġdeb ate
Ġshr ink
Mont parnasse
Ġconfused ly
adv antage
Ġexped ient
Ġhaunt ed
Ġfulf illed
ĠFau vent
sl ow
ĠBoy et
Ġencl osure
Ġdot ing
pol ice
Ġribb ons
ĠBus hy
Ġproble ms
Ġfatig ued
Ant ony
Sm all
Ġcott on
ĠMin ister
Ġrecre ant
SIMP COX
Ġoper ation
Ġforebod es
Ġflatte rers
ĠSaturn inus
Ġtot al
Ġsland ers
Knock ing
IF E
Ġpest ilence
ĠBen volio
RATCLIFF E
sil ver
Ġdole ful
lean or
Ġfath om
Ġvag ab
Ġeleg ant
Ġecon om
ĠMunch kins
Ġvio let
comfort able
Ġawak ened
Ġimped iment
Ġchamp ion
Cap tain
Ġengulf ed
Ġhack ney
Ġlodg ings
Ġoy ster
Ġedif ice
Ġholid ay
ĠRou en
Ġcommod ity
ĠFla vius
Nap oleon
Prep are
Coriol anus
Ãĩ ON
ĠMUS ICIAN
ĠCin na
ĠDuns inane
Ãīlys Ã©es
GAD SHILL
asci vious
Ġatmos phe
3 0
A f
A mb
B er
B ab
B ase
B rave
C old
E G
E r
E GE
F ar
F ellow
G rand
H um
H IS
L es
L ux
M in
S n
S al
S ydney
T S
V ARRO
W idow
_ .âĢĿ
b ur
b raid
b acc
b rain
c are
d istance
f ranc
f inite
g ation
g otten
i ates
k ward
l ic
l ies
l ier
m ist
m ire
m istress
n ic
o a
o ffic
p age
p urse
p ipe
r ative
t ru
t ouch
t rap
v in
v ile
v ices
w right
w itted
w alls
y ers
Ã ¯
Ã ¹
Ġ *
Ġ -
Ġ âĢ
Ġ rows
Ġt ha
Ġa uspicious
in ine
Ġw ins
re ly
re ceived
Ġo o
Ġo ats
Ġm es
Ġm ul
Ġm ission
Ġb er
Ġb ide
Ġb ordered
Ġf ickle
Ġf iac
Ġf unereal
Ġd iz
Ġc ert
Ġc ull
Ġc ip
Ġc attle
Ġc laws
Ġc ousins
Ġto e
Ġp ins
Ġp onder
Ġl ic
Ġl ick
Ġl inger
Ġh un
Ġh ips
an iel
Ġhe d
Ġin complete
Ġth wart
ot ent
ot hed
as ant
ĠI ach
âĢĻ ?
Ġg au
Ġg ran
Ġbe et
le mn
ch urch
im b
im ber
et ies
ut tering
ir ard
ir ls
id a
id dle
Ġhis s
Ġst ings
ke ley
ur t
ur able
ra cy
Ġas sembly
us ale
ic ero
Ġse iz
Ġse als
Ġan ch
th orn
pe culiar
ĠC elia
ĠS pe
ĠS av
ĠS TR
ĠS imon
ĠS ickness
if ter
if ully
ĠA ust
ĠA cc
ĠA men
ĠA mer
ĠH o
ĠH undred
est ions
un ed
un ct
Ġno stri
ell y
ul via
Ġv alley
Ġsh ocks
Ġsha med
ĠB Y
ĠB id
ĠB ord
ĠB ear
ĠB alt
ĠB lachevelle
ĠB ienvenu
EN ÃĩON
han ging
ĠP AR
ĠP ass
ĠP LA
ĠW orth
Ġcon cent
Ġkn apsack
em s
ol f
Ġsa fer
fe re
Ġun ity
Ġun pre
Ġun lawful
ĠF ar
ĠE leanor
ist ence
ist ocrat
um ny
ĠD umaine
Ġle vied
os al
Ġj er
Ġj oc
Ġj ades
Ġsp ied
Ġsp acious
Ġsp heres
He y
Ġbl ond
Ġdis per
OR US
Ġen large
ff er
Ġsw ine
Ġab uses
che ap
ag us
ĠV ent
Ġch ill
Ġch ina
AL ENÃĩON
Ġmust ard
Ġad ds
Ġden s
ild ren
oy ed
Ġcha ff
Ġpe remptory
Ġcl ut
ne ed
Ex ceed
ab and
Ġpart ial
Ġsc re
Ġsc are
Ġent it
Ġrem ed
Ġpass port
iz el
Ġpre cip
Ġcomm otion
Ã© phine
Ġla wn
cl ose
Ġatt racted
ens able
Ġwork men
wh olesome
Ġret ained
ĠTh ird
When ce
Ġtra versing
Ġdist aste
Ġstand ard
Ġcons olation
Ġimp regn
Ġbus hes
Ġright ful
Ġass isted
Ġtre ble
ia lect
sw ear
Ġrec ount
ĠTo pas
Ġmis carry
Ġsur geon
Ġgi bb
Ġworth ily
Ġinf ring
ilt s
UL L
Ġ1 2
Ġmean est
Ġsun light
Ġbo ister
Ġstate ly
Ġsleep y
Ġste alth
Ġwa its
Ġprof ile
Ġdan ces
Ġinter cept
Ġint ends
Ġsignif ied
Ġnews papers
ĠSt afford
Ġdoubt ed
Ġdel icious
AG EDY
Ġcle ared
Ġpra is
esar io
Ġhorse back
Ġmin ion
Ġran ge
Thy self
Ġprop ose
Ġprop itious
Ġinc ont
Ġquar re
Ġpar allel
Ġappear ances
Ġcommand er
Ġdec ide
Ġsum mons
ub a
Ġport s
Ġdem ean
Ġdra ught
Ġdra gging
Ġpay ments
Ġir regular
Ġmid wife
Re ceive
under standing
Ġround s
Ġlead ers
Ġdev ised
Ġgaz es
Ġproud est
Ġrespect ful
Ġlab ours
Would st
cend ed
Ġcontin ual
Ġmarry ing
Ġenc umbered
Ġdam age
Ġdam ask
Ġmod erate
sp ur
Ġmusic ians
rel ig
Ġcar pet
ĠLa f
Ġsac rament
gu ing
dis appeared
gr ateful
go ons
Ġentreat s
Ġdi adem
Ġring ing
Ġknight hood
See k
Ġoccasion ally
Ġpluck s
hand some
Tell son
Ġav ail
Ġsport s
Ġmem ories
Ġexpect ing
Ġexpl oit
Ġsens ual
Ġwid ows
Ġaud acious
ĠBar b
Ġstar ved
after wards
Ġcost ly
Ġdeg enerate
Ġcalm ly
Ġcharacter istic
Ġmiss hapen
esp ierre
Ġloud ly
Ġstrugg ling
Qu ite
Ġcred itors
rep res
Ġcart s
Ġtravell ed
Ġdishon est
Ġdishon oured
born e
Ġsolemn ly
ortun ity
Ġbuck le
Ġpack age
Ġbrid le
Ġfro zen
Ġaim s
Ġsmell s
col m
Ġreve al
ĠBl Ã¼cher
Ġrefle ctions
Ġcommun ication
Ġweight y
zz led
Ġimper ceptible
Ġdiscour aging
Bl ood
Ġcompanion ship
Ġharsh ly
Ġghost ly
Know ing
ĠBer keley
ADR IAN
Ġnation al
Ġsou ven
Ġparent age
Ġnet tle
Ġnet work
war rant
Ġesteem ed
Ġdamn ation
spe aking
Ġgent ry
bes ide
Ġgroan ing
Ġmagn anim
Ġcareless ness
Ġchest nut
Ġpil ot
Ġped ant
ĠHa ving
ĠPrin ces
Ġfant asy
ĠInd eed
ĠMerc ury
Ġoutl ive
Ġvig il
Ġvig orous
Ġstum ble
ĠEl bow
Ġsurm ounted
ĠBab yl
Ġcreep ing
Gu ard
Ġdefect ive
Ġmaj ority
ĠJud as
Ġcompet ency
Ġattent ively
dr inking
ĠSim ple
Ġredoubt able
Ġorigin al
CAN TERBURY
bu ild
Ġcontri ved
Ġornament ed
ĠBour bon
Ġperplex ity
Ġcrit ical
JE CT
Pet it
Ġwand ered
Ġanticip ated
DOR SET
Ġcy cl
ĠMusic ians
Ġcontag ious
olog y
ĠThan e
ĠKathar ine
Ġrom ance
Ġsentine l
Ġprinci ple
ĠFour th
Ġarrange ments
Ġenthus iasm
Happ y
Ġfum bled
Ġmusk et
Ġposter ity
ethe less
ĠAss izes
Ġtrave ls
Ġshiver ing
Ġeyeb rows
Ġsymb ol
Ġblem ish
ĠDu kes
ĠRem ember
Ġclos er
Ġlit ter
Ġintro duced
Beaut y
je ctions
Ġenviron ments
Pers u
Exc use
Ġmetap hor
hide ous
ĠTR AGEDY
IX TH
ĠDun can
Ġcirc uit
ĠFlorent ine
Ġmanuf act
ĠWol sey
Ġmonaster y
Ġstrat age
til ene
reder ick
lagr ation
EGE ON
bacc o
ĠIach imo
usale m
Ġdisper se
. ;
5 0
6 0
8 9
A OL
B lack
D est
D ism
D isc
E UTENANT
F RO
F ortune
G host
G REY
I WARD
J O
J ustice
O pp
P o
P rom
P ard
P ast
R en
R ob
T O
V IN
a ired
b ran
b ound
b ub
b attle
b alls
b rave
c oun
c osm
d ie
g old
g ener
m eet
m ary
m oney
m elancholy
n one
n ance
o ise
s ake
s ure
s ilence
w ish
w atch
Ġ END
Ġ icy
Ġt ones
he aven
Ġa che
in ers
re ign
Ġo h
Ġm ates
Ġm uzz
Ġb ate
it ory
Ġf ash
Ġf asc
ll e
Ġd ub
Ġd ung
Ġd usk
Ġc au
Ġc ared
ed ly
Ġof fender
Ġp ert
Ġp iled
Ġl en
Ġl ancer
an cient
an uary
Ġn avy
Ġhe ath
Ġhe ark
ĠI ll
âĢĻ ;
âĢĻ âĢĶ
Ġg ren
Ġg utter
Ġg hast
ow land
ow ls
Ġbe ak
Ġbe fits
st ained
st rous
et ched
Ġe b
ir ds
Ġis sues
al so
ad ded
Ġnot able
Ġre appeared
Ġfor ged
Ġst ark
Ġst ooping
ra ins
us ill
us sels
Ġde als
Ġso lace
ĠM e
th ird
ĠC ab
ĠS part
ĠS wear
ĠS IXTH
Ġsu nd
ĠA f
ĠA mb
ĠA dd
ck en
Ġall ay
out side
ul ars
Ġv owed
Ġman usc
Ġman gled
ant ou
ĠB es
ĠB less
ĠP uck
ĠW omen
Ġcon ceived
Ġkn ots
em er
em pl
ol ved
ind er
ĠG ard
ĠG OO
âĢĶ _
Ġsa g
Ġwhe l
Ġfa b
ig s
ig gard
la ire
la ugh
fe ar
fe ited
Ġun rest
Ġun ited
Ġun grateful
Ġcom est
ast es
au ff
Ġgo est
Ġex alt
ĠD raw
ĠD roit
ĠO VER
ĠR ousseau
Ġle vy
Ġar rog
ĠT uileries
are n
Ġr ated
Ġdis loyal
ĠJ arvis
ness es
For bear
Ġspe ar
Ġro oted
Ġpo ets
Ġpo ignant
ĠN O
wn y
TH OMAS
As k
ert ure
,âĢĿ âĢĶ
Ġcha llen
Ġpe ck
Ġfe igned
ber ry
pl an
Ġheart y
Ġper pend
be ians
ren aille
ab ove
Ġpart ners
aint ies
Ġsc or
Ġsc rat
Ġent h
de al
Ġgl ories
Ġres erve
Ġcomm iss
Ġcomm ended
Be en
Ã© on
Ġrep ute
IL LOU
wh is
Ġback ed
har p
har ness
Ġdist raction
av al
Ġimp et
Ġconf ines
Ġchan nel
Ġass ign
Ġform ing
Ġform at
sw ald
Who ever
Ġcount ing
Ġmer ited
Ġbra g
Ġter r
ĠAn jou
AND IT
Ġmo e
Ġhusband ry
Ġdoes n
Ġstr ate
Ġbo on
Ġbo il
Ġbro ils
Ġste als
OM ENES
Ġsupp ress
Ġstri p
Ġsound ing
Ġdark ly
Sir s
Ġdan ced
Ġinter ven
Ġinter fere
Ġsk ins
Ġcr is
cle ar
con vers
Ġred uced
ĠQ ua
gg y
ĠNo ble
Ġsat in
ĠMy tilene
Ġstra ined
Ġcarri on
ĠBr other
Ġpar lor
ib el
Ġwin ters
lo qu
Ġhair y
Ġhonest ly
Ġadm on
Ġground s
aw d
Ġtend ing
ĠSo ciety
Ġpast ure
Ġcommand ing
chan ts
Ġdec reed
Ġdec ayed
ĊĠĠĠĠ ĠĠ
LI EUTENANT
Ġact ing
Ġact ors
Ġpol ite
Ġdem i
Ġir ons
Ġaw kward
Ġsla ught
TR IA
Ġemb ro
Ġdev ices
ĠSc roop
Ġcal umny
Ġreal ize
cent ury
rib es
Ġhuman e
Ġconst able
AD AM
Ġesc ort
oc olate
happ iness
sp o
sp ir
Ġweak er
ĠGloucester shire
ham pton
gl oom
Ġcar b
Ġcar n
oop ed
Ġsoft en
Ġdet ach
Ġremain der
Ġview s
Ġlim ited
Ġspo ils
Ġmir acles
Ġentreat ed
Ġed ict
Ġleg acy
Ġequ ip
CLE OMENES
Ġinj urious
Ġthri fty
Ġinstru ctions
Ġstart ing
ĠPl ay
ĠMon mouth
GH BY
Ġforget fulness
ĠDe ad
Ġrepe al
Ġprodu ces
Ġsole ly
ific ant
do ors
Ġtor ments
Ġfeast ing
Ġmut ton
shop s
Ġpun ch
Ġfirm ament
just ice
Ġfaint ing
Ġthrust ing
Ġimm ensity
Ġdirect ing
Ġwarm th
Ġann ounce
Ġconvict s
Ġrend ers
Ġcustom ary
Ġfond ly
Pl ain
Ġrust ic
Ġelder ly
isc op
Ġvol unteers
Ġbas est
Ġod ious
pet ual
Ġlament ation
Ġstat us
SP IR
ĠUn cle
Ġtum bled
Ġcapt ains
Ġcapt ivity
has ar
ĠPhil ippi
Ġtempt ation
ĠTH IS
Ġconvers ing
Ġener gies
Ġemp has
Ġmaiden head
Ġmild ly
ĠHeaven s
Ġgrat is
sur pr
Ġflood s
Ġcover ing
Ġque ens
Ġthread bare
Ġcontro versy
ĠAm az
ival ent
Ġfart hest
ĠAb out
Ġgle ams
ĠAlex as
wr iting
Ġdawn ing
char ming
Ġrepres ents
Ġnaught y
Ġmot ives
mom ents
Ġtig ers
Ġrecon c
Ġhes itate
Ġdisturb ing
Ġtransp ort
Ġtur f
Ġoverwhel m
comm and
Ġcong reg
Stri kes
SAND YS
Ġped est
Ġmurderer s
Ġobserv ance
Im mediately
Ġbrand y
Ġshoot ing
del iver
fig ure
ĠMal colm
Ġbegu iled
Cons ider
Ġlun atic
Ġunm arried
Ġsurm ount
Ġrev ive
Ġdismiss ed
Ġcraw l
Ġling ering
Ġindul ged
Ġident ity
Ġintox ication
Ġmerc en
IV E
walk ing
Ġunw elcome
Ġsucc or
Ġprost rate
Kne els
Kne eling
Ġexclaim s
ĠCol onel
Ġindisc reet
ĠSaturn ine
tran s
ĠTr inculo
Ġcalcul ated
Ġasp ire
Ġorphan s
Ġbayon et
BL UNT
Ġinfer ior
Ġdeliber ate
sim ple
Ġlou ng
Ġlou der
Ġunconscious ly
Ġmuff led
Ġappoint ment
Ġconstru cted
Mean while
Ġscrutin ized
Alex andria
Ġtrad ition
Ġrobber y
cir cum
Ġost ent
Ġbrut al
Ġverd ict
ĠHec uba
Ġimpert urb
contin ued
Ġcovet ous
SOL ANIO
Ġinconven ience
ĠPir ithous
Ġratt ling
Ġinfall ible
Ġtil bury
Cart on
evid ently
ĠGue lemer
athan iel
Ġecc entric
exc laimed
Ġenf ranch
ĠTyr rel
Ġine v
Ġash ore
ĠHAV E
Ġcabrio let
ĠGonz alo
Phil ip
ĠViol a
Ġphysiogn omy
Ġcit ad
ĠMESS ENGER
Ġdiz zy
Ġboister ous
FRO TH
Ġfash ions
Ġmanusc ript
ĠGOO D
ILLOU GHBY
ĠQua i
' ?
. --
4 0
A v
B o
B ra
B ESS
C am
C arry
D ra
D are
D rum
D oubt
E CEN
E PER
E CT
F ell
F ine
G ave
H ie
I FF
J ack
J erry
M ag
M artin
M ercy
O ffic
P ri
P our
P ont
R o
R ich
S ing
S ent
S ic
S inging
T aking
T WO
W ork
W ait
W orse
a ign
a its
b il
b one
b ones
c u
c ove
c rown
c aught
d ened
d uc
d iffic
e ge
e ze
f avour
g overnment
h orn
h ung
i ating
j ourney
l ist
m em
m arried
m agn
n ings
p roud
p Ãª
r ise
s at
s le
s orrow
s ister
s kin
s ino
t or
t own
t ween
t rem
v ais
y ally
Ã Ĩ
Ġ `
Ġt urb
Ġt ickle
he nt
in ish
in ating
in ently
Ġs ith
Ġs ainted
Ġw ren
ha ge
ha lt
Ġm am
Ġm ate
is el
er ates
it ement
Ġf ard
Ġf ount
Ġf und
Ġf ishes
en vo
Ġd ome
Ġc ran
Ġc ats
Ġc ripp
ar ity
Ġto ads
Ġto kens
Ġto bacco
Ġp ie
Ġp au
Ġp ag
Ġp ool
Ġp ike
Ġp otion
Ġp aws
Ġl ined
Ġl inks
Ġl aund
Ġh int
Ġh ug
Ġn ut
Ġn iggard
Ġin ve
ĠI rish
Ġg out
Ġbe er
Ġbe llow
Ġbe ards
im mense
Ġu l
Ġon line
Ġre ci
ri l
ver ing
Ġwe ird
Ġst ony
Ġst ored
Ġwas hing
Ġwas ting
us al
us ive
us pected
ic hel
Ġse am
Ġli ed
Ġli able
Ġli ghter
Ġde ceiving
ĠM art
ĠM oth
ĠM use
ĠM essengers
Ġk ites
ĠC re
ĠC ato
ĠS U
ĠS m
ĠS in
ĠS et
ĠS am
Ġsu icide
ĠA c
ĠH ER
ĠH ang
ĠH IST
un eration
Ġno vel
all ing
Ġlo gic
ell ing
Th rice
ble u
Ġv ale
Ġv arn
Ġman e
ight s
qu it
qu il
qu enet
Ġsha wl
ĠB revet
ĠB agot
Ġshe pherds
red it
ĠP ardon
ĠW ife
ĠW ILL
ĠW ARR
Ġcon ge
Ġcon grat
ĠL en
ĠL ic
Ġup stairs
Ġor th
ol ve
ol ic
ol ab
ie ving
ĠG UTEN
IN C
Ġfa ced
AR K
AR IO
la is
Ġun ha
Ġun born
Ġun cles
Ġcom edy
ry e
ast y
ĠF O
ĠF ire
ĠF IRST
ĠF oulon
ĠF rederick
ĠE arth
ive lles
Ġdre n
Wh is
ĠD ame
ĠD ahlia
ĠO ber
ĠO lymp
ĠO swald
ĠR aven
ĠR owland
Ġwor sh
Ġwould n
Ġar ras
ĠT en
ĠT ouch
ĠT rain
Ġsp aring
Ġcan opy
Ġpr ating
Ġbl ocks
Ġbl asphe
Ġdis pense
Ġus urer
ap ers
Ġen lar
Ġag ue
ĠJ ury
ond eau
che th
ag mire
Ġhand ling
What ever
ĠV ery
Ġch illed
Ġhere to
Ġro ared
Ġbr ine
Ġden ounce
Ġfl ows
Ġpe al
per form
ĠK EE
Ġri ots
EL IUS
Ġra vish
Ġper sever
be held
be hold
we igh
Ġmen acing
Ġlong s
Ġbet rot
ab y
Ġspeak er
ĠMar ais
Ġown s
Ġown ed
Ġhead strong
Ġsc amp
Ġsc ald
de eds
Ġho gs
Ġgl ancing
Ġgl ittering
With draw
Ġwr iter
Ġdown stairs
Ġpre cept
Ġunder gone
LA VIN
Ã© l
Ġla ir
Ġart ist
Ġrep ulsive
Ġfear fully
Ġap erture
ater pill
Ġhast en
Ġtra ffic
Ġpoor ly
Ġmind ed
Ġcons ume
Ġimp oss
ict ines
Ġsign als
Ġconf isc
Ġconf irmed
Ġpray ed
Ġass ay
Ġgr is
KE EPER
Ġtri es
Ġnat ivity
UR E
Ġind uce
up h
Ġsub scribe
Ġwit ches
Ġbra ggart
Ġche cks
ĠIn formation
so e
Your self
ute ous
Ġpri vy
Ġmo b
Ġfool ery
ĠWhe nce
Ġcur led
Ġadv antages
Ġmist aking
St ep
AB BESS
og rap
ott le
Ġread s
Ġair s
Ġ1 3
Ġstr ings
Ġgre ets
Ġgre edy
Ġsun k
Ġbo iling
IAN US
Ġwall ed
At t
BER G
LUC ILIUS
Ġsupp ressed
Ġext inct
Ġext enu
no x
Ġdisp ute
ĠMr s
Ġint r
Ġint ric
Ġint olerable
Ġtruth s
Ġcr utch
Ġreg iments
IT ED
Ġfam ish
uff s
Ġmin st
Nor th
Ġprop ortions
Ġstra ins
Ġund es
Ġpossess ing
lo ved
Ġadm its
Ġtend ency
ĠSo ho
Ġve he
OTH ER
mb re
Ġcommand ment
Ġgall ed
Ġgrand son
Ġfr amed
Ġbar racks
Ġmet res
Ġcol ors
Ġcol ored
Ġcra cks
cha nd
Ġir resist
Ġpal try
Ġaw aited
Ġpost ure
Ġcontent ion
PE IUS
Ġeng ra
Ġdev out
pro ceed
ĠCh ief
ĠCh iron
ĠCh orus
ĠSc auff
Ġbur then
Ġgar ter
rupt ion
ĠLe g
Ã¨ res
Ġesc aping
Ġcontin ent
Ġcontin ually
Ġstraight ened
light ed
ĠAN Y
Ġwild erness
Look ing
Ġunf it
Ġdet ain
Ġstud ents
Com fort
Ġresol v
gu er
Ġcru mbling
Ġcomb ination
rif ice
Ġprov inces
Ġcompan ies
mon strous
Ġcompl iance
Ġeight eenth
ĠDe vil
Ġsuper b
Ġincl ine
fall en
Ġvain ly
Ġmem or
Ġep ic
Ġaccount s
Ġpract ices
Ġaud acity
Ġsurround ing
Ġcost ume
Ġoffend ers
Ġcalm ness
Ġfra ud
Ġfirm ness
Ġoccup ations
Ġmiss ed
ĠNor way
Ġtrembl es
Ġbeard ed
Ġdism ay
Ġdesign ated
Ġemer ald
ĠNot re
Ġclim ate
AV Y
Ġvol untary
part icular
Ġallow ance
Ġlov est
col oured
every where
Ġclaim s
Ġtum ble
ĠCoriol i
Ġpress ure
Ġpick ing
Se ven
Ġdepend ing
Ġmelt ing
Ġ2 0
Ġcher ub
MA ECEN
pres ented
sm ile
Ġmild ness
Ġretreat ing
ĠLeon atus
Ġgrat ify
Ġstro ll
Ġder ive
Ġsou p
thought s
uls ion
gra v
Ġrul er
Ġweigh s
Ġestabl ish
Ġdisdain ful
Ġinha bited
Ġexceed ingly
Ãª me
Ġtax es
Heaven s
Ġmus ical
Hence forth
Ġcens ured
Ġdecl ining
pret ty
Ġhes itated
Ġgru mbled
Ġprevail ed
sell er
Ġdispl aying
Ġpour ing
othe l
abs olute
Ġindescrib ably
CORN ELIUS
Ġclam orous
Ġadvers ary
Ġtranqu illity
Ġtest ament
Ġbol ts
Ġbol ted
Ġalter ation
Ġfant astical
adv ised
Ġdart s
Ġpall or
Ġcondemn ation
Ġinex orable
Ġvig our
Ġabhor red
Ġexperien ces
Ġbere avement
ĠArm ado
sub ject
tri Ã¨re
Ġhom es
Ġbutter flies
Ġcraw ling
Ġinsp ire
mong er
Ġling ered
aver olles
Ġdevour ing
Conf ess
Ġcomplaint s
Ġeager ly
Pet ruchio
ĠPhoe bus
fell ows
Ġacknow led
ĠPRO JECT
Ġindisc retion
Ġselfish ness
Ġsequ el
Ġexter ior
DUL L
mean s
Ġunpro fitable
Ġfrank ly
Ġcompe lled
rend ered
Ġvac ant
Ġren ounce
ĠBou gon
Ġjack al
Ġearl ier
sla ve
enu ine
Ġpi kes
unts man
Ġtren ches
ĠCons pir
Ġma im
beaut iful
AUS TRIA
ĠBet ween
ĠVir gin
Ġbattal ion
ĠSix th
Ġrobb ers
erm ain
Ġimprove ment
Aw ake
Ġdecre pit
Ġparticip ate
Touch ing
Ġthre ads
Ġdesper ately
Ġken nel
ALEX AS
ĠAtt orney
Ġcircul ation
Ġwrang ling
Ġthund ers
Ġgover ned
Ġforerun ner
Ġwebs ite
penet rable
Ġindepend ent
Ġmassac re
Ġtom bs
Ġced ar
ĠSac rament
ĠJer usalem
Ġchival ry
Ġplat form
ĠExc ursions
ĠFlor izel
ĠâĢ ¢
Ġfiac re
ĠBord eaux
ĠBalt hasar
ĠVent idius
ĠLaf ayette
AOL ER
Ġghast ly
ĠCab uc
ĠAf ric
Ġterr itories
Ġcris is
Ġmercen ary
envo i
quenet ta
ĠGUTEN BERG
ĠOber on
ĠKEE PER
LAVIN IA
ograp hy
MAECEN AS
2 8
? '
? --
A VIA
B urn
B rought
C IUS
C itizen
E ight
F ICER
G RI
H or
H aply
I nter
L D
L ess
N AL
N ext
O z
P at
P LE
P ANT
S en
S orrow
T roy
T itus
T ailor
U se
V ill
W ert
W ife
W ATER
Y ork
a ccess
a oler
b ill
b red
b ig
b reat
b ras
b ottom
c ry
c ule
d led
d esp
f ra
f air
g ence
h in
i ents
k iss
l ote
m akes
m otion
m others
m akers
o cious
p ract
p lease
p avement
r ad
r ison
t all
u el
u ction
v ague
w in
w oo
w orm
y ellow
z on
Ġ ire
Ġ Ã©
Ġt ab
Ġt ires
Ġt asted
he rent
in n
Ġs ter
Ġs ank
Ġs orce
Ġw i
re cted
re pro
Ġm aw
Ġm ien
Ġm asks
Ġm ixture
Ġm athemat
er ment
Ġb ale
it te
it utes
it ively
Ġf ug
Ġf idelity
ll ied
es tern
Ġd ag
Ġd ialect
Ġd uteous
Ġc ue
Ġc rop
ar ro
ar ound
Ġp iles
Ġp ranks
Ġp hoenix
Ġl ain
Ġl ep
Ġl int
Ġh ound
Ġy are
an o
Ġn ook
Ġn erv
Ġn ourish
Ġhe arers
Ġin constant
âĢĻ .
Ġg ape
se ated
se ized
st art
st ran
st ory
ch o
ill umin
id d
Ġre ared
Ġre wards
Ġre ference
ri on
ri pe
ri loqu
Ġwh ips
Ġme als
am or
ter ate
ter night
Ġst up
Ġse izes
ore r
Ġde alt
Ġso ar
ĠM uch
ĠM OWBRAY
ĠM artin
ĠM ADE
il ogue
th ro
ich olas
To day
ĠS A
ĠS te
ĠS leep
ĠS OM
ĠS chool
ĠA S
ĠH ot
all eys
Ġbut che
Th olomyÃ¨s
Ġv enge
Ġv ivid
Ġv ocal
Ġsh y
ant es
ĠB eneath
ĠB ottom
Ġshe riff
ĠP O
ĠP rom
ĠP ET
ĠP ETER
ĠW ar
ru cifix
ĠL ater
ĠL iberty
em n
Ġup set
Ġup braid
Ġsa ith
Ġwhe res
Ġfa ctor
Ġun re
Ġun acc
Ġun heard
Ġun wholesome
ĠF aul
ĠE ly
ĠE IGH
the ned
Ġam ass
ure rs
Ġgo at
Ġwhat e
el se
Ġex ha
Ġar rant
Ġj ars
ĠT rue
Ġsp ed
Ġout let
ide a
He alth
Ġcan on
Ġpr attle
op s
op in
op ing
op her
Ġbl asts
Ġdis semble
ath om
Ġen sn
ff in
Ġsw ung
Ġsw arming
ag ny
Ġch ides
Ġch ocolate
Ġtw isted
Ġlet har
bl own
bl ank
ĠN ell
ĠN ivelles
Ġdes olation
Ġdes olate
Ġcl ung
Ġpl ank
Ġpl otted
ack s
ĠK ings
Ġgra pes
Ġim plied
Ġim min
Ġim itate
Ġri chest
In f
Ġra is
Ġra ining
Ġper d
Ġper use
be ying
Ġtru ant
Ġwhere upon
ĠMar se
Ġpleas eth
Ġsc roll
Ġcont ribute
ac it
ac ulate
Ġpla gues
Ġgl ut
sh oes
Ġdown ward
ger ie
ans wered
Ġpre acher
Ġcomm ence
Ġcomp osure
Be come
Be hind
Ã© r
ult ane
cl othes
Ġart ific
Ġthrough ly
Ġco il
Ġco quet
Ġsl ide
Ġem ulation
IL ARIO
har m
Ġob dur
Ġob jections
Ġpers isted
Ġpers piration
ĠVal er
Ġdist ract
Ġcons ort
Ġcons umed
Ġcons ented
Ġbrother hood
AT S
ĠOF FICER
Ġbel ov
und ert
ew er
Ġrest ri
Ġtri be
Ġtri vial
Ġrec urred
Ġind irectly
Ġgu illotine
Ġmer chants
Ġill s
ale nd
Ġopen ly
Ġter minated
Ġmis understand
Ġaff able
Ġpri cks
PH ILARIO
Ġlaw yers
Ġadv ances
Ġread ily
Ġinf l
Ġinf ants
UL LUS
ex pl
let on
Ġsun s
Ġsun set
no cent
Ġcourt ship
Ġblack ened
Ġinter pre
Ġprom inence
Ġvill any
Ġless ons
Ġsignif ic
ID AMUS
con vent
Ġreg ent
Ġreg ister
Ġexc itement
Ġexp ired
Ġred empt
ĠAnt enor
esc ape
Ġcold ness
IT Z
ĠSir rah
Ġwish ing
ĠAr den
ĠAr vir
Ġinc est
elt ing
Ġpar le
ras es
form idable
Ġhundred s
Ġdec or
Ġdec isive
ub ber
Ġport ent
Ġbar on
Ġdesp ond
fer ocious
Ġcra b
Ġpret end
Ġaw ait
Ġemb races
Ġpen cil
aff itte
Ġwo ful
Ġeng ross
Ġeng aging
Ġfact ious
Ġattend ance
Ġbound less
Ġsin ful
Ġsin cerity
Ġbarri c
Ġbarri ers
Ġcoun c
iffe rence
ider ius
oll en
Ġcontin ues
Ġforg iveness
Ġtrust ing
Ġindic ative
Ġmount e
vell ing
Ġwild ness
Ġ18 48
fl ower
Ġobs erver
Ġstreng then
Ġwonder ing
Ġte le
gl ance
DER BY
Ġsoft ened
Com mit
Ġmal ignant
father s
ĠRe venge
Ġspo iled
Ġdeli vers
Ġconfess or
Ġfig ured
Ar cite
pass ing
Ġsqu ire
Ġble eds
Ġfresh ly
Ġequ iv
Ġequ ivalent
ĠU se
ĠU rs
Ġauth ors
Ġconv in
Ġcheer ly
Tw ice
Ġforget ful
Ġscorn ed
Ġtrans formation
DON E
Ġsn atch
Ġrevenge ful
Ġpartic ulars
Ġpat ches
Ġmem orable
Ġdiffe rences
Ġexpl os
Ġep iscop
Ġclot he
Ġmut inous
Le ft
Ġlust re
CO UR
Ġur g
Ġur ging
eem ing
Ġbread th
Ġvile ly
Con st
Ġteach ing
Ġdiss ension
Ġtemp oral
Ġbod ily
Ġresembl ing
ĠVen et
Ġwrit ers
Ġrust ed
Ġfla x
should er
Ġcoff ers
Ġaffect s
Ġbas er
Ġbrid ges
Ġphilosop h
Ġobst inate
Ġinfinite ly
ADO W
Master s
ĠTH IRD
Ġchief ly
Ġvault ed
Ġpreced ed
ĠXV II
BASS IANUS
yd ra
Ġdoom s
Ġmurm uring
Ġtap est
Ġbaw dy
Ġgreet ings
ĠBE AU
Ġconsequ ences
Ġfavor ite
Ġtreat ment
Ġbourgeois ie
Ġchat tering
Ġswall owing
Ġrepent ance
ĠMen as
gra cious
Ġprepar ing
Ġshock ed
Ġfem inine
Ġtrif ling
Ġconquer ors
char ge
Ġvessel s
Ġwheel ed
count ered
Ġmot ions
Ġsecure ly
cal f
Ġthrong s
ĠPar th
ĠPar liament
ĠVols cian
Ġgru dge
Ġcler gy
Ġbegg ary
Ġtransp arent
Ġtransp orted
kn ife
sell e
Ġarch ite
Ġcerem onies
Ġplun ge
Mont fermeil
Sha me
Ġmart yr
Ġpatri ots
Ġsust ained
Ġannoy ed
ĠInd ia
Ġrecord ed
inst inct
Ġliv res
Ġindign ant
Ġscru ples
tr uth
Ġrev iew
ARCH IDAMUS
Ġencl osed
Ġresign ation
Ġbutter fly
CAP HIS
dr ink
Ġstrang eness
Ġcaut ious
Ġbenef actor
pol it
Ġconc ord
ĠRoyal ty
dest iny
ĠBour bons
ĠZ Ã©phine
Ġge ese
Ġflint y
stern ation
ĠTrib unal
Ġsurvey ed
lot te
press ible
Ġbree ches
Ġimpress ions
Ġappla ud
Ġanticip ations
Ġgend arme
Ġconfer red
Ġbutt ons
ĠFair y
Ġinsol ent
Ġquiver ing
Ġcomprehend ed
Hon est
Ġpubl ish
Ġnegl igent
ĠJa quenetta
Ġhumil iation
Ġbrig ade
mat ical
ĠHost ess
lac able
Ġenthus iastic
Ġharness ed
OCT AVIA
gall eys
ĠCur Ã©
furn ished
BARNARD INE
burn ing
Ġfath oms
ĠPh Åĵ
Ġconfront ed
ĠBet ter
ĠVir g
Ġfeat ures
Ġnymph s
Ġbattal ions
Ġgust s
Ġiv ory
Ġinund ated
Ġprolong ed
Ġdemol ished
establ ished
Ġexhib ited
ĠVaug irard
Ġplent eous
Supp ose
Ġtar get
Ġpha se
ĠSpir it
ĠAntioch us
ĠUr sule
Ġnodd ed
Ġvolupt uousness
Ġphenomen on
ĠTer rible
neighb or
Ġestrange ment
ĠTitan ia
Ġdisobed ience
fif ty
Ġresour ces
Ġsurn amed
Ġbeto kens
Ġrehe arse
ĠFOUR TH
cier gerie
Ġindisp ensable
Ġpard ons
Ġupl ifted
Ġderiv ative
ĠBrabant io
Lea ving
Tro ilus
Ġthir teen
Ġearthqu ake
Ġatmosphe re
Ġremed ies
spur gh
ĠBarb ary
ĠOVER DONE
Ġperpend icular
convers ation
circum st
Ġreci pro
olab ella
ĠRaven spurgh
Ġbetrot hed
North umberland
ĠScauff laire
guer ite
NAL DO
PANT INO
Ġdag gers
riloqu ist
ĠFaul conbridge
ĠEIGH TH
Ġmisunderstand ings
Ġredempt ion
ĠArvir agus
! )
2 1
4 4
: _
; --
A ir
B en
B ad
B old
B ardolph
B oat
B rief
C ur
C ol
D ay
D ist
D IUS
D ec
D irect
D AVY
E P
F ound
G ARD
G ENTLE
G AOLER
H ic
H ortensio
K ill
L on
L ab
L ieutenant
M ac
N O
O Ã¹
P ity
P ret
P oint
P eter
R oman
S ur
S uff
S MAN
T ook
T rib
T LAND
T ranio
W r
W ords
b rew
b erty
c am
c ord
c up
c ustom
d ated
d iss
d ying
d espair
e vent
e vil
g re
g row
g ives
g irls
i ary
i ations
k illed
l uck
m and
m un
m ous
n is
n ally
n ames
o h
p ha
p ay
p our
p are
p ull
p aille
p laces
s ays
t empered
v res
v ision
w es
x x
y ards
y za
z ards
Ġ ÃĨ
Ġt an
Ġt rench
Ġt unes
Ġt ips
he nce
he avy
Ġa ur
in et
in cl
in bras
Ġs inks
Ġs ession
Ġw art
Ġw oke
Ġw inking
Ġw hale
Ġw estern
re vol
re cked
ou rer
ha bit
Ġm it
Ġm ix
er ly
Ġb ust
Ġb unch
Ġf ul
Ġf ates
en ri
en cies
en countered
Ġd ice
Ġd ally
Ġc ant
Ġc ate
Ġc od
Ġc alend
ed uc
Ġp ith
Ġp ry
Ġp ail
Ġp als
Ġp yram
Ġl ag
Ġl uc
ing ers
Ġh ive
Ġn erves
Ġn onsense
Ġhe ave
Ġth ron
om it
ot y
ot es
ĠI M
ve red
Ġg as
Ġg asp
Ġg aping
Ġg enuine
le ction
le my
st o
st air
st ream
ce it
ch ment
im per
ill er
ill ings
gh ill
id ge
Ġre ject
Ġre aches
Ġfor k
ri ve
Ġme w
am n
Ġwe lf
Ġst all
Ġst alls
ro b
Ġwas p
Ġas ks
Ġse ats
Ġse eds
Ġli k
Ġde ign
Ġher mit
Ġso othing
Ġso aked
Ġso journ
ĠM or
ĠM us
ĠM eaux
il fully
th orough
pe are
ĠC ad
ĠC Ã©
ĠC hamps
ĠS and
ĠS had
ĠS ewer
Ġdo cum
Ġsu nder
Ġsu pers
ĠA ct
ĠA part
ĠA uver
ĠH E
un is
all et
Ġlo gs
Th rows
Ġv ulture
ous ing
qu ets
Ġsh orter
Ġsha ring
ĠB al
ĠB ret
ĠB lanche
EN TH
EN ETTA
Ġshe er
ĠP ent
ĠP ic
ĠP ole
ĠP atri
Ġcon ception
Ġcon sternation
ER Y
ĠL isten
ĠL affitte
Ġkn otted
em ploy
Ġor b
ine x
ind arus
ĠG R
pp le
ig ed
fe iting
Ġun worth
Ġun gentle
Ġun avo
ĠF ame
ĠF ront
ĠF IF
ĠF ranÃ§
ear ch
ate lote
Wh ite
ĠD ull
ĠO LD
ĠR ather
ĠR UE
Ġwho ever
os ite
ran mer
Ġar ched
Ġj ig
ĠT ew
ĠT ullus
Ġsp ared
Ġr ushing
Ġbl ades
Ġdis sembling
ap et
Ġen velop
Ġen join
Ġen suing
Ġag grav
Ġsw arm
Ġsw ollen
ĠJ anuary
Ġab d
che paille
ĠV AL
ĠV OL
ĠN an
ĠN one
ĠN icholas
Ġmust y
Ġad j
ise ly
ert rude
ud geon
Ġey ne
Ġfl irt
ild ieu
ree ch
Ġcha pter
Ġcl ubs
per y
per ien
pl ant
ach io
Ġri fle
ark ness
In st
Ġra b
Ġra pe
Ġra ins
Ġra rest
Ġper ception
Ġper ceives
be ard
be ggar
Ġtru est
Ġwhere ver
Ġmen aced
Ġbet ake
Ġbet ide
ier ce
unt ing
Ġsc ared
Ġsc rew
Ġsc ales
Ġsc reen
Ġwr ung
ont al
io ces
Ġpre m
Ġcomm itting
Ġcomp ared
Ġcomp ounded
Ġsm il
Be at
cl ed
AP P
Ġrep uted
Ġturn key
Ġnew comer
Ġstill ness
Ġback wards
Ġap es
Ġapp reci
li berty
Ġimp ose
Ġimp ortune
Where on
Ġconf ounds
Ġfort unately
Ġgr ate
Ġtre ads
Ġtri ple
Ġgu ides
Ġgu ided
ĠJean ne
Ġsub orn
RU TLAND
Ġmer chand
Ġbra ke
Ġhum or
Ġhum orous
Ġchar g
Ġbed room
so lemn
Ġter rors
Ġmis led
Ġmis carried
Ġserv itude
Ġmon key
Ġhor ribly
Ġsur ly
Ġkind le
Ġmo ans
Ġdou bled
Ġmist y
St ood
St range
âĢĺ âĢľ
Ġinf lict
pr oof
Ġcou ched
Ġcou ples
aris m
Ġstr ide
ex isted
Ġbes ie
Ġdep ose
ship s
Ġfour score
Ġhel met
Ġhel pless
sc ribed
LUC Y
Ġsupp le
Ġsupp li
Ġext racted
Ġvis itor
no ble
Ġwa ft
Ġinter im
Ġprom en
Ġvill ages
ash ful
Ġfaith fulness
ID E
ID GE
Ġreg ards
Ġexc av
Ġexp osed
IT TLE
Ġland scape
Ġstrong est
Ġref resh
Ġhorse men
Ġmin es
Ġfew er
Ġfree ze
Ġbad ge
Mar cus
Ġund oubt
Ġval ued
ĠBr ussels
RE E
Ġpar l
ras ie
Ġpast e
chan ged
Ġgall ants
Ġbar r
Ġcorn ets
Ġsubject ed
Ġpret ended
cha s
Ġdro pp
du ction
Ġrequ is
Ġmistress es
Ġcast s
Ġest imate
ĠCla quesous
Re vol
Ġemb ark
Ġlarge ly
Ġpen ury
Sh owing
Ġfact ory
Ġhur ricane
Ġgar b
Ġgar rison
Ġfin est
oll a
Ġesc apes
Ġharm ful
Ġguard ian
Ġdare st
Ġ18 0
ob st
Ġte am
Ġcar ter
Ġpleasant ly
ĠChar lem
CASS ANDRA
ander ie
Ġdet riment
Ġstud ded
Com beferre
Ġmal adies
Ġacqu it
pre c
Ġview ing
Ġrevol ted
Ġspo on
AU D
Ġdri ver
Ġdri pping
Ġpet itions
Ġwoo ed
Ġfront s
Ġda is
ien cy
Ġbright ly
Ġmort als
Ġdu kes
ĠU p
ĠPl ain
Ġcheer fulness
Tw ould
ĠGu iderius
hand ed
Ġrid dle
Ġtrans formed
Ġav ouch
BRO THER
fall ing
Ġyes ternight
Ġreb u
angu age
Ġwat ches
Ġpun y
ĠPet o
Ġobsc ured
Ġunc ertainty
Ġfaint s
Ġdiss olute
Ġwrath ful
Ġhalt ing
Ġbod es
Ġcred ulous
Ġtent h
Ġann ihil
Ġthunder b
Ġlabour ing
Ġaffection ate
Ġpin ioned
Ġsav our
REY NALDO
cour age
reg ory
ĠSh ow
ĠSh ore
ĠPol onceau
ĠQu ince
Ġsaf est
Ġperform ing
Ġperform ance
Ġheed less
Ġextrem est
Ġextrem ities
LORD S
Ġattempt ed
Ġapart ments
nat ured
Ġple a
Ġfro ck
off ice
Ġstat ues
Ġstat utes
say er
Ġlower ing
Ġheap ed
Ġprefer ment
Ġobst in
Ġobst ru
cons cious
ĠBl ondeau
Ġdign ified
Ġcommend ations
ext ra
ĠPhil ome
Ġast ray
Ġworking man
Ġvault s
Ġrude ly
Ġmask ers
Ġant iquity
vi ved
Hear ing
Ġtim orous
Ġmult itudes
Ġconj unction
Ġcourtes ies
Ġintent ions
about s
Ġcontempl ated
Ġph rases
adem y
bel ieve
Ġshri ft
Ġswell s
Ġrecom mend
Ġascend ing
ĠRob espierre
Ġmodest ly
Ġdamn able
Sp oke
Ġ181 7
Ġconceal ing
dist ingu
Ġgent ler
Ġcrack ing
Ġperf umed
hen ildieu
ĠVols cians
Ġbud ge
Turn ing
comp any
JAQU ENETTA
yr r
Ġcler ks
Ġunus ually
Ġnice ly
clam ations
Ġbishop s
Ġsugg estion
ĠHa ie
Sha ke
Ġdefe ated
Ġcho ir
Ġcho pped
Ġserp ents
del ivered
Bear ing
ĠInd ian
Ġnon ny
oqu y
Ġprompt ly
Ġinsurg ent
Ġtal ent
Ġregret ted
Ġinsult ed
BR IDGE
reason able
ĠJud ge
Alarum s
Ġbag gage
Ġlux urious
Ġfleet ing
Ġtro dden
.âĢĿâĢĶ âĢľ
Ġcompassion ate
ĠGen appe
Ġcholer ic
Ġwarn ings
walk ed
Ġslee ves
Ġtimid ly
Ġsucc our
ĠEast cheap
Ġencour agement
Ġswim ming
enc ounter
Ġlat ent
Ġrejo ined
Ġrejo icing
Ġvap our
Ġbewild erment
Ġhaw k
mean ing
Ġtip toe
chor ida
ĠTr uth
fav or
Ġprow ler
Ġcompe ll
Ġenri ched
Ġbelie ving
Ġprognost icates
Ġesp ied
Ġox en
ĠWilt shire
possess ion
ĠCamb ridge
Ġdoct ors
Ġconject ure
ĠCur tis
Ġtren cher
Ġscra ps
Ġpredict s
Ġecon omy
ĠGall ia
Ġharass ed
Fri end
opy right
âĢĶâĢĶâĢĶâĢĶâĢĶâĢĶâĢĶâĢĶ âĢĶâĢĶâĢĶâĢĶâĢĶâĢĶâĢĶâĢĶ
Ġrefer red
Ġblossom ing
Ġiv y
Ġmars hal
Ġawaken ing
Him self
Ġstif led
ĠVaug han
Ġsquad ron
accom pl
Ġomn ibus
Ġcrou ching
ĠGl inda
Ġchaf ed
Ġfulfil ment
Ġembass y
Ġbenevol ent
Ġinquir ies
Dre aming
Ġgorge ous
ĠDant on
Ġenlight en
Ġchick ens
ĠBig renaille
Ġfaubour g
Ġcush ions
Ġshipw reck
ĠCAR RIER
Ġspin ster
Boul atruelle
ĠFort inbras
Ġrive ted
Ġaccost ed
Ġvalu able
Ġordin ance
ĠBECOM ES
CAM PEIUS
Ġdeform ity
Ġvary ing
Ġimpass ive
Ġtumb rils
Ġinval id
ĠCer imon
Ġencom passed
acqu ainted
Ġconvention ary
CITIZEN S
ĠLUC IUS
Ġperspect ive
Ġvagab ond
Lux embourg
Ġhed ges
Ġgran ite
ĠSimon ides
ĠAmer ica
Ġdistaste ful
Ġcycl one
Ġgren ad
usill ade
Ġexalt ed
Ġreconc iled
pÃª triÃ¨re
ĠLic io
ĠTouch stone
Ġhereto fore
uph rasie
mbre lla
rucifix ion
Ġsignific ance
Ġconvin ced
Ġwelf are
ĠVAL JEAN
5 6
7 2
8 0
A K
B orn
B ack
B AG
B eneath
C reat
F am
F ort
F OR
F alstaff
G en
G ermain
H aut
H oly
I ENS
L y
L ed
L IS
M al
P YR
R ise
R AM
R ef
S l
S il
S ac
S ERV
S blood
S uddenly
T on
T ear
W ar
W ood
W AIN
Y E
a bled
b ene
b asket
b ills
b reath
c ou
c over
c overed
c aps
d im
f il
f light
f aces
g ave
g iven
h rew
i eth
i ably
l ied
n umber
o x
o id
o che
o ber
p ared
p ointed
r ade
s se
s un
s ack
s ervice
w ark
w onderful
x es
y thee
Ġ .âĢĿ
Ġ rye
Ġt ough
Ġt act
Ġt astes
he w
he ed
Ġa uster
in ue
in cess
Ġw ire
re ment
re ached
ha in
ha ud
ha zard
Ġm are
Ġm unicipal
er th
Ġb ot
Ġb au
Ġb ened
Ġb ias
Ġf re
Ġf ust
Ġf rust
on ge
on ation
Ġd all
Ġd ates
Ġd orm
Ġd ashed
Ġd yn
Ġc ust
Ġc ures
ar ranged
Ġp ond
Ġp aced
Ġl ump
Ġh oof
Ġy o
Ġn ursed
Ġhe ated
Ġin quis
at ious
as leep
ĠI lly
Ġha g
ve ls
Ġg ore
Ġg uts
le ast
le ading
st ar
st orm
im Ã¦
ld ron
Ġe el
Ġe wes
ut able
ut ius
ir th
Ġu lt
Ġu gl
Ġit ch
ad ation
Ġwith held
The e
Ġre un
Ġre appear
Ġre verent
Ġfor ge
Ġfor fend
Ġwh ipping
am inius
ver age
Ġst em
Ġst aves
Ġst inking
ra ck
ra ign
ra ctions
Ġas ham
ic he
ĊĊ ĠĠĠĠĠĠĠ
Ġan at
Ġde veloped
ct ing
Ġso b
ĠM ER
ĠM au
ĠM ethinks
ĠM ONT
Ġk ite
th ick
th ief
ĠC her
ĠC ross
ĠC ob
ĠC icero
ĠC esario
ĠS UR
ĠS ept
ord in
ĠA T
ĠA pp
ĠA TH
ĠA lack
ĠH as
ĠH enri
Ġall ied
Ġno ises
ell us
out hed
out hern
ul ed
Th ither
Th under
Ġv a
Ġv ont
Ġman ure
Ġsha k
ĠB ack
ĠB ew
Ġshe ath
ĠP ha
ĠP LE
ĠP yrr
art ar
ĠL E
ĠL ab
ĠL ob
em on
Ġor ange
ie v
âĢĶ âĢľ
ong ue
fe rences
ust ers
Ġun lock
Ġun quiet
Ġun manner
Ġun necessary
ĠF averolles
self ish
ĠE th
ĠE gl
ist le
end er
um ns
Ġdre gs
el ry
ĠD ay
ĠD est
ĠD ick
ĠR OSS
Ġle ek
Ġle aps
Ġpro ffer
Ġar row
Ġar ising
Ġar rows
Ġar oused
Ġj ugg
Ġj umped
Ġal ighted
Ġal cove
ĠT re
ĠT urn
ĠT own
ĠT ALBOT
Ġsp ade
ide as
are ng
Ġdis eng
Ġus er
Ġsw ifter
ĠJ ardin
Ġqu ill
Ġqu agmire
che on
ag reement
Ġhand led
For get
Ġch iding
Ġch isel
ign y
ign ificant
Ġro yally
CH US
CH ORUS
orn eys
Ġbr on
Ġbr othel
ĠN ey
ĠN athaniel
TH ID
Ġad orable
Ġfl ings
Ġfl owing
ite ur
Ġcl inging
Ġcl enched
Ġpl ume
ons o
per ceive
ĠK NIGHT
Ġfo aming
pl icable
Ġoff spring
Ġra ined
Ġra iment
ret ch
ret reat
Ġper man
Ġper for
Ġper used
Ġper adventure
be at
be ast
Ġthink er
Ġlong est
ĠMar y
unt ed
int end
Ġsc off
IA S
not iced
Ġrem nant
Ġfore most
igh bour
Ġpass ive
iz able
sh ut
ont ory
Ġpre fecture
Ġcomm ode
Ġunder ground
Ġsm art
Ġsm elt
Ġpres ervation
Ã© d
AM IENS
iv ou
Ġhar p
Ġrep ay
Ġrep rie
Ġco inc
Ġseem eth
Ġend ow
Ġret ires
ĠYou th
Ġtra ps
Ġtra ined
av id
li ves
Ġimp ious
Ġimp ressed
Ġimp lacable
Ġbus ied
AT E
Ġsign ature
Ġson net
Ġconf lagration
Ġbel t
Ġbetter s
FF ITH
Ġsub s
Ġsub due
Ġcount s
Ġbra ver
Ġill usions
Ġhum bled
vil ius
fort unate
Ġche cked
Ġbed fellow
Ġmis doubt
Ġfar mers
Ġdoor way
Ġsur ge
Ġsur render
att empt
Ġpri cked
Ġfool ing
Ġdou bly
ph os
ken bury
Ġmist s
St ates
og raph
rest rial
Ġcou pled
Ġbes iege
Ġbes hrew
su it
IAN S
Ġwrong fully
Ġwa ving
Ġcourt iers
Ġdark en
Ġblack ness
Ġmar r
com par
Ġinter m
Ġinter mingled
Ġinter view
Ġprom otion
Ġint imate
Go ing
Ġhard y
Ġsk irm
Ġsk etched
Ġhelp ing
Ġreg istered
Ġexc ited
Ġexp iation
ho pe
Ġgold smith
esc ue
ĠPro ceed
Ġcold er
Ġran ged
hard ly
ĠAr my
rem ain
Ġdire ful
Ġstra nd
BO ATS
RE AM
ib al
lo ving
Ġpurp osed
ĠSo oth
Ġve iled
ron ne
ĠAs ia
ĊĠĠĠĠ ĊĠĠĠ
Ġdiv isions
LEON INE
Ġsuffer ings
Ġcomfort ed
Ġdra goons
Ġcra ving
Ġfill es
Ġdro pping
Ġest ates
Ġpal pable
Re venge
Ġsla very
Ġemb racing
Ġround ly
aff air
Ġta unts
itiz eness
Ġbound ed
pro fess
Ġcal umn
Ġsecret ary
Ġreal ms
Ġlad en
ĠAl ps
Ġunderstand s
Ġesc orted
oc racy
Ġbir ths
Ġdest ro
light ning
vell er
Ġwild est
Look s
Ġplain ness
Ġnecess arily
Ġmed itate
itting ly
ĠRe ad
Ġvict ories
enorm ous
Ġpet t
Ġprov ince
Ġbright ness
Ġcompl aining
Ġcop ied
ĠLu cet
Ġwitness ed
Ġbase ly
Ġeff aced
run ning
De ep
ĠChrist mas
Ġtrans figured
Ġtrans actions
Ġsn akes
Ġcat ches
ific ations
Ġaccom mod
ĠWh om
ĠWh ose
Ġpoison ed
Ġpract ical
sing le
bo at
BE IANS
Ġsal ve
Ġimport s
Ġproc ured
Ġschool s
Ġsharp ly
Ġver ity
Ġver ified
acc ording
Ġimm oral
Ġhabit ual
Ġcell s
Ġfruit less
jo ined
Ġcustom s
Ġarg ues
pri est
Ġrequest s
Ġpin cers
omen es
sec ret
should ers
Ġtwelve month
Ġple beians
Ġlament ing
Ġsmell ing
Ġtum bling
ĠBl anc
SA YE
oulev ards
return ed
Ġbox es
Ġpull ing
Ġusur per
DE CIUS
Ġcommun icated
Ġplan ets
Ġimper fect
Ġprovid ing
ribut ing
Ġsacrif ices
Ġconvey ance
Ġconsequ ent
Ġfever ish
Ġmaint ained
Ġcontempl ating
ĠBel ieve
Ġsore s
TION S
bel ong
bel oved
ĠMur der
know ing
ĠCapulet s
Ch rist
Ġimpl ore
Ġcontro lled
Ġprodig y
Ġwont ed
ĠAb ove
dist inct
Ġwax en
Ġproclaim s
Ġwheel wright
Ġhero ism
ĠPort e
ĠWH O
Ġhes itating
Ġsevere ly
ĠEgypt ian
00 0
kn ock
kn ows
pur pose
Ġtur tle
Ġsanct ity
Ġflo ated
Ġoverwhel ming
OLO GUE
Ġnun cle
Ġwhit ish
Ġmanage ment
ĠWATCH MAN
Ġcurrent s
Ġtranqu illy
haust ible
Ġrash ness
Ġbrand s
Ġcho ked
Ġappl icable
Ġimprison ed
Ġcook ing
Ġpall et
Ġannoy ance
rim ony
Ġcu ps
Ġpeep ed
Ġthorn y
ĠPand ar
ĠGuard ian
Ġstum ps
Ġstum bled
Ġherald s
Ġexcess ive
Ġinsult ing
tra versed
Ġstoop ed
Ġrav ished
dr unk
Ġstam mer
Ġeg otism
Ġgarland s
Ġident ical
Den y
Ġshru b
ĠRoyal ist
**** *
Ġflee ing
Ġparagraph s
Ġfors ook
Ġdisaster s
Ġge ld
Ġdesir able
occup ation
App roach
Ġaspir ing
Ġchur ches
Ġencour aged
Ġach ieved
Ġinvol ve
Ġinsc ribed
ĠFab antou
prison er
Ġinterpret ation
Bes ide
por ate
Ġlot tery
ĠMusic ian
ANTIO CHUS
Ġdissol ved
fact ors
saw yer
Ġlur k
Ġhaw thorn
ĠFair ies
ATION S
Ġorgan ized
Hon our
Ġprett ily
Ġshriek ed
Ġvine yard
Ġslipp ery
Ġfrag ments
pick er
Ġrenew ed
ĠSyrac us
Ġskirt s
Ġveget ables
SC ARUS
Ġpi geons
Ġscold ing
Ġcoloss us
Ġmusk ets
Ġidol at
yes terday
Ġtu ft
success ful
Ġhistor ian
Ġpredict ed
dro ps
miss ive
ĠMunch kin
Ġvio lets
FRANCIS CO
ĠPre fecture
Ġsymb ols
fright ened
power ful
Ġante chamber
Ġvi per
Ġconspir acy
Ġintri gue
Ġadmin ist
Disp atch
Ġpha ses
ĠMir anda
ĠSpir its
Ġexasper ated
ĠBernard ines
Hard ly
Ġenchan ted
author ity
lear ned
perfect ly
pow der
Ġprejud ices
Ġtreas ures
Ġpuiss ant
obl iged
ĠLou vre
ĠDion yza
ĠMarqu ess
ĠPlut arque
Ġdoctr ine
rup ulous
Thought s
Ġglim pses
Ġdefin itive
Ġlibert ies
Ġintellect ual
Ġtink er
Ġfres her
ĠHO USE
prin cipal
inha bited
ĠHy men
Ġreconcil iation
Ġsoci eties
Ġoo ze
ĠAust ria
Ġjoc und
aband oned
Ġimpregn able
Ġmagnanim ous
Ren owned
Ġlen ity
Ġscrat ched
Ġequip ment
Ġimperturb able
Ġcitad el
Ġfard el
Ġworsh ipp
Ġintric ate
Ġminst rels
GRI FFITH
Ġnerv ous
illumin ated
Ġstup or
ĠSA ILOR
Ġperd ition
ITZ WATER
ĠUrs ula
Ġepiscop al
ĠVenet ian
Ġcalend ar
stair case
ioces e
Ġmerchand ise
AUD REY
BAG OT
LIS LE
PYR AMUS
ĠPLE BEIANS
ĠPyrr hus
ĠEgl amour
areng o
THID IAS
BOATS WAIN
ĠLucet ta
3 2
4 1
8 8
9 2
A chilles
A jax
B ook
B ound
B LAN
C ar
C le
C rown
C ries
D ame
D ieu
E nt
F alls
F ATHER
G all
G IN
G ram
H all
H OL
H Ã´
J oy
J ove
J une
M ORT
P om
P leas
P ale
R ed
S at
S us
S pr
S afe
S everal
S IWARD
T ears
W ind
W ash
a e
a um
b a
b as
b row
c hat
c od
c ated
c ides
c itizen
c ollect
c sin
d re
d uke
d read
e es
e ared
f a
f arer
f ault
f alse
f ingers
g or
g ro
g od
g ian
g ued
g rowing
j ar
l og
l ines
l ocks
m ast
m are
m its
m oved
m oon
n est
p at
p la
p ile
p oral
p atri
p entine
s atisf
v ior
w en
w ore
y rs
Ġ il
Ġt ides
Ġt ub
Ġt rop
Ġt acit
in fl
Ġs ar
Ġs ans
Ġs ati
Ġw are
Ġw ool
re ceive
nd isse
Ġo live
Ġm ature
Ġm oust
er whel
Ġb ier
Ġb ower
Ġb arge
Ġb aff
en as
en ances
or achio
on to
Ġd aff
Ġd ye
Ġc uff
Ġc aterpill
ar ation
Ġto w
Ġto ils
Ġp aw
Ġp ushing
Ġp acing
Ġl ances
Ġl aud
Ġh ip
Ġh its
Ġy ew
an ity
an gel
Ġn ests
Ġn uts
Ġhe n
Ġhe w
Ġin ability
Ġin human
Ġth rall
Ġha voc
ve x
Ġg iv
Ġg ale
Ġg inger
Ġbe e
Ġbe est
Ġbe arer
Ġbe adle
le ments
le page
se a
se nd
se th
se ek
st ool
st ars
st raw
et tle
ut ches
Ġwith hold
Ġnot ary
Ġre ception
Ġmy r
Ġfor c
Ġme lod
am mar
ter ior
ter ror
Ġst ains
Ġst abs
ro ph
ro sy
our se
ra ight
Ġli ars
Ġde ity
Ġher b
ould y
ĠM AY
ĠM iddle
il iar
th read
th irty
ĠC A
ĠC e
ĠC ly
ĠC arri
ĠC ole
ĠS end
ĠS oul
ĠS ho
ĠS ea
ĠS econd
ĠS EV
Ġdo ck
ĠA ut
ĠA ff
ĠH es
ĠH ill
ĠH aven
ĠH omer
ĠH APP
est ine
Ġall ies
Ġall usion
un less
out ing
Ġv ines
Ġv aunt
qu a
Ġsh ots
Ġne ut
ĠB est
ĠB rand
ĠB ANDIT
Ġshe ll
red itary
ĠP ower
ĠP ART
ĠP arson
ĠW ork
Ġcon n
art ered
ĠL ast
ĠL ud
ĠL IFE
Ġkn elt
em ies
em bar
em inate
Ġup held
ol i
ĠG ates
ĠG ertrude
ĠG regory
Ġsa ves
Ġsa iling
Ġfa Ã§
ig er
Ġun h
Ġun ite
Ġun aw
Ġcom pel
ast rop
ĠF r
ĠF rid
ĠF ulvia
ort ality
ven al
ure l
au lets
Ġex its
Ġex cel
ĠD ear
ĠD ep
ĠD ES
ĠD ec
ĠD espair
ĠD olabella
ĠD REAM
ĠâĢľ _
ĠR et
ĠR IGHT
Ġle ase
Ġle chery
os y
Ġar istocrat
Ġj ol
other wise
ĠT ry
ĠT unis
Ġsp ill
Ġsp right
Ġsp ray
Ġsp ices
Ġout stretched
are th
Ġpr one
Ġr ite
Ġr arity
op ed
Ġbl an
Ġbl ots
Ġbl amed
Ġdis appearance
Ġdis appearing
ap er
ap tis
Ġen able
Ġsw agger
ĠJ e
Ġsay ings
Ġab ate
Ġab ounded
te eth
ound rel
For th
Ġch imÃ¦
Ġhere tic
pt uous
Ġbr ute
bl est
ĠN IGHT
TH IS
ud s
,âĢĿ _
Ġfl ocks
Ġcha sing
Ġcl ing
Ġcl oy
Ġcl ip
Ġpl ates
ĠK nights
Ġfo ils
Ġim penetrable
ach us
EL AUS
Ġra p
Ġper ils
be coming
we ep
Ġtru ck
Ġwhere to
Ġmen ace
ĠMar guerite
Ġpart ake
aint ing
Ġsc our
Ġcont est
Ġcont ending
Ġent ity
ac hable
Ġfore see
Ġfore finger
Ġfore shadows
Ġpla cing
Ġser ies
Ġser mon
sh ore
We igh
Ġpre fect
Ġpre late
Ġpre text
Ġunder went
Ġcomp ut
Ġcomp art
Ġcomp lying
Ġsm ack
Ġsm ock
Ġsm ote
Ġsm othe
oss om
Ġart is
Ġart ful
ps y
Ġrep ast
Ġrep aid
Ġco g
Ġco gn
Ġtr ash
Ġsl ips
Ġsl umbers
Ġem inent
ens ation
TI L
me at
Ġlight ness
Ġacc ur
IL ITY
Ġend urance
les h
Ġfair s
Ġfear less
Ġstre ak
Ġap othecary
ater nal
ian ces
Ġcons ist
Ġimp ly
ict ed
ĠĠĠĠĠĠĠĠ ĠĠĠĠĠ
ĠY ea
Ġconf ided
Ġmad men
Ġfort ify
Ġgr in
Ġtri ps
Ġtri but
Ġrec ourse
Ġind uced
Ġlast ly
Ġru d
Ġru dd
Ġwind y
Ġmer cil
Ġhum ming
Ġappe als
Ġche ers
Your s
,âĢĶ âĢľ
Ġmis carriage
Ġmis understanding
bt ed
Ġfar thing
Ġserv ile
Ġhor rors
Ġsur veying
att itude
med itated
ner able
Ġdr ay
Ġdr oop
Ġneed y
Ġcur sing
St ru
rest ing
Ġbu ys
pr on
pr otect
aris ons
az e
ĠPr ison
Ġgri pe
Ġpeace able
Ġsun ny
su cceed
Ġbro om
sc ription
Ġsupp os
Ġext ract
ec enas
Ġstri ves
Ġstri pped
Ġwa iter
ĠParis ians
Ġban ners
Ġocc ult
Ġinde c
Ġrel ating
Ġfaith less
ĠSt ri
Ġcr ash
Ġhelp ful
con qu
Ġreg ulations
Ġexc used
Ġins ensible
Ġdel ays
esc ent
Ġgener ations
Ġreason ing
Ġfav ored
Ġere cted
rem ark
UM E
Ġinc arn
Ġtem perate
rac ter
Ġca ressing
Ġca verns
but ter
but ton
par ation
Ġ( _
Ġmur d
Ġpar chment
lo ad
lo ves
Ġele cted
ĠSo ft
Ġdeep est
chan ging
Ġappro pri
Ġport ended
Ġbar rels
Ġdiv or
Ġdesp ot
Ġdesp atched
Ġfur row
MEN ELAUS
Ġpret ence
Ġwel comes
Ġpal ate
Ġpardon ed
Ġcontent ions
Sh ows
Ġfoul er
TES AN
Ġlab orious
oll ection
Ġconst raint
unes eau
appoint ed
Ġdest ination
Ġpa using
Ġfine ly
cell ar
cell us
Ġarri ves
sp otted
Ġenjoy s
ieu x
fl ow
fl oor
she l
ided ly
Ġcar c
Ġcar ters
co ch
Ġshadow y
ĠWhere in
Ġdet ained
Ġlim itation
Ġign ore
Ġcomb ine
Ġwoo er
Ġconce ited
pass es
Ġblind ed
Ġed itions
Ġcand id
Ġdi pped
Ġexcept ions
Ġdu ly
HER ALD
Ġcre am
hys ician
ĠPl ains
Ġprob ity
Ġeff eminate
Ġsucceed s
ĠChrist ians
ĠChrist opher
pit al
Ġexam ples
hand kerchief
Ġrecogn ition
Ġtrans ition
Ġav ar
Ġsuper f
Ġempt ied
Ġaccord ed
Ġsafe guard
Ġincl inations
medi ate
Ġundert aker
Ġvisit ors
Ġjo vial
ĠCor inth
sing ular
Ġmut ter
Ġlust ful
CO S
TA ILOR
ĠTit lepage
Ġbell es
Ġsal vation
Ġdom ain
Ġvent riloquist
Ġconvent s
acher s
ĠPet ite
Ġwhis kers
Ġimport un
Ġfra ilty
Ġchoose th
Pr inces
ĠCart hage
Ġpor ridge
zen ith
Ġhabit ation
Ġinflu enced
cont empl
Ġamaz e
Ġreign ing
Pl antagenet
Ġtrib unal
Ġanx ieties
ĠSh rove
Ġdece ased
ĠPol and
Ġrasc ally
ĠCan st
Ġvol umes
ĠSe ction
ĠFri end
Ġbew ray
Ġbas il
ĠSil ver
Ġpack ing
Ġple ading
Ġdebt or
Ġbeggar ly
Ġfixed ly
Ġrelig iously
Ġforsw ore
Ġcrowd ed
Ġgown s
Ġforbid den
Ġcommend able
ext rem
Ġlift ing
Ġdig estion
ĠTH OMAS
Ġwanton ness
Ġgay ly
Ġmend icant
Ġoblig ation
Ġrender ing
Ġstret ches
Ġcher ry
Ġquarrels ome
EX TON
Ġdru dge
Ġphysic ians
Ġtort ures
Ġmess ages
Ġtim eless
Ġrock y
Ġsacrif iced
Ġstick ing
Ġbastard y
Ġprophe cies
Ġspr ink
Ġspr ites
Ġspread ing
Ġrecom m
Ġbount iful
Ġinher ited
Ġwond ered
Ġsweetheart s
MONT JO
Ġclass ic
Ġpred e
Ca ius
how ever
ĠCal chas
Ġmarket place
ris y
wr itten
Des ire
Des cend
rog ative
bon ius
Ġcool ing
Ġexceed s
Ġunfold ing
Ãª tre
ĠRepublic an
Ġmot ley
Ġperf umes
Ġdecl ined
ĠMurderer s
Ġpage ant
Ġwrink le
Turn s
Ġstates man
ĠLy chorida
Hel en
kn ave
Ġapt ly
Ġmat tock
Ġflo at
Ġresp ite
Ġcerem onious
seem s
Ġsugg est
Ġclam or
Ġcontract s
Ġsevent h
Ġshirt s
Im ag
Sha lt
Ġtest ify
Ġmart ial
Ġori ent
Ġcoz ened
adv ance
Ġgrim ace
Ġgrey hound
Ġparag on
Ġwail ing
Ed mund
Ġcollect ing
Ġlap se
Ġhaunt s
Ġaccus ations
cor ax
Ġstum bling
Ġsurm ise
din ner
tr ademark
tri ck
Ġbla zon
Ġdefect s
Ġmaj est
Ġconfirm ation
certain ly
Ġinfirm ities
vir oned
Ġbag s
Ġcraw led
Ġstam ps
Ġstation ed
ĠRo ger
Ġstrict ly
Ġindul ge
Ġindul gence
Man ette
don ate
Ġcoron et
Jo in
eff ort
ov able
ugg age
Ġshru g
Ġundo ing
Ġflee ce
cond ition
Ġbloss oms
Ġperplex ed
Ġrub bed
Ġfunction ary
Among st
Ġcultiv ated
Ġpul pit
ĠMin ola
Ġphant oms
Ġmould ed
usp icion
Ġyawn ed
ĠFle et
Ġdepos it
disc overed
Ġlur king
ĠSpan iard
ann ibal
ĠMa ecenas
Ġrig our
Ġskull s
Ġlac key
Ġadop t
Ġpenit ence
preced ing
New s
ĠHon our
Ġfrag rant
Ġveget ation
Happ ily
Ġunwill ingly
ĠOther s
ĠOther wise
Ġeloqu ent
furn iture
Ġoverfl ow
Ġscra pe
Ġprecaut ions
Ġbrisk ly
Ġburd ened
bless ed
Ġwan ing
Ġinsinu ate
ILO GUE
ĠBra kenbury
Emb race
Luc entio
creat ure
fright ful
ĠSy corax
Ġdetest able
Ġsuperst ition
Ac qu
sleep ing
Ġsche mes
Ġunse ason
Ġreplace ment
Ġdetect ed
Ġextravag ant
Ġextravag ance
Dre ams
fool ish
pop ular
Ġfel icity
Ġpir ate
Ġpir ates
Ġmead ow
prob ably
Ġcarp enter
Ġprud ent
Ġprud ence
Ġbutton ed
conce aled
Ġsym pt
Desp ite
Gra cious
Ġreass ured
Ġsham eless
Ġspar rows
Ġpupp et
Ġrespons ible
PLA YER
trou ble
Ġrese arch
ĠSer vilius
Ġimpud ent
Ġdiscus sing
ĠVolumn ia
vill age
Ġwick et
Ġcash ier
ĠMet ellus
ĠBu ilding
Ġexcl usion
Ġemig rant
Arch ive
Ġingrate ful
Ou est
Ġske leton
ĠHapp y
Ġmes hes
Ġcip her
Ġhun ter
Ġbeet le
ĠSav oy
Ġprecip ice
Ġgibb et
relig ious
ĠBabyl one
bran ches
ĠGard iner
ibel otte
Ġslaught ered
Ġostent ation
Ġinev itable
ĠHIST ORY
ĠLen nox
ĠFO UND
ĠOlymp us
Ġbale ful
Ġimmin ent
ultane ously
Ġartific ial
Ġinterpre ter
Ġdooms day
neighbor hood
Ben oÃ®t
Boat swain
GENTLE WOMAN
Pret ty
thorough ly
ĠApart ment
ĠFIF TH
perien ced
ĠCharlem agne
AK ES
ĠIlly ria
ĠBew are
Ġperman ent
Ġidolat ry
HÃ´ pital
ĠSEV ENTH
embar rass
astrop hes
Ġsmothe red
Ġmercil ess
MONTJO Y
3 6
6 4
A EL
A uth
A Ed
A aron
A pollo
B us
B are
B asque
B anqu
C ross
C OB
C atesby
E p
E ating
F ill
F ORT
G e
G one
G rant
G iven
H amlet
I ng
I ago
J ul
K illing
L ife
L adies
L avinia
M INIUS
N ine
O d
O bs
P as
P ort
P IC
Q ueen
S im
S oul
S its
T arry
T oward
V EL
V ict
W ent
] ,
b ull
b uck
c ure
c ab
d il
d ied
e qu
e ud
e asy
f et
f lo
f urther
g ical
g ots
g enes
h istory
i ge
i ors
m ate
n ation
n ets
n els
n amb
n ais
o its
o ats
p ath
p ane
p ainted
p leased
s uck
t ide
t ears
t akes
t ains
v ul
v ide
v iv
v irt
v ails
y the
Ġ ic
Ġt ies
Ġt atter
Ġt ins
Ġt ails
he t
he th
he ap
Ġa right
in her
in ore
in ished
in als
in nocent
Ġs or
Ġs que
Ġs outhern
Ġw ield
Ġw aken
Ġw arden
re pe
ou ff
ou che
Ġthe ory
ha ste
Ġm ated
Ġm ac
is le
is hable
Ġb order
Ġb acon
Ġb ashful
Ġb ivou
Ġb aptis
it im
it utions
Ġf law
Ġf reck
Ġf usillade
en cing
or ial
on ne
on ian
on na
Ġd uration
Ġc oy
Ġc akes
Ġc ited
Ġc laimed
Ġc law
Ġc ode
Ġc rick
ar ches
ar ling
Ġp ens
Ġp iety
Ġp arson
Ġl att
Ġl umber
Ġl ashes
Ġl ascivious
Ġl uggage
Ġh ub
Ġn am
Ġn umb
Ġhe igh
Ġin it
Ġin iquity
at ches
om iny
Ġha cked
Ġg or
Ġg ut
Ġbe headed
im ble
im achus
ld er
Ġe ve
Ġis olation
al id
Ġu mbrella
ad lings
Ġnot ion
Ġfor ks
ri ch
ri ven
Ġme llow
am ine
ra ges
ic ions
Ġse w
Ġse izing
Ġse wing
ĊĊ ĠĠĠĠ
ess es
Ġli vers
Ġli lies
ĠM ard
ĠM arengo
il ions
th reat
th ither
th under
th ieves
ge red
pe lled
Ġat om
To ld
ĠC ent
ĠC ain
ĠC AP
ĠC imber
ĠC ranmer
ĠC rucifixion
ĠS l
ĠS it
ĠS ly
ĠS em
ĠS ave
Ġdo e
Ġdo it
Ġsu ed
ĠA L
ĠA ed
ĠA ges
ĠA gain
ĠH um
ĠH unger
un to
un ched
un ches
un ctions
ul es
Th omas
Ġv ib
Ġv oc
Ġv ital
Ġsh in
Ġsh illings
ĠB as
ĠB ay
ĠB ir
ĠB ible
ĠB onapart
ĠB awd
EN IAN
ĠP L
ĠP y
ĠP la
ĠW oman
ĠW itches
ru ff
ru its
art hen
ĠL es
ĠL ive
ĠL ance
em an
Ġor ation
ĠG RO
ĠG ren
ĠG riff
ĠG overnment
Ġsa b
Ġsa uc
IN T
AR E
ig ate
fe el
Ġun thri
Ġun comfortable
AN CE
ĠF A
ĠF ull
ĠE ither
ĠE ls
Ġthere upon
Ġthere withal
ort hampton
Ġam using
rou se
ate red
um ination
um erable
el bow
Ġex iled
ĠD O
ĠD og
ĠD esp
ĠD utch
ĠD avid
ĠR ef
Ġle ak
ran ging
Ġpro se
Ġar ises
Ġj ost
Ġal tern
ON G
ĠT ears
ĠT rust
ĠT omorrow
Ġsp ouse
Ġsp ilt
Ġout run
Ġout stri
Ġout burst
Ġr ides
Ġbl under
Ġdis li
Ġdis rep
Ġdis appears
Ġdis figured
od est
Ġen sign
Ġsw ing
You th
Ġab ed
Ġab ol
Ġqu ote
Ġqu itting
Ġqu ivered
che urs
te e
urn ia
ag ate
For bid
Ġch imer
Ġtw in
Ġro ast
Ġhat ches
Ġbr oo
Ġbr ooks
bl in
Ġpo pe
ĠN ar
ĠN OR
ĠN ero
Ġfl utter
Ġcl og
LE IUS
Whe reat
Ġpl ump
ile m
ĠK night
Ġgra ins
ull o
pl us
Ġri p
Ġper fections
Ġwhere with
Ġbet ook
ab rupt
Ġover head
Ġover came
Ġover turned
Ġsc an
Ġsc aled
Ġsc ream
Ġsc outs
Ġsc ythe
Ġent ry
Ġway farer
ac ross
Ġfore cast
Ġser ge
Ġho ar
Ġho ard
Ġhea ved
Ġgl ided
sh ock
sh ining
sh outed
for ter
of fered
Ġres erv
Ġres igned
We ep
Ġpre rogative
Ã© lemy
Ġart ic
Ġatt ired
Ġrep rehend
Ġmight ier
Ġtr amp
pect ing
Ġem itted
There in
Ġwork ings
atter ing
IL D
Ġend owed
Ġret ort
Ġob jection
Ġtra ct
Ġtra vail
Ġpur g
ian ced
Ġcons orted
Ġcons ciences
av ish
ail ors
Ġjust ices
Ġright eous
men cy
ks bury
Ġrec ollect
Ġgu ine
Ġru bbing
Ġthree fold
up reme
Ġsub missive
Ġmer maid
Ġbra celet
Ġill eg
Ġchar med
Ġchar coal
was hed
Ġche ated
ĠIn spector
so il
Ġdisc ours
Ġter mination
Ġter restrial
ĠAn cient
Ġaff ianced
Ġmon uments
Ġgi ants
ple nd
att ached
med e
ĠFor ces
ner y
day light
Ġcur ve
Ġlaw less
St ir
St ryver
Ġinf in
Ġinf idelity
Ġmoment ous
ex cellent
ex istence
Ġgre ed
Ġgre asy
Ġbes p
Ġjoy fully
All eud
Ġcap it
whe els
any mede
sc r
Ġlay er
Ġvis ages
Ġmarri es
Ġcourt ly
Ġblack guard
Ġdisp ar
Ġmar row
Ġmar ches
Ġmar iners
com mon
Ġsent ences
Ġsent enced
Ġinde bted
Ġrel ates
Go es
ieur s
ĠSt range
ĠBe hind
Ġcor al
Ġcor rected
Ġgrow led
ID EN
Ġexp and
Ġexp ost
UN E
Ġins ignificant
Ġrun g
AG ES
Ġcle ave
Ġcle ft
ĠPro gress
Ġland ing
Ġfam ished
Ġhorse man
Nor folk
ĠAr c
rem acy
Ġinc red
Ġinc ons
Ġca ves
Ġca fÃ©
Ġval ise
Al beit
Ġpar cels
Ġpar apet
lo ading
Ġpurp os
Ġunt rue
Ġadm ittance
Ġtend ed
Ġcommand ers
Ġsum mers
Ġfr am
Ġbar b
Ġdiv ination
fer ing
Ġdem on
Ġdem ocrat
Ġsix pence
PER CY
Ġwear iness
cha in
cha racter
Ġir ony
Ġrequ ited
Re verend
Re bell
Ġchange ling
Ġpen n
Ġpen al
Ġten or
Ġten ant
Ġdev ote
Ġta wny
Ġcross roads
pro gress
pro vided
Ġgar n
ĠMont agues
Ġconst itute
Ġesc ap
ĠSee k
peak able
Pro fess
Ġfat ality
Ġdest itution
Ġbri be
Ġreven g
ĠLuc ullus
Ġdam es
Ġsus pense
Ġsho ots
sp ot
Ġnecess aries
fl ung
Ġmed io
Ġfit ter
SH ER
Ġte em
Ġdef aced
Ġcar ve
Ġdeal er
Ġlim p
Ġvict ors
Ġspo ons
Ġpriv ately
Ġdeli very
what ever
Ġign ored
Ġglass y
Ġfront ier
Ġinv ar
mon ster
PRO CU
Ġble nd
Ġvan ishes
ĠLu cian
Ġtraitor ous
See king
ĠU top
ĠPl antes
Ġconv oy
Ġforest s
Ġforest all
Ġscorn ful
ys imachus
Ġfet id
Ġsn ail
Ġsn ares
ĠLady bird
Ġpure ly
Ġundert aken
Ġfru g
Ġentertain ing
Ġpat ent
Ġpat ched
Ġprep oster
Ġconqu ering
Ġmag net
istol ier
angu ine
look s
ĠBar th
Ġcounter po
Ġline al
Ġline aments
Ġfee bly
after noon
ĠEx cept
Ġsal utation
Ġdefend ing
Ġamb assadors
Ġflatter s
Ġoffend s
arl isle
vious ly
Ġfoolish ly
acc ord
Ġconsider ing
Ġsmo ked
Ġdiss ensions
Ġremark s
Ġstrugg led
Ġdust y
Ġcred itor
cont ent
cont ain
Ġattack ing
Ġlangu ish
Ġexper iments
rep ort
Ġconcl usions
Ġcart ridge
ĠCon ciergerie
Ġord ained
Ġord nance
Ġrequest ed
ĠGe off
cour tyard
reg ard
Ġregard ing
Ġspot less
Ġaffect ing
Cl ifford
ĠSal pÃªtriÃ¨re
Ġprofess ed
Ġembrace ments
Ġbuck led
Ġcontem por
Ġseason ed
Ġprotest ation
ĠPhil ario
Ġusur ped
Ġcommun icate
Se ize
Ġdepend ent
ĠCle omenes
Ġtempt ing
Ġelect ric
Ġleisure ly
ĠBrit on
Ġnaked ness
Ġconvers ed
Ġoblig ations
Ġprovid ence
Ġwhore s
sm o
Ġbill ows
Ġpill ar
Ġpill age
Ġgrat ified
Ġstro ve
Ġsacrif icing
Mon iteur
Ġsell ing
Ġtemper ance
Ġcover let
Ġslander ous
Ġsore ly
Ġspr ite
Ġneighbour ing
Gentle man
Ġodd ly
Ġguilt iness
Ġweigh ing
Ġinstinct s
turn ing
Ġgle amed
Ġpenet rating
wr ong
Ġconceal ment
Des ires
Ġqual ified
Ġqual ify
Ãª cheurs
never theless
thy self
Ġmagn ific
Ġhol iness
ĠSic ily
Ġperf id
Ġbon ny
Ġlam ents
comp osed
Ġsuf fe
Ġdisturb ances
pur cha
Ġshel ves
Ġcomplex ions
Ġtoler able
Ġhazard ous
Ġhoriz ontal
Ġgriev ances
abs or
seem ing
Ġclam ours
Ġnin ety
stri cken
Ġperj ur
Cha mp
Ġsepulch ral
Ġprint ing
Ġgest ures
Kn ows
Ġreco il
Ġfurious ly
ĠOct ober
Cla udio
Ġadmire rs
Ġ9 0
Ġinex plicable
ĠSat an
Ġabhor r
FLA MINIUS
GAV ROCHE
mark et
Ġris ked
add ition
ĠHal f
Ġaccent uated
sub st
ĠTur ks
wit ness
Ġroll s
Ġrum m
Pres ent
Ġrav ishing
ĠConst ance
Ġcompet ition
Ġcompet itors
Ġinfirm ary
Ġsuppl ied
Ġoak s
Ġstab b
Ġstrang est
CAN IDIUS
Åĵ u
Åĵ ur
oug hed
ĠLear n
Ġrhy mes
Ġbenef its
Ġdot age
ĠBoul t
Ġdivers ion
Ġdun ghill
ĠSund ays
Ġshru bs
ĠGen oa
QUIN TUS
Ġshrewd ly
cond emned
overn or
Ant onio
Ġvic ar
Ġcam est
Ġwhist ling
Ġencour aging
Ġvenom ous
jac ent
ĠBeau vais
near ly
ĠFle ance
ĠFle ming
Ġcommonwe al
Ġaut hent
Ġvap ours
Ġsweep ing
Ġdissol ve
Ġdissol ution
Ġfrost y
Ġunluck ily
fle ur
Ġsequ ent
ĠMess ina
Ġapprehend ed
Ġbru ised
Ġbraw ling
Ġunpro vided
Ġphilosopher s
Ġrom antic
Ġpubl isher
Ġsup remacy
Ġhumil iated
Ġprognost ic
Ġarrange ment
Ġvanqu ish
Ġunsatisf ied
Bah orel
ĠHon or
Ġbuzz ing
Ġcontrad iction
Ġale house
Attend ants
Ġmagist rates
Adv ance
Imp ossible
SC ROOP
WH AT
Ġded icate
Ġdisin te
ĠTurk ish
ban ished
Ġgrind stone
sk irt
Ġess ence
Ġdiscl ose
Ġdiscl osed
dro pped
ĠSure ly
lab aster
Ġdisquiet ing
Ġdevelop ment
Ġarmchair s
Ġtrave ling
Ġvi ands
Ġdepri ve
Seem s
Ur ge
Ġvot re
prop ortion
Ġhypoc rite
Ġhypoc risy
civil ization
Ġincor porate
Ġcontinu ance
Dr inks
Ġbou quet
Ġdesper ation
Ġmoist ure
Ġbenevol ence
ĠAlarum s
Ġinquir y
squ are
ĠDant e
ĠRuss ian
Ġchick en
Ġdiscuss ion
Ġdisobed ient
Chan ge
Kiss ing
ĠSH ADOW
ruit ful
Ġunsc rupulous
Ġconfed erates
exec ution
philosop hy
Ġfaubour gs
dress er
danger ous
pleas ure
Ġwhir ling
ĠNear ly
Ġaccum ulation
Ġpuiss ance
ĠOver done
Ġengend ers
ignor ance
Ġpropriet or
Bened ictines
Ġunfe eling
Ġswe ating
Ġcommer ce
Ġconsp ire
Ġdul ness
anth rop
admir ation
ĠHar fleur
Ġconfin ement
approach ing
Ġtransg ression
Ġmicro cosm
sen al
Ġpoo rest
ĠSi ward
Ġterrif ying
ombard a
Ġdisinher ited
Ġsulph ur
Mist ake
ĠImp ossible
ĠTru mpets
comprehe ns
obsc ure
slow ly
Ġeconom ical
Af fection
Bab et
Ġtha w
Ġber ries
ĠSpe ed
ĠSTR ANG
Ġnostri ls
ĠWorth ies
ĠFar mer
Ġentit led
Ġmuzz le
Ġarrog ance
Ġstrate gy
spo ken
ĠSin on
ĠAc ademy
Ġmathemat ics
Ġfug itive
ĠHot el
Ġlethar gy
ĠMarse illes
Ġobdur ate
ĠValer ia
Ġportent ous
Ġmounte bank
COUR TESAN
Ġphilosoph ical
Ġtapest ry
ĠPhÅĵ bus
mun ition
ĠTew ksbury
ĠVOL UME
extra ordinary
Ġbau ble
ĠATH ENIAN
Ġunmanner ly
Ġdestro ying
Pom pey
ndisse ment
ĠCole vile
THIS BE
protect ed
Ġdivor ced
Banqu ier
namb ul
Ġtins mith
ĠGriff ith
ĠEls inore
PROCU LEIUS
ĠLucian a
1 1
2 7
4 5
6 8
7 6
; _
A llow
A ED
A bs
A thens
B on
B reat
B rujon
C ou
C AR
C ity
C hor
C amb
D aughter
D emand
E h
E st
F le
F if
F ast
F TER
F eed
F avourite
G ene
G BY
G INN
H y
H ot
H ougomont
H olla
L aid
M ock
M ORLAND
M ASTER
O C
O SE
O bey
P T
P u
P it
P ay
P ossess
R a
R oses
R osal
S k
S pe
S ul
S land
S alt
S ervants
T e
T ri
T roth
U D
V IS
V ols
W itch
a ist
b ou
b at
b ate
b esides
b oulevard
c ony
c amp
c rows
c urious
c ription
c uriosity
d ear
d ream
d ouble
e ves
e ase
e rers
f r
f ro
f ires
f lesh
g om
g ree
g ates
g rant
g reed
h ur
h ort
h ire
i plied
i Ã¨res
j oint
j urious
l ater
m our
m us
m ass
m ined
m ines
m atic
m outhed
n ay
n am
n ose
n amed
n uts
o bt
r mid
s ous
s hed
s ars
s ense
s ky
t t
t ha
t ter
t rust
u ble
u als
u seless
v ings
v ised
v irtue
w est
w agon
x y
Ġ vert
Ġ USE
Ġ Ãī
Ġ Unless
Ġ *****
Ġt am
Ġt art
Ġt esty
he on
he ath
Ġa ches
Ġa ux
Ġa verage
Ġa qua
Ġa rouse
Ġa labaster
in cible
Ġs i
Ġs all
Ġw age
Ġw reak
re sembl
Ġthe at
Ġo ven
Ġo iled
Ġm ow
Ġm alt
Ġm aker
Ġm ias
is dom
er ity
Ġb athe
Ġb inds
Ġb attered
it ous
it eness
Ġf ry
Ġf itt
or mer
Ġd us
Ġd itty
Ġd andy
Ġd iocese
Ġd ilem
Ġc able
Ġc ister
ar ly
ar ino
Ġto es
Ġto csin
Ġp ly
Ġp rou
Ġp ence
Ġp ots
Ġp ines
Ġl y
Ġl ash
Ġl ots
Ġy ell
Ġy ards
an x
Ġn ous
Ġhe res
Ġin se
Ġin access
at ures
Ġth ie
om ination
as her
as ps
as pect
as ures
Ġg amb
Ġbe aming
le tte
le aves
le agues
st at
st aring
ce au
ce ase
ch ion
im ity
im mediately
et ard
Ġthat ched
Ġe man
Ġe vo
Ġe arthen
ay e
ut ies
ir ies
ent imes
ent rance
al gam
ad en
Ġon ward
Ġwith drawn
Ġre versed
Ġre inst
am y
ter an
her d
Ġst agger
Ġst agn
ra cious
ra ining
ra ham
âĢľ --
âĢĿ !
ic i
Ġse lect
Ġse wed
Ġse xton
Ġli vest
Ġan k
Ġan archy
Ġde ception
ct ures
Ġso aring
Ġso bbing
ĠM ol
ĠM el
Ġk icked
Ġk ern
il ation
pe ius
pe ian
ĠC ell
ĠC OR
ĠC ousin
ĠC atherine
ĠC henildieu
ĠS ard
ĠS out
ĠS ame
ĠS UC
ĠS ec
Ġdo ings
ĠA FTER
ĠH ie
ĠH ug
ĠH ume
ĠH annibal
ck ing
ck ery
Ġno vice
ell er
ul pt
ul sed
Th rust
ble t
Ġv ail
Ġman Åĵu
qu ickly
Ġsha res
ĠB an
ĠB ook
ĠB RO
ĠB orachio
EN SE
Ġshe ds
red oubt
ĠP il
ĠP indarus
ru ms
ĠL I
ĠL ay
ĠL end
ĠL ac
ĠL IC
em y
Ġor g
Ġor isons
ind escrib
ĠG anymede
ĠG overnor
Ġsa cks
AR S
ig ated
la ve
fe ver
fe eling
Ġun ions
Ġun att
Ġun gracious
Ġun successful
ĠE den
ĠE ternal
ĠE uphrasie
Ġam pl
Ġam munition
Ġgo ats
el ier
Ġex ert
ĠD U
ĠD io
ĠD ef
ĠD IST
ĠD arkness
ĠO B
ĠO ft
ĠO pen
ĠO hain
ep hew
ĠR es
ĠR amb
Ġle cher
Ġle gend
Ġle cture
Ġpro hib
Ġar gue
Ġj un
Ġj ail
Ġj aw
Ġal ight
Ġal ert
ass ured
ĠT our
ĠT ac
ĠT owards
ĠT artar
Ġsp i
Ġsp ying
Ġout fit
ide le
He ard
Ġcan v
Ġr ates
Ġbl otting
Ġbl udgeon
Ġdis he
Ġdis ordered
ath ing
Ġen for
Ġag on
Ġsw ays
Ġsw ayed
ĠHe brew
ĠJ ondret
ink ets
Ġab ridge
Ġqu ad
che ck
che ek
ag ent
Ġhand writing
ĠV ict
ĠV illain
ĠV arro
Ġch rist
Ġshould ering
pt y
Ġbr ittle
Ġcome ly
bl ous
bl ue
bl ossom
Ġpo ise
ĠN ine
ĠN orm
AL I
Ġad orn
Ġad oration
Ġad orned
ud ity
Ġfl u
Ġfl am
Ġfl ute
Ġfl ashed
Ġfl uttering
Ġtime ly
Ġcha ined
hing ton
Ġpe w
Ġpe pper
Ġcl ime
Ġcl iff
Ġcl ocks
LE VENT
leas ing
ne gation
Ġfe ud
per ial
ber d
Ġim itation
Ġri ft
Ġdenot ing
In s
In fect
In spector
Ġra z
Ġra llied
ret ions
Ġper ch
Ġper me
Ġper ched
Ġper ished
be gan
we ak
we eping
man ces
Ġthink ers
Ġold est
ĠMar at
ĠMar cellus
ove reign
arri age
Ġwoman ish
Ġear ls
Ġsc aling
Ġsc reech
Ġent ice
not e
Ġrem onst
Ġeyes ight
aster n
de aling
Ġgl or
Ġwr inging
iss ors
ont is
Ġdown cast
for gotten
Ġwar p
Ġpre ach
Ġpre occupied
Ġcomm its
Ġcomp os
Ġcomp ounds
Ġcomp ulsion
Ġsm ith
Ġpres umption
Be ware
Ã© g
Ã© ra
cl asp
Ġblood less
iv ant
iv als
Ġhar b
Ġatt aint
Ġatt ribute
Ġatt ributed
Ġatt orneys
Ġrep ressed
Ġrep ug
Ġco ins
Ġnew er
round ed
Ġem inence
une x
ĠWhat ever
Ġhouse keeper
Ġhouse keeping
me re
wh ore
Ġret raced
har sh
ater ial
ĠTh ings
Ġnor mal
Ġdist illed
Ġapp are
Ġimp ost
Ġimp over
Ġimp osition
Ġimp ulse
Ġbus ily
ict ment
ict ions
ĠĠĠĠĠĠĠĠ ĠĠĠĠĠĠĠ
ĠĠĠĠĠĠĠĠ ĠĠĠĠĠĠ
ee ble
Ġmad onna
Ġchan t
Ġass ert
Ġass igned
Ġass umes
Ġass uming
Ġrest itution
Ġind irect
Ġlast s
Ġru pt
Ġru gged
FF ORD
Ġbest ride
Ġsec uring
Ġnear ing
fort y
so ciety
Ġter med
AC K
Ġmis er
Ġmis use
Ġfar ce
alth ough
med itation
Ġpri zed
Ġkind led
Ġperson ages
Ġperson ality
PH Y
ph ies
ph rase
ph urnia
Ġinst all
Ġneed les
Do ing
St oop
St abs
St anley
og ical
Ġbu bble
Ġfound ed
Ġ1 9
Ġstr ut
Ġstr aying
ex act
ex ists
ex haust
su f
Ġbo asting
Ġdep ressed
Ġbro ker
Ġcap on
ati ate
uc ination
sc apes
sc arce
Ġsing ly
Ġfal chion
no ise
Ġwa ved
Ġwa vering
Ġprof ited
Ġdisp laced
Ġban ner
com pan
Ġsent iments
Ġinter posed
Ġinter cession
Ġprom ontory
Ġint ense
ROM AN
Ġhard ness
Ġtrou blous
ĠSt ork
Ġcr ook
Ġexc uses
Ġexp ose
Ġexp ire
UN ES
Ġins isted
Ġdoubt ing
Ġred uce
Ġred dish
PR E
MAR SHAL
Ġcle ars
bed s
IT U
Ġoft entimes
Ġran c
Ġran cour
ĠAr g
Ġopp on
BO UR
Ġca pe
Al one
ĠBr istol
RE ACH
Ġpar rot
Ġwin ner
lo aded
Ġve ils
Ġve teran
ĠHer ne
Ġsum med
UT IUS
ub al
Ġdrink ers
Ġfr aternity
Ġbar rel
Ġmet amor
Ġdiv in
Ġcol umns
ĠYork shire
Ġsubject ivity
Ġpati ents
Ġdem ocracy
Ġir ks
Ġrequ ital
Ġcreat es
Ġpost ilions
ĠCla ud
Re ven
Ġpen ned
Ġquick en
Ġdon key
Sh ort
Ġten our
Ġten ants
Ġdev oid
Ġta pped
pro dig
pro found
rupt ed
Ġut ters
iffe rent
read ing
oly cus
Ġrespect ing
rib ier
PET O
Ġconst itution
Ġconst rained
ĠAl most
ĠAl onso
Ġforg iven
Ġstraight way
Pro p
Pro sper
Ġdest inies
Ġbri ers
Ġbri oche
happ ened
kes peare
Ġbattle ments
set s
Ġclear ness
Ġgracious ly
Ġbold er
she aring
umb ly
ob ject
Ġfit ness
Ġdef ault
Ġunf ruitful
co ats
co arse
co ffin
rous ers
Ġhell ish
Ġfright s
Ġlim ed
pend ing
unk nown
Ġrevol ts
AU CHE
Ġoffic ious
Ġty pes
Ġwoo ers
Ġviol ate
crow d
gr am
gr ass
gr ating
ĠPer petual
Ġinv incible
Ġexec uting
oun ces
Ġstruck en
Ġmir ac
Ġmir rors
mon ious
mon ths
Ġslow ness
Ġunhapp ily
ĠOr sino
Ġvan ities
Ġknight ly
Ġforward s
Ġinj unction
Ġstart led
Ġstart ling
Ġeff usion
GH T
run ken
ĠDe cius
De fect
Ġimag inations
Ġtrans fig
Ġtrans ferred
uct ive
Ġrepe ating
ips ed
pir ing
do ctor
lict ion
Ġpure st
Ġundert ook
Ġentertain ments
Ġemploy ments
Ġspring time
Ġtor rent
Ġfle ur
ĠWh ite
Ġep aulets
Ġsens ations
Ġdistress ful
ĠCor in
Ġwid ower
Ġaccount ed
Ġpract is
Ġaud it
Ġaccept s
Ġlod ges
Le on
Tru anderie
Ġcounter part
Ġbond man
Ġur gent
Ġcontr ar
Ġcontr ast
long s
Ġsal uted
Ġobey s
Ġprog en
Ġvar iable
PAND AR
ca used
Ġworship s
ax im
Ġpor ters
acc ount
Ġsmo othed
br ush
Ġhabit ually
apt ured
Ġwisdom s
af raid
Ġburst s
Ġcivil ized
ĠIN D
Ġsepar ates
ĠCon vent
Ġune qual
Ġemer ges
Hold s
Ġwicked ness
Ġsav ours
Ġsav ages
Ġfla gs
Ġdece ase
Ġband y
ĠQu adlings
Per form
Cl ose
Cl oud
Ġfold ing
ato es
ĠSal ic
ĠSal arino
ĠCy gne
alb ain
Ġruin ous
Ġaim ed
Ġkneel ed
Ġadmir ably
Ġwag gon
Fl ora
Ġsusp icions
Ġpop ulation
Ġpress es
return ing
Ġcapt ives
Ġaug ury
Ġcommend ation
ext reme
Ġast ron
Ġdig ging
Ġpeculiar ly
Ġplan ned
des cended
vis it
Ġbark ing
ĠBrit ons
Ġwaste ful
asp ard
ĠJew ry
Bl ow
Bl ind
ĠTw enty
Ġtap ers
requ ired
isp iece
Ġpill ars
Ġharsh ness
Ġaccess ible
Ġfierce ly
Ġinn umerable
Ġstro lling
Ġtreat y
Ġdise ased
ĠXI X
ache th
sa ving
Ch ildren
Ġcock ade
Ġendeav ours
Ġintend ing
Ġearnest ness
Ġchimney s
spe ech
ĠAb hors
Ġtrick led
Ġcla pping
Ġgle an
ĠPri est
Sp are
Ġ181 4
wear ied
Ġwax ed
carri er
Ġstupid ity
const ancy
Ġsuspect ing
count enance
Ġgallant ry
sha me
Ġpu zzled
Ġunkind ly
Ġbreed er
Ġsand y
SOM E
Ġ3 0
Ġgru mbling
Ġmonarch s
Ġcareless ly
Ġfan atic
Ġtur key
inc re
Ġchest s
Ġsteep ed
Ġpow dered
Ġshel tered
Ġtoler ated
ĠSp y
maid s
Ġmonument al
Ġcud ge
Ġsugg ests
Ġped lar
Ġembarrass ing
Ġhy per
ĠHence forth
ĠEurope an
Su ccess
Ġecst asies
Rep air
Rep ublic
Ġpall id
Ġmischief s
Ġforbear ance
Ġrent s
Ġbegu il
Ġrou g
Ġpeep ing
might y
Ġwithdraw ing
Ġconvert s
Ġoutl ine
Ġze alous
Ġinex haustible
Ġsuck ing
ĠTar peian
Ġcloak s
break fast
add ers
Ġperpet ually
sl ang
Ġmanif old
Ġinsult s
ĠCo chepaille
Ġambit ions
Ġproject s
Ġrav ine
glass es
Ġindifferent ly
Ġattent ions
Ġsuppl ant
Ġsuppl ication
cr ates
Ġward robe
Ġforfeit ure
Ġriot ous
Ġstrang led
cat astrophe
ĠCON VENT
ĠCON SPIR
necess arily
Ġident ify
Ġingen uous
Ġingen uity
ov ico
dest roy
Ġfret s
Ġtrades men
Sm ile
Ġge omet
ĠRE AD
Ġgrasp ing
ĠTroj ans
Ġchur l
ĠFab re
Ġenforce ment
Ġraven ous
Kne el
Ġvener ation
Ġinterpret ed
Ġmagic ian
Ġforebod ing
dog s
mid night
Ġsine w
Ġtot ally
ĠThan ks
Ġpeer less
Ġprovo k
mis ery
Ġrepro aches
Ġbelie v
Ġcalcul ate
Ġcalcul ations
Ġpettic oats
Ġprognost ication
SUR VE
Ġbath ing
Ġfer oc
atcl iff
Any thing
BL ER
possess ed
Ġcul minating
Ġpest il
Ġenv ied
Ġdeliber ation
sla ves
Ġcas ement
ĠCamb io
ĠCamb ronne
Ġoutrage ous
bra ins
opp ortunity
Ġgroom s
Ġprecipit ated
Ġoverfl owed
Ġoverfl owing
soul s
Ġess ential
ĠPR IN
ĠPh ry
ĠPed ant
Ġabst ract
TIT INIUS
Ġvest al
dep art
revolution ary
Ġrein force
ĠLam arque
Ġaffright ed
Ġinterrog ation
Ġinsinu ating
mad ame
talk ed
talk ing
Ġeyeb alls
Luc ie
creat ures
tong ue
tong ued
Ġamuse ments
intell igible
Ġdepri ved
Ġpan es
Ġhal ter
suffic ient
Ġexasper ating
Ġju ice
abb ard
suff ering
Ġsche me
Ġnurs ing
ĠAG REE
ĠHec ate
Ġchronic le
Ġdomin ions
separ able
Ġmead ows
ĠRuss ia
Ġenchan ting
Ġremo val
Ġextric ated
Kiss es
fif teen
pin ion
former ly
Ġresour ce
Ġcush ion
Ġpend ant
Ġlull aby
Ġnour ishment
Ġnick name
ĠPant heon
Ġconsec rated
ĠGr Ã¨ve
Ġplaint ive
Ġobsequ ies
Ġobsequ ious
Ġtreas ury
fam ily
mil k
Ġtack le
ĠLod ovico
Ġspar row
Ġengend ered
ĠMarqu ise
Ġmoons hine
exp ression
Corn ets
Ġunfe igned
Ġbrush wood
Ġcommer cial
Pal amon
ĠUN DER
Ġgy ves
Ġrela x
Ġchoo ses
Ġchoo sing
Ġtrun ks
Jud ge
OUL D
ez vous
Ġmel ody
Ġchal k
Ġhunts men
Jes u
sac rifice
Ġdisd ains
apol is
Ġpopp ies
Ġadvertis ed
accept ed
Ġdisconc erted
Ġinterse ction
Ġmultip lying
ĠPAR IS
Ġquarre lling
repres ent
Ġsouven irs
Persu ade
Ġmanufact ure
Ġstratage m
Dest roy
Dism iss
coun sel
Ġcau ldron
Ġsund ry
Ġfab ric
Ġcommiss ary
Ġdetach ment
surpr ise
Cam illo
Pont mercy
magn ificent
ĠSam son
Ġorth ography
Whis pers
Ġprecept s
Ġimposs ibility
Ġirresist ible
ĠLeg ion
Ġacknowled ged
cule ius
Ġtab or
Ġunacc ustom
athom able
polit ical
ĠVirg ilia
EP ILOGUE
Trib unes
pull ed
ĠMus ain
ĠShad ow
ĠPent apolis
ĠGR AND
ĠFame uil
ĠFront ispiece
ĠFranÃ§ ois
Ġsuppli ant
Ġthunderb olt
ĠPhilome l
Ton ight
Wood man
Ġdyn asty
Ġhoof s
ĠTre bonius
Ġbron ze
ĠSooth sayer
BLAN CHE
HOL LAND
Ġtrop hy
onto ise
ĠAut olycus
ĠFr aternity
ĠFrid ay
ĠchimÃ¦ ras
ĠStri ke
coch Ã¨re
COS ETTE
Ġprede cess
Imag ine
AEd ile
ouff etard
ĠMard ian
ĠBir nam
Ġchimer ical
Ġbarb arism
SHER IFF
Ġdisinte rested
anthrop ist
ĠSTRANG ER
Chor us
GINN ING
Ġdus ky
Ġinaccess ible
ĠMol iÃ¨re
ĠLIC ENSE
ĠDio genes
ĠTac itus
ĠJondret tes
AUCHE LEVENT
ĠAbhors on
ĠCONSPIR ATOR
SURVE YOR
. .
2 5
8 4
8 7
A ge
A unt
A SE
A umerle
B ed
B IN
B ONA
B onaparte
B lachevelle
C re
C ROOP
D u
D ar
D ark
D emetrius
D ream
D ouble
E urope
E GLA
F ight
F au
F ew
F urther
G old
G reen
G rief
H ome
H and
H arp
I ron
J EW
K ent
L ear
M E
M o
M et
M ort
M artius
M ITH
M arried
M OUR
M Ã©d
N on
N icolette
P ier
P aul
P rick
S ith
S CE
S MITH
T U
T re
T or
T ur
T ry
T oto
T reason
T ongue
U sur
U BL
V ert
W in
b old
b right
b ug
b owed
b ench
b rate
b urg
b irth
c ru
c ine
c ost
c ence
c unning
d ust
d ings
d esc
d uring
d uty
e ating
f ant
f ol
f ile
f ix
f led
g ger
g ments
g oose
h ist
h ounds
h ospit
i os
i pt
i ens
l as
l ves
l Ã©
l ars
l icense
l anguage
m art
m ult
m onsieur
m ask
m usic
m itting
m ember
n ar
n us
n aire
n ational
o ever
p ain
r m
r ator
s us
s ers
s li
s erved
s ervant
t im
t ro
t ale
t aste
t emper
t ruly
t rousers
u i
u ing
u ation
w ished
w ives
y ed
z ar
Ã «
Ã »
Ã Ģ
Ġ vers
Ġ Ã©t
Ġ xx
Ġt ir
he m
he et
in i
in able
in cial
Ġs am
Ġs anguine
Ġw os
Ġw atered
re ach
re ally
re ads
re fle
ha p
Ġo sc
Ġm axim
is it
er ated
Ġb out
Ġb ough
Ġb ourn
Ġb enches
Ġb orders
Ġb oulevards
it z
it ar
it le
it ched
it ably
Ġf ade
Ġf reak
Ġf owls
en itude
or am
or ant
or Ã©
or ical
or ably
Ġd and
Ġd ive
Ġd aint
Ġd astard
Ġd urance
Ġd ormer
Ġc ad
Ġc ass
Ġc rust
Ġc ooks
Ġc itizeness
ar ant
ar ition
ar ges
Ġto ol
Ġp ies
Ġp ac
Ġp ang
Ġp ained
Ġp uri
Ġp ump
Ġp sy
Ġp ension
Ġp elting
Ġl ids
Ġl onel
ing en
ing ling
Ġh oop
Ġh inds
Ġh ydra
an ked
Ġn ib
Ġn ude
Ġn ooks
Ġn umbered
Ġhe reditary
Ġth rees
ot al
ot est
as ide
as ily
ĠI nter
Ġha le
Ġha llow
Ġha pless
Ġha llowed
Ġg in
Ġg otten
ow ick
Ġbe aver
le ven
le brate
st ir
st op
st ick
st roke
st upid
st omach
im pe
im ated
Ġe ke
Ġe astern
ill ation
ill ius
ith met
ent ire
id y
ad m
ad les
Ġre li
Ġre cept
Ġre ferences
ri ent
ri est
ri um
ri ans
Ġwh ining
Ġwh ipp
oo ing
Ġwe aris
Ġst ink
Ġst int
Ġst akes
Ġst ung
Ġst ables
ro ses
ro oted
ro ndissement
ur vy
ra ft
ra ught
ra pid
us band
ic ament
Ġse ct
Ġse vered
ore rs
ess ions
ain ville
Ġde ci
Ġde ux
Ġde ference
Ġde jection
Ġso bri
Ġso fa
ĠM Y
ĠM ice
ĠM ach
ĠM oon
ĠM utius
ĠM ouldy
Ġk itten
il ian
il mont
th reshold
ge us
pe ll
pe au
and ers
ĠC LA
ĠC rown
ĠC arm
ĠC OS
ĠC Ã®
ĠC arlisle
ĠS ing
ĠS mith
ĠS ailors
ĠS CROOP
Ġdo ers
if ting
ĠA p
ĠA ix
ĠA gin
ĠH ard
ĠH UNT
ĠH orns
est able
ard an
Ġno ont
Ġno vices
Ġlo ft
Th irty
Th inking
Ġv it
Ġv ote
Ġv oted
Ġv alleys
res olute
Ġsha ped
Ġsha ggy
ĠB ad
ĠB UT
ĠB elle
ĠB erry
EN ER
ĠThe e
Ġshe ars
ĠP ark
ĠP ierre
ĠP orter
ĠW all
ĠW AR
ĠW ait
ĠW ILLIAM
ĠW ILLOUGHBY
Ġcon val
ĠL i
ĠL im
ĠL agny
ĠL ysimachus
Ġkn avish
em bered
Ġor ators
ĠG ot
ĠG al
ĠG ad
ĠG races
ĠG ribier
ong enial
Ġfa ctions
Ġfa gots
ig ue
ig arius
la bour
Ġun man
Ġun par
Ġun arm
Ġun civil
Ġun reasonable
Ġun selfish
Ġcom er
Ġcom et
ĠF at
ĠF ight
ĠF ind
ĠF ate
ĠF ont
ĠF ife
ĠF ellow
ĠF uries
ĠF inally
ose ph
ĠE pid
ĠE lys
Ġam ber
Ġam used
Ġam algam
ure nce
um our
um bed
um sy
Ġdre ary
au b
au de
el ius
Ġex che
Ġex eunt
Ġex acted
ĠD ie
ĠD iv
ĠD RA
ĠD ane
ĠD isp
ĠR h
ĠR am
Ġle op
Ġle aped
Ġle vity
Ġle velled
Ġle ctures
os ures
Ġar raign
Ġj ay
Ġal ien
ĠT ran
ĠT ham
ĠT ruly
ĠT ubal
Ġsp an
Ġsp un
He ld
He igh
Ġcan al
Ġcan cell
ng th
Ġr amp
Ġbl ushed
Ġdis se
Ġdis su
Ġdis advantage
od iac
ath y
Ġen rolled
Ġen joined
Ġag ility
Ġag rees
Ġsw inged
Ġab ides
Ġqu i
Ġqu arry
che er
che ss
te aux
ag ogue
ST RAT
ĠV an
ĠV ill
ĠV ic
ĠV ARRO
For ward
Ġch ir
Ġch Ã¢teau
ave l
bl ows
ĠN E
ĠN ile
ĠN umber
ĠN ext
ĠN orthampton
TH ALI
Ġad oring
ert ake
Ġden ying
Ġden unciation
ud y
Ġfl own
Ġfl ush
oy e
Ġpe bble
Ġcl out
Ġcl umsy
ne x
Ġpl od
Ġpl under
Ġpl oughed
ack et
per a
per formed
per mission
Ġfo b
Ġfo iled
ber y
ber ds
Ġim be
Ġim itated
pl uck
Ġri v
Ġheart less
Ġoff ensive
In v
In jurious
ret s
be comes
we ather
Ġthink est
Ġold en
Ġlong ed
Ġlong ings
!âĢĿ _]
ab ble
ab bed
ĠMar ie
unt arily
ove mber
oul Ãªme
ip otent
Ġover t
Ġover board
arri es
Ġown ers
Ġear ldom
Ġsc oundrel
Ġcont ributed
not es
Ġrem iss
ac ies
Ġfore seen
Ġbefore hand
Ġgl ist
Ġgl ued
sh ri
sh oot
for ms
Ġres ists
Ġres piration
Ġcomm une
Ġbeg s
How e
Ġpres age
Be gin
Ġla urel
Ġke el
ET TER
cl o
cl ing
cl ining
Ġgentle women
Ġatt itudes
Ġrep lete
Ġrep rove
Ġrep ulsed
Ġco b
Ġtr inkets
Ġbre w
Ġsl ut
Ġsl oth
Ġsl ime
Ġsl ough
Ġsl ugg
Ġhouse wife
me ant
les i
Ġret ro
Ġsweet en
omet er
har monious
tell ing
Ġstre wn
Ġhonour ably
ater n
ins ult
ins urg
Ġtra il
ough by
Ġapp ertain
ian cy
Ġcons ents
Ġcons cient
Ġimp utation
der ived
land ers
Ġconf id
uck et
Ġass es
Ġbel ied
get ting
Ġgr inning
Ġtre mor
Ġrest or
Ġrest rained
Ġtri colored
Ġtri gger
Ġform ation
sw orn
sw allowed
Ġrec ur
Ġrec ords
Ġrec ollection
Ġind ent
Ġind ictment
SE X
Ġru den
Ġru bs
Ġlive lihood
Ġbear ings
ister ing
ICH AEL
Ġbest rid
Ġcount enances
RU GBY
Ġmaster piece
was h
ĠShe riff
Ġche at
Ġbed chamber
so ft
Ġdisc arded
Ġter race
Ġter minate
Ġmis be
Ġmis adventure
Ġmon ks
Ġmon keys
well ing
AND ER
att ling
Ġkind er
ĠFor res
ph on
Ġinst ances
Ġinst itutions
Ġplay fellow
St raight
Ġearth y
Ġinf inity
Ġpower less
Ġstr ayed
ex ped
ex perienced
Ġsun ken
Ġbo iled
Ġbro il
Ġcap ri
Ġcap arison
ati ently
whe nce
Ġste er
Ġste pping
Ġstay ing
Ġac ute
right ed
Ġext emp
ec ution
Ġsoon est
ony mous
Ġblack er
Ġprof aned
Ġdisp rop
Ġdisp atched
Ġdisp raise
Ġmar red
Ġmar sh
Ġinter nal
Ġrel ics
Ġnews paper
ĠSt rat
ĠBe ast
Ġcor ps
Ġcor ks
pon se
Ġcr utches
con ne
con cer
con sequ
con quer
Ġexp osure
Ġdel ir
Ġdel icacy
ray ed
ĠAnt iates
PR OLOGUE
Ġsick en
esc ore
esc ence
Ġcle arer
ĠPro culeius
ices ter
bed ience
IT MOR
app le
ĠQ ue
Ġfeel ingly
Ġref in
Ġref ined
Ġref uses
Ġref usal
Ġmin ist
Ġorder ing
ĠAr ist
rem embered
Ġprop os
Ġprop ert
Ġinc ision
Ġfoot man
Ġopp ortune
Mar garet
Ġmaid ens
Ġca ress
Our selves
Ġval ua
Ġsister hood
Ġdraw bridge
ĠBr uneseau
par ing
ib als
Ġyouth s
Ġsuccess es
Ġye oman
Ġunt r
Ġground ed
Ġtend s
anc ers
ĠHer od
Ġjud ging
Ġgall eries
ift s
Ġport ly
ĠIs is
Ġdesp atch
Ġcra pe
Ġpity ing
act ive
Ġcast les
Ġpal aces
Ġaw aked
Ġaw aits
Ġpost ilion
Re qu
Ġsla vish
Ġemb oss
Ġservice able
Ġdon ation
Ġdev oured
Ġta pe
Ġta unt
Ġsim ultaneously
Ġmanner ly
Ġsin ner
pro per
pro du
ĠCh ild
VOL SCE
Her self
Her ald
Her mione
Ġgar lic
rupt ible
read er
Ġreal ization
ĠLe ad
Ġrespect ive
Ã¨ se
Ġlad ders
Ġesc arp
urs ue
Pro f
Pro vided
min ary
Ġtrust s
Ġbri cks
Ġreven ues
Ġdam aged
Ġmod ified
Ġbehold ers
light s
bb o
sp ent
Ġdog ged
cient ific
Ġmed itations
she ll
she ep
Ġstreng ths
Ġstreng thened
ob ility
Ġhot ly
Ġdef inite
Ġunf ri
Ġunf athomable
ĠCap tains
val ier
val iant
Ġdet ract
Ġacqu ire
Ġfright fully
ĠRe gent
Ġid i
gu ards
Ġcru mbled
Ġcru elly
Ġrose mary
Ġdepart ing
Ġdepart ment
Ġsuit able
bey ond
Say ing
heart s
dis pl
Ġsoldiers hip
PAR ITION
Ġinv ested
hold ing
Ġprov isions
Ġprov incial
pass ers
Ġblind ly
Ġsqu ee
Ġleg ion
Ġdi vert
Ġdi verted
Ġcompl iments
Ġer upt
ĠCom mend
Ġvan ishing
Ġpain fully
Ġequ als
Ġequ ality
Ġinstru cted
Ġconv ince
Ġforget s
Ġforget ting
Ġpassion ately
lu ence
Ġtrans late
hor rible
Ġsn are
Ġsn ap
Ġfavour able
Ġprodu ct
Ġeld ers
Ġshut ter
Ġshut ting
Ġchurch men
ific ate
Ġquiet ness
Ġmurder ing
do zen
ĠWill oughby
can o
ELL ER
Ġep ithe
Ġhost elry
ĠCor poral
Ġwid est
Ġcoll ege
Ġaccept ing
Ġmut ually
Le blanc
Tru mpet
Ġutter most
Ġmour ner
Ġur n
ĠEx it
Ġsal ary
Ġprevent ion
Ġobl iter
Ġdefend s
Con vey
Ġver ily
Ġunc ongenial
Ġconduct ing
some what
Ġintell ig
Ġimm aculate
Ġimm odest
Ġinflu ential
Ġbod ice
Ġwarm ly
Qu ar
Qu estion
Ġdress es
Ġann ual
Ġfrown ed
Ġthunder ing
Ġgrass es
ĊĠĠĠĠĠĠĠĠ Ġ
Ġlangu ages
Ġrend ezvous
Ġconcl udes
Ġow ing
Ġow ls
Ġcustom er
Ġbend ed
Ġuns ha
Ġuns peakable
Call s
Hold ing
Ġarg ued
pri oress
Ġpin ched
ript ions
Ġanx iously
Ġlend ing
Ġvex atious
Ġdim ly
ĠSen ior
Ġassoci ating
PO S
Ġangel ic
than ks
Ġbas is
Ġwidow hood
Ġod ours
Ġbuck ram
Ġple aded
Ġgross ness
Ġclo ven
Ġsteel ed
Ne uf
off er
Ġtall ow
Ġobst ruction
SA INT
Ġcapt iv
into x
ĠVer ges
ĠVer ga
Ġbeha vior
Ġdesc ry
Ġdesc ribe
En joy
athe n
Ġnarrow ly
Se al
Ġcunning ly
Ġheav iest
,âĢĻ âĢĿ
des ire
Ġbark s
Ġdisag reement
Ġconvers ations
Ġmelt s
Ġ2 4
Ġwast es
eau bri
Ġdru g
ĠSha kespeare
Ġrememb rances
ribut ions
ĠDon albain
vi Ã¨ve
Ġdoom ed
Sc arce
Ġhall ucination
Ġhandsome ly
ĠLeon ine
Ġtail ors
Ġgrou ped
Ġconj ur
Ġgrat ings
Great er
SON G
Ġmourn fully
Ġclean ly
bel ieved
ĠQU ES
Ġaccident al
know ledge
Ġpath way
Ġreck oned
Ġswell ed
Ġrecom p
Ġoutward ly
Ġaccompl ices
inter vals
lock ed
Ġascend s
Ġsmooth ly
Me asure
Me rely
Ġ6 2
spe cially
ĠAb raham
wr ite
wr ote
ĠSERVANT S
BRA S
char ged
dist rict
wear y
Ġinward ly
Keep s
Long er
Ġgam ut
const ituted
bes eeming
sha pe
Ġscand alous
Rem ain
Ġrecon stru
Ġcurious ly
Ġgru d
Ġappet ites
Ġcav il
Ġdeb au
Ġshr unk
Ġretire ment
Ġinterrupt ion
Ġmat ches
ĠAlb an
ĠAlb ion
Ġpos itive
Ġpos itively
Ġprivile ged
Acc ursed
bod ing
vo ices
Ġembarrass ments
Ġhy mn
Ġinfect ious
Ġabyss es
Draw ing
del icate
Ġsust aining
Ġcouple t
Ġannoy ances
Ġflourish ing
Ġtorment ed
Ġnon etheless
inst ant
Ġoutl ines
Ġreproach ful
Ġinex pressible
Ġbutcher s
ĠGreek ish
Ġamount s
Ġaccus ers
add ressed
Ġassass ins
Ġassass inated
Ġdrunken ness
tra veller
Ġassist ant
cr ity
Ġwink ed
Ġmale factors
ĠRo ad
bu ilt
bu ilding
Ġfest ivals
Ġcaut iously
Ġling ers
Ġbenef icial
WEST MORLAND
yl us
Ġdot es
Ġnim bly
Ġmedic ines
Ġpopular ity
barri cades
Ġfret ted
Ġloc ality
Ġtrim med
Cry ing
Res olve
port e
Ġsed uced
Ġsed uctive
Ġunw ittingly
Ġunif orms
Ġperplex ities
Ġrub ies
Ġcorrect ly
Ġregular ly
Ġshift s
Ġleather n
Ġquant ities
Ġindust rious
Ġhospit ality
ĠWelsh men
Ġbrill iancy
Ġraven s
Cal m
Ġmould y
Ġlar g
Ġabandon ment
Ġancest or
Ġcongenial ity
Ġvap or
Ġforebod ings
disc over
mid st
tran quil
Ġtot tering
Ġdimin ished
Ġdimin ution
Ġrig id
Ġrig orous
Wit hal
Ġlac keys
Ġhurried ly
Ġbrig and
Ġsly ly
Ġfer vent
ĠMond ay
ĠChe lles
Ġdisco vers
disp osition
Ġschol ars
Ġbul wark
Ġrhe tor
Ġslipp ers
Ġcelebr ation
Ġshudder ing
Em peror
Ã¼ low
Ġloo sed
Ġrevel ation
WH ICH
ita e
ĠEn emies
Ġenig matical
Ġenerget ically
inf inite
Ġincess ant
ĠDis appoint
Ġgrind ing
Ġcandlest ick
viol ent
beaut y
success ion
Ġhelm ets
dire cted
hel p
Ġwrest le
Fri ends
dep ths
Ġpropri ety
Ġcounsell ors
Ġscrutin izing
Ġecho ed
sum mer
earth ly
Ġpeop led
Ġimped iments
Ġsincere ly
consider ation
consider able
Ver ily
Ġinund ation
Ġgames ter
intell igence
Ġbeque athed
establ ishment
suffic iently
Ġintri guing
Ġdemonst ration
Ġunfaith ful
Ġsquad rons
Ġtight ly
Ġbloods hed
aur us
free ly
oons hine
Ġaven ue
Ġaven ged
Ġnois ily
Ġnodd ing
Ġvolupt uous
Ġnegro es
obs erved
pop ulace
Ġthigh s
separ ated
Ġdegr adation
Ġlog ical
ĠTer ms
Ġremo ving
recogn ized
ĠBig ot
ALEX ANDER
Ġsym met
gaz ed
pow ered
sad ness
Ġconsec rate
Ġrapt ure
appro ached
Cass io
mil itary
Ġmas qu
Ġliter ature
ĠCertain ly
Ġviv acity
ĠLod owick
Ġbloom ing
Ġsyn od
ĠPlut o
Ġconvuls ively
Walk ing
trou bled
Ġfen cing
Ġrese arches
Ġadjust ed
lie ue
Ġrela pse
ĠMer chant
ĠMam illius
ĠBell ario
Ġgraft ed
Ã©n ilmont
Ġdiscus sed
ĠPruss ian
Ġtransl ated
ĠVolumn ius
Ġmicro sc
Ġpoo rer
ĠCr isp
ĠAdrian a
Ġdisinher it
Ġmason ry
Ġfisher men
Ġdisd ained
ĠKn ock
Ġdisconc ert
Grand am
Min ette
Ġgau dy
Ġconcent rated
Ġjer kin
Ġscre amed
Ġinfring e
build ers
Po ison
Ġfasc inating
Ġheark en
ĠBes eech
emer ged
Ġwhel p
Ġchallen ged
deal er
harness ed
ĠNoble man
spir it
Ġcongreg ation
Dra wn
diffic ult
hung ry
Ġfount ains
Ġbellow s
Ġul cer
Ġunha llowed
Ġdren ch
Ġpersever ance
Ġvehe ment
ĠConspir ator
Ġlep rosy
stran ger
ĠSte ward
Ġbutche red
Ġwheres oe
Ã©r Ã¨se
Ġcoquet ry
Ġdespond ency
Ġbarric aded
circumst ances
Ġaur ora
Ġcate ch
sto pped
Ġdocum ents
Ġrab bit
Ġgrate fully
Ġpromen ade
Ġgrenad iers
Ly sander
SERV ILIUS
Ġauster ity
Ġugl iness
ĠSept ember
ĠLob au
Ġperfor mances
Ġreprie ve
Ġcoinc idence
distinct ly
Ġadminist ration
cod ile
erwhel m
Ġbaff led
Ġmyr tle
ĠBrand on
Ġunaw ares
Forth with
Ġrudd y
Stru ck
succeed ed
Ġindec ision
Ġavar icious
Ġsuperf icial
Ġmajest ical
Acqu aint
Ġsab res
ĠTears heet
Ġoutstri p
Ġbroo ch
Ġteem ing
ĠGeoff rey
Ġauthent ic
comprehens ible
AED ILE
Gene viÃ¨ve
Vols ce
Ġcister n
Ġorg ans
suf fered
Ġmetamor ph
ĠClaud ius
ĠPRIN CE
EGLA MOUR
JEW ELLER
TU BAL
UBL IUS
Ġpuri f
Ġlonel iness
Ġwearis ome
ĠCOS ETTE
ĠCÃ® teaux
ĠAgin court
Ġnoont ide
ĠElys ium
ĠTham es
THALI ARD
Ġruden ess
Ġdisprop ortion
ITMOR E
Ġvalua bles
Ã©nilmont ant
) ;
2 9
3 3
4 9
6 2
8 5
; âĢĻ
@ @
A KE
A SS
A bb
B re
B ou
B ull
B aptist
B ATES
B arsad
C are
C ried
C ardinal
C ursed
D ou
D er
D et
D ri
D iss
D espair
E merald
E ros
E arth
F A
F UL
F ANG
F inally
G r
G ro
G ard
G OM
G ENCE
G olden
G aoler
H ost
H ope
H ullo
H umbly
J ew
K NIGHT
L ent
L ion
L ose
L ist
L IA
L ament
L aying
M er
M ill
M ess
M ount
M ARD
M atter
M aid
M elt
M erc
M agn
M ichel
N umber
O rion
P ir
P ING
P ull
P ron
P lead
P ursue
P UBLIUS
R om
R id
R ES
R ough
R IST
R ichmond
R escue
S in
S er
S um
S ec
S ho
S imon
S pir
S uffolk
S elf
S harp
S NO
S earch
T end
T aste
T oussaint
T uesday
V e
V en
V ol
V isit
W ed
W ant
W ater
W ILLOUGHBY
X V
] .
a unch
b ol
b able
b ars
b rac
b elt
b ush
b ranch
c oll
c ases
c rim
c opyright
d ore
d ame
d ull
d istress
d azz
d ifference
f ed
f ill
f ers
f au
f resh
f urious
f ountain
f actor
f ruit
g i
g hed
g ently
g enius
g ods
h ou
h id
i kin
j u
j our
j ury
j ug
k not
l on
l ust
l ip
l ower
l ane
l adies
m arry
m eth
m arch
n ail
n ails
p ice
p ated
p ict
p ole
p icked
p istol
s ave
s ides
s light
s af
s ighted
s ickness
s isters
t ill
t one
t omb
u er
v a
v ain
w on
w id
w ake
w ig
w ink
w ag
w ack
w ounded
w orse
w asted
w retched
w olf
x ter
y ield
z er
Ġ ounce
Ġ ***
Ġ zenith
Ġt our
Ġt ilt
Ġt ithe
Ġt inct
Ġt amed
he av
he aring
Ġa vert
Ġa ided
Ġa jar
in j
in stead
Ġs ce
Ġs ont
Ġs ched
Ġw al
Ġw ight
Ġw rench
Ġw ards
Ġw ider
Ġw iles
re ver
re ctions
re cks
re rie
re sembled
re aching
ou x
Ġthe ories
ha ck
Ġo pt
Ġo beying
Ġm i
Ġm and
Ġm un
Ġm ol
Ġm ace
Ġm ote
Ġm ule
Ġm ickle
is heth
er os
er look
Ġb ated
Ġb ored
Ġb ien
Ġb ased
Ġb omb
Ġb aited
it ives
Ġf oster
Ġf uel
en oit
en emy
or ges
or gue
Ġd it
Ġc ot
Ġc ement
ar ve
ar rested
Ġto iled
Ġp he
Ġp on
Ġp as
Ġp ad
Ġp out
Ġp int
Ġp ertain
Ġp ities
Ġp hil
Ġl oop
Ġl isp
Ġh ies
Ġh ooks
Ġh ilding
Ġh inted
an ter
an ier
hat ic
Ġhe mp
Ġin iqu
Ġin constancy
at hes
at ement
as i
as el
ĠI T
ĠI lion
ĠI TS
Ġha res
Ġha iled
Ġha zel
Ġha bil
âĢĻ !
Ġg able
Ġbe thought
le on
le quin
le aving
se vere
st ring
st ocks
st rings
ce tic
ce ased
ch y
Ġe book
ut ations
ill ion
ir v
ent ers
ent ertain
ent ieth
al m
al ian
ad der
Ġre ed
Ġre el
Ġre form
Ġre cip
Ġre jected
Ġre verted
Ġre version
Ġfor gery
Ġwh oles
am az
am mer
ter re
Ġwe aver
Ġst ren
ke red
ro ls
ro bed
ro lling
our de
ur rections
Ġwas n
ra its
ra gs
ra ising
ra gon
Ġas c
Ġas cent
us er
us ual
Ġse m
Ġse ction
Ġse lected
Ġse lves
Ġli lac
Ġde cked
ct ogen
Ġher ds
Ġso ever
Ġso ph
ĠM ount
ĠM ab
ĠM aj
ĠM ouffetard
ĠM oonshine
th in
th ine
Ġat one
ĠC ot
ĠC and
ĠC AN
ĠC ott
ĠC lo
ĠC LI
ĠC rab
ĠC urio
ĠS AL
ĠS ub
ĠS top
Ġdo ff
Ġsu es
ĠA P
ĠA lt
ĠA SC
ĠA quit
ĠH ell
ĠH oll
ĠH untsman
ck ets
rom ising
Ġall y
Ġall ure
Ġall ows
un ned
un happy
un fortunate
Ġlo om
ell ations
ul ates
ul ses
Th Ã©nardiers
Th Ã©odule
Ġv il
Ġv ial
Ġv oll
ous y
res umed
qu estions
Ġsh ipped
Ġsha ck
Ġsha ved
ant e
ĠB Ã©
ĠB ombarda
ĠB REACH
ĠB Ã¼low
ĠThe nce
Ġshe lf
Ġshe athe
ĠP G
ĠP or
ĠP ot
ĠP Ã©
ĠP EO
ĠP IE
ĠP OSS
ĠP ontoise
ĠW art
ĠW ild
ĠW ORK
ĠW onderful
ru le
ru der
ru ised
art ier
ĠL ang
ĠL IM
ĠL IGHT
ĠL ITTLE
ĠL istolier
ĠL igarius
Ġkn oll
ers on
em aking
em ilius
em orial
ol n
ol our
ol ves
ind icated
ĠG er
ĠG ar
ĠG oth
ĠG AV
ĠG ibelotte
ĠG aspard
Ġsa ble
Ġwhe reat
Ġfa ute
ig old
la p
la ughter
Ġun res
Ġun mer
Ġun mit
Ġun look
Ġun nat
Ġun ique
Ġun looked
Ġun advised
Ġun inhabited
Ġun spotted
Ġcom ed
Ġcom ic
Ġcom forter
ĠF al
ĠF ly
ĠF ast
ĠF ancy
ĠF ULL
ĠF IVE
ĠF eeble
ĠF itz
ĠE mp
ĠE mb
ĠE LY
ĠE geon
ĠE BOOK
ĠE quality
ĠE VEN
ĠE xton
ĠE geus
Ġthere from
Ġthere abouts
ist ribution
ist ributing
Ġam ended
ven erable
au f
el on
el esc
el ala
Ġex clus
Ġex cels
ĠD an
ĠD AM
ĠD ider
ĠD ism
ĠO pp
ĠO ff
ĠO wen
ĠO rient
ĠâĢľ âĢĺ
ĠR ise
ĠR EM
Ġwho soever
Ġle ver
Ġle ans
ran ges
ran gue
Ġar rondissement
Ġj oll
Ġj ester
ON IC
ass ass
ass istance
ĠT al
Ġsp ong
Ġsp inning
Ġsp aniel
Ġout come
He ad
Ġpr unes
Ġr ams
op ening
Ġbl ust
Ġbl ister
Ġdis lo
Ġdis armed
Ġdis figure
Ġdis favor
od ious
Ġus urers
ath olic
Ġen sc
Ġen act
Ġen sues
Ġsw ag
ink ed
ond e
ond am
Ġab ut
Ġab ilities
Ġnow here
fore ver
Ġqu and
Ġqu ivers
Ġqu oted
che t
che ts
Ġlord ly
ment ation
ag ers
ag ged
ag no
ci ated
ĠV EN
ĠV arri
ĠV IC
Ġch uck
Ġch orus
Ġshould ered
Ġtw os
Ġtw igs
Ġwell s
Ġro i
Ġro ars
Ġro bs
Ġro bbing
CH RIST
Ġbr ushes
bl ins
Ġpo isons
ick er
As cend
Ġad jacent
ert ory
ud der
Ġfl ue
Ġfl att
Ġfl ank
Ġfl ayed
Ġpe aches
Ġcl atter
Ġcl asps
leas ure
Ġpl ato
Ġfe vers
Ex p
per ing
ĠK ill
ĠK alid
Ġgra ver
Ġfo ison
Ġim b
Ġlook er
Ġri pp
RO BERT
Ġheart rending
EL F
Ġdenot ed
In fer
Ġra ze
Ġra ils
Ġra iny
Ġra zed
be ards
be ams
we b
we ight
Ġwhere by
Ġhon ored
Ġlife less
ren ched
Ġhow led
ĠMar gery
int s
int ry
ip ho
Ġover ween
arri ved
Ġpart is
Ġwoman ly
Ġown ing
Ġpleas urable
Ġsc am
Ġsc issors
Ġnight mare
Ġrem uneration
Ġfore ster
IR ECT
de f
Ġho e
Ġho g
Ġho ist
Ġho bby
iz ards
Ġwr ist
iss on
of ern
Ġres ume
Ġres ervation
We ak
We eping
Ġpre vails
Ġbeg ets
Ġsm ear
Ġsm eared
oss ibly
Be ats
Be came
cl oud
cl ude
cl usion
cl ouds
Ġart ists
vent h
Ġhar t
Ġrep ossess
Ġco ven
Ġco aches
Ġmight iest
Ġsl ily
Ġsl ides
Ġsl opes
Ġcour ser
TI DIUS
me chan
Ġlight ens
Ġacc lam
wh iteness
Ġworld s
Ġap ology
Ġpers ists
ins pect
ins urrection
Ġtra ins
Ġdist aff
Ġpur blind
Ġcons ol
Ġcons uls
li ard
li ena
Ġimp iety
ĠY onder
Where ver
Ġson orous
Ġfort itude
ANT Y
Ġchan nels
Ġbel ieves
Ġtri pping
Ġrec ess
Ġrec alls
Ġrec aptured
raw led
Ġind ig
Ġind igence
Ġind igo
Ġgu er
Ġgu ile
_. âĢĶ
Ġru minate
CE PT
Ġbest ows
Ġbest ial
Ġbest owing
Ġsub mer
Ġsub urb
Ġsub jection
Ġmer rier
Ġbra gs
Ġbra gging
Ġhum med
Ġel m
Ġel ms
Ġopen ings
Ġche ered
Ġbed side
Ġdisc er
Ġdisc red
Ġdisc ords
Ġdisc redit
Ġmis pr
Ġaff ront
Ġmon ot
AND ON
Ġsur feits
att ent
den ing
Ġcur ate
Ġcur ls
EEN TH
Ġplay er
Ġbu g
Ġbu ying
pr ince
Ġfound er
Ġcou ghed
az ar
ĠPr int
ĠPr Ãªcheurs
UL CON
Ġ1 1
Ġ1 00
ex pect
Ġgre ase
Ġsun rise
mer ry
su red
Ġbo ats
Ġbo ards
Ġbo bb
Not e
Ġadd ers
ang ling
Ġsuff oc
Ġsuff ocation
Ġbro ach
Ġbro ached
Ġsleep er
vol ve
vol ent
sc ar
LUC E
Ġsupp ed
Ġsupp osing
Ġext ending
Ġstri pes
Un worthy
Ġdisp ossess
Ġmar gin
Ġmar vels
Ġban e
Ġban king
Ġban lieue
com ed
Ġdan k
Ġinter ment
Ġinter course
Ġprom oting
Ġint u
Ġinde finite
Will iam
ĠWe alth
Ġsk ip
Ġwater ing
over ty
over ned
over whel
Ġcr isp
Ġgrow ling
con c
Ġreg ain
Ġexp ert
Ġexp ans
ho ly
Ġins piration
Ġins erted
Ġsorrow ing
Ġsad der
Ġsad dened
ĠAnt onius
mbl es
ĠPro logue
app ing
Ġpra ising
Ġref using
gg ling
Ġmin cing
ĠLet he
ĠAr senal
Ġthank fully
Ġinc o
Mar quis
Mar ceau
Ġstra its
IST ER
Ġca resses
Ġshad y
Al ready
Ġdraw ers
ĠBr un
RA S
Ġpossess or
ib rium
ask ets
lo ads
ras cal
Ġwound ing
Ġunt ainted
Ġmoney s
ĠJo b
LAN G
ron ed
anc haud
anc enoit
Ġhither ward
Ġjud gments
Ġdec oration
LI ON
Ġgrand mother
eter nal
Ġfr oth
Ġfr ames
Ġport al
ĠIs le
Ġdiv ines
Ġdiv inity
Ġcorn s
Ġdesp is
Ġcomfort ing
Ġdra b
Ġcra ven
Ġwear ied
cha ste
wick ed
Ġfast ening
Ġest ranged
Ġaw aking
Ġdon ate
Ġeng ag
Ġta verns
dom en
ĠEnglish men
pro duced
ĠCh ildren
ĠSc ots
Ġcir cled
ĠThou ght
Ġcal med
Ġrespect fully
Ġlab orer
Ġfin er
Ġfin ite
Ġfin ishing
ĠMont joy
ĠMont gom
Ġconst rain
Ġconst rue
ĠAl cides
AD OR
ape lotte
ole ons
Ġce lebrate
Ġforg o
urs es
Pro vo
Ġfat ally
min ing
min ates
Ġwood cock
Ġindic ations
Ġindic ating
will ing
Ġmount aine
vell ers
Ġenjoy ments
Ġchamber lain
fl owing
Ġmed lar
she pherd
Ġobs cene
Ġhot ter
Ġfit ly
Ġte aches
Ġdef ame
Ġdef iled
gl ory
ĠWho ever
ĠLa urence
Ġfright en
Ġsatisf ying
Ġstir r
Ġstir rup
Ġcru mble
Ġcru pper
SIC IAN
Ġcent er
Ġcent ral
iter ate
Ġviol ated
Ġinv iting
Ġsol ved
rum ble
pass er
Ġblind s
Ġsqu ir
Ġbright est
ĠCass andra
lan tern
Ġed ges
Ġleg ate
Ġjudge ments
Ġcompl ices
Ġer ring
Ġmort ified
ANTI ES
Ġexcept ed
ĠLu cy
Ġequ ity
ald o
Ġevent ful
Ġbare footed
Ġdread fully
HER E
Ġcre vice
ative ly
Ġprob ation
tend ed
Tw elve
Ġpluck ing
ĠDe ipho
pit ied
Ġdesert ion
ys m
Ġfet ter
Ġfet ters
Ġrecogn izing
Ġrecogn izable
Ġimag in
JA VER
hor ror
Ġav ow
Ġsn atches
Ġfavour ite
Ġfavour ites
Ġsuper natural
Ġsuper human
Ġsuper intend
Ġbow ing
Ġforb ade
Ġshut s
Ġincl ining
Ġincl udes
Ġsport ing
Ġgrie ving
Ġphys iol
Ġpat rols
Ġspring ing
Ġexpl oits
Ġfle a
Ġep ilogue
Ġaid ing
Ġshar per
Ġdistress es
Ġreb ound
Ġlod gers
Ġpolice man
Ġpolice men
Ġcounter s
BE VIS
FL UTE
abe au
Ġsal ons
ump hant
Ġspect ral
Ġprevent s
Ġtou cheth
Ġamb ul
Ġdom ic
Ġdom ine
Ġdom inated
Ġlean ness
Ġflatter ies
Ġimport unate
Pr ison
Ġver min
erc har
Ġunc overed
Ġworship ful
Ġbirth day
Ġbirth right
ĠNor man
Ġsmo othing
Ġsmo ky
ĠAd v
Ġimm ovable
Ġimm obility
Stand ing
Ġcell ars
Ġdism ant
Ġexpress ing
imp ort
cont ained
ĠFl aminius
Ġleng then
Ġstraw s
Ġdwell ings
Ġthence forth
Ġming les
Ġmil king
ĠCon cord
ah s
Ġuns k
Ġarg osy
pri v
Ġrust ling
CLI TUS
Ġdim med
Ġdim ensions
Ġband it
Ġunpleas ing
Ġassoci ate
Ġperm iss
PO SE
Ġflower y
than k
work ed
Ġbew itch
Ġbew itched
ortun ately
Ad mit
Ġprofess es
Ġbuck les
Ġmater nal
Ġfro gs
Ġcamp aign
Ne g
Ġlament ed
Ġavo iding
every body
Ġwag ons
cons ent
Ġaddress es
Ġprotest s
Ġpot ency
great er
Ġbab ies
Ġcommun ications
Ġsingular ly
Se ine
new s
Ġplan ning
Bel ong
des ign
zz le
Ġcher ries
ĠCam ps
Ġdisgrace ful
Ġant iqu
ĠDon ations
BASS ET
BASS ADOR
pres ently
pres erved
vi ving
Ġeter nally
Ġtort ured
Ġmess ieurs
Ġshepherd ess
Ġspark le
Ġafflict ions
Ġpolit eness
Ġmild er
Ġmult iplied
Ġanim ated
ĠBE GINNING
Ġconj uration
Ġstro de
Ġstro lls
sur face
Ġswall ows
Ġder ision
Ġjoint ure
Ġaccident ally
som bre
Ch ief
Ch oose
occ o
Ġcock le
Ġimpl icated
Ġneighbour hood
Ġcontro lling
Ġendeav oring
Put s
Ġ183 3
Ġelectronic ally
enth us
Ġ6 0
Ġdil igent
Ġpred est
spe ed
spe cial
Ġchast ise
Ġchast ised
ser geant
ris ings
Ġdew s
Ġimpr inted
Des erve
Des erves
dist ant
Ġstupid ly
Ġexceed ed
Ġsupport ing
Ġpu er
Ġalt ars
Ġinnoc ents
cal m
cal cul
Ġcro aked
Ġcens ures
ĠPar adise
Ġfamiliar ity
ĠNe apol
hon esty
Ġgru b
Ġshr ine
Ġtransp ire
Ġtransp aren
Ġsteep le
Ġsanct ified
ĠChan ge
Ġprivile ges
Ġgriev ance
Acc om
ĠSay e
Ġafford ed
ĠCourt ier
ĠIm perial
Ġrash ly
Ġelev ate
Dis gu
Ġecst atic
Ġcho king
Ġappl ies
Ġappl ication
ĠBaron ne
Ġrever ies
Ġrecover ing
Ret ires
Rep ent
Set ting
Ġfed eral
Ġhappen ings
Ġboard ed
Ġboard ing
ĠScot ch
Ġaston ish
[...]
