{"<pad>":0,"<s>":1,"</s>":2,"<unk>":3,"<mask>":4,"!":5,"\"":6,"#":7,"$":8,"%":9,"&":10,"'":11,"(":12,")":13,"*":14,"+":15,",":16,"-":17,".":18,"/":19,"0":20,"1":21,"2":22,"3":23,"4":24,"5":25,"6":26,"7":27,"8":28,"9":29,":":30,";":31,"<":32,"=":33,">":34,"?":35,"@":36,"A":37,"B":38,"C":39,"D":40,"E":41,"F":42,"G":43,"H":44,"I":45,"J":46,"K":47,"L":48,"M":49,"N":50,"O":51,"P":52,"Q":53,"R":54,"S":55,"T":56,"U":57,"V":58,"W":59,"X":60,"Y":61,"Z":62,"[":63,"\\":64,"]":65,"^":66,"_":67,"`":68,"a":69,"b":70,"c":71,"d":72,"e":73,"f":74,"g":75,"h":76,"i":77,"j":78,"k":79,"l":80,"m":81,"n":82,"o":83,"p":84,"q":85,"r":86,"s":87,"t":88,"u":89,"v":90,"w":91,"x":92,"y":93,"z":94,"{":95,"|":96,"}":97,"~":98,"¡":99,"¢":100,"£":101,"¤":102,"¥":103,"¦":104,"§":105,"¨":106,"©":107,"ª":108,"«":109,"¬":110,"®":111,"¯":112,"°":113,"±":114,"²":115,"³":116,"´":117,"µ":118,"¶":119,"·":120,"¸":121,"¹":122,"º":123,"»":124,"¼":125,"½":126,"¾":127,"¿":128,"À":129,"Á":130,"Â":131,"Ã":132,"Ä":133,"Å":134,"Æ":135,"Ç":136,"È":137,"É":138,"Ê":139,"Ë":140,"Ì":141,"Í":142,"Î":143,"Ï":144,"Ð":145,"Ñ":146,"Ò":147,"Ó":148,"Ô":149,"Õ":150,"Ö":151,"×":152,"Ø":153,"Ù":154,"Ú":155,"Û":156,"Ü":157,"Ý":158,"Þ":159,"ß":160,"à":161,"á":162,"â":163,"ã":164,"ä":165,"å":166,"æ":167,"ç":168,"è":169,"é":170,"ê":171,"ë":172,"ì":173,"í":174,"î":175,"ï":176,"ð":177,"ñ":178,"ò":179,"ó":180,"ô":181,"õ":182,"ö":183,"÷":184,"ø":185,"ù":186,"ú":187,"û":188,"ü":189,"ý":190,"þ":191,"ÿ":192,"Ā":193,"ā":194,"Ă":195,"ă":196,"Ą":197,"ą":198,"Ć":199,"ć":200,"Ĉ":201,"ĉ":202,"Ċ":203,"ċ":204,"Č":205,"č":206,"Ď":207,"ď":208,"Đ":209,"đ":210,"Ē":211,"ē":212,"Ĕ":213,"ĕ":214,"Ė":215,"ė":216,"Ę":217,"ę":218,"Ě":219,"ě":220,"Ĝ":221,"ĝ":222,"Ğ":223,"ğ":224,"Ġ":225,"ġ":226,"Ģ":227,"ģ":228,"Ĥ":229,"ĥ":230,"Ħ":231,"ħ":232,"Ĩ":233,"ĩ":234,"Ī":235,"ī":236,"Ĭ":237,"ĭ":238,"Į":239,"į":240,"İ":241,"ı":242,"Ĳ":243,"ĳ":244,"Ĵ":245,"ĵ":246,"Ķ":247,"ķ":248,"ĸ":249,"Ĺ":250,"ĺ":251,"Ļ":252,"ļ":253,"Ľ":254,"ľ":255,"Ŀ":256,"ŀ":257,"Ł":258,"ł":259,"Ń":260,"Ġt":261,"he":262,"Ġa":263,"in":264,"Ġs":265,"Ġw":266,"re":267,"ou":268,"Ġthe":269,"ha":270,"nd":271,"Ġo":272,"Ġm":273,"is":274,"er":275,"Ġb":276,"it":277,"Ġf":278,"ll":279,"âĢ":280,"en":281,"or":282,"on":283,"es":284,"Ġd":285,"Ġc":286,"ed":287,"Ġof":288,"ar":289,"Ġto":290,"Ġp":291,"Ġl":292,"Ġand":293,"ing":294,"Ġh":295,"Ġy":296,"an":297,"Ġn":298,"hat":299,"Ġhe":300,"Ġin":301,"Ġyou":302,"at":303,"Ġth":304,"om":305,"ot":306,"as":307,"ĠI":308,"Ġha":309,"ve":310,"âĢĻ":311,"Ġg":312,"ow":313,"Ġbe":314,"le":315,"se":316,"st":317,"ce":318,"ch":319,"im":320,"ld":321,"et":322,"Ġthat":323,"Ġe":324,"ay":325,"ut":326,"ill":327,"ith":328,"gh":329,"ir":330,"ent":331,"Ġis":332,"id":333,"al":334,"Ġu":335,"Ġit":336,"ad":337,"Ġon":338,"Ġwith":339,"Ġnot":340,"The":341,"Ġre":342,"Ġmy":343,"Ġfor":344,"ri":345,"Ġhis":346,"ly":347,"ion":348,"Ġwh":349,"oo":350,"Ġme":351,"am":352,"ter":353,"her":354,"ver":355,"Ġwe":356,"Ġst":357,"ke":358,"ro":359,"our":360,"ur":361,"ght":362,"Ġwas":363,"ra":364,"Ġas":365,"Ġwill":366,"âĢľ":367,"Ġyour":368,"Ġhim":369,"ĠĠ":370,"âĢĿ":371,"us":372,"ic":373,"Ġse":374,"ore":375,"ĊĊ":376,"And":377,"ess":378,"ain":379,"Ġhave":380,"Ġli":381,"ome":382,"Ġthis":383,"Ġan":384,"Ġde":385,"ct":386,"Ġher":387,"ould":388,"Ġso":389,"ĠM":390,"Ġk":391,"il":392,"th":393,"ich":394,"ge":395,"Ġthou":396,"pe":397,"Ġat":398,"and":399,"Ġhad":400,"To":401,"ĠC":402,"ĠS":403,"Ġdo":404,"ood":405,"ord":406,"Ġsu":407,"if":408,"ĠA":409,"ĠH":410,"ck":411,"rom":412,"est":413,"Ġall":414,"ard":415,"un":416,"Ġare":417,"Ġby":418,"Ġno":419,"all":420,"Ġlo":421,"Ġbut":422,"ell":423,"out":424,"Ġwhich":425,"ul":426,"Th":427,"ble":428,"Ġv":429,"Ġman":430,"ous":431,"res":432,"ight":433,"qu":434,"Ġsh":435,"Ġsha":436,"Ġne":437,"ant":438,"ĠB":439,"EN":440,"ĠThe":441,"Ġshe":442,"han":443,"red":444,"sel":445,"ĠP":446,"Ġfrom":447,"ak":448,"ĠW":449,"Ġcon":450,"ru":451,"art":452,"ER":453,"ake":454,"ĠL":455,"Ġkn":456,"ers":457,"em":458,"Ġup":459,"Ġor":460,"ol":461,"ine":462,"Ġone":463,"ie":464,"ind":465,"ĠG":466,"âĢĶ":467,"Ġsa":468,"Ġwhe":469,"ong":470,"IN":471,"pp":472,"Ġfa":473,"AR":474,"ig":475,"la":476,"fe":477,"ust":478,"Ġun":479,"one":480,"Ġcom":481,"AN":482,"ry":483,"US":484,"ast":485,"ĠF":486,"Ġthy":487,"ose":488,"ame":489,"self":490,"ĠE":491,"Ġthere":492,"Ġthem":493,"ist":494,"ation":495,"ear":496,"ive":497,"the":498,"ort":499,"Ġthey":500,"to":501,"Ġam":502,"end":503,"rou":504,"row":505,"ven":506,"ate":507,"That":508,"ure":509,".âĢĿ":510,"Ġsee":511,"reat":512,"um":513,"Ġshall":514,"Ġdre":515,"au":516,"Ġgo":517,"Ġwhat":518,"el":519,"Wh":520,"Ġex":521,"Ġwere":522,"Ġour":523,"ĠD":524,"ĠO":525,"Ġgood":526,"ost":527,"Ġtheir":528,"ep":529,"ĠâĢľ":530,"ES":531,"ĠR":532,"ity":533,"Ġwor":534,"very":535,"Ġwho":536,"Ġmore":537,"Ġle":538,"[_":539,"Ġwould":540,"Ġdream":541,"Ġthee":542,"os":543,"oth":544,"ran":545,"Ġpro":546,"ies":547,"Ġar":548,"Ġknow":549,"Ġj":550,"ish":551,"Ġal":552,"ĠĠĠĠ":553,"ON":554,"ook":555,"other":556,"ue":557,"ass":558,"ĠT":559,"Ġthan":560,"Ġsp":561,"Ġout":562,"._":563,"ide":564,"He":565,"ther":566,"Ġcan":567,"are":568,"ng":569,"Ġpr":570,"Ġif":571,"ather":572,"Ġr":573,"op":574,"Ġbl":575,"nt":576,"Ġdis":577,"od":578,"Ġus":579,"OR":580,"ap":581,"ice":582,"ath":583,"Ġen":584,"Ġag":585,"Ġlove":586,"ff":587,"Ġsw":588,"._]":589,"ĠHe":590,"ĠJ":591,"ink":592,"Ġsay":593,"ade":594,"IO":595,"You":596,"ence":597,"ond":598,"Ġlike":599,"Ġab":600,"ves":601,"Ġnow":602,"fore":603,"old":604,"Ġqu":605,"che":606,"ime":607,"te":608,"urn":609,"Ġlord":610,"Ġsaid":611,"Ġwhen":612,"ment":613,"ire":614,"Ġdid":615,"Ġthen":616,"ound":617,"itt":618,"ag":619,"Ġsome":620,"ci":621,"ST":622,"But":623,"ness":624,"Ġhand":625,"What":626,"ĠV":627,"able":628,"For":629,"Ġch":630,"ign":631,"Ġshould":632,"Ġother":633,"Ġtw":634,"Ġhere":635,"Ġspe":636,"Ġlet":637,"ress":638,"Ġmay":639,"age":640,"Ġwell":641,"Ġupon":642,"pt":643,"Ġro":644,"ings":645,"Ġhat":646,"ave":647,"Ġbeen":648,"CH":649,"cc":650,"This":651,"ful":652,"orn":653,"ved":654,"Ġsir":655,"ance":656,"nter":657,"Ġbr":658,"Ġcome":659,"bl":660,"Ġtoo":661,"Ġagain":662,"Ġpo":663,"Ġfri":664,"ĠN":665,"ick":666,"wn":667,"AL":668,"TH":669,"Ġmust":670,"As":671,"ING":672,"Ġad":673,"ise":674,"own":675,"Ġmake":676,"ert":677,"Ġden":678,"ud":679,"Ġey":680,"ean":681,"uch":682,",âĢĿ":683,"Ġfl":684,"Ġday":685,"way":686,"ild":687,"ius":688,"ree":689,"OL":690,"Ġany":691,"Ġdes":692,"Ġtime":693,"oy":694,"ite":695,"Ġcha":696,"Ġthese":697,"hing":698,"Ġwom":699,"Ġpe":700,"Ġcl":701,"nder":702,"LE":703,"Ġgreat":704,"ving":705,"leas":706,"Whe":707,"ne":708,"Ġpl":709,"If":710,"Ġfe":711,"Ġinto":712,"Ex":713,"ĠâĢĻ":714,"Ġfriend":715,"ack":716,"ile":717,"?âĢĿ":718,"ons":719,"ces":720,"per":721,"ĠK":722,"Ġgra":723,"Ġfo":724,"Ġsuch":725,"My":726,"ber":727,"ull":728,"Ġim":729,"Ġlook":730,"pl":731,"Ġvery":732,"Ġhath":733,"ach":734,"Ġri":735,"RO":736,"Ġheart":737,"EL":738,"ittle":739,"ark":740,"ount":741,"Ġoff":742,"Ġdenot":743,"ction":744,"'s":745,"In":746,"Ġtwo":747,"Ġra":748,"Ġmade":749,"ret":750,"Ġper":751,"be":752,"Ġdenotes":753,"we":754,"Ġtru":755,"Ġmuch":756,"man":757,"KING":758,"Ġfather":759,"Ġwhere":760,"Ġhon":761,"Ġlife":762,"ward":763,"ated":764,"Ġthink":765,"ren":766,"ady":767,"IUS":768,"Ġmen":769,"ft":770,"Ġhow":771,"Ġold":772,"Ġlong":773,"ied":774,"!âĢĿ":775,"Ġbet":776,"Ġlittle":777,"Ġaf":778,"ab":779,"It":780,"Ġspeak":781,"Ġword":782,"Ġnever":783,"ĠMar":784,"ier":785,"unt":786,"int":787,"ove":788,"oul":789,"ip":790,"LO":791,"ace":792,"Ġhimself":793,"Ġyet":794,"irst":795,"ĠIt":796,"Ġhas":797,"Ġover":798,"arri":799,"Ġpart":800,"ouse":801,"Ġwoman":802,"aint":803,"ss":804,"Ġown":805,"Ġpleas":806,"Ġear":807,"Ġcould":808,"Ġtake":809,"TER":810,"ince":811,"Ġhead":812,"Ġsc":813,"IA":814,"Ġcont":815,"Ġent":816,"Ġyoung":817,"ĠĠĠ":818,"Ġmost":819,"not":820,"Ġcall":821,"Ġnight":822,"Thou":823,"Ġway":824,"Ġrem":825,"ious":826,"ac":827,"Ġeyes":828,"ither":829,"aster":830,"entle":831,"Ġhear":832,"rough":833,"Ġfore":834,"ARD":835,"iness":836,"hed":837,"IR":838,"Ġdeath":839,"Ġpla":840,"Ġser":841,"de":842,"Ġbefore":843,"ock":844,"Ġho":845,"Ġgive":846,"Ġhea":847,"igh":848,"Ġpass":849,"ty":850,"iz":851,"Ġgl":852,"With":853,"sh":854,"Ġthought":855,"Ġwr":856,"ect":857,"iss":858,"ont":859,"io":860,"Ġdown":861,"Ġtell":862,"llow":863,"less":864,"for":865,"ger":866,"Ġbeing":867,"ans":868,"ions":869,"Ġ[_":870,"of":871,"Ġwar":872,"Ġres":873,"Ġarm":874,"We":875,"Ġpre":876,"Ġevery":877,"No":878,"Ġcomm":879,"Ġmine":880,"Ġunder":881,"ears":882,"Ġchild":883,"eet":884,"UC":885,"ced":886,"'d":887,"Ġthose":888,"ary":889,"Ġbeg":890,"ause":891,"How":892,"Ġcomp":893,"Ġsm":894,"ors":895,"oss":896,"Ġpres":897,"Be":898,"LA":899,"Ã©":900,"Why":901,"Ġla":902,"IC":903,"ĠKing":904,"So":905,"Ġke":906,"Ġnothing":907,"Ġname":908,"ult":909,"ET":910,"AM":911,"cl":912,"Ġart":913,"ene":914,"vent":915,"ĠIf":916,"Ġblood":917,"Ġaway":918,"air":919,"AP":920,"alk":921,"Ġgentle":922,"rown":923,"ps":924,"augh":925,"iv":926,"Ġhar":927,"Ġatt":928,"ower":929,"Ġabout":930,"Ġrep":931,"orrow":932,"Ġ_":933,"Ġthrough":934,"Ġco":935,"Ġmight":936,"Of":937,"Ġtr":938,"Ġbre":939,"Ġturn":940,"Ġsl":941,"Ġeven":942,"Ġnew":943,"round":944,"Ġfirst":945,"pect":946,"Ġcour":947,"Ġem":948,"There":949,"ool":950,"Ġstill":951,"une":952,"Ġbec":953,"ĠWhat":954,"ens":955,"TI":956,"Ġafter":957,"Ġhouse":958,"me":959,"ĠBut":960,"Ġlight":961,"Ġmany":962,"Ġwork":963,"Ġacc":964,"ĠII":965,"atter":966,"IL":967,"Which":968,"Ġseem":969,"Enter":970,"Ġend":971,"les":972,"wh":973,"Ġworld":974,"Ġret":975,"ase":976,"ject":977,"ows":978,"ched":979,"Ġfair":980,"ife":981,"Ġsweet":982,"Ġtrue":983,"Ġback":984,"Ġonly":985,"ĠGod":986,"ESS":987,"Ġking":988,"ĠAnd":989,"omet":990,"Ġdone":991,"Ġsoul":992,"har":993,"Ġfind":994,"Ġob":995,"Ġfear":996,"tell":997,"Ġstre":998,"--":999,"ople":1000,"Ġhonour":1001,"Ġits":1002,"Ġap":1003,"Ġdead":1004,"ĠYou":1005,"ater":1006,"ix":1007,"ĠTh":1008,"Ġhast":1009,"ally":1010,"Ġpers":1011,"led":1012,"Ġnor":1013,"pen":1014,"When":1015,"Ġcannot":1016,"ĠVal":1017,"Ġheaven":1018,"ins":1019,"ars":1020,"Ġtra":1021,"Ġdist":1022,"Ġfriends":1023,"ough":1024,"Ġput":1025,"ison":1026,"Ġpoor":1027,"Ġapp":1028,"Ġstand":1029,"Ġhour":1030,"Ġdoth":1031,"Ġpur":1032,"ian":1033,"Is":1034,"Ġmind":1035,"CEN":1036,"its":1037,"Ġcons":1038,"av":1039,"jean":1040,"Ġface":1041,"Ġset":1042,"ĊĠĠĠ":1043,"Ġplace":1044,"DU":1045,"li":1046,"ory":1047,"Ġever":1048,"Ġbrother":1049,"eunt":1050,"ible":1051,"Ġfollow":1052,"Ġimp":1053,"ef":1054,"Ġwithout":1055,"Ġbus":1056,"der":1057,"Ġfall":1058,"ict":1059,"tte":1060,"Ġsame":1061,"ĠĠĠĠĠĠĠĠ":1062,"arry":1063,"ĠEnter":1064,"ĠY":1065,"ail":1066,"ee":1067,"AT":1068,"ged":1069,"ĠOF":1070,"tis":1071,"Where":1072,"Ġjust":1073,"lf":1074,"Ġsign":1075,"Ġson":1076,"ily":1077,"Ġhapp":1078,"Ġright":1079,"land":1080,"men":1081,"Ġconf":1082,"Exeunt":1083,":âĢĶ":1084,"Ġmad":1085,"aughter":1086,"Ġonce":1087,"Ġfell":1088,"Ġboth":1089,"Ġpray":1090,"ks":1091,"ĠValjean":1092,"She":1093,"ĠThis":1094,"ates":1095,"atch":1096,"Exit":1097,"Ġfort":1098,"cy":1099,"ANT":1100,"Ġpeople":1101,"Let":1102,"uck":1103,"osette":1104,"Ġagainst":1105,"imes":1106,"ĠMarius":1107,"Ġchan":1108,"ertain":1109,"Ġass":1110,"ition":1111,"Ġbel":1112,"get":1113,"Ġgr":1114,"By":1115,"QU":1116,"und":1117,"that":1118,"Ġtre":1119,"Ġthus":1120,"ĠThere":1121,"KE":1122,"uke":1123,"ew":1124,"IS":1125,"Ġrest":1126,"aking":1127,"ations":1128,"ia":1129,"Ġtri":1130,"Then":1131,"Ġform":1132,"akes":1133,"Ġnat":1134,"UR":1135,"ning":1136,"Ġforetell":1137,"ents":1138,"sw":1139,"Ġrec":1140,"Ġforetells":1141,"ĠTo":1142,"Ġbetter":1143,"Ġthough":1144,"ished":1145,"raw":1146,"ield":1147,"aid":1148,"Come":1149,"Or":1150,"ĠLord":1151,"Ġind":1152,"vers":1153,"Ġkeep":1154,"ds":1155,"Ġleave":1156,"Ġgu":1157,"fect":1158,"_.":1159,"Who":1160,"ets":1161,"thing":1162,"SE":1163,"Ġlast":1164,"Ġru":1165,"Now":1166,"Ġcame":1167,"Ġbusiness":1168,"Ġmother":1169,"Ġlive":1170,"Ġbear":1171,"Ġthree":1172,"ister":1173,"FF":1174,"rance":1175,"Ġhands":1176,"leep":1177,"aut":1178,"up":1179,"ICH":1180,"Ġanother":1181,"ED":1182,"Ġsomet":1183,"Ġwind":1184,"CE":1185,"ĠJean":1186,"Ġbest":1187,"Ġfull":1188,"Ġsec":1189,"Ġsub":1190,"They":1191,"ered":1192,"Ġcomes":1193,"oice":1194,"Ġcount":1195,"Ġhold":1196,"Ġdaughter":1197,"Ġwife":1198,"Ġwhom":1199,"Ġseen":1200,"nce":1201,"Ġmyself":1202,"ever":1203,"Ġwit":1204,"Ġnoble":1205,"RU":1206,"Ġmer":1207,"Ġbra":1208,"Ġmaster":1209,"Tis":1210,"Ġill":1211,"Ġhum":1212,"ason":1213,"selves":1214,"vil":1215,"Ġnear":1216,"Ġchar":1217,"Ġel":1218,"Ġpresent":1219,"was":1220,"lack":1221,"Ġwords":1222,"ale":1223,"uth":1224,"Ġappe":1225,"Ġthing":1226,"ĠShe":1227,"CENE":1228,"fort":1229,"Ġopen":1230,"ross":1231,"Ay":1232,"Ġlady":1233,"Ġche":1234,"ĠIn":1235,"Ġbed":1236,"so":1237,"ĊĊĊĊ":1238,"hy":1239,"Ġdisc":1240,"Your":1241,"ute":1242,"Ġstran":1243,"Ġter":1244,",âĢĶ":1245,"AC":1246,"Ġmis":1247,"ĠAn":1248,"Ġaff":1249,"APTER":1250,"bt":1251,"Ġfar":1252,"Ġserv":1253,"Ġmon":1254,"Ġhus":1255,"Ġhor":1256,"band":1257,"ened":1258,"EM":1259,"Well":1260,"ĠEng":1261,"ared":1262,"ments":1263,"Ġdear":1264,"Ġreturn":1265,"Ġposs":1266,"ICHARD":1267,"well":1268,"Ġheard":1269,"alth":1270,"ener":1271,"ury":1272,"Ġleft":1273,"Ġothers":1274,"IRST":1275,"SCENE":1276,"come":1277,"Ġdoor":1278,"AND":1279,"hes":1280,"Ġmom":1281,"ial":1282,"Ġsur":1283,"Ġgi":1284,"eth":1285,"Ġsaw":1286,"ple":1287,"att":1288,"Ġbeh":1289,"ches":1290,"Ġeye":1291,"med":1292,"ENT":1293,"Ġpri":1294,"Ġthings":1295,"Ġkind":1296,"Ġmo":1297,"ĠFor":1298,"ween":1299,"FIRST":1300,"lt":1301,"ner":1302,"ures":1303,"with":1304,"hall":1305,"Ġfool":1306,"Here":1307,"Ġworth":1308,"Ġgone":1309,"Ġdie":1310,"Ġdou":1311,"Ġshow":1312,"ĠWhe":1313,"ised":1314,"Ġperson":1315,"His":1316,"PH":1317,"ph":1318,"Ġget":1319,"ĠCosette":1320,"cious":1321,"Ġhusband":1322,"Ġdr":1323,"most":1324,"ĊĠ":1325,"cene":1326,"Ġask":1327,"CA":1328,"day":1329,"Ġinst":1330,"DUKE":1331,"Ġneed":1332,"Do":1333,"den":1334,"Ġcur":1335,"Ġmatter":1336,"ĠRome":1337,"ken":1338,"EEN":1339,"irt":1340,"ĠThey":1341,"Ġwhose":1342,"Ġplay":1343,"Ġlaw":1344,"Ġbreat":1345,"Ġadv":1346,"Ġhome":1347,"ating":1348,"ORD":1349,"Ġmist":1350,"arge":1351,"cept":1352,"ĠDuke":1353,"St":1354,"ms":1355,"Ġpoint":1356,"AB":1357,"ants":1358,"Ġearth":1359,"ody":1360,"ined":1361,"Ġprison":1362,"RY":1363,"cess":1364,"og":1365,"Ġtong":1366,"rest":1367,"Ġdoes":1368,"sand":1369,"âĢĺ":1370,"Ġtook":1371,"Ġforth":1372,"Ġlie":1373,"Ġhigh":1374,"ott":1375,"Ġread":1376,"Ġbu":1377,"QUEEN":1378,"Ġinf":1379,"ilt":1380,"Ġeach":1381,"Ġair":1382,"ctor":1383,"pr":1384,"Ġfound":1385,"Ġenem":1386,"ls":1387,"Ġcou":1388,"Ġhope":1389,"Ġsil":1390,"aris":1391,"Ġyears":1392,"Ġbring":1393,"Than":1394,"az":1395,"Ġpower":1396,"ĠPr":1397,"UL":1398,"Ġmoment":1399,"Ġletter":1400,"Ġ1":1401,"Ġwhile":1402,"Ġkill":1403,"Ġgri":1404,"Ġmean":1405,"Ġstr":1406,"ex":1407,"Ġgre":1408,"let":1409,"cei":1410,"Ġbes":1411,"Ġpeace":1412,"Ġsun":1413,"Ġbeaut":1414,"Ġyourself":1415,"Ġcare":1416,"mer":1417,"nard":1418,"su":1419,"Ġcause":1420,"Ġjoy":1421,"Ġspir":1422,"Ġbo":1423,"Ġuse":1424,"IAN":1425,"Not":1426,"ery":1427,"Ġmeet":1428,"Ġadd":1429,"ling":1430,"Ġelse":1431,"Ġwent":1432,"Ġstate":1433,"Ġfortune":1434,"aken":1435,"Ġwall":1436,"ang":1437,"ained":1438,"All":1439,"oint":1440,"by":1441,"Good":1442,"Ġsuff":1443,"Ġvoice":1444,"OND":1445,"Ġdep":1446,"ned":1447,"Ġfire":1448,"At":1449,"Ġthousand":1450,"Ġboy":1451,"ship":1452,"Ġbro":1453,"ceed":1454,"Ġsince":1455,"Ġfour":1456,"Ġsword":1457,"Ġsleep":1458,"ĠFrance":1459,"Ġhel":1460,"ring":1461,"Ġcond":1462,"vert":1463,"_.]":1464,"Ġcap":1465,"Ġnone":1466,"Ġnature":1467,"ired":1468,"ati":1469,"BER":1470,"ought":1471,"vol":1472,"whe":1473,"Ġ'":1474,"uc":1475,"Ġste":1476,"Ġstay":1477,"any":1478,"Ġbetween":1479,"Ġwalk":1480,"OM":1481,"sc":1482,"Ġwithin":1483,"Ġwrong":1484,"swer":1485,"ides":1486,"STA":1487,"Ġac":1488,"osed":1489,"Ġarms":1490,"LUC":1491,"iet":1492,"Ġsing":1493,"ĠRue":1494,"HAM":1495,"right":1496,"Ġcertain":1497,"Ġsupp":1498,"LET":1499,"esty":1500,"Ġext":1501,"orm":1502,"Ġlay":1503,"ĠIII":1504,"Ġvis":1505,"Ġfal":1506,"ec":1507,"no":1508,"oke":1509,"ork":1510,"Ġtoward":1511,"Ġsoon":1512,"Ġstri":1513,"Ġsound":1514,"gs":1515,"Ġmarri":1516,"Ġtongue":1517,"Ġsort":1518,"Ġwa":1519,"ony":1520,"Ġside":1521,"Ġsold":1522,"gether":1523,"mp":1524,"Ġroom":1525,"rant":1526,"Ġmeans":1527,"Ġcourt":1528,"ĠDo":1529,"ways":1530,"pped":1531,"An":1532,"Ġwant":1533,"Ġdark":1534,"ĊĊĊ":1535,"ENRY":1536,"ution":1537,"Ġcrown":1538,"Ġblack":1539,"race":1540,"Ã©nard":1541,"ried":1542,"ĠParis":1543,"you":1544,"Un":1545,"Ġprof":1546,"Ġdisp":1547,"Ġtill":1548,"Ġmar":1549,"Ġban":1550,"ains":1551,"ĠThat":1552,"Ġthine":1553,"Sir":1554,"com":1555,"Ġsent":1556,"'ll":1557,"als":1558,"Ġdan":1559,"Ġocc":1560,"Ġinter":1561,"ĠMr":1562,"Ġanswer":1563,"laim":1564,"Ġprom":1565,"Ġint":1566,"Ġinde":1567,"Ġalone":1568,"Ġcalled":1569,"rought":1570,"Ġrel":1571,"Go":1572,"Ġvill":1573,"Ġless":1574,"Nay":1575,"Ġsomething":1576,"use":1577,"Have":1578,"rence":1579,"ieur":1580,"Ġgrace":1581,"ey":1582,"Ġtalk":1583,"ROM":1584,"his":1585,"SS":1586,"ash":1587,"Ġhard":1588,"een":1589,"ĠCa":1590,"Ġrather":1591,"Will":1592,"ited":1593,"iers":1594,"Ġtrou":1595,"Ġitself":1596,"ESTER":1597,"Ġlonger":1598,"Ġsignif":1599,"Ġfaith":1600,"Ġnews":1601,"Ġgir":1602,"Ġcountry":1603,"ĠSt":1604,"Ġfalse":1605,"vy":1606,"Ġsure":1607,"ĠBe":1608,"Ġlost":1609,"ĠWe":1610,".âĢĶ":1611,"TUS":1612,"ently":1613,"ICK":1614,"Ġsk":1615,"which":1616,"Ġcor":1617,"used":1618,"cted":1619,"INE":1620,"ured":1621,"Ġhalf":1622,"Ġtruth":1623,"Ġstrange":1624,"Ġbody":1625,"oney":1626,"pon":1627,"Ġwater":1628,"over":1629,"ĠAt":1630,"onsieur":1631,"Ġcr":1632,"Ġhelp":1633,"cle":1634,"Ġhence":1635,"Ġgrow":1636,"Ġalmost":1637,"Ġmorn":1638,"ID":1639,"Ġmakes":1640,"ities":1641,"con":1642,"Ġhaving":1643,"Ġreg":1644,"Ġexc":1645,"Ġexp":1646,"Ã©nardier":1647,"UN":1648,"ho":1649,"airs":1650,"Ġins":1651,"Ġdoubt":1652,"Ġsorrow":1653,"orry":1654,"ieve":1655,"On":1656,"Ġred":1657,"Ġdel":1658,"Ġenough":1659,"ster":1660,"ual":1661,"ubl":1662,"Ġgold":1663,"COND":1664,"Ġenter":1665,"From":1666,"ray":1667,"outh":1668,"Ġgoing":1669,"Ġsad":1670,"ĠAnt":1671,"Ġfellow":1672,"Ġrun":1673,"Shall":1674,"ardon":1675,"ief":1676,"oor":1677,"Ġbid":1678,"undred":1679,"PR":1680,"had":1681,"vel":1682,"ccess":1683,"erv":1684,"Ġwhy":1685,"Ġunto":1686,"ceive":1687,"AG":1688,"MAR":1689,"Ġsick":1690,"mbl":1691,"esc":1692,"Ġcle":1693,"Ġgener":1694,"ĠPro":1695,"Ġbreak":1696,"Ġcold":1697,"vere":1698,"ices":1699,"Ġvirt":1700,"Ġdays":1701,"bed":1702,"ns":1703,"oom":1704,"ical":1705,"IT":1706,"app":1707,"ges":1708,"Ġhappy":1709,"mber":1710,"Ġ.":1711,"Ġland":1712,"enty":1713,"ROS":1714,"ĠQ":1715,"Ġpleasure":1716,"Ġstrong":1717,"iff":1718,"Ġfeel":1719,"yal":1720,"Ġpra":1721,"ats":1722,"ĠIV":1723,"Ġref":1724,"Ġsight":1725,"ouch":1726,"Ġplease":1727,"Ġindeed":1728,"Ġoft":1729,"SECOND":1730,"Ġfam":1731,"Ġreason":1732,"ĠSir":1733,"Ġwhole":1734,"Ġgentleman":1735,"him":1736,"uff":1737,"esar":1738,"Ġgrave":1739,"Ġhorse":1740,"gg":1741,"Ġfav":1742,"Ġmin":1743,"Ġwomen":1744,"Yes":1745,"Ġwish":1746,"Ġwhite":1747,"ĠLet":1748,"Ġtherefore":1749,"Ġtold":1750,"Ġorder":1751,"Ġran":1752,"Ġchildren":1753,"ceived":1754,"now":1755,"Ġkiss":1756,"Thy":1757,"Ġalways":1758,"Nor":1759,"Ġtears":1760,"Ġturned":1761,"Ġere":1762,"Ġseemed":1763,"ĠNo":1764,"Ġtogether":1765,"Ġdreams":1766,"Ġspirit":1767,"Ġsat":1768,"LOUC":1769,"Ġstreet":1770,"LOUCESTER":1771,"ĠâĢĺ":1772,"hard":1773,"WN":1774,"ĠAr":1775,"ĠHENRY":1776,"ular":1777,"rem":1778,"ying":1779,"Ġabs":1780,"STAFF":1781,"Ġtimes":1782,"Ġtaken":1783,"uten":1784,"Ġprop":1785,"Ġquest":1786,"GLOUCESTER":1787,"UM":1788,"ird":1789,"ĠMy":1790,"ĠHow":1791,"Ġthank":1792,"Ġinc":1793,"stand":1794,"Ġloss":1795,"Ġfew":1796,"Ġdanger":1797,"Ġfree":1798,"Ġfoot":1799,"Ġshame":1800,"ALSTAFF":1801,"Ġbad":1802,"Ġcry":1803,"Ġthemselves":1804,"ĠRICHARD":1805,"Ġmorning":1806,"FALSTAFF":1807,"Ġlow":1808,"Ġopp":1809,"Ġdire":1810,"Mar":1811,"ues":1812,"Ġtem":1813,"Ġlose":1814,"rac":1815,"elt":1816,"Ġknew":1817,"onder":1818,"ressed":1819,"Ġstra":1820,"Ġquar":1821,"Ġbehind":1822,"BO":1823,"Ġmaid":1824,"Ġfight":1825,"ishop":1826,"Ġremem":1827,"IST":1828,"Ġbreath":1829,"bs":1830,"ads":1831,"ANTON":1832,"II":1833,"Yet":1834,"Ġcarri":1835,"Ġbrought":1836,"Ġca":1837,"rench":1838,"Ġgave":1839,"Ġund":1840,"Ġfault":1841,"Our":1842,"ards":1843,"Ġshad":1844,"Ġval":1845,"Al":1846,"iol":1847,"like":1848,"ney":1849,"but":1850,"Ġsister":1851,"ĠEd":1852,"avert":1853,"fter":1854,"Ġdraw":1855,"ĠBr":1856,"RA":1857,"aj":1858,"par":1859,"ting":1860,"Ġpossess":1861,"Ġ(":1862,"Ġmur":1863,"Ġseek":1864,"Ġqueen":1865,"Ġgrief":1866,"RESS":1867,"Ġage":1868,"ĠWhen":1869,"HE":1870,"RE":1871,"Ġpar":1872,"ib":1873,"ask":1874,"PRIN":1875,"Ġwin":1876,"Ġyouth":1877,"Ġhang":1878,"Ġsuccess":1879,"Ġlords":1880,"itted":1881,"ĠCome":1882,"lo":1883,"Ġye":1884,"Ġhair":1885,"amp":1886,"Ġpurp":1887,"Ġweep":1888,"Ġhonest":1889,"ras":1890,"Ġwound":1891,"Ġele":1892,"ully":1893,"ready":1894,"ĠSaint":1895,"ĠEngland":1896,"ublic":1897,"Ġshort":1898,"form":1899,"Ġappear":1900,"Ġhundred":1901,"ousin":1902,"Ġunt":1903,"Ġclose":1904,"Upon":1905,"Ġmark":1906,"Ġdost":1907,"_,":1908,"Ġadm":1909,"Ġground":1910,"Ġlooked":1911,"ized":1912,"Ġthoughts":1913,"Ġbecome":1914,"aw":1915,"Ġtend":1916,"Ġmoney":1917,"Ġsmall":1918,"Ġsea":1919,"ĠJo":1920,"LAN":1921,"ĠSo":1922,"OST":1923,"Ġve":1924,"Are":1925,"ike":1926,"ron":1927,"anc":1928,"ĠCH":1929,"ĠHer":1930,"MAN":1931,"Ġhither":1932,"ots":1933,"Ġstru":1934,"Ġprove":1935,"Ġjud":1936,"AST":1937,"vid":1938,"oud":1939,"Ġpast":1940,"OTH":1941,"Ġtowards":1942,"mb":1943,"Ġdeep":1944,"Ġdeed":1945,"Ġgods":1946,"ETH":1947,"ours":1948,"Ġcommand":1949,"chan":1950,"Ġsit":1951,"ĠAs":1952,"Ġsays":1953,"plied":1954,"lish":1955,"rew":1956,"ense":1957,"roud":1958,"Ġdec":1959,"ĊĠĠĠĠ":1960,"Ġsend":1961,"uri":1962,"rible":1963,"Ġsum":1964,"ĠThen":1965,"els":1966,"enry":1967,"Ġgall":1968,"Ġalso":1969,"Ġappro":1970,"LI":1971,"UT":1972,"ub":1973,"Ġdut":1974,"Ġgrand":1975,"aught":1976,"Ġi":1977,"Ġdrink":1978,"eter":1979,"ift":1980,"Ġfr":1981,"Ġport":1982,"ĠIs":1983,"Ġamong":1984,"ĠCHAPTER":1985,"ĠHis":1986,"Ġsignifies":1987,"Ġbar":1988,"CHAPTER":1989,"Ġbecause":1990,"ĠCaesar":1991,"LES":1992,"ush":1993,"ines":1994,"Ġmet":1995,"Ġdiv":1996,"Ġcorn":1997,"Ġherself":1998,"LEON":1999,"Ġcol":2000,"ctions":2001,"One":2002,"ug":2003,"Ġact":2004,"Ġcut":2005,"Ġdesp":2006,"ĠYork":2007,"Ġpol":2008,"ORK":2009,"Ġenemies":2010,"Ġsuffer":2011,"GO":2012,"ones":2013,"Ġcomfort":2014,"othing":2015,"Ġsubject":2016,"ĠMad":2017,"ĠAll":2018,"Ġknows":2019,"GAR":2020,"fer":2021,"morrow":2022,"Ġpati":2023,"Ġmadam":2024,"Ġfur":2025,"Ġdem":2026,"ung":2027,"Ġprince":2028,"MEN":2029,"Ġsix":2030,"Ġdra":2031,"Ġcra":2032,"owed":2033,"Ġanything":2034,"COR":2035,"dden":2036,"Ġpay":2037,"Ġdevil":2038,"Aside":2039,"PER":2040,"Ġfill":2041,"Ġpret":2042,"Ġpassed":2043,"gain":2044,"owers":2045,"Ġwear":2046,"ends":2047,"attle":2048,"oman":2049,"Ġwel":2050,"Ġgirl":2051,"cha":2052,"Ġir":2053,"Ġmid":2054,"ety":2055,"Ġeat":2056,"ude":2057,"wick":2058,"Ġborn":2059,"Ġpity":2060,"RI":2061,"Ġdro":2062,"INIUS":2063,"Ġalready":2064,"Ġsecond":2065,"Ġaffairs":2066,"du":2067,"Ġrequ":2068,"Ġfail":2069,"ĠFrench":2070,"Ġpros":2071,"Ġmistress":2072,"DY":2073,"fully":2074,"ior":2075,"ror":2076,"Ġfast":2077,"Ġroyal":2078,"act":2079,"Ġcreat":2080,"Ġlies":2081,"Ġcast":2082,"oof":2083,"Ġdesire":2084,"Ġfield":2085,"usic":2086,"Ġang":2087,"berg":2088,"Ġgiven":2089,"Ġknown":2090,"Ġcourse":2091,"IM":2092,"Ġest":2093,"Ġpal":2094,"iece":2095,"Ġbeauty":2096,"hn":2097,"Ġaw":2098,"umber":2099,"Ġpost":2100,"ichard":2101,"ĠCla":2102,"Re":2103,"ĠHenry":2104,"Ġquestion":2105,"Ġcousin":2106,"BRU":2107,"Ġide":2108,"arwick":2109,"Ġpardon":2110,"Ġseeing":2111,"Ġbless":2112,"Ġabove":2113,"Ġcontent":2114,"ĠThÃ©nardier":2115,"cul":2116,"under":2117,"Ġsla":2118,"Ġfly":2119,"Ġfelt":2120,"Ġstood":2121,"Ġself":2122,"Ġshalt":2123,"TR":2124,"Ġemb":2125,"Ġchange":2126,"ajesty":2127,"ached":2128,"cher":2129,"ĠScene":2130,"Ġsudden":2131,"arden":2132,"othy":2133,"Ġlarge":2134,"BRUTUS":2135,"ek":2136,"xt":2137,"itor":2138,"Ġpen":2139,"Ġpap":2140,"Ġround":2141,"Ġlead":2142,"Ġservice":2143,"utenberg":2144,"aff":2145,"have":2146,"orothy":2147,"Ġquick":2148,"WARD":2149,"Ġwo":2150,"Ġreplied":2151,"Ġhours":2152,"PE":2153,"fend":2154,"ranc":2155,"ĠNow":2156,"ires":2157,"Ġdon":2158,"ĠOne":2159,"were":2160,"Sh":2161,"Ġmouth":2162,"Ġcoming":2163,"ably":2164,"Ġvillain":2165,"Scene":2166,"Ġten":2167,"Ġeng":2168,"Ġfive":2169,"Ġdev":2170,"Ġtwenty":2171,"Ġta":2172,"itiz":2173,"Ġyours":2174,"erty":2175,"dom":2176,"uous":2177,"Ġcross":2178,"Ġhealth":2179,"Ġfact":2180,"Ġattend":2181,"Ġbelieve":2182,"ĠEnglish":2183,"JUL":2184,"Ġsim":2185,"Ġbound":2186,"Ġhur":2187,"Ġmanner":2188,"Ġtran":2189,"Ġsin":2190,"pro":2191,"Ġwatch":2192,"iting":2193,"ĠCh":2194,"HAMLET":2195,"Ġbarri":2196,"Ġcase":2197,"ĠSc":2198,"ELLO":2199,"otion":2200,"rust":2201,"Ġcoun":2202,"Ġpurpose":2203,"Hath":2204,"isf":2205,"Ġlear":2206,"CHIO":2207,"tw":2208,"Ġlives":2209,"ueen":2210,"VOL":2211,"tain":2212,"Mad":2213,"More":2214,"Ġbur":2215,"tered":2216,"Ġasked":2217,"ĠEdward":2218,"Ġwelcome":2219,"Ġcir":2220,"ĠWarwick":2221,"bles":2222,"Ġworthy":2223,"Her":2224,"ĠThou":2225,"this":2226,"ĠHere":2227,"lou":2228,"Ġcal":2229,"Ah":2230,"Ġlate":2231,"Ġgar":2232,"irm":2233,"ĠX":2234,"ote":2235,"ĠWhy":2236,"rupt":2237,"INA":2238,"Ġswear":2239,"Ġheavy":2240,"Ġbegan":2241,"Ġyield":2242,"ĠLorry":2243,"ĠJohn":2244,"Ġut":2245,"Ġbene":2246,"iffe":2247,"Even":2248,"ging":2249,"orth":2250,"CLO":2251,"bit":2252,"read":2253,"Ġgaz":2254,"cial":2255,"Ġsecret":2256,"ĠQueen":2257,"PRINCE":2258,"Ġwine":2259,"Ġreal":2260,"Ġgeneral":2261,"Ġwret":2262,"Ġfoul":2263,"EO":2264,"Jean":2265,"oly":2266,"Ġcity":2267,"ĠRichard":2268,"Ġalong":2269,"ages":2270,"ATH":2271,"TES":2272,"ament":2273,"ĠLe":2274,"Ġproud":2275,"Ġheld":2276,"Ġfurther":2277,"Did":2278,"iled":2279,"Marius":2280,"oose":2281,"Ġrespect":2282,"First":2283,"cent":2284,"Ã¨":2285,"ises":2286,"Ġbook":2287,"rib":2288,"Ġlab":2289,"These":2290,"Ġrich":2291,"ming":2292,"iful":2293,"Ġfeet":2294,"cester":2295,"Ġbegin":2296,"Ġhuman":2297,"Ġfin":2298,"ances":2299,"Ġevil":2300,"ider":2301,"ĠMont":2302,"ANIO":2303,"where":2304,"Ġtrouble":2305,"Would":2306,"resh":2307,"ĠTHE":2308,"Ġgreen":2309,"joy":2310,"night":2311,"Ġcommon":2312,"PET":2313,"oll":2314,"Ġduty":2315,"ĠMonsieur":2316,"appe":2317,"Ġlooks":2318,"Give":2319,"RICHARD":2320,"Ġwilt":2321,"Ġbit":2322,"Ġburn":2323,"ENIUS":2324,"Ġconst":2325,"Ġhate":2326,"ROMEO":2327,"MENENIUS":2328,"OP":2329,"Ġlad":2330,"ident":2331,"ĠAl":2332,"God":2333,"ĠJavert":2334,"Ġunderstand":2335,"AD":2336,"hood":2337,"Ġesc":2338,"cend":2339,"unes":2340,"there":2341,"Ġtender":2342,"ape":2343,"ĠSee":2344,"Ġcontin":2345,"Ġoften":2346,"Ġtable":2347,"rer":2348,"Ġkne":2349,"eech":2350,"ole":2351,"Ġce":2352,"Ġforg":2353,"LADY":2354,"iles":2355,"Ġneither":2356,"Ġstraight":2357,"Ġtown":2358,"Ġharm":2359,"Ġlist":2360,"urs":2361,"peak":2362,"cks":2363,"RUCHIO":2364,"PETRUCHIO":2365,"Ġmarriage":2366,"Pro":2367,"Ġtouch":2368,"Ġfat":2369,"urse":2370,"ention":2371,"Ġnext":2372,"cience":2373,"Ġeverything":2374,"Ġcharge":2375,"min":2376,"oc":2377,"Ġwood":2378,"asy":2379,"ORT":2380,"appoint":2381,"Ġbir":2382,"Ġdest":2383,"alt":2384,"Ġstep":2385,"Ġfare":2386,"Ġtrust":2387,"Ġprisoner":2388,"Ġlover":2389,"ĠDorothy":2390,"THE":2391,"iant":2392,"Ġwis":2393,"Ġbri":2394,"Ġreven":2395,"ths":2396,"ĠPrince":2397,"ze":2398,"Ġmarry":2399,"Ġgot":2400,"Ġliving":2401,"ility":2402,"ĠOn":2403,"icked":2404,"MON":2405,"ffect":2406,"ising":2407,"Ġlips":2408,"Ġindic":2409,"gainst":2410,"ued":2411,"Ġoath":2412,"Ġbloody":2413,"erved":2414,"Ġlaugh":2415,"ĠLuc":2416,"Ġenc":2417,"ague":2418,"rid":2419,"Ġwealth":2420,"roche":2421,"Whose":2422,"osition":2423,"Ġprosper":2424,"Some":2425,"cade":2426,"hil":2427,"will":2428,"Ġmove":2429,"eness":2430,"Ġdam":2431,"Ġpa":2432,"Ġguard":2433,"Ġreturned":2434,"happ":2435,"Ġmod":2436,"Ġfine":2437,"ries":2438,"Ġspoke":2439,"Ġbehold":2440,"Ġbroken":2441,"loucester":2442,"kes":2443,"ois":2444,"que":2445,"iew":2446,"Ġcompany":2447,"avroche":2448,"efarge":2449,"ACT":2450,"Ġmount":2451,"Ġdare":2452,"Ġlea":2453,"IOLAN":2454,"Ġears":2455,"IOLANUS":2456,"light":2457,"Ġwise":2458,"cell":2459,"ĠAN":2460,"Ġarri":2461,"Ġholy":2462,"Ġpaper":2463,"my":2464,"Ġbattle":2465,"vell":2466,"ĠMaster":2467,"Ġpretty":2468,"bb":2469,"Ġwild":2470,"levent":2471,"ize":2472,"Look":2473,"LAND":2474,"Ġsus":2475,"itude":2476,"Ġeffect":2477,"Ġgoes":2478,"CORIOLANUS":2479,"rent":2480,"Ġinte":2481,"Ġsho":2482,"king":2483,"sp":2484,"Ġmaking":2485,"Ġeither":2486,"rows":2487,"Ġenemy":2488,"Ġvirtue":2489,"nown":2490,"set":2491,"Ġsovere":2492,"though":2493,"CT":2494,"head":2495,"uring":2496,"chelevent":2497,"Ġbreast":2498,"ĠProject":2499,"Was":2500,"ithe":2501,"Ġpale":2502,"ane":2503,"asion":2504,"ement":2505,"empt":2506,"Ġ18":2507,"Ġclear":2508,"OB":2509,"Ġdog":2510,"ining":2511,"Ġhide":2512,"Ġsave":2513,"Ġuncle":2514,"gar":2515,"ives":2516,"hal":2517,"Ġloves":2518,"auchelevent":2519,"Ġenjoy":2520,"Ġchamber":2521,"Ġplain":2522,"Ġgracious":2523,"ABEL":2524,"haps":2525,"Ġmusic":2526,"ERV":2527,"lace":2528,"Ġdisappoint":2529,"Ġbold":2530,"Ġweak":2531,"Ġnecess":2532,"ieu":2533,"cient":2534,"ainted":2535,"Ġuntil":2536,"SIR":2537,"WICK":2538,"ience":2539,"ses":2540,"Ġpublic":2541,"Ġgarden":2542,"pected":2543,"ISTRESS":2544,"GARET":2545,"fl":2546,"ĠBishop":2547,"ARWICK":2548,"bled":2549,"Ġhaste":2550,"Ġremember":2551,"ĠMadame":2552,"Ġmed":2553,"lly":2554,"ĠGutenberg":2555,"Ġreport":2556,"Ġhappiness":2557,"she":2558,"rel":2559,"ABELLA":2560,"Can":2561,"MISTRESS":2562,"aire":2563,"ench":2564,"essen":2565,"ĠThese":2566,"umb":2567,"Ġpresence":2568,"Ġobs":2569,"Ġstreng":2570,"rancs":2571,"bour":2572,"gue":2573,"ENCE":2574,"ately":2575,"WARWICK":2576,"ob":2577,"Ġwonder":2578,"arch":2579,"Ġhot":2580,"Ġready":2581,"ĠGloucester":2582,"Ġlaid":2583,"Ġfit":2584,"Ġcried":2585,"Ġbeseech":2586,"EUS":2587,"ham":2588,"leine":2589,"ĠED":2590,"adeleine":2591,"SH":2592,"Ġcarry":2593,"ROSAL":2594,"Ġte":2595,"erve":2596,"ters":2597,"Ġdef":2598,"Ġjustice":2599,"gin":2600,"esh":2601,"OLI":2602,"Ġsoldier":2603,"OTHELLO":2604,"ĠEDWARD":2605,"Ġyear":2606,"ality":2607,"ume":2608,"itting":2609,"Though":2610,"Ġevening":2611,"Ġsake":2612,"ided":2613,"room":2614,"Ġunf":2615,"Ġspeed":2616,"Ġhearts":2617,"IAGO":2618,"Like":2619,"Till":2620,"gl":2621,"ĠCap":2622,"Ġprin":2623,"Ġquite":2624,"Ġwindow":2625,"Ġpossible":2626,"Ġcar":2627,"Ġmarried":2628,"DER":2629,"co":2630,"ually":2631,"oop":2632,"ĠWho":2633,"Ġexist":2634,"Ġentered":2635,"Ġseems":2636,"rous":2637,"Ġforce":2638,"ĠTro":2639,"overed":2640,"dle":2641,"Ġbeat":2642,"Ġleast":2643,"Ġheads":2644,"DEM":2645,"val":2646,"Ġsoft":2647,"Ġsever":2648,"Ġdeal":2649,"Ġloved":2650,"Ġpleasant":2651,"Ġbrave":2652,"Ġopened":2653,"ĠChar":2654,"ĠLa":2655,"inks":2656,"Ġserve":2657,"CASS":2658,"Ġshadow":2659,".âĢĻ":2660,"itch":2661,"ander":2662,"arewell":2663,"ĠWhere":2664,"BEN":2665,"Ġdet":2666,"Ġstud":2667,"Ġthyself":2668,"'t":2669,"Com":2670,"Ġsense":2671,"Ġmal":2672,"ENTLE":2673,"Ġacqu":2674,"CLOWN":2675,"May":2676,"Take":2677,"pre":2678,"Ġfing":2679,"Ġhell":2680,"Ġbeast":2681,"Ġremain":2682,"Ġinterest":2683,"DIO":2684,"Ġthreat":2685,"Ġstone":2686,"Ġview":2687,"Ġfright":2688,"Ġobject":2689,"YORK":2690,"ĠCl":2691,"ĠGrace":2692,"umed":2693,"ĠDefarge":2694,"ISABELLA":2695,"father":2696,"inct":2697,"aring":2698,"Ġlim":2699,"pend":2700,"ĠRe":2701,"Ġresol":2702,"Were":2703,"ĠAntony":2704,"Ġbarricade":2705,"rist":2706,"Ġid":2707,"uture":2708,"ades":2709,"urch":2710,"ĠMAR":2711,"Ġsac":2712,"ient":2713,"jol":2714,"Ġlack":2715,"asure":2716,"unk":2717,"Ġterrible":2718,"Ġsatisf":2719,"non":2720,"itions":2721,"Ġrevol":2722,"Ġmerry":2723,"laimed":2724,"Ġwoe":2725,"ithee":2726,"IET":2727,"gu":2728,"Ġbott":2729,"Ġstir":2730,"Ġvict":2731,"Ġspo":2732,"ANTONY":2733,"AU":2734,"more":2735,"Ġfrancs":2736,"ĠGo":2737,"Ġproceed":2738,"Ġmercy":2739,"swe":2740,"ĊĠĠ":2741,"Ġcru":2742,"vern":2743,"Ġworse":2744,"Ġrose":2745,"Ġpriv":2746,"Ġdepart":2747,"JULIET":2748,"ech":2749,"Ġable":2750,"enorm":2751,"Ġnote":2752,"Ġsometimes":2753,"LEONTES":2754,"SIC":2755,"njol":2756,"Ġdri":2757,"Ġcent":2758,"ette":2759,"Ġdeli":2760,"Ġoffic":2761,"Ġconfess":2762,"njolras":2763,"what":2764,"Ġop":2765,"ames":2766,"ERS":2767,"ĠVI":2768,"Ġgentlemen":2769,"Ġign":2770,"iter":2771,"ural":2772,"Ġsuit":2773,"Ġprot":2774,"bey":2775,"Ġmoon":2776,"Ġadded":2777,"Say":2778,"heart":2779,"Ġfuture":2780,"Ġunk":2781,"istress":2782,"Ġcounsel":2783,"Cosette":2784,"dis":2785,"Ġpet":2786,"Ġrise":2787,"Ġlooking":2788,"Ġglass":2789,"CENT":2790,"Ġsilence":2791,".[":2792,"Ġfig":2793,"ingly":2794,"ĠMadeleine":2795,"Ġcomb":2796,"Ġroad":2797,"Ġstreets":2798,"AS":2799,"BAST":2800,"LY":2801,"Ġty":2802,"held":2803,"Ġwoo":2804,"ature":2805,"Ġlib":2806,"Thus":2807,"Ġje":2808,"ondon":2809,"Ġgloom":2810,"Ġwarrant":2811,"Ġkept":2812,"Ġsovereign":2813,"eur":2814,"Ġsle":2815,"roke":2816,"Ġviol":2817,"ression":2818,"Ġsoldiers":2819,"ĠDoctor":2820,"Ġfront":2821,"ENTLEMAN":2822,"PAR":2823,"YR":2824,"aven":2825,"crow":2826,"gr":2827,"Ġneigh":2828,"ĠPer":2829,"fection":2830,"sue":2831,"Ġbig":2832,"Ġda":2833,"Ġinv":2834,"ored":2835,"Ġexec":2836,"Ġcorner":2837,"Ġstrength":2838,"CAL":2839,"cer":2840,"dd":2841,"hold":2842,"ught":2843,"oun":2844,"INCENT":2845,"them":2846,"Therefore":2847,"Ġstruck":2848,"INCENTIO":2849,"orable":2850,"rif":2851,"ĠWell":2852,"Ġconce":2853,"ĠLondon":2854,"osom":2855,"Ġprov":2856,"clock":2857,"Ġservant":2858,"essenger":2859,"go":2860,"ians":2861,"Ġcow":2862,"utus":2863,"Ġsol":2864,"ĠPal":2865,"olk":2866,"Ġflesh":2867,"ogn":2868,"Ġdemand":2869,"Ġfarewell":2870,"Ġfif":2871,"rum":2872,"Ġsaying":2873,"UNT":2874,"AGE":2875,"enormand":2876,"Ar":2877,"side":2878,"Ġmir":2879,"Ġthr":2880,"illenormand":2881,"alous":2882,"KINGHAM":2883,"UCKINGHAM":2884,"Ġcompan":2885,"Ġsmile":2886,"pass":2887,"Ġblind":2888,"Ġentreat":2889,"Ġsouls":2890,"ĠMARGARET":2891,"SICINIUS":2892,"unate":2893,"ĠĠĠĠĠĠĠĠĠĠĠ":2894,"Had":2895,"Ġsqu":2896,"Ġancient":2897,"Ġremained":2898,"bre":2899,"cause":2900,"ien":2901,"mon":2902,"Ġbright":2903,"ĠCour":2904,"ĠCass":2905,"Ġslow":2906,"ILIA":2907,"BUCKINGHAM":2908,"ITI":2909,"lan":2910,"Ġed":2911,"Ġtry":2912,"Ġaction":2913,"Ġbosom":2914,"Ġcand":2915,"ellow":2916,"IND":2917,"Ġleg":2918,"Ġjudge":2919,"PRO":2920,"iar":2921,"Ġble":2922,"Ġdi":2923,"Ġinno":2924,"ourney":2925,"Ġcompl":2926,"USE":2927,"Ġletters":2928,"ashion":2929,"Ġiron":2930,"Most":2931,"ked":2932,"uf":2933,"wise":2934,"Ġer":2935,"sembl":2936,"ils":2937,"ĠCom":2938,"Ġunhapp":2939,"ĠOr":2940,"Ġring":2941,"cius":2942,"Ġpock":2943,"Ġconscience":2944,"Ġinstant":2945,"cum":2946,"âĦ":2947,"Ġtaking":2948,"Ġmort":2949,"Ġvan":2950,"ĠGavroche":2951,"ustom":2952,"ANG":2953,"ANTI":2954,"they":2955,"Ġexcept":2956,"arecrow":2957,"âĦ¢":2958,"KATH":2959,"cceed":2960,"ny":2961,"iny":2962,"Ġwed":2963,"Ġfresh":2964,"Ġcop":2965,"Ġpain":2966,"ĠLu":2967,"Ġknight":2968,"Ġtraitor":2969,"IANA":2970,"Ġfamily":2971,"Ġeight":2972,"Ġequ":2973,"Ġwitness":2974,"ĠRomeo":2975,"See":2976,"from":2977,"wer":2978,"Ġmock":2979,"Ġmajesty":2980,"Ġglad":2981,"CLE":2982,"ald":2983,"house":2984,"Ġsy":2985,"Ġdu":2986,"arn":2987,"Ġevent":2988,"verse":2989,"son":2990,"Ġbare":2991,"Ġpiece":2992,"Ġforward":2993,"Ġdread":2994,"Ġfollowing":2995,"Ġformer":2996,"Ġpatience":2997,"HER":2998,"ĠU":2999,"Ġcre":3000,"Ġinj":3001,"Ġthri":3002,"Ġstands":3003,"Ġchance":3004,"hys":3005,"Ġinstru":3006,"LUCIO":3007,"Ġoccasion":3008,"Ġdied":3009,"utes":3010,"Ġstart":3011,"ea":3012,"yrac":3013,"Ġbase":3014,"eng":3015,"eds":3016,"iling":3017,"Ġnoise":3018,"ĠLORD":3019,"âĢĶâĢĶ":3020,"Ġflowers":3021,"Ġdelight":3022,"cing":3023,"ram":3024,"ts":3025,"ted":3026,"Ġtop":3027,"teen":3028,"ission":3029,"Ġgrant":3030,"Ġauth":3031,"Ġdiff":3032,"ative":3033,"icious":3034,"ĠPl":3035,"Ġconv":3036,"Ġprob":3037,"Ġwalls":3038,"Alas":3039,"tend":3040,"ancy":3041,"Ġeff":3042,"ract":3043,"ĠBy":3044,"Ġwhether":3045,"Ġspeech":3046,"Ġtrees":3047,"Ġcheer":3048,"Tw":3049,"oved":3050,"ites":3051,"Ġgain":3052,"ĠFauchelevent":3053,"arer":3054,"Ġpluck":3055,"ploy":3056,"VOLIO":3057,"ford":3058,"ination":3059,"chool":3060,"tern":3061,"usion":3062,"ĠMon":3063,"Ġsucceed":3064,"elle":3065,"antine":3066,"Ġblow":3067,"Ġforest":3068,"ICE":3069,"while":3070,"GH":3071,"your":3072,"Ġtit":3073,"Ġsons":3074,"Ġcaught":3075,"Ġforget":3076,"gel":3077,"antage":3078,"OLK":3079,"Ġperfect":3080,"ding":3081,"ler":3082,"Ġthrow":3083,"ĠGu":3084,"Ġbecame":3085,"Ġpalace":3086,"DES":3087,"MER":3088,"MAC":3089,"Since":3090,"phe":3091,"run":3092,"ĠDe":3093,"Ġscorn":3094,"ledge":3095,"Ġpursu":3096,"Ġcarried":3097,"Ġgro":3098,"choly":3099,"Ġaside":3100,"Ġneck":3101,"ĠEm":3102,"Ġoffice":3103,"Ġbecom":3104,"TIMON":3105,"Should":3106,"De":3107,"asc":3108,"Ġloving":3109,"aste":3110,"arent":3111,"Ġscar":3112,"ANTONIO":3113,"ĠChrist":3114,"BETH":3115,"ZAB":3116,"pit":3117,"pher":3118,"ism":3119,"imon":3120,"ĠMan":3121,"ĠELI":3122,"Ġexam":3123,"Ġdesert":3124,"Ġoffer":3125,"orses":3126,"Ġadvance":3127,"ZABETH":3128,"ĠELIZABETH":3129,"HN":3130,"HEL":3131,"OHN":3132,"ped":3133,"hand":3134,"Ġreceive":3135,"ĠRoom":3136,"ossible":3137,"Ġneeds":3138,"Ġstrike":3139,"ronic":3140,"Lord":3141,"NOR":3142,"Ġanswe":3143,"Ġrage":3144,"Ġraised":3145,"Ġpassion":3146,"ATRA":3147,"Madam":3148,"OPATRA":3149,"lu":3150,"ys":3151,"Ġsigh":3152,"Ġfet":3153,"Ġreceived":3154,"ric":3155,"amed":3156,"igneur":3157,"Ġarmy":3158,"Ġrecogn":3159,"itizen":3160,"Ġanswered":3161,"Tell":3162,"ĠGillenormand":3163,"Ġthanks":3164,"Ġrid":3165,"aged":3166,"Ġimag":3167,"ELO":3168,"ixt":3169,"Ġsickness":3170,"Ġtrans":3171,"CLEOPATRA":3172,"CUS":3173,"CLA":3174,"DON":3175,"JA":3176,"ina":3177,"Ġhop":3178,"ĠSYR":3179,"ENG":3180,"Ġjourney":3181,"Ġcanst":3182,"ACUSE":3183,"Ġjealous":3184,"ĠSYRACUSE":3185,"ault":3186,"hor":3187,"tle":3188,"uct":3189,"Ġav":3190,"Ġaround":3191,"Ġsn":3192,"Ġfashion":3193,"ille":3194,"ĠLady":3195,"Ġfavour":3196,"urious":3197,"Ġrevenge":3198,"Ġauthor":3199,"BRO":3200,"Ġrepe":3201,"rand":3202,"Ġlived":3203,"Ġsuper":3204,"Ġshows":3205,"Ġprodu":3206,"Ġdangerous":3207,"Ġidea":3208,"ROSALIND":3209,"Ġseveral":3210,"Never":3211,"Ġbow":3212,"enge":3213,"Ġeld":3214,"Ġchair":3215,"ELIA":3216,"ips":3217,"Ġpartic":3218,"Ġbeautiful":3219,"Ġpraise":3220,"ĠBrutus":3221,"ipp":3222,"Ġdish":3223,"Ġpaid":3224,"lex":3225,"ays":3226,"Ġsole":3227,"ishment":3228,"Ġempt":3229,"Ġaccord":3230,"Ġbelong":3231,"Ġterms":3232,"CLAU":3233,"DO":3234,"eks":3235,"ounter":3236,"Ġforb":3237,"Ġshut":3238,"Ġsafe":3239,"Ġchurch":3240,"Ġtrump":3241,"ethinks":3242,"Ġdouble":3243,"Ġdarkness":3244,"ĠScarecrow":3245,"ANGELO":3246,"MESS":3247,"Marry":3248,"Such":3249,"mn":3250,"Ġton":3251,"inal":3252,"ening":3253,"Ġpride":3254,"weet":3255,"Ġheavens":3256,"**":3257,"Make":3258,"Pray":3259,"ZEN":3260,"Ġcat":3261,"Ġincl":3262,"ator":3263,"ific":3264,"IRD":3265,"Ġslain":3266,"Ġgives":3267,"medi":3268,"Ġsingle":3269,"Ġmarch":3270,"IMO":3271,"ITIZEN":3272,"CLAUDIO":3273,"bury":3274,"pir":3275,"Ġtomorrow":3276,"aled":3277,"Ġquiet":3278,"Ġexclaimed":3279,"Ġmurder":3280,"Pe":3281,"ULET":3282,"VIA":3283,"do":3284,"lict":3285,"Ġgate":3286,"seigneur":3287,"rah":3288,"aked":3289,"ĠWill":3290,"olute":3291,"Ġourselves":3292,"Ġsport":3293,"ciety":3294,"APULET":3295,"Ġgrie":3296,"ervant":3297,"Ġcreature":3298,"Ġsuddenly":3299,"Ġescape":3300,"ENGER":3301,"can":3302,"mit":3303,"oured":3304,"Ġpure":3305,"Ġphys":3306,"Ġsto":3307,"ouses":3308,"ĠWood":3309,"ĠGood":3310,"ĠJul":3311,"Ġpresently":3312,"Ġundert":3313,"Ġvaliant":3314,"Ġapproach":3315,"fall":3316,"Ġfru":3317,"amb":3318,"Ġvain":3319,"Ġunp":3320,"ĠVINCENTIO":3321,"Ġentertain":3322,"Ġemploy":3323,"ĠYour":3324,"Ġsurpr":3325,"Ġliege":3326,"ĠAND":3327,"ERVANT":3328,"Against":3329,"PA":3330,"Ġpat":3331,"Ġmem":3332,"Ġspring":3333,"Ġdidst":3334,"ELL":3335,"Ġprep":3336,"Ġpromise":3337,"Ġangry":3338,"Ġbeneath":3339,"VAL":3340,"ouis":3341,"oral":3342,"Ġstop":3343,"Ġseven":3344,"ĠLion":3345,"Ġexpect":3346,"Ġliberty":3347,"NE":3348,"gy":3349,"ners":3350,"Ġfie":3351,"Ġdiffe":3352,"Ġyes":3353,"Ġheir":3354,"iment":3355,"ĠMiss":3356,"Ġdoing":3357,"umph":3358,"Ġexpl":3359,"peror":3360,"eeth":3361,"Before":3362,"Ġvisit":3363,"Ġbitter":3364,"Ġtor":3365,"asons":3366,"Ġmelan":3367,"ques":3368,"ĠGENTLEMAN":3369,"LEAR":3370,"Ġaccom":3371,"GON":3372,"yond":3373,"Ġmotion":3374,"Ġfle":3375,"ences":3376,"Ġcrow":3377,"Ġthird":3378,"Ġconqu":3379,"Ġrob":3380,"Ġrain":3381,"ocks":3382,"Ġmelancholy":3383,"would":3384,"Ġdull":3385,"arm":3386,"ĠWh":3387,"Ġwars":3388,"Ġdespair":3389,"Ġindicates":3390,"BROKE":3391,"Farewell":3392,"Ha":3393,"Ġteeth":3394,"Ġwon":3395,"Ġmag":3396,"Ġep":3397,"Ġmere":3398,"Ġjo":3399,"who":3400,"Ġsilver":3401,"Ġwretched":3402,"Ġdeliver":3403,"Ġopin":3404,"Ġaid":3405,"Ġsens":3406,"Ġdin":3407,"ank":3408,"Their":3409,"Ġvo":3410,"Ġshar":3411,"istol":3412,"ALL":3413,"Ġfeast":3414,"Ġdistress":3415,"Ġfilled":3416,"Ġdiffic":3417,"Ġtonight":3418,"aith":3419,"Ġhost":3420,"Ġreb":3421,"Ġkings":3422,"ĠCor":3423,"Ġjest":3424,"Ġfollowed":3425,"Ġpriest":3426,"Ġdeeds":3427,"Ġtakes":3428,"Ġwid":3429,"Ġbeheld":3430,"feyrac":3431,"Ġpoison":3432,"OLUS":3433,"Ġdesires":3434,"Ġpassing":3435,"Ġaccount":3436,"ixed":3437,"angu":3438,"ĠBefore":3439,"Ġcircum":3440,"Ġhid":3441,"idence":3442,"Ġshout":3443,"ĠWith":3444,"Ġknave":3445,"THIRD":3446,"Ġpleasures":3447,"Ġcoll":3448,"Ġwithal":3449,"ĠAnother":3450,"Ġpract":3451,",--":3452,"iance":3453,"ton":3454,"Ġaud":3455,"Ġfier":3456,"Ġclot":3457,"Ġwrite":3458,"PHOLUS":3459,"Ġaccept":3460,"TRANIO":3461,"ANTIPHOLUS":3462,"sing":3463,"Ġmut":3464,"Ġbrow":3465,"ourish":3466,"Ġlod":3467,"ĠPage":3468,"their":3469,"ortune":3470,"Ġcharac":3471,"Ġplaced":3472,"Ġworks":3473,"otten":3474,"Ġpolice":3475,"Ġignor":3476,"Le":3477,"PROS":3478,"bo":3479,"look":3480,"woman":3481,"gelo":3482,"ĠBar":3483,"Ġpersons":3484,"ails":3485,"EMILIA":3486,"PERO":3487,"ĠClarence":3488,"Ġquickly":3489,"Ġcoward":3490,"Ġpocket":3491,"PROSPERO":3492,"Tru":3493,"Ġrough":3494,"Ġlust":3495,"Ġasleep":3496,"ĠCITIZEN":3497,"ified":3498,"Ġperhaps":3499,"Ġbeside":3500,"MESSENGER":3501,"CO":3502,"sed":3503,"Ġtear":3504,"Ġfurn":3505,"ĠHel":3506,"quis":3507,"Ġexcell":3508,"ONA":3509,"ĠVII":3510,"OLY":3511,"Ġspeaks":3512,"Ġbuy":3513,"Ġcounter":3514,"Ġgolden":3515,"Ġslave":3516,"Ġutter":3517,"!âĢĶ":3518,"eep":3519,"Ġmour":3520,"Ġbond":3521,"Ġline":3522,"Ġdeny":3523,"pherd":3524,"Out":3525,"rate":3526,"Ġmass":3527,"Ġbent":3528,"Ġhorses":3529,"ented":3530,"Ġsworn":3531,"itten":3532,"udio":3533,"Ġprofit":3534,"eys":3535,"Ġsimple":3536,"ĠWoodman":3537,"After":3538,"Must":3539,"TA":3540,"Ġur":3541,"Ġhist":3542,"Ġstar":3543,"oles":3544,"law":3545,"ĠTit":3546,"Because":3547,"AMIL":3548,"Ġspirits":3549,"Ġwinter":3550,"BE":3551,"bly":3552,"eem":3553,"Ġnumber":3554,"Ġmeant":3555,"Ġsees":3556,"ARUS":3557,"Ġused":3558,"Ġcontr":3559,"Ġbottom":3560,"long":3561,"pid":3562,"Ġbran":3563,"vey":3564,"Ġbears":3565,"Ġstars":3566,"Ġstory":3567,"Ġfee":3568,"Ġglance":3569,"Ġresumed":3570,"Ġkingdom":3571,"Ġstanding":3572,"Ġappeared":3573,"ĠAngelo":3574,"Ġdrawn":3575,"Ġknees":3576,"ĠCharles":3577,"Away":3578,"FL":3579,"after":3580,"fo":3581,"gers":3582,"tic":3583,"Ã¦":3584,"Ġtale":3585,"reed":3586,"Ġbell":3587,"ĠEx":3588,"ondret":3589,"Ġdescend":3590,"Ġtruly":3591,"shop":3592,"Ġwalked":3593,"Ġsky":3594,"BA":3595,"Speak":3596,"abe":3597,"dig":3598,"ker":3599,"Ġsal":3600,"Ġwat":3601,"Ġobey":3602,"Ġduke":3603,"Ġpun":3604,"Ġlater":3605,"lect":3606,"ĠEnjolras":3607,"then":3608,"ump":3609,"Ġspect":3610,"Ġprevent":3611,"Ġbread":3612,"Ġbelow":3613,"Ġladies":3614,"HELEN":3615,"dy":3616,"rey":3617,"Ġcatch":3618,"illes":3619,"irty":3620,"ĠCha":3621,"fered":3622,"wards":3623,"Within":3624,"Ġcondem":3625,"Ġtitle":3626,"Ġtou":3627,"Ġobl":3628,"Ġones":3629,"Ġdefend":3630,"ilty":3631,"ĠPom":3632,"ARM":3633,"igence":3634,"Ġamb":3635,"Ġprog":3636,"Ġago":3637,"Ġserious":3638,"Ġfearful":3639,"Ġsurround":3640,"EW":3641,"eed":3642,"Ġdom":3643,"cked":3644,"Ġvent":3645,"Ġvile":3646,"ENS":3647,"ists":3648,"Ġdrew":3649,"Ġclosed":3650,"formed":3651,"Ġcoat":3652,"ucking":3653,"econd":3654,"Ġempty":3655,"COM":3656,"Ġcost":3657,"Ġbeyond":3658,"Ġshape":3659,"Ġconvent":3660,"elcome":3661,"Ġlean":3662,"Ġknowledge":3663,"ONE":3664,"ffic":3665,"ĠVol":3666,"ĠNap":3667,"Ġflatter":3668,"acher":3669,"Ġportends":3670,"Ġhurt":3671,"DEMONA":3672,"DESDEMONA":3673,"broke":3674,"Ġdrown":3675,"Ġoffend":3676,"owing":3677,"Ġreached":3678,"raid":3679,"Ġdeg":3680,"Ġsociety":3681,"ĠMay":3682,"Ġnose":3683,"ĠPet":3684,"ended":3685,"Ġworst":3686,"INGBROKE":3687,"OLINGBROKE":3688,"perate":3689,"Ġstranger":3690,"Ġcarriage":3691,"Ġleaves":3692,"DROM":3693,"Monsieur":3694,"OWN":3695,"time":3696,"Ġthro":3697,"chief":3698,"Ġwhis":3699,"ĠMistress":3700,"uns":3701,"Ġvar":3702,"Ġdisg":3703,"ĠKate":3704,"Ġimport":3705,"upid":3706,"Ġsummer":3707,"ĠClaudio":3708,"Ġcalm":3709,"DROMIO":3710,"OT":3711,"PAND":3712,"SU":3713,"erable":3714,"Ġfra":3715,"Ġfirm":3716,"Ġluck":3717,"ste":3718,"Ġeasy":3719,"Ġissue":3720,"theless":3721,"Ġgovern":3722,"Ġlegs":3723,"Ġproc":3724,"ĠTy":3725,"Ġchoose":3726,"Ġparts":3727,"Ġoccup":3728,"Pr":3729,"POM":3730,"just":3731,"ugh":3732,"Ġschool":3733,"aded":3734,"Ġfaces":3735,"ĠTell":3736,"ounds":3737,"Ġhearing":3738,"ĠĠĠĠĠĠĠĠĠĠĠĠĠĠĠĠĠĠĠ":3739,"Ġkilled":3740,"Ġbroke":3741,"ĊĠĠĠĠĠĠĠ":3742,"Ġsharp":3743,"Con":3744,"Nothing":3745,"ca":3746,"Ġver":3747,"Ġtree":3748,"ouds":3749,"Ġmorrow":3750,"arl":3751,"ĠCart":3752,"Ġlovers":3753,"Ġobsc":3754,"Ġbrain":3755,"Ġhardly":3756,"ondrette":3757,"LAR":3758,"bar":3759,"vious":3760,"inite":3761,"erc":3762,"uted":3763,"Ġstones":3764,"Ġunc":3765,"Ġworship":3766,"ĠJOHN":3767,"ignior":3768,"Ġgreater":3769,"Ġconduct":3770,"BEROWN":3771,"iety":3772,"IDA":3773,"PEY":3774,"Ġbirth":3775,"Ġunhappy":3776,"Ġcharacter":3777,"POMPEY":3778,"BEROWNE":3779,"FRI":3780,"ax":3781,"ope":3782,"some":3783,"erry":3784,"orge":3785,"ona":3786,"Ġpor":3787,"Ġlion":3788,"Ġhig":3789,"Ġhung":3790,"Ġevid":3791,"utation":3792,"ams":3793,"ilst":3794,"ANO":3795,"ĠRoman":3796,"Ġprithee":3797,"Ġoffence":3798,"Ġfoolish":3799,"Ġprosperity":3800,"CALUS":3801,"Ġcircumst":3802,"FRIAR":3803,"Ġmiss":3804,"Ġfaint":3805,"Ġintell":3806,"Ġthrust":3807,"Ġgates":3808,"Ġreach":3809,"ĠFather":3810,"isted":3811,"ESCALUS":3812,"Ġslight":3813,"Ġsteps":3814,"acc":3815,"body":3816,"ision":3817,"Ġthither":3818,"Ġalive":3819,"Ġspite":3820,"arest":3821,"OLD":3822,"Ġearly":3823,"Ġconsider":3824,"Ġfallen":3825,"Ġbrief":3826,"Ġunknown":3827,"Ġfetch":3828,"Ġdinner":3829,"FORD":3830,"uge":3831,"esp":3832,"esides":3833,"Ġdry":3834,"Ġtoday":3835,"ulf":3836,"feit":3837,"osop":3838,"ĠNor":3839,"Ġrare":3840,"Ġglory":3841,"Ġsmo":3842,"Being":3843,"Ġmighty":3844,"appeared":3845,"Ġcruel":3846,"Second":3847,"br":3848,"host":3849,"ua":3850,"Ãī":3851,"erving":3852,"Ġled":3853,"Ġloud":3854,"anced":3855,"ased":3856,"ords":3857,"ĠAd":3858,"ĠPross":3859,"Ġknock":3860,"CHESS":3861,"Ġperceive":3862,"Ġplaces":3863,"DUCHESS":3864,"ENTINE":3865,"Ġmoved":3866,"Ġdirection":3867,"RESSIDA":3868,"Ġteach":3869,"VALENTINE":3870,"uckingham":3871,"BUR":3872,"Ġet":3873,"reet":3874,"Ġciv":3875,"ushed":3876,"ument":3877,"Ġblue":3878,"Ġdiss":3879,"Ġimm":3880,"Ġcalls":3881,"Ġcourage":3882,"Ġprayers":3883,"Ġtrembl":3884,"Ġmisery":3885,"Ġbuild":3886,"Ġtemp":3887,"Ġfaults":3888,"Ġengage":3889,"Ġnecessary":3890,"Ġgloomy":3891,"Ġeffort":3892,"CRESSIDA":3893,"HOST":3894,"Sweet":3895,"zen":3896,"Ġsen":3897,"Ġhabit":3898,"ĠTOB":3899,"apt":3900,"Ġfloor":3901,"Ġcloud":3902,"Ġclouds":3903,"Stand":3904,"ĊĊĊĠĠĠĠĠĠĠĠĠĠĠĠĠĠĠĠĠĠĠ":3905,"Ġprofound":3906,"Ġdirect":3907,"Ġshadows":3908,"Ġlearn":3909,"Ġparticular":3910,"PANDARUS":3911,"ĠTOBY":3912,"ais":3913,"gment":3914,"ering":3915,"Ġcell":3916,"Ġgift":3917,"ales":3918,"Ġproof":3919,"Ġwrath":3920,"Ġfortunes":3921,"Ġwounds":3922,"Ġwisdom":3923,"Ġmortal":3924,"ait":3925,"rat":3926,"rels":3927,"eding":3928,"Ġhill":3929,"Ġhalt":3930,"ĠCount":3931,"ify":3932,"ThÃ©nardier":3933,"ĠOz":3934,"Ġfled":3935,"been":3936,"LOW":3937,"Ġremark":3938,"Ġnatural":3939,"Ġinflu":3940,"ĠAttend":3941,"Ġstrugg":3942,"ĠManette":3943,"Peace":3944,"Oh":3945,"Yea":3946,"action":3947,"good":3948,"Ġball":3949,"Ġbod":3950,"Ġdust":3951,"Ġhouses":3952,"Ġbeard":3953,"Ġsocial":3954,"ardinal":3955,"hant":3956,"Ġdism":3957,"ĠHector":3958,"Ġwhence":3959,"Ġwarm":3960,"Ġexpress":3961,"Ġabsolute":3962,"Ġquarter":3963,"Ġencounter":3964,"SHAL":3965,"Qu":3966,"TEUS":3967,"af":3968,"Ġsorry":3969,"Ġdress":3970,"Ġcred":3971,"Ġthick":3972,"imp":3973,"urg":3974,"Ġvir":3975,"ĠBuckingham":3976,"Ġconcer":3977,"Ġconsent":3978,"Ġcurse":3979,"himself":3980,"UMBER":3981,"Ġcontinued":3982,"Ġprivate":3983,"PROTEUS":3984,"Ab":3985,"BAN":3986,"HORT":3987,"cont":3988,"mble":3989,"place":3990,"Ġtent":3991,"icles":3992,"Ġann":3993,"ĠLA":3994,"Ġunless":3995,"ĠFl":3996,"ĠFantine":3997,"Ġamaz":3998,"Ġswift":3999,"Ġhonourable":4000,"Ġdistance":4001,"Ġburst":4002,"arnay":4003,"HORTENS":4004,"Ġtaste":4005,"Ġfrown":4006,"Ġleng":4007,"Ġthunder":4008,"ley":4009,"Ġresembl":4010,"Ġstraw":4011,"Ġstorm":4012,"alled":4013,"orted":4014,"Ġimmedi":4015,"derer":4016,"Ġattack":4017,"Ġgrass":4018,"ĠPalace":4019,"MACBETH":4020,"Ġfruit":4021,"Ġvoices":4022,"HELENA":4023,"Ġcivil":4024,"twas":4025,"ĊĠĠĠĠĠĠĠĠ":4026,"orous":4027,"Ġdwell":4028,"Ġlangu":4029,"ĠIN":4030,"rain":4031,"Ġsepar":4032,"Ġseized":4033,"ĠCast":4034,"Ġexper":4035,"ĠTimon":4036,"Ġthence":4037,"ĠVen":4038,"Ġresult":4039,"Ġenterpr":4040,"Ġquarrel":4041,"Ġinnocent":4042,"Ġconvict":4043,"CAMIL":4044,"jo":4045,"rep":4046,"Ġming":4047,"orious":4048,"ingu":4049,"stood":4050,"Ġrend":4051,"Ġseated":4052,"Ġconcl":4053,"Ġunfort":4054,"Ġgod":4055,"Ġwouldst":4056,"Ġlordship":4057,"Ġdesign":4058,"Ġways":4059,"itizens":4060,"Ġbecomes":4061,"Ġopinion":4062,"CAMILLO":4063,"BUS":4064,"HOR":4065,"PAL":4066,"aunt":4067,"Ġsong":4068,"Ġow":4069,"Ġmil":4070,"Ġcart":4071,"Ġmeasure":4072,"iced":4073,"Ġseat":4074,"ĠCon":4075,"Ġdoors":4076,"Ġord":4077,"force":4078,"Ġtravell":4079,"Ġsitu":4080,"KATHAR":4081,"BEL":4082,"GR":4083,"ah":4084,"oci":4085,"pan":4086,"Ġcustom":4087,"Ġpit":4088,"Ġbend":4089,"Ġeas":4090,"road":4091,"Ġune":4092,"Ġuns":4093,"astard":4094,"ESAR":4095,"OLLES":4096,"Ġemer":4097,"ĠYet":4098,"Ġlabour":4099,"Call":4100,"mond":4101,"itation":4102,"ators":4103,"sequ":4104,"ĠMajesty":4105,"pey":4106,"seless":4107,"elve":4108,"SEBAST":4109,"Ġmonths":4110,"Ġvirtuous":4111,"Ġblessed":4112,"Ġspoken":4113,"Ġfigure":4114,"PAROLLES":4115,"ĠCourfeyrac":4116,"Ġdishon":4117,"Ġexcellent":4118,"SEBASTIAN":4119,"ACH":4120,"Hold":4121,"IER":4122,"Ġfun":4123,"Ġfond":4124,"Ġnar":4125,"Ġreign":4126,"ĠEPH":4127,"While":4128,"ESUS":4129,"Ġarg":4130,"THUMBER":4131,"Ġflat":4132,"Ġaffection":4133,"FFOLK":4134,"Ġdrunk":4135,"Ġcondition":4136,"Ġappearance":4137,"Ġfatal":4138,"Ġcopy":4139,"ĠEPHESUS":4140,"THUMBERLAND":4141,"),":4142,"Pl":4143,"pri":4144,"rehe":4145,"Ġmill":4146,"lled":4147,"omer":4148,"staff":4149,"Ġweary":4150,"pping":4151,"Ġjew":4152,"Ġserved":4153,"Ġwrit":4154,"AMON":4155,"Ġattention":4156,"Ġimpossible":4157,"Ġtrib":4158,"Ġcheek":4159,"Ġpatient":4160,"Ġrequest":4161,"Ġbeginning":4162,"ĠCarton":4163,"HORTENSIO":4164,"PALAMON":4165,"cil":4166,"Ġwicked":4167,"lete":4168,"Ġstuff":4169,"roy":4170,"uses":4171,"Ġsewer":4172,"ĠAh":4173,"Ġship":4174,"ĠGe":4175,"Ġlikely":4176,"ĠNot":4177,"INGS":4178,"Ġfalls":4179,"ĠTherefore":4180,"Ġmonst":4181,"Ġdivine":4182,"CASSIUS":4183,"SHALLOW":4184,"BAP":4185,"born":4186,"iver":4187,"twere":4188,"enance":4189,"Ġpin":4190,"Ġhunt":4191,"ript":4192,"ĠSome":4193,"ĠServant":4194,"Ġshake":4195,"Ġsav":4196,"ĠRos":4197,"ishing":4198,"Ġrust":4199,"Ġbearing":4200,"CAESAR":4201,"Ġsteal":4202,"Ġlearned":4203,"oleon":4204,"Ġarrived":4205,"Ġhopes":4206,"SUFFOLK":4207,"BAPTI":4208,".]":4209,"AUT":4210,"GE":4211,"PORT":4212,"fit":4213,"gged":4214,"pes":4215,"Ġfla":4216,"omen":4217,"ĠGentle":4218,"Ġchoice":4219,"Ġclim":4220,"TITUS":4221,"Ġwait":4222,"ITE":4223,"REY":4224,"Ġwounded":4225,"Ġshoes":4226,"Ġmemory":4227,"BAPTISTA":4228,"Am":4229,"cour":4230,"worth":4231,"reg":4232,"ourge":4233,"Ġanx":4234,"ĠSh":4235,"Ġshore":4236,"Ġknee":4237,"Ġalthough":4238,"aret":4239,"lease":4240,"ĠYORK":4241,"Ġguilty":4242,"Unless":4243,"Ġregard":4244,"Ġbirds":4245,"Ġhistory":4246,"ĠCastle":4247,"AV":4248,"CLI":4249,"nal":4250,"pers":4251,"rees":4252,"itors":4253,"Ġpict":4254,"Ġlend":4255,"Ġdece":4256,"ĠPED":4257,"Ġunex":4258,"thens":4259,"Ġroof":4260,"Ġflight":4261,"Ġwritten":4262,"Ġreply":4263,"EDICK":4264,"Ġadvantage":4265,"Ġvex":4266,"Ġgrandfather":4267,"Ġdrop":4268,"BENEDICK":4269,"Ġelder":4270,"OLYCUS":4271,"AUTOLYCUS":4272,"PORTIA":4273,"ĠPEDRO":4274,"Doth":4275,"bus":4276,"Ġmud":4277,"isc":4278,"Ġdim":4279,"Ġnames":4280,"unning":4281,"ĠPol":4282,"oling":4283,"ieces":4284,"Ġrasc":4285,"Ġblows":4286,"ROIL":4287,"fty":4288,"forth":4289,"Ġprecious":4290,"Ġobed":4291,"when":4292,"Ġincre":4293,"Ġforgot":4294,"Ġcombat":4295,"NORTHUMBERLAND":4296,"COMINIUS":4297,"ROILUS":4298,"CITE":4299,"Saint":4300,"TROILUS":4301,"Ġband":4302,"sec":4303,"urb":4304,"ĠCan":4305,"ĠSen":4306,"ĠHast":4307,"Ġvol":4308,"Ġneg":4309,"artius":4310,"ĠLook":4311,"ĠLove":4312,"ĠGree":4313,"ARCITE":4314,"ĠFortune":4315,"Ġspot":4316,"fulness":4317,"Ġafraid":4318,"should":4319,"Ġcoff":4320,"Ġlighted":4321,"sterious":4322,"ĠQu":4323,"Ġcaused":4324,"ĠCassio":4325,"Ġsolemn":4326,"Ġstopped":4327,"Ġunpleas":4328,".,":4329,"CY":4330,"Per":4331,"Under":4332,"part":4333,"Ġwings":4334,"oubt":4335,"ĠSe":4336,"ENES":4337,"Ġsaf":4338,"range":4339,"Ġpron":4340,"Ġdesperate":4341,"Ġperform":4342,"Ġthinking":4343,"Ġaffect":4344,"acy":4345,"Ġassoci":4346,"Ġformed":4347,"Ġmasters":4348,"Ġmonth":4349,"asket":4350,"Ġneighb":4351,"Ġthrone":4352,"Ġprobably":4353,"Ġclothes":4354,"abl":4355,"Ġheed":4356,"Ġeag":4357,"Ġdoctor":4358,"aker":4359,"ORLAND":4360,"Ġperm":4361,"fortune":4362,"Ġwalking":4363,"Ġminutes":4364,"culiar":4365,"Ã¨re":4366,"hilosop":4367,"ounced":4368,"ĠPompey":4369,"olingbroke":4370,"Cl":4371,"Javert":4372,"MAL":4373,"PO":4374,"VER":4375,"iest":4376,"Ġwide":4377,"Ġmatch":4378,"Ġfold":4379,"arse":4380,"ato":4381,"Ġease":4382,"alstaff":4383,"Ġforced":4384,"Ġangel":4385,"ĠFri":4386,"Ġproper":4387,"Ġquoth":4388,"Ġflower":4389,"ATO":4390,"Ġextrem":4391,"ifford":4392,"Ġslowly":4393,"rs":4394,"than":4395,"work":4396,"ency":4397,"Ġduring":4398,"Ġdrum":4399,"Ġbew":4400,"Ġforty":4401,"ĠHigh":4402,"ivered":4403,"ortun":4404,"ĠDarnay":4405,"ĠNorth":4406,"RUM":4407,"ointed":4408,"LUCIUS":4409,"Ġminute":4410,"Ġvalour":4411,"ASTINGS":4412,"Ġunexpected":4413,"Ad":4414,"LORD":4415,"SIM":4416,"hum":4417,"here":4418,"Ġbas":4419,"Ġreally":4420,"ĠSal":4421,"ĠBolingbroke":4422,"ĠLouis":4423,"Ġoutside":4424,"ĠJondrette":4425,"Ġfriendship":4426,"aced":4427,"acles":4428,"Ġprec":4429,"Ġattempt":4430,"Ġwindows":4431,"Ġsubst":4432,"Ġprofess":4433,"Ġdispleas":4434,"Ġproperty":4435,"Ġoppos":4436,"Ġmidst":4437,"Ġembrace":4438,"BENVOLIO":4439,"ĠMonseigneur":4440,"Ġwidow":4441,"GRUM":4442,"Ind":4443,"KENT":4444,"NIA":4445,"garet":4446,"Ġwore":4447,"Ġod":4448,"Ġbuck":4449,"itated":4450,"edy":4451,"lev":4452,"ics":4453,"ilus":4454,"ĠCy":4455,"ĠSil":4456,"antly":4457,"ĠTower":4458,"again":4459,"Ġtwelve":4460,"bered":4461,"Ġspeaking":4462,"Ġapart":4463,"Ġhumble":4464,"Ġcheeks":4465,"Ġterror":4466,"Ġfools":4467,"Ġreader":4468,"Ġburied":4469,"Ġhideous":4470,"Ġofficer":4471,"GRUMIO":4472,"OU":4473,"ivers":4474,"little":4475,"nat":4476,"pet":4477,"Ġsour":4478,"Ġmater":4479,"arum":4480,"Ġtomb":4481,"Ġpack":4482,"oted":4483,"alb":4484,"Ġreasons":4485,"ĠEarl":4486,"Ġblame":4487,"Ġhowever":4488,"Ġparty":4489,"Ġhollow":4490,"upon":4491,"volution":4492,"Ġgrowing":4493,"two":4494,"Ġwretch":4495,"Ġdisappointment":4496,"Ġfinger":4497,"CUT":4498,"PIST":4499,"inary":4500,"Ġfears":4501,"Ġdeter":4502,"Ġple":4503,"Ġgrown":4504,"Ġgross":4505,"ayed":4506,"Ġsearch":4507,"emet":4508,"Ġbrid":4509,"THES":4510,"Ġruin":4511,"Ġfamil":4512,"Ġgazed":4513,"Ġsacred":4514,"MERCUT":4515,"ĠJuliet":4516,"ĠAttendants":4517,"CLIFF":4518,"PISTOL":4519,"MERCUTIO":4520,"HASTINGS":4521,"Ġbones":4522,"itary":4523,"Ġfro":4524,"Ġcamp":4525,"Ġhorn":4526,"Ġnine":4527,"Ġinqu":4528,"Ġdebt":4529,"Ġallow":4530,"Ġvow":4531,"ĠGive":4532,"ANS":4533,"Whom":4534,"Ġclo":4535,"ples":4536,"Ġperceived":4537,"Ġpleased":4538,"Ġbeggar":4539,"Ġkey":4540,"ometimes":4541,"Ġpersu":4542,"Ġmonster":4543,"ENTIO":4544,"Ġswords":4545,"Ġcaptain":4546,"Ġsteel":4547,"LUCENTIO":4548,"Ġoccur":4549,"Ġscarce":4550,"Ne":4551,"VIO":4552,"draw":4553,"off":4554,"Ġaim":4555,"Ġawhile":4556,"inius":4557,"Ġfancy":4558,"Ġfixed":4559,"Ġlament":4560,"illed":4561,"Ġstat":4562,"Ġlov":4563,"Ġours":4564,"Ġcontem":4565,"Ġsmell":4566,"ICLES":4567,"BOT":4568,"Ġpossession":4569,"VOLUM":4570,"Ġkneel":4571,"Bet":4572,"aul":4573,"col":4574,"say":4575,"ux":4576,"vost":4577,"rection":4578,"ounce":4579,"Ġphilosop":4580,"anus":4581,"Ġstock":4582,"Ġseal":4583,"ĠHouse":4584,"ously":4585,"aug":4586,"Ġspy":4587,"agger":4588,"Ġbrings":4589,"pense":4590,"Ġpurse":4591,"Ġtreason":4592,"Ġappears":4593,"Ġbank":4594,"Ġrelig":4595,"Ġadmir":4596,"PERICLES":4597,"Ġprinces":4598,"Ġfingers":4599,"runcher":4600,"Ġavo":4601,"engeance":4602,"ĠHelen":4603,"Ġunfortunate":4604,"VIOLA":4605,"GU":4606,"GEN":4607,"SP":4608,"every":4609,"Ġtall":4610,"Ġwag":4611,"Ġdying":4612,"Ġcovered":4613,"Ġlower":4614,"Ġheap":4615,"Ġreve":4616,"Ġforsw":4617,"urity":4618,"Ġseason":4619,"ilia":4620,"Ġbride":4621,"Ġfolly":4622,"Ġearn":4623,"Ġprefer":4624,"Ġminds":4625,"Ġbrothers":4626,"Ġhighness":4627,"uffolk":4628,"LEONATO":4629,"Ġstudy":4630,"Ġexecution":4631,"ĠGeorge":4632,"ORLANDO":4633,"THESEUS":4634,"Both":4635,"EV":4636,"Fl":4637,"bet":4638,"balt":4639,"wind":4640,"Ġ[":4641,"ĠUn":4642,"Ġdue":4643,"Ġclaim":4644,"Ġpier":4645,"enter":4646,"aming":4647,"keep":4648,"Ġvague":4649,"ĠWest":4650,"Ġbetray":4651,"Ġobst":4652,"Ġfalling":4653,"Ġinfinite":4654,"Ġgaze":4655,"Ġburning":4656,"Ġsusp":4657,"Ġvictory":4658,"Ġcandle":4659,"HERM":4660,"Ġauthority":4661,"Ġcrowd":4662,"Ġlength":4663,"omerset":4664,"Ġunpleasant":4665,"PAGE":4666,"cons":4667,"Ġtum":4668,"Ġsnow":4669,"reme":4670,"Ġcries":4671,"Ġpop":4672,"Ġnurse":4673,"Ġthief":4674,"Ġgown":4675,"illy":4676,"ĠSEN":4677,"ĠHarry":4678,"ĠBl":4679,"ĠLanc":4680,"Ġknife":4681,"Ġadvent":4682,"Ġpeas":4683,"Ġhonor":4684,"Ġtriumph":4685,"ogue":4686,"ULINA":4687,"Ġmeaning":4688,"Ġaddress":4689,"Ġvisible":4690,"ĠLucie":4691,"OLIVIA":4692,"ĠClifford":4693,"Ġviolent":4694,"IMOGEN":4695,"PAULINA":4696,"ĠCoriol":4697,"Ġvirgin":4698,"Faith":4699,"SA":4700,"SPE":4701,"gan":4702,"ipe":4703,"Ġwol":4704,"Ġwert":4705,"oulev":4706,"Ġbird":4707,"Ġdign":4708,"Ġpress":4709,"Ġpains":4710,"Ġyellow":4711,"Ġthrown":4712,"racted":4713,"Ġyourselves":4714,"ĠCruncher":4715,"ĠEvery":4716,"EST":4717,"Ġarrest":4718,"return":4719,"ĠMargaret":4720,"acle":4721,"Ġbegun":4722,"omething":4723,"Ġlaws":4724,"Ġcapt":4725,"Ġabsence":4726,"Ġborne":4727,"ADO":4728,"Ġprotest":4729,"BURY":4730,"SPEED":4731,"CESS":4732,"ITH":4733,"Mr":4734,"mia":4735,"said":4736,"into":4737,"Ġsought":4738,"Ġbull":4739,"oned":4740,"Ġdance":4741,"Ġdressed":4742,"Ġpick":4743,"ĠSomerset":4744,"ĠWitch":4745,"ĠFalstaff":4746,"umin":4747,"ĠTin":4748,"Ġchain":4749,"Ġcomplete":4750,"Ġtroth":4751,"EMIO":4752,"eneral":4753,"Ġbreathe":4754,"Ġbox":4755,"Ġboys":4756,"Ġsupper":4757,"Ġmiddle":4758,"Ġforbid":4759,"Ġtouched":4760,"ĠNapoleon":4761,"GREMIO":4762,"Father":4763,"net":4764,"Ġaug":4765,"has":4766,"Ġpot":4767,"Ġpowers":4768,"icated":4769,"ĠMother":4770,"Ġshop":4771,"Ġspent":4772,"Ġspace":4773,"oldiers":4774,"ĠVer":4775,"Ġrapid":4776,"Ġcommend":4777,"Ġtried":4778,"Ġforms":4779,"Ġcountenance":4780,"Ġholds":4781,"Ġbrains":4782,"Ġhumour":4783,"Ġnearly":4784,"Ġdischar":4785,"ext":4786,"Ġabsent":4787,"Two":4788,"LARENCE":4789,"Ġsafety":4790,"POLI":4791,"XENES":4792,"aves":4793,"face":4794,"Ġbore":4795,"onio":4796,"Ġdies":4797,"Ġlest":4798,"Ġbeha":4799,"child":4800,"idius":4801,"Ġmeat":4802,"Ġstol":4803,"icate":4804,"Ġlift":4805,"ĠMessenger":4806,"ĠPhil":4807,"Ġsail":4808,"ARBUS":4809,"ĠDid":4810,"Ġsple":4811,"Ġtwice":4812,"Ġspend":4813,"Ġdesc":4814,"Ġfeed":4815,"Ġfoe":4816,"Ġhonesty":4817,"Ġthinks":4818,"Ġentire":4819,"acques":4820,"Ġplague":4821,"Without":4822,"Ġtrial":4823,"Ġrefle":4824,"Ġidle":4825,"Ġprotect":4826,"Ġcompanions":4827,"VOLUMNIA":4828,"ĠLancaster":4829,"POLIXENES":4830,"CON":4831,"En":4832,"ipped":4833,"Ġing":4834,"Ġast":4835,"ories":4836,"Ġdig":4837,"Ġpull":4838,"Ġheight":4839,"athe":4840,"Ġthirty":4841,"ases":4842,"imney":4843,"Ġweap":4844,"roach":4845,"Ġanon":4846,"Ġshot":4847,"ENOB":4848,"ĠPont":4849,"ĠPAGE":4850,"Ġleis":4851,"Ġusur":4852,"blanc":4853,"Into":4854,"Ġperil":4855,"Ġovercome":4856,"Ġcommitted":4857,"Ġsilent":4858,"BOY":4859,"Ġpossessed":4860,"Ġcolour":4861,"Ġsubjects":4862,"Ġthroat":4863,"Ġmonstrous":4864,"ENOBARBUS":4865,"DE":4866,"Master":4867,"great":4868,"ration":4869,"Ġbab":4870,"Ġlines":4871,"Ġaspect":4872,"uss":4873,"ĠCitizen":4874,"ĠSuffolk":4875,"ĠAthens":4876,"Ġmanners":4877,"olph":4878,"Ġpeculiar":4879,"dered":4880,"Ġcommun":4881,"Ġcoach":4882,"Ġtrade":4883,"Ġturning":4884,"ATR":4885,"Ġsingular":4886,"Ġexcuse":4887,"chance":4888,"Ġaccording":4889,"aptist":4890,"Ġnarrow":4891,"FO":4892,"Se":4893,"loo":4894,"mend":4895,"made":4896,"Ġay":4897,"Ġfood":4898,"Ġcunning":4899,"Ġpair":4900,"Ġlatter":4901,"Ġgently":4902,"seen":4903,"idings":4904,"amlet":4905,"Ġdepend":4906,"ĠMac":4907,"ĠCle":4908,"estic":4909,"ulous":4910,"Ġvast":4911,"emois":4912,"inking":4913,"new":4914,"Ġplan":4915,"Ġheav":4916,"Ġconfidence":4917,"Ġcharity":4918,"Ġgirls":4919,"Ġtempt":4920,"Ġweeping":4921,"Ġelect":4922,"CASSIO":4923,"Ġsatisfied":4924,"Ġcentury":4925,"ĠHastings":4926,"albot":4927,"emoiselle":4928,",âĢĻ":4929,"Welcome":4930,"folk":4931,"shall":4932,"Ġweight":4933,"ĠCardinal":4934,"Those":4935,"ember":4936,"Ġgoodly":4937,"Ġdreamer":4938,"ĠTH":4939,"Ġchief":4940,"Ġhole":4941,"ATIO":4942,"mense":4943,"Ġtreacher":4944,"without":4945,"Ġwanton":4946,"Ġbanish":4947,"CTOR":4948,"Ġdreadful":4949,"Ġprogress":4950,"HORATIO":4951,"Ġleisure":4952,"Bel":4953,"CLARENCE":4954,"OO":4955,"SIL":4956,"SERVANT":4957,"des":4958,"fast":4959,"kin":4960,"ply":4961,"vis":4962,"Ġowe":4963,"Ġbark":4964,"Ġfate":4965,"Ġfought":4966,"Ġposition":4967,"Ġpainted":4968,"omy":4969,"asse":4970,"ĠPe":4971,"oses":4972,"Ġdisag":4973,"ago":4974,"Ġarmed":4975,"Ġcompass":4976,"Ġworking":4977,"Ġfollows":4978,"Ġillness":4979,"Ġgiving":4980,"Ġkindness":4981,"Ġmistake":4982,"Ġgrew":4983,"Ġcertainly":4984,"Ġbanished":4985,"ĠBrit":4986,"Ġprincely":4987,"OLDIER":4988,"CELIA":4989,"HENRY":4990,"could":4991,"ium":4992,"ule":4993,"zz":4994,"Ġfury":4995,"Ġlying":4996,"Ġnaked":4997,"Ġgay":4998,"Ġmend":4999,"Ġwaste":5000,"ardolph":5001,"quet":5002,"Ġconvers":5003,"Ġener":5004,"Ġimper":5005,"Ġturns":5006,"ILL":5007,"ianca":5008,"ĠLords":5009,"Ġdiscour":5010,"Ġdropped":5011,"ĠTroy":5012,"Ġjoin":5013,"Ġdifficult":5014,"Ġoblig":5015,"ĠHighness":5016,"Lest":5017,"case":5018,"dain":5019,"ma":5020,"och":5021,"uce":5022,"Ġsides":5023,"Ġfame":5024,"Ġrender":5025,"Ġmysterious":5026,"Ġmelt":5027,"Ġstret":5028,"Ġvault":5029,"ĠWas":5030,"Ġfaire":5031,"ference":5032,"ryver":5033,"ounded":5034,"Ġotherwise":5035,"Ġobtain":5036,"Ġcharming":5037,"verend":5038,"JULIA":5039,"Ġacquaint":5040,"Ġignorant":5041,"Ġeasily":5042,"Cont":5043,"aches":5044,"bow":5045,"eous":5046,"Ġ2":5047,"Ġtone":5048,"Ġtidings":5049,"Ġcher":5050,"Ġpieces":5051,"anio":5052,"Ġheels":5053,"asp":5054,"idable":5055,"Ġwast":5056,"ication":5057,"Ġanger":5058,"ĠCam":5059,"ĠHave":5060,"oler":5061,"Ġprovid":5062,"ĠTalbot":5063,"Ġriver":5064,"Ġrace":5065,"Ġpreced":5066,"Ġreputation":5067,"Ġemp":5068,"Ġtravel":5069,"Ġchanges":5070,"Ġrude":5071,"Ġdaughters":5072,"Ġhorrible":5073,"Ġminister":5074,"Ġquarrels":5075,"Ġcares":5076,"Ġmovement":5077,"Ġwedding":5078,"ĠLucius":5079,"BEATR":5080,"Ġdisgrace":5081,"Ġporter":5082,"ĠRosal":5083,"BEATRICE":5084,"Br":5085,"EX":5086,"LEN":5087,"Nurse":5088,"OS":5089,"eau":5090,"vish":5091,"Ġmask":5092,"Ġdru":5093,"entio":5094,"ĠMag":5095,"Ġkins":5096,"ĠSha":5097,"ĠFord":5098,"ĠFrom":5099,"Ġprocess":5100,"ĠJove":5101,"ĠJew":5102,"avement":5103,"aterloo":5104,"Ġrule":5105,"Ġmisfortune":5106,"Ġaffair":5107,"UND":5108,"Ġrememb":5109,"Ġgalleys":5110,"umberland":5111,"Ġphysic":5112,"BY":5113,"Bl":5114,"MA":5115,"Mine":5116,"nothing":5117,"Ġbourge":5118,"ribut":5119,"Ġwhore":5120,"Ġant":5121,"ĠSignior":5122,"order":5123,"ĠBaptist":5124,"ĠDon":5125,"Ġwarning":5126,"ĠThus":5127,"URDER":5128,"Ġtongues":5129,"Ġacross":5130,"Ġtroubled":5131,"Ġgrows":5132,"Ġawake":5133,"ĠXV":5134,"ĠTroilus":5135,"Ġcompanion":5136,"BASS":5137,"Ġmaterial":5138,"oulevard":5139,"CAPULET":5140,"pres":5141,"sm":5142,"vi":5143,"yd":5144,"Ġbill":5145,"Ġdoom":5146,"ĠACT":5147,"ests":5148,"Ġshook":5149,"ĠBianca":5150,"Ġsaved":5151,"istance":5152,"Ġexact":5153,"Ġworn":5154,"rank":5155,"ĠTw":5156,"ĠTake":5157,"Ġbegins":5158,"Ġmiserable":5159,"Ġpromised":5160,"ĠAntonio":5161,"velop":5162,"Ġmaiden":5163,"Ġmurm":5164,"REG":5165,"PRINCESS":5166,"Ġjudgment":5167,"Ġfailure":5168,"TRAM":5169,"Ġevents":5170,"Ġproduced":5171,"ĠTitus":5172,"Ġhigher":5173,"Ġlanguage":5174,"Ġmingled":5175,"Indeed":5176,"HOT":5177,"Sc":5178,"sy":5179,"Ġeter":5180,"Ġtort":5181,"Ġtap":5182,"requ":5183,"Ġmess":5184,"isp":5185,"Ġbaw":5186,"Ġfish":5187,"Ġpill":5188,"Ġheat":5189,"Ġinvent":5190,"Ġthin":5191,"omach":5192,"Ġhall":5193,"stone":5194,"Ġhadst":5195,"ĠShall":5196,"Ġallowed":5197,"Ġshepherd":5198,"ively":5199,"osing":5200,"Ġspark":5201,"ORI":5202,"Ġenvy":5203,"Ġshoulder":5204,"Ġpassage":5205,"LAF":5206,"URSE":5207,"Ġhandsome":5208,"Ġafflict":5209,"Stay":5210,"Ġgreet":5211,"BERTRAM":5212,"Ġpolit":5213,"ĠMontague":5214,"ridge":5215,"Ġtrumpet":5216,"Hear":5217,"NURSE":5218,"Ġsous":5219,"Ġmild":5220,"Ġmention":5221,"Ġmethinks":5222,"Ġborrow":5223,"enius":5224,"Ġyonder":5225,"Ġinform":5226,"key":5227,"Ġwash":5228,"ĠAfter":5229,"ested":5230,"Ġabroad":5231,"Ġshoulders":5232,"APEM":5233,"Ġharsh":5234,"Ġlightning":5235,"Ġaccess":5236,"Ġretreat":5237,"ATOR":5238,"ANTUS":5239,"Ġpresented":5240,"Ġmeeting":5241,"Ġdepths":5242,"Ġtalking":5243,"IDIUS":5244,"utenant":5245,"ĠLeon":5246,"ĠLeblanc":5247,"Ġprosperous":5248,"bourg":5249,"BASTARD":5250,"Ġfifty":5251,"UNTESS":5252,"ĠChristian":5253,"Ġfierce":5254,"COUNTESS":5255,"ARMADO":5256,"Ġdegree":5257,"SPUR":5258,"APEMANTUS":5259,"IP":5260,"Lo":5261,"Love":5262,"Ġtim":5263,"Ġtail":5264,"Ġmult":5265,"ishes":5266,"Ġcup":5267,"Ġinn":5268,"atri":5269,"omin":5270,"Ġgrou":5271,"Ġghost":5272,"Ġanim":5273,"ĠMURDER":5274,"ĠBE":5275,"Ġconj":5276,"Ġride":5277,"ĠHeaven":5278,"oundation":5279,"Ġrope":5280,"Ġrock":5281,"OLPH":5282,"ARDOLPH":5283,"Ġended":5284,"Ġgrat":5285,"EDGAR":5286,"Ġprisoners":5287,"mercy":5288,"Ġcourtes":5289,"Ġintent":5290,"Ġobserved":5291,"Ġsquare":5292,"Ġrepeated":5293,"HOTSPUR":5294,"?âĢĶ":5295,"IEL":5296,"VIR":5297,"oon":5298,"Ġstro":5299,"ĠHamlet":5300,"Think":5301,"END":5302,"Ġgoodness":5303,"ept":5304,"ĠTO":5305,"ĠNever":5306,"before":5307,"about":5308,"ĠItal":5309,"Ġindiffe":5310,"Ġbooks":5311,"Ġwishes":5312,"Ġmalice":5313,"Ġsacrif":5314,"Ġrevolution":5315,"Ġepoch":5316,"ĠNorfolk":5317,"FER":5318,"Great":5319,"Hark":5320,"Mon":5321,"Poor":5322,"SON":5323,"SAL":5324,"TIUS":5325,"back":5326,"cus":5327,"Ġbasket":5328,"Ġlan":5329,"illo":5330,"tering":5331,"Ġstick":5332,"Ġsell":5333,"ĠMartius":5334,"Ġdogs":5335,"Ġconvey":5336,"Ġconsequ":5337,"these":5338,"ortion":5339,"reeable":5340,"Ġfever":5341,"Ġfoes":5342,"ĠMars":5343,"Ġunderstood":5344,"Ġsmoke":5345,"Ġfellows":5346,"Ġchanged":5347,"Ġconditions":5348,"Ġcrime":5349,"Ġrunning":5350,"Ġfeeling":5351,"Ġfavor":5352,"Ġopportun":5353,"Ġtemper":5354,"Ġfifteen":5355,"ĠEmperor":5356,"Ġmourn":5357,"Ġcontrary":5358,"Ġopposite":5359,"LAFEW":5360,"Ere":5361,"Fie":5362,"Know":5363,"Val":5364,"Ġtreat":5365,"hest":5366,"Ġmaint":5367,"Ġgun":5368,"Ġrecei":5369,"urst":5370,"ushing":5371,"ĠAre":5372,"ĠBer":5373,"ĠRep":5374,"ONIUS":5375,"Ġdise":5376,"Ġlovely":5377,"cip":5378,"Ġspecial":5379,"Ġrogue":5380,"Ġfinds":5381,"Ġpurcha":5382,"otted":5383,"Ġwrongs":5384,"Ġcorrupt":5385,"Ġsuccessful":5386,"ĠXI":5387,"ADR":5388,"rehend":5389,"Ġcontempl":5390,"Ġbourgeois":5391,"OW":5392,"sur":5393,"Ġax":5394,"erves":5395,"Ġchat":5396,"Ġph":5397,"Ġlin":5398,"Ġnay":5399,"entine":5400,"Ġug":5401,"Ġnotice":5402,"verty":5403,"alls":5404,"ĠBel":5405,"Ġshed":5406,"ĠOur":5407,"Ġknowing":5408,"Ġcannon":5409,"Ġpoverty":5410,"Ġflood":5411,"Ġgreatest":5412,"ovel":5413,"Ġhonours":5414,"phin":5415,"Ġmatters":5416,"Ġadvice":5417,"Still":5418,"Ġbesides":5419,"Ġvillage":5420,"ĠStryver":5421,"Ġcorp":5422,"ĠArch":5423,"Ġdrinking":5424,"Ġideas":5425,"Ġtyrant":5426,"Ġequal":5427,"ORIZ":5428,"ĠMURDERER":5429,"DAU":5430,"ache":5431,"dem":5432,"sa":5433,"ulet":5434,"Ġaught":5435,"Ġwits":5436,"isk":5437,"Ġpause":5438,"atisf":5439,"chilles":5440,"adem":5441,"rop":5442,"Ġdearest":5443,"ruction":5444,"fections":5445,"Ġrad":5446,"ountain":5447,"Ġraise":5448,"Ġprey":5449,"Ġcover":5450,"Ġslander":5451,"Ġendure":5452,"Ġkeeps":5453,"Ġholding":5454,"Ġmoments":5455,"Unto":5456,"Ġclean":5457,"Ġgarments":5458,"Ġuttered":5459,"Ġprepare":5460,"RIUS":5461,"ded":5462,"na":5463,"vail":5464,"Ġtask":5465,"Ġsore":5466,"Ġwing":5467,"Ġbastard":5468,"oto":5469,"chio":5470,"ically":5471,"ĠBardolph":5472,"ieved":5473,"Ġswall":5474,"bling":5475,"ĠMarquis":5476,"ization":5477,"Ġrepent":5478,"TION":5479,"Ġmadness":5480,"Ġcareful":5481,"Ġbroad":5482,"whel":5483,"Ġskill":5484,"Ġprophe":5485,"ibly":5486,"chant":5487,"Ġcreatures":5488,"Ġrecognized":5489,"ĠTybalt":5490,"ughter":5491,"Ġpicture":5492,"!âĢĻ":5493,"Made":5494,"eav":5495,"Ġwench":5496,"orse":5497,"Ġder":5498,"Ġnation":5499,"aying":5500,"Ġstore":5501,"aining":5502,"ĠMen":5503,"thou":5504,"Ġvows":5505,"ruchio":5506,"toine":5507,"Ġjoint":5508,"Ġdisappeared":5509,"Ġmayor":5510,"oyal":5511,"Ġgreatly":5512,"Ġwherefore":5513,"Ġremains":5514,"Ġtrain":5515,"Ġassured":5516,"ĠPray":5517,"Ġdamned":5518,"Ġcondemned":5519,"Could":5520,"Very":5521,"bel":5522,"eat":5523,"Ġ5":5524,"ĠQU":5525,"Ġought":5526,"Ġsou":5527,"itable":5528,"Ġloose":5529,"Ġstomach":5530,"using":5531,"ĠMur":5532,"thought":5533,"uls":5534,"Ġshri":5535,"ĠGreat":5536,"Ġaband":5537,"Ġque":5538,"Ġshouldst":5539,"ĠNay":5540,"Ġimmense":5541,"Ġafterwards":5542,"Ġaccident":5543,"Ġguess":5544,"Ġboot":5545,"Ġsuffic":5546,"Ġextreme":5547,"Ġtroubles":5548,"Ġrank":5549,"Ġdrawing":5550,"Ġdestroy":5551,"Ġfiend":5552,"abeuf":5553,"Ġugly":5554,"dge":5555,"gn":5556,"gon":5557,"know":5558,"som":5559,"via":5560,"Ġbench":5561,"Ġpath":5562,"Ġthread":5563,"Ġreck":5564,"three":5565,"ichmond":5566,"Ġloyal":5567,"ĠBOLINGBROKE":5568,"Ġconne":5569,"ieves":5570,"ĠFoundation":5571,"umn":5572,"Ġspr":5573,"Ġspread":5574,"Ġswell":5575,"ĠJerry":5576,"THERS":5577,"Ġwherein":5578,"ETRIUS":5579,"Ġends":5580,"Ġrecom":5581,"Ġruff":5582,"ĠAnne":5583,"Ġreading":5584,"Ġentering":5585,"Ġfreely":5586,"Ġhanging":5587,"Madame":5588,"Ġdestiny":5589,"ĠLucentio":5590,"ĠCapulet":5591,"DEMETRIUS":5592,"Ġdifferent":5593,"board":5594,"Ch":5595,"FIDIUS":5596,"Pardon":5597,"master":5598,"ta":5599,"Ġtorn":5600,"Ġmoral":5601,"eries":5602,"Ġbount":5603,"enet":5604,"Ġparent":5605,"Ġpistol":5606,"ading":5607,"amon":5608,"ĠCAPULET":5609,"Ġlock":5610,"ulty":5611,"ĠBo":5612,"Ġoutward":5613,"Ġusual":5614,"ORA":5615,"Ġsirrah":5616,"Ġscene":5617,"Ġremoved":5618,"ivity":5619,"Ġseeming":5620,"Ġprayer":5621,"Ġtreasure":5622,"Ġsleeping":5623,"Ġwaiting":5624,"ITES":5625,"Ġaccompl":5626,"FLORIZ":5627,"Ġwhisper":5628,"Ġcoffin":5629,"THERSITES":5630,"FLORIZEL":5631,"POST":5632,"_]":5633,"gra":5634,"occ":5635,"rass":5636,"ront":5637,"heard":5638,"Ġsaint":5639,"reement":5640,"Ġfil":5641,"Ġcock":5642,"Ġinher":5643,"vet":5644,"Ġreverend":5645,"terday":5646,"Ġweather":5647,"Ġweek":5648,"estion":5649,"together":5650,"umer":5651,"Ġrul":5652,"ĠJack":5653,"Ġimpl":5654,"Ġdistant":5655,"versed":5656,"Only":5657,"REW":5658,"ferre":5659,"Ġdrops":5660,"Ã¨s":5661,"AUFIDIUS":5662,"Ġdeparture":5663,"Ġslept":5664,"Ġneighbour":5665,"BAL":5666,"MOTH":5667,"ZAL":5668,"oes":5669,"ollow":5670,"tled":5671,"vest":5672,"zard":5673,"Ġtune":5674,"Ġsitting":5675,"Ġwond":5676,"isbury":5677,"orough":5678,"Ġnet":5679,"see":5680,"ria":5681,"Ġvice":5682,"ustice":5683,"ANNE":5684,"rang":5685,"aped":5686,"Ġmayst":5687,"Ġfriar":5688,"Ġflies":5689,"Ġcontro":5690,"Ġendeav":5691,"Ġdeadly":5692,"Ġconscious":5693,"Ġservants":5694,"noon":5695,"Ġintend":5696,"Ġsuffering":5697,"Ġfrightful":5698,"Ġrevolt":5699,"rified":5700,"GONZAL":5701,"HOSTESS":5702,"Ġcredit":5703,"Ġrendered":5704,"ription":5705,"Ġclimb":5706,"GONZALO":5707,"CK":5708,"Every":5709,"Gentle":5710,"Put":5711,"ias":5712,"nasse":5713,"tes":5714,"war":5715,"inter":5716,"Ġsom":5717,"Ġodd":5718,"aries":5719,"iding":5720,"rie":5721,"Ġstain":5722,"aine":5723,"Ġdeceived":5724,"gels":5725,"ĠAm":5726,"Ġsheep":5727,"pper":5728,"ĠFORD":5729,"auphin":5730,"Ġrising":5731,"STAN":5732,"Ġgreatness":5733,"Ġfriendly":5734,"beferre":5735,"Ġwriting":5736,"Ġsweetheart":5737,"Ġhappened":5738,"Ġfortunate":5739,"Ġguilt":5740,"Ġpoints":5741,"Ġjoys":5742,"Ġdispatch":5743,"parnasse":5744,"chamber":5745,"appear":5746,"MONT":5747,"Ġleaving":5748,"Ġ183":5749,"Ġthreatened":5750,"ufidius":5751,"ĠANDREW":5752,"Ġcircumstances":5753,"Ġintelligence":5754,"Ġbodies":5755,"MALVOLIO":5756,"Ġearnest":5757,"Ġelectronic":5758,"POL":5759,"bishop":5760,"lock":5761,"Ġwaking":5762,"Ġwives":5763,"Ġmessenger":5764,"enes":5765,"Ġcab":5766,"owards":5767,"Ġeating":5768,"enth":5769,"Ġweigh":5770,"Ġascend":5771,"icion":5772,"ĠBass":5773,"ĠOh":5774,"ĠRob":5775,"Ġspare":5776,"cian":5777,"Ġclass":5778,"Ġremedy":5779,"Ġprepar":5780,"ival":5781,"Ġgetting":5782,"Ġinstinct":5783,"Ġlawful":5784,"Ġsadness":5785,"Ġestabl":5786,"Ġmodest":5787,"Ġtyran":5788,"Ġperfectly":5789,"Ġsmooth":5790,"Ġimmediately":5791,"Ġrascal":5792,"Ġneighbor":5793,"CLIFFORD":5794,"EVANS":5795,"POLONIUS":5796,"BI":5797,"Cour":5798,"Me":5799,"upt":5800,"Ġ6":5801,"Ġfain":5802,"Ġfart":5803,"Ġdil":5804,"Ġcure":5805,"Ġpred":5806,"Ġhit":5807,"iron":5808,"ĠSpeak":5809,"ĠSOLDIER":5810,"Ġshock":5811,"ĠWaterloo":5812,"inds":5813,"Ġprodig":5814,"Ġdisgu":5815,"Ġdisdain":5816,"Ġchimney":5817,"Ġplant":5818,"ainty":5819,"ivid":5820,"SEY":5821,"ĊĊĊĊĊ":5822,"uries":5823,"Ġesteem":5824,"Ġwoes":5825,"Ġconstant":5826,"Ġdamn":5827,"iterary":5828,"Ġedge":5829,"Ġthrice":5830,"Ġtrembling":5831,"Ġstruggle":5832,"ĠVenice":5833,"ĠNorthumberland":5834,"Ġdeterm":5835,"Ġlinen":5836,"Ca":5837,"FR":5838,"HUM":5839,"NON":5840,"cite":5841,"how":5842,"spe":5843,"Ġwont":5844,"Ġdate":5845,"Ġtoil":5846,"Ġink":5847,"attered":5848,"rope":5849,"urance":5850,"rap":5851,"ĠMoor":5852,"ĠAb":5853,"Ġtherein":5854,"ooks":5855,"Ġroads":5856,"ĠNothing":5857,"Ġdeserve":5858,"Ġchast":5859,"iously":5860,"IRAND":5861,"ĠThy":5862,"Ġheavenly":5863,"ISH":5864,"Ġtrick":5865,"Ġdiscont":5866,"Ġkindly":5867,"Ġboots":5868,"Ġsooner":5869,"Ġlands":5870,"Ġfavorable":5871,"Ġframe":5872,"Ġburden":5873,"Ġlistened":5874,"Ġdisappointments":5875,"ĠCassius":5876,"Ġobedience":5877,"IRANDA":5878,"COST":5879,"MBEL":5880,"MIRANDA":5881,"SO":5882,"ser":5883,"turn":5884,"Ġsalt":5885,"reen":5886,"Ġmain":5887,"Ġfem":5888,"llen":5889,"Ġcla":5890,"Ġgle":5891,"iring":5892,"urrection":5893,"icle":5894,"Ġhers":5895,"ĠMil":5896,"ĠCal":5897,"ĠAlex":5898,"ĠAchilles":5899,"ĠPri":5900,"ortens":5901,"ĠOffic":5902,"ĠRichmond":5903,"ĠToto":5904,"Ġquality":5905,"Ġplot":5906,"Ġpleasing":5907,"Ġtrif":5908,"Ġwinds":5909,"Ġpersonal":5910,"ĠCaius":5911,"Ġbids":5912,"Ġyea":5913,"Ġmarket":5914,"Ġpenet":5915,"Ġoaths":5916,"Ġdemanded":5917,"Ġtrumpets":5918,"Ġdomestic":5919,"Ġgovernment":5920,"ĠCamillo":5921,"COSTARD":5922,"MBELINE":5923,"Eng":5924,"Methinks":5925,"Sp":5926,"Too":5927,"Twas":5928,"ection":5929,"ris":5930,"uche":5931,"wr":5932,"once":5933,"Ġinha":5934,"atic":5935,"Ġthrew":5936,"omas":5937,"Ġgather":5938,"irl":5939,"icy":5940,"Ġdew":5941,"ĠMAC":5942,"ĠMabeuf":5943,"pel":5944,"ĠSERVANT":5945,"ĠAufidius":5946,"unch":5947,"Three":5948,"ĠWould":5949,"ERINA":5950,"ĠDauphin":5951,"ranio":5952,"ĠĠĠĠĠĠĠ":5953,"uded":5954,"Ġentrance":5955,"Ġwarns":5956,"Ġcomposed":5957,"Ġdistingu":5958,"Ġimpr":5959,"Ġsometime":5960,"Ġvision":5961,"Ġwaist":5962,"rantaire":5963,"Ġsentence":5964,"conf":5965,"Ġfields":5966,"Ġengaged":5967,"Ġ181":5968,"Ġdawn":5969,"Ġconceal":5970,"KATHERINA":5971,"Ġsighs":5972,"Ġconquer":5973,"Ġmerely":5974,"True":5975,"Ġbranches":5976,"Ġefforts":5977,"Ġinfluence":5978,"ĠGentleman":5979,"worthy":5980,"Ġdeceit":5981,"CYMBELINE":5982,"ĠFriar":5983,"ĠSalisbury":5984,"ĠBaptista":5985,"BRA":5986,"Besides":5987,"BARDOLPH":5988,"CR":5989,"Des":5990,"IGH":5991,"MUND":5992,"acious":5993,"bear":5994,"char":5995,"dist":5996,"even":5997,"rated":5998,"wear":5999,"zy":6000,"Ġwet":6001,"Ġwished":6002,"Ġmor":6003,"Ġbay":6004,"lling":6005,"essel":6006,"Ġinward":6007,"stery":6008,"idents":6009,"riel":6010,"rog":6011,"pered":6012,"Ġloath":6013,"Ġshrew":6014,"asted":6015,"ĠOf":6016,"osity":6017,"Ġenorm":6018,"Ġqual":6019,"Ġwomb":6020,"Ġformidable":6021,"EDMUND":6022,"Ġhorror":6023,"Ġinfant":6024,"azz":6025,"Ġextra":6026,"Ġwax":6027,"Ġfaithful":6028,"ĠIsab":6029,"Ġwearing":6030,"Ġestate":6031,"Ġslaughter":6032,"Ġmodesty":6033,"Ġnecessity":6034,"umbers":6035,"Ġproclaim":6036,"Ġenterprise":6037,"Ġjewel":6038,"ĠSENATOR":6039,"Ġcourtesy":6040,"ETER":6041,"Keep":6042,"Long":6043,"MOR":6044,"Rome":6045,"YSS":6046,"ares":6047,"bon":6048,"carri":6049,"iod":6050,"leness":6051,"uet":6052,"Ã§":6053,"Ġwake":6054,"Ġcool":6055,"oms":6056,"Ġgam":6057,"Ġstupid":6058,"ĠAg":6059,"Ġvessel":6060,"Ġwheel":6061,"Ġexceed":6062,"Ġalas":6063,"Ġhatred":6064,"Ġsmiling":6065,"cles":6066,"Ġrepres":6067,"Ġrights":6068,"Ġbestow":6069,"ULYSS":6070,"Ġsupport":6071,"Ġcrowns":6072,"ponine":6073,"const":6074,"escrib":6075,"Ġspiritual":6076,"Ġgriefs":6077,"Ġsuspect":6078,"Ġunfold":6079,"coat":6080,"Ġacquainted":6081,"Ġjudgement":6082,"Ġdeserted":6083,"ĠMayor":6084,"Ãīponine":6085,"KATHARINA":6086,"Ġdishonour":6087,"Ġpeasant":6088,"ĠPontmercy":6089,"Ġusurp":6090,"Ġremembrance":6091,"Valjean":6092,"ULYSSES":6093,"Dost":6094,"Enjolras":6095,"PUC":6096,"YLO":6097,"awn":6098,"beth":6099,"count":6100,"door":6101,"Ãª":6102,"Ġtaught":6103,"Ġbal":6104,"Ġcitizens":6105,"Ġnaught":6106,"Ġhero":6107,"Ġgent":6108,"Ġbelly":6109,"ids":6110,"those":6111,"geon":6112,"ĠCity":6113,"Ġlofty":6114,"onel":6115,"Ġexpected":6116,"igned":6117,"OLSEY":6118,"never":6119,"Ġemperor":6120,"DUFF":6121,"Wherein":6122,"Ġshowed":6123,"ONDELLO":6124,"Sirrah":6125,"Ġdirected":6126,"Ġseeking":6127,"mbers":6128,"Ġgallant":6129,"Ġduties":6130,"Ġcrack":6131,"Ġtax":6132,"Ġpaused":6133,"SHYLO":6134,"Ġexistence":6135,"Ġadvancement":6136,"Ġimagine":6137,"kerchief":6138,"BOYET":6139,"Ġobliged":6140,"ĠTwo":6141,"ĠRepublic":6142,"ADRIANA":6143,"ortensio":6144,"SHYLOCK":6145,"Fair":6146,"Once":6147,"WOLSEY":6148,"bes":6149,"ral":6150,"sha":6151,"wife":6152,"Ġmot":6153,"ern":6154,"Ġbatt":6155,"ital":6156,"Ġpu":6157,"anct":6158,"Ġnail":6159,"Ġnamed":6160,"iments":6161,"Ġwhither":6162,"oops":6163,"thy":6164,"Ġvengeance":6165,"Ġshown":6166,"ĠTheir":6167,"laced":6168,"UST":6169,"Ġgoss":6170,"Ġwhatever":6171,"Ġalt":6172,"Heaven":6173,"Ġaged":6174,"Ġroar":6175,"Ġdenied":6176,"Ġdesired":6177,"Ġscand":6178,"Ġtread":6179,"Ġsecure":6180,"Ġopening":6181,"Ġplayed":6182,"Thanks":6183,"Ġsupposed":6184,"Ġexchan":6185,"MARIA":6186,"Ġfinished":6187,"Ġunkind":6188,"Ġconcealed":6189,"Ġinnoc":6190,"Ġgroan":6191,"Ġmagn":6192,"Ġtempest":6193,"Ġsituation":6194,"Ġwolf":6195,"Ġaxe":6196,"BIONDELLO":6197,"HUMUS":6198,"Rem":6199,"TEN":6200,"cal":6201,"did":6202,"ique":6203,"love":6204,"mund":6205,"pul":6206,"same":6207,"Ġwander":6208,"rec":6209,"Ġmus":6210,"eral":6211,"Ġpace":6212,"Ġlaughter":6213,"Ġhol":6214,"atra":6215,"Ġwhilst":6216,"Ġstair":6217,"think":6218,"ĠSic":6219,"Ġunjust":6220,"ĠDes":6221,"Ġabrupt":6222,"CHIMO":6223,"orney":6224,"Ġcloth":6225,"Ġrags":6226,"Ġperf":6227,"Ġaffections":6228,"Ġscr":6229,"IACHIMO":6230,"tyard":6231,"Ġcommission":6232,"Ġbreed":6233,"Ġapparent":6234,"Ġadvanced":6235,"Ġsurely":6236,"Ġexpression":6237,"Ġmaids":6238,"ĠHero":6239,"Ġrequired":6240,"Ġmouths":6241,"CLOTEN":6242,"Ġbeasts":6243,"Ġlimbs":6244,"Ġpetty":6245,"Ġmirth":6246,"Ġthrong":6247,"ĠDeath":6248,"Ġundertake":6249,"Ġprepared":6250,"gypt":6251,"Ġdifference":6252,"ĠPetruchio":6253,"Ġkinsman":6254,"ĠShallow":6255,"POSTHUMUS":6256,"Each":6257,"Either":6258,"Hence":6259,"ead":6260,"gic":6261,"gentle":6262,"iam":6263,"yss":6264,"hen":6265,"Ġsand":6266,"isible":6267,"Ġbon":6268,"Ġcro":6269,"Ġcens":6270,"Ġpaint":6271,"Ġpicked":6272,"ĠIago":6273,"imer":6274,"Ġstamp":6275,"rose":6276,"icense":6277,"Ġdecl":6278,"ĠMore":6279,"ĠPar":6280,"ĠPort":6281,"ĠWH":6282,"ERLE":6283,"igent":6284,"Whilst":6285,"Ġadieu":6286,"ĠKING":6287,"Ġoverth":6288,"Ġforeign":6289,"shot":6290,"Ġeverywhere":6291,"ĠValentine":6292,"Ġbeloved":6293,"Ġcharm":6294,"Ġdiscover":6295,"Ġmoving":6296,"Ġaddition":6297,"UMERLE":6298,"loire":6299,"Ġcolours":6300,"Ġcease":6301,"Ġlaughing":6302,"PARIS":6303,"Art":6304,"Ġpursued":6305,"Ġwaters":6306,"Ġambition":6307,"ĠVols":6308,"Ġobscure":6309,"Ġmilk":6310,"natural":6311,"Ġfamiliar":6312,"ĠMurderer":6313,"IE":6314,"jax":6315,"mom":6316,"rÃ©":6317,"urope":6318,"Ġtig":6319,"Ġaunt":6320,"Ġbud":6321,"Ġpage":6322,"Ġhuge":6323,"omed":6324,"uts":6325,"Ġrenown":6326,"Ġforces":6327,"Ġwept":6328,"ĠServing":6329,"INS":6330,"asting":6331,"ĠRom":6332,"opatra":6333,"ĠNe":6334,"acity":6335,"Ġwrink":6336,"Ġdistinct":6337,"Ġrecon":6338,"atience":6339,"ICKLY":6340,"Ġdelivered":6341,"III":6342,"Ġhanged":6343,"Ġdespite":6344,"Ġprospect":6345,"Ġcastle":6346,"ĠPalamon":6347,"Ġargument":6348,"ydney":6349,"ĠQUICKLY":6350,"BIAN":6351,"SOM":6352,"Turn":6353,"TOU":6354,"five":6355,"hon":6356,"pter":6357,"pret":6358,"ym":6359,"Ġ3":6360,"Ġ4":6361,"erman":6362,"Ġbite":6363,"Ġbrows":6364,"Ġfountain":6365,"ora":6366,"oration":6367,"Ġcurious":6368,"Ġoffered":6369,"Ġpear":6370,"Ġlam":6371,"Ġhes":6372,"omorrow":6373,"asped":6374,"Ġgru":6375,"Ġsevere":6376,"Ġliber":6377,"Ġshade":6378,"ĠPaul":6379,"Ġorn":6380,"Ġworry":6381,"arel":6382,"agues":6383,"STONE":6384,"CHSTONE":6385,"Ġchaste":6386,"Ġimage":6387,"Ġripe":6388,"Ġwarlike":6389,"Ġprevail":6390,"Ġslang":6391,"ILLES":6392,"Ġtraitors":6393,"Ġappet":6394,"Ġmothers":6395,"Ġwitch":6396,"Ġmerit":6397,"Ġmonarch":6398,"Ġcareless":6399,"Ġsinging":6400,"comp":6401,"Ġadmit":6402,"Ġmidnight":6403,"Ġforgive":6404,"ursed":6405,"Provost":6406,"ROSALINE":6407,"Ġthrive":6408,"JAQU":6409,"Ġsurprise":6410,"Ġdifficulty":6411,"Ġhalted":6412,"ACHILLES":6413,"Ġflag":6414,"Ġincrease":6415,"Ġdispleasure":6416,"Ġforsworn":6417,"Ġsuspicion":6418,"ĠCoriolanus":6419,"Ġdignity":6420,"Ġsombre":6421,"BIANCA":6422,"TOUCHSTONE":6423,"Bring":6424,"GRA":6425,"Gavroche":6426,"hus":6427,"kind":6428,"wixt":6429,"yr":6430,"Ġsits":6431,"Ġwra":6432,"ero":6433,"Ġfan":6434,"Ġcav":6435,"Ġstates":6436,"Ġwilling":6437,"Ġdeb":6438,"Ġsoil":6439,"people":6440,"ĠSuch":6441,"ĠSoldiers":6442,"Ġsuf":6443,"Ġshr":6444,"ĠLy":6445,"ĠEgypt":6446,"ational":6447,"Ġamid":6448,"Ġlevel":6449,"ode":6450,"Ġquit":6451,"cially":6452,"Ġcler":6453,"Ġfeather":6454,"Ġwhereof":6455,"Ġbegg":6456,"meil":6457,"Ġretire":6458,"Ġdisturb":6459,"ATCH":6460,"Ġsigns":6461,"Ġgray":6462,"Ġstrangers":6463,"Ġinstead":6464,"Ġsuppose":6465,"MARC":6466,"Ġremembered":6467,"Ġundone":6468,"fermeil":6469,"Ġtransp":6470,"oteus":6471,"Ġbenefit":6472,"Ġwealthy":6473,"Ġpaces":6474,"ooping":6475,"ĠPercy":6476,"ĠCombeferre":6477,"Ġmotionless":6478,"Ġbranch":6479,"ĠTellson":6480,"Ġanxiety":6481,"Ġextremity":6482,"ĠMacbeth":6483,"Ġdiscourse":6484,"BASSANIO":6485,"00":6486,"BOLINGBROKE":6487,"Fauchelevent":6488,"FOLK":6489,"Hel":6490,"VIUS":6491,"WER":6492,"fri":6493,"fold":6494,"kn":6495,"met":6496,"pur":6497,"piece":6498,"vre":6499,"yard":6500,"Ãł":6501,"Ġted":6502,"Ġtur":6503,"Ġapt":6504,"Ġactions":6505,"inc":6506,"Ġpavement":6507,"athed":6508,"step":6509,"adies":6510,"Ġmystery":6511,"rius":6512,"rove":6513,"ulation":6514,"Ġnephe":6515,"ĠBened":6516,"ĠPis":6517,"Ġsack":6518,"Ġunus":6519,"thee":6520,"Ġalar":6521,"Ġroot":6522,"Ġperiod":6523,"ĠMarcius":6524,"Ġnights":6525,"ossuet":6526,"Ġstream":6527,"avy":6528,"Ġbusy":6529,"Ġnative":6530,"Ġhumbly":6531,"Ġchest":6532,"Ġprize":6533,"Ġpowerful":6534,"Ġsteep":6535,"Ġinterrupt":6536,"Ġfamous":6537,"Ġcrying":6538,"ĠMademoiselle":6539,"Ġcontented":6540,"ĠHereford":6541,"Ġrealm":6542,"ERVING":6543,"Ġerror":6544,"Ġsucceeded":6545,"Ġmeantime":6546,"Ġavoid":6547,"keeper":6548,"Ġprovided":6549,"REGAN":6550,"Ġnephew":6551,"EPH":6552,"Save":6553,"UE":6554,"book":6555,"came":6556,"eg":6557,"nity":6558,"rase":6559,"yram":6560,"Ġsanct":6561,"Ġwants":6562,"Ġmat":6563,"Ġbought":6564,"Ġpow":6565,"Ġlaug":6566,"Ġnice":6567,"otect":6568,"ching":6569,"keys":6570,"ushes":6571,"icant":6572,"Ġseas":6573,"through":6574,"ĠChan":6575,"ulated":6576,"Ġshud":6577,"antag":6578,"Ġshel":6579,"ĠFRI":6580,"ĠFarewell":6581,"ĠDian":6582,"Ġaloud":6583,"Ġblush":6584,"STER":6585,"blood":6586,"ALBOT":6587,"Ġflo":6588,"Ġoverwhel":6589,"Ġcontempt":6590,"Ġresp":6591,"Ġcomplex":6592,"Ġafternoon":6593,"Ġhousehold":6594,"ĠYes":6595,"Ġassure":6596,"Ġsounds":6597,"Ġransom":6598,"Ġquestions":6599,"Ġangle":6600,"Reads":6601,"Ġideal":6602,"twixt":6603,"ĠAlb":6604,"Ġmountain":6605,"Ġbeaten":6606,"Ġinjury":6607,"Ġjealousy":6608,"FLU":6609,"Ġsavage":6610,"Ġprecise":6611,"emetrius":6612,"ĠMagloire":6613,"Ġenormous":6614,"ĠFRIEND":6615,"Don":6616,"IONE":6617,"cies":6618,"Ġfreed":6619,"Ġtoler":6620,"Ġpil":6621,"Ġpos":6622,"inger":6623,"Ġhoney":6624,"asque":6625,"Ġhazard":6626,"sell":6627,"cean":6628,"Ġstage":6629,"Ġstared":6630,"âĢľâĢĺ":6631,"ĠSp":6632,"ĠHad":6633,"unger":6634,"Third":6635,"igo":6636,"Ġarch":6637,"Ġdispl":6638,"Ġusing":6639,"aps":6640,"Ġenvious":6641,"Ġdeserved":6642,"IAM":6643,"Ġresc":6644,"clam":6645,"ĠThomas":6646,"ATES":6647,"Ġhoriz":6648,"comm":6649,"Ġfinally":6650,"Ġforgotten":6651,"Ġsatisfaction":6652,"Ġprivile":6653,"Ġgriev":6654,"Ġsenses":6655,"foot":6656,"Ġhungry":6657,"Ġetc":6658,"About":6659,"Ġpronounced":6660,"HERMIONE":6661,"Ġadventure":6662,"ĠRosalind":6663,"Ġmaintain":6664,"?âĢĻ":6665,"Acc":6666,"None":6667,"lit":6668,"lest":6669,"maid":6670,"rors":6671,"vals":6672,"wor":6673,"xford":6674,"Ġes":6675,"Ġboulevard":6676,"Ġdumb":6677,"Ġpour":6678,"inging":6679,"othe":6680,"Ġweeds":6681,"icit":6682,"ĠPres":6683,"Ġcong":6684,"ARIEL":6685,"Ġunb":6686,"ranged":6687,"Ġabuse":6688,"Ġflame":6689,"OLO":6690,"abs":6691,"Ġwrote":6692,"Ġtells":6693,"ossess":6694,"Ġputting":6695,"Ġassail":6696,"ISBURY":6697,"Ġindescrib":6698,"EDWARD":6699,"Ġmonument":6700,"Stri":6701,"Ġpointed":6702,"Ġbuilt":6703,"ĠProteus":6704,"Ġdelay":6705,"Ġbreakfast":6706,"Ġvirtues":6707,"Ġerect":6708,"CORN":6709,"Ġrequire":6710,"Ġgazing":6711,"Ġcerem":6712,"ĠOnly":6713,"Ġresolved":6714,"PROV":6715,"ĠEmilia":6716,"Ġexample":6717,"NORFOLK":6718,"Ġsurprised":6719,"Ġtorch":6720,"Ġfiery":6721,"ĠVIII":6722,"Prithee":6723,"Ġbuilding":6724,"Ġexperience":6725,"ĠItaly":6726,"safe":6727,"pulch":6728,"Ġtedious":6729,"Get":6730,"Has":6731,"_;":6732,"cst":6733,"mind":6734,"yer":6735,"inate":6736,"Ġbishop":6737,"Ġfol":6738,"Ġdazz":6739,"Ġcud":6740,"arrass":6741,"Ġlamb":6742,"another":6743,"Ġnun":6744,"seem":6745,"adua":6746,"rial":6747,"Ġwhit":6748,"Ġsugg":6749,"Ġlosing":6750,"Ġmanage":6751,"ĠWATCH":6752,"ĠTranio":6753,"ĠJune":6754,"Ġclam":6755,"Ġclock":6756,"Myself":6757,"Ġrival":6758,"Ġfathers":6759,"Ġcontract":6760,"Ġforehead":6761,"Ġarmour":6762,"TIANO":6763,"Ġconfusion":6764,"Does":6765,"Ġplaying":6766,"Ġbreathing":6767,"Ġsorts":6768,"Ġdisposition":6769,"LANCE":6770,"Ġcircle":6771,"ATHER":6772,"ĠMontparnasse":6773,"Ġharmony":6774,"Ġdefence":6775,"hearted":6776,"Ġinvisible":6777,"Ġmirror":6778,"Ġbleeding":6779,"ELLEN":6780,"Ġtorture":6781,"Caesar":6782,"ĠServingman":6783,"GRATIANO":6784,"ERVINGMAN":6785,"FLUELLEN":6786,",'":6787,"18":6788,"King":6789,"SAND":6790,"bod":6791,"down":6792,"four":6793,"mas":6794,"post":6795,"take":6796,"uish":6797,"vo":6798,"Ġtheft":6799,"Ġom":6800,"Ġbred":6801,"Ġdar":6802,"Ġcrest":6803,"Ġped":6804,"ington":6805,"Ġnin":6806,"Ġnails":6807,"Ġisland":6808,"rious":6809,"raced":6810,"Ġsevent":6811,"ainte":6812,"Ġangels":6813,"Ġdeaf":6814,"ĠSay":6815,"ĠHa":6816,"ulate":6817,"Ġven":6818,"Ġshirt":6819,"rue":6820,"others":6821,"Ġrotten":6822,"Ġagreement":6823,"Ġadvers":6824,"Ġplun":6825,"ĠKent":6826,"izing":6827,"Ġcommit":6828,"Ġsmiles":6829,"Ġbreaking":6830,"ILER":6831,"Ġmadame":6832,"Ġafford":6833,"Ġcurrent":6834,"Ġcursed":6835,"ĠPrin":6836,"Ġaddressed":6837,"Another":6838,"Ġsorrows":6839,"ĠArcite":6840,"Ġmurderer":6841,"Ġapproached":6842,"Ġcrave":6843,"Ġembarrass":6844,"Ġtranqu":6845,"Ġobserv":6846,"Ġexisted":6847,"ĠCourt":6848,"âĢĶâĢĶâĢĶâĢĶ":6849,"Ġapproaching":6850,"Ġcopyright":6851,"Ġtumult":6852,"FOOL":6853,"ĠCleopatra":6854,"Ġgroup":6855,"Ġfarther":6856,"ISHOP":6857,"Ġscandal":6858,"Char":6859,"Im":6860,"Might":6861,"Mark":6862,"Mont":6863,"Sha":6864,"away":6865,"first":6866,"ground":6867,"name":6868,"such":6869,"Ġtest":6870,"haust":6871,"Ġmart":6872,"Ġmeth":6873,"Ġcuck":6874,"arus":6875,"Ġpound":6876,"Ġhy":6877,"Ġinfect":6878,"ĠIm":6879,"stri":6880,"adise":6881,"raph":6882,"ĠMort":6883,"Ġdoll":6884,"ĠHence":6885,"Ġnobl":6886,"ĠEv":6887,"ĠEven":6888,"ĠEurope":6889,"top":6890,"Ġrash":6891,"apart":6892,"Ġagree":6893,"Ġabyss":6894,"Ġspecul":6895,"Ġchase":6896,"LEY":6897,"leased":6898,"Ġperj":6899,"being":6900,"Ġyounger":6901,"Ġglo":6902,"Ġglorious":6903,"Ġappointed":6904,"avour":6905,"verses":6906,"Ġbrand":6907,"Ġillumin":6908,"MARCUS":6909,"standing":6910,"Ġelev":6911,"Ġshortly":6912,"Ġdecla":6913,"Ġsummon":6914,"Ġinterests":6915,"Ġdrive":6916,"Ġpatri":6917,"Ġyesterday":6918,"Ġshouted":6919,"ĠSilvia":6920,"Ġsplend":6921,"Ġdisagreeable":6922,"ĠBritain":6923,"Ġbawd":6924,"ĠLeonato":6925,"Ġinherit":6926,"Ġlaughed":6927,"antagenet":6928,"!_":6929,".'":6930,"Cha":6931,"Dis":6932,"Su":6933,"Unt":6934,"iven":6935,"iving":6936,"Ġtide":6937,"Ġscept":6938,"rect":6939,"reck":6940,"Ġori":6941,"Ġbol":6942,"Ġbrown":6943,"itate":6944,"Ġcitizen":6945,"Ġlamp":6946,"Ġgame":6947,"semble":6948,"Ġecst":6949,"Ġsepulch":6950,"Ġdefe":6951,"ĠHortensio":6952,"Ġshining":6953,"Ġalter":6954,"Ġspake":6955,"idered":6956,"Ġprint":6957,"Ġswore":6958,"ĠJacques":6959,"Ġcho":6960,"ĠNature":6961,"udes":6962,"retion":6963,"Ġparted":6964,"Ġserp":6965,"Ġcoz":6966,"Ġputs":6967,"Ġappl":6968,"Ġconfused":6969,"Ġtremble":6970,"CAS":6971,"BERT":6972,"ĠEdmund":6973,"Ġcommanded":6974,"Ġbarren":6975,"Ġattended":6976,"Ġladder":6977,"Ġmounted":6978,"Ġshoot":6979,"ĠRevolution":6980,"Ġresolution":6981,"Ġfigures":6982,"Ġprovide":6983,"GHTER":6984,"Ġrecognize":6985,"Ġpractice":6986,"ĠBaron":6987,"Ġevidently":6988,"Ġdirectly":6989,"Ġabsolutely":6990,"Ġresembled":6991,"POINS":6992,"Ġphilosophy":6993,"PROVOST":6994,"Draw":6995,"Hast":6996,"OPH":6997,"del":6998,"fig":6999,"iqu":7000,"inent":7001,"Ġbade":7002,"itol":7003,"Ġfant":7004,"llo":7005,"only":7006,"arter":7007,"asing":7008,"Ġga":7009,"Ġgest":7010,"Ġbeings":7011,"imate":7012,"Ġech":7013,"adv":7014,"Ġrear":7015,"Ġrever":7016,"Ġstroke":7017,"Ġseize":7018,"Ġliest":7019,"ĠSERVINGMAN":7020,"Ġsust":7021,"ĠPadua":7022,"ERIUS":7023,"Ġknot":7024,"ols":7025,"âĢĶâĢĿ":7026,"aux":7027,"Ġalike":7028,"STEPH":7029,"Ġbrook":7030,"Ġpoet":7031,"Ġfeared":7032,"izes":7033,"Ġnewly":7034,"Ġcourtyard":7035,"Ġfairly":7036,"Ġnorth":7037,"Ġsetting":7038,"Ġgrim":7039,"Ġrecover":7040,"Ġkeeping":7041,"Ġinfam":7042,"Ġsilk":7043,"Ġgrey":7044,"volio":7045,"Ġstrive":7046,"eyes":7047,"Ġmarks":7048,"ancing":7049,"Ġdeeply":7050,"Ġlabor":7051,"Ġwooden":7052,"Ġwonderful":7053,"Ġcarrying":7054,"ĠCapitol":7055,"ERSET":7056,"Ġslew":7057,"JAILER":7058,"Ġcounterfeit":7059,"olesome":7060,"Ġoccupied":7061,"Ġgifts":7062,"Clown":7063,"DAUGHTER":7064,"Ġimprison":7065,"ĠRomans":7066,"Ġappetite":7067,"STEPHANO":7068,"Alack":7069,"Bid":7070,"Fear":7071,"Ill":7072,"Kn":7073,"Ret":7074,"Rep":7075,"Set":7076,"bits":7077,"found":7078,"iomed":7079,"word":7080,"zed":7081,"ĠÃīponine":7082,"Ġocean":7083,"Ġfed":7084,"orce":7085,"ese":7086,"Ġdart":7087,"Ġcook":7088,"Ġpall":7089,"Ġnest":7090,"Ġniece":7091,"Ġnumbers":7092,"Ġuseless":7093,"Ġnoticed":7094,"rab":7095,"oress":7096,"ĠAjax":7097,"ĠBurg":7098,"ĠWales":7099,"Ġunl":7100,"ĠFore":7101,"aging":7102,"Ġhandkerchief":7103,"ressid":7104,"CHARM":7105,"ĠMarch":7106,"Ġrepair":7107,"Ġapparel":7108,"Ġfollowers":7109,"Ġreco":7110,"Ġmischief":7111,"Ġdearly":7112,"ception":7113,"Ġcouple":7114,"atives":7115,"Ġvisage":7116,"MARINA":7117,"Ġparag":7118,"Ġdevise":7119,"Ġattending":7120,"Ġsinister":7121,"Ġcontinue":7122,"rers":7123,"ĠPericles":7124,"Ġdares":7125,"Ġdaily":7126,"Ġtrying":7127,"Ġinstrument":7128,"Ġstarted":7129,"Ġforbear":7130,"Having":7131,"Ġignorance":7132,"Ġfeeble":7133,"Ġdescended":7134,"Ġcondemn":7135,"Ġsurrounded":7136,"Ġannoy":7137,"Ġtraveller":7138,"Ġeagle":7139,"Ġbridge":7140,"Ġdischarge":7141,"Ġstolen":7142,"Believe":7143,"ILLIAM":7144,"Monseigneur":7145,"Ġstaircase":7146,"CHARMIAN":7147,"Bear":7148,"MED":7149,"fellow":7150,"give":7151,"iation":7152,"make":7153,"nel":7154,"oe":7155,"rim":7156,"rong":7157,"sar":7158,"sper":7159,"Ġwail":7160,"Ġmood":7161,"Ġbury":7162,"Ġfurious":7163,"Ġdurst":7164,"Ġcave":7165,"ĠInd":7166,"Ġrent":7167,"Ġwhip":7168,"ĠMal":7169,"ĠMerc":7170,"ĠCupid":7171,"quin":7172,"Ġnearer":7173,"ĠPeter":7174,"ERTES":7175,"emple":7176,"umes":7177,"ĠDemetrius":7178,"ĠOct":7179,"ĠOxford":7180,"Ġarise":7181,"Ġchide":7182,"Ġhereafter":7183,"Ġflourish":7184,"ARDIN":7185,"Ġbegu":7186,"LAERTES":7187,"ETTA":7188,"ĠThree":7189,"Ġhasty":7190,"Ġconsul":7191,"Ġhappen":7192,"atesby":7193,"undy":7194,"Ġrecord":7195,"Ġguest":7196,"Ġprice":7197,"Ġboard":7198,"Ġdelicate":7199,"Ġruns":7200,"Ġstronger":7201,"ouchsafe":7202,"Ġproportion":7203,"Ġanguish":7204,"Ġflying":7205,"ĠScot":7206,"DIOMED":7207,"Ġvanished":7208,"Ġformerly":7209,"Ġtorment":7210,"Ġaudience":7211,"Ġcircumstance":7212,"KATHARINE":7213,"Ġrapidly":7214,"Ġaston":7215,"Ġeternal":7216,"Ġcorpse":7217,"Ġsuffered":7218,"ĠBurgundy":7219,"DIOMEDES":7220,"CU":7221,"Cla":7222,"Dear":7223,"France":7224,"Hang":7225,"IGO":7226,"Paris":7227,"VERS":7228,"Wilt":7229,"bility":7230,"chard":7231,"hind":7232,"six":7233,"wers":7234,"Ġrou":7235,"inction":7236,"inia":7237,"Ġwrought":7238,"Ġbabe":7239,"Ġfits":7240,"Ġcu":7241,"anqu":7242,"Ġnon":7243,"adually":7244,"ribed":7245,"Ġlip":7246,"ilight":7247,"ĠBesides":7248,"uster":7249,"ĠEp":7250,"Ġshallow":7251,"Ġdreaming":7252,"ĠĠĠĠĠ":7253,"Ġchin":7254,"uding":7255,"Ġchall":7256,"Ġpeep":7257,"Ġrail":7258,"Ġperish":7259,"ĠMarcus":7260,"However":7261,"Ġrepose":7262,"Ġsets":7263,"Ġkindred":7264,"Ġbreathed":7265,"merald":7266,"sued":7267,"Ġcrowned":7268,"Ġmarble":7269,"Ġexped":7270,"Ġinsurrection":7271,"Ġrefuse":7272,"Ġveh":7273,"Ġdecided":7274,"chair":7275,"Ġcreated":7276,"Ġsimply":7277,"Ġsoftly":7278,"Ġcentre":7279,"Ġofficers":7280,"Ġinstantly":7281,"Nevertheless":7282,"ificent":7283,"Ġaudible":7284,"Ġwatched":7285,"Ġsurroundings":7286,"Ġobscurity":7287,"Ġenterprises":7288,"Ġhorns":7289,"Ġbehalf":7290,"Ġentirely":7291,"Ġmessage":7292,"Ġmentioned":7293,"SALISBURY":7294,"demona":7295,"Ġfemale":7296,"ĠMACBETH":7297,"SOMERSET":7298,"BISHOP":7299,"Ed":7300,"lor":7301,"might":7302,"oqu":7303,"Ġtame":7304,"inst":7305,"Ġwither":7306,"reak":7307,"Ġduc":7308,"Ġdagger":7309,"Ġthorn":7310,"asions":7311,"Ġbefall":7312,"stones":7313,"ldom":7314,"Ġwithdraw":7315,"Ġmeas":7316,"Ġstout":7317,"rave":7318,"ica":7319,"Ġliv":7320,"Ġantic":7321,"Ġsooth":7322,"ilence":7323,"ĠCressid":7324,"Ġshare":7325,"ĠPost":7326,"Ġconvert":7327,"olomy":7328,"thello":7329,"Whither":7330,"Ġexerc":7331,"ĠDiomed":7332,"ĠRoss":7333,"Ġleads":7334,"ospit":7335,"Ġoutl":7336,"Young":7337,"Ġquitted":7338,"Ġroses":7339,"Ġflung":7340,"Ġdaylight":7341,"OLM":7342,"Ġtelling":7343,"Ġreproach":7344,"Ġtraversed":7345,"Ġindign":7346,"Ġindivid":7347,"Ġbeds":7348,"Ġdiscovered":7349,"CADE":7350,"lets":7351,"Ġcapable":7352,"Ġwanted":7353,"young":7354,"Ġbanishment":7355,"comes":7356,"IDERIUS":7357,"Ġadmire":7358,"Ġblessing":7359,"Ġcrossed":7360,"Ġweakness":7361,"Ġhidden":7362,"Ġcollect":7363,"follow":7364,"Ġevident":7365,"Ġengagements":7366,"ĠLAW":7367,"Ġmuddy":7368,"Ġpermitted":7369,"Ġfolded":7370,"Ġsubstance":7371,"Ġplead":7372,"GUIDERIUS":7373,"Ġsacrifice":7374,"USTICE":7375,"Ġaltar":7376,"Ġinnocence":7377,"JAQUES":7378,"ĠBenedick":7379,"olomyÃ¨s":7380,"Dorothy":7381,"Follow":7382,"Please":7383,"jon":7384,"spect":7385,"shad":7386,"Ġ7":7387,"Ġ9":7388,"ĠâĢĿ":7389,"Ġze":7390,"Ġtied":7391,"hemia":7392,"iture":7393,"Ġlap":7394,"Ġhind":7395,"Ġinex":7396,"Ġhaunt":7397,"ĠeB":7398,"âĢĿ;":7399,"ĠMark":7400,"geant":7401,"ĠSat":7402,"Ġsuck":7403,"Ġbutcher":7404,"Ġvig":7405,"ĠPo":7406,"ĠPand":7407,"ĠPistol":7408,"ĠWicked":7409,"ements":7410,"Ġupright":7411,"astic":7412,"ending":7413,"Ġleague":7414,"osure":7415,"Ġproved":7416,"ĠTar":7417,"nty":7418,"Ġabhor":7419,"irect":7420,"Ġtwain":7421,"THUR":7422,"Ġplans":7423,"RODER":7424,"Ġundergo":7425,"Ġpreserve":7426,"Ġlights":7427,"Ġaccuse":7428,"Ġconflict":7429,"URN":7430,"Ġextent":7431,"Ġcrim":7432,"velvet":7433,"Ġkissed":7434,"Ġlosses":7435,"aws":7436,"change":7437,"Ġsends":7438,"Ġpapers":7439,"Show":7440,"Ġwatching":7441,"Ġgranted":7442,"MACDUFF":7443,"Ġproduce":7444,"Ġbelonged":7445,"umphrey":7446,"Ġexperien":7447,"ĠGreek":7448,"iversal":7449,"Ġcloak":7450,"Ġacquaintance":7451,"Ġdrums":7452,"Ġexactly":7453,"atrice":7454,"Ġlantern":7455,"Ġphrase":7456,"ATESBY":7457,"RODERIGO":7458,"Cons":7459,"CATESBY":7460,"FLA":7461,"GAV":7462,"Makes":7463,"PIS":7464,"TALBOT":7465,"YER":7466,"corn":7467,"much":7468,"mark":7469,"oot":7470,"pap":7471,"vity":7472,"wart":7473,"water":7474,"Ġment":7475,"Ġfist":7476,"Ġfulf":7477,"Ġlun":7478,"atory":7479,"Ġthorough":7480,"Ġgard":7481,"Ġbere":7482,"Ġdozen":7483,"ĠAway":7484,"ĠHall":7485,"unken":7486,"Through":7487,"Ġshine":7488,"iege":7489,"ARON":7490,"ARIUS":7491,"Ġunm":7492,"Ġamount":7493,"aud":7494,"eless":7495,"Ġris":7496,"Ġagony":7497,"Ġflow":7498,"Ġremorse":7499,"Ġhears":7500,"Ã©t":7501,"Ġgentlewoman":7502,"Ġhark":7503,"Ġattitude":7504,"Ġaccus":7505,"avinia":7506,"Ġbestowed":7507,"Ġdram":7508,"ogen":7509,"Ġboast":7510,"Ġstead":7511,"Ġstrife":7512,"Ġtalked":7513,"Ġhenceforth":7514,"ĠArm":7515,"Ġdevice":7516,"ĠMontfermeil":7517,"passed":7518,"break":7519,"ĠGuard":7520,"Ġgroans":7521,"ronicus":7522,"Ġimmediate":7523,"BELARIUS":7524,"Flourish":7525,"ĠUnited":7526,"Ġweapons":7527,"SILVIA":7528,"Ġconversation":7529,"Ġfairest":7530,"EXETER":7531,"cipal":7532,"Ġsufficient":7533,"IGHT":7534,"moment":7535,"Ġcomplexion":7536,"OPHELIA":7537,"Ġchallenge":7538,"PISANIO":7539,"AARON":7540,"Men":7541,"Tomorrow":7542,"WD":7543,"WALL":7544,"ables":7545,"cor":7546,"ere":7547,"pus":7548,"tree":7549,"Ã¢":7550,"Ġ8":7551,"itute":7552,"itution":7553,"Ġpitch":7554,"Ġthieves":7555,"ashes":7556,"utions":7557,"add":7558,"ado":7559,"lying":7560,"Ġsty":7561,"Ġstum":7562,"Ġstaff":7563,"ĠCO":7564,"ĠSCENE":7565,"ĠSydney":7566,"Ġsupre":7567,"ĠHal":7568,"romio":7569,"quiet":7570,"Ġunnatural":7571,"ANC":7572,"ĠFau":7573,"ĠEl":7574,"Ġgodd":7575,"ĠOthello":7576,"Ġworm":7577,"ĠTime":7578,"Ġusually":7579,"ĠJUSTICE":7580,"ALD":7581,"Ġperpet":7582,"ability":7583,"Ġpasses":7584,"shire":7585,"Ġcoarse":7586,"Ġaccent":7587,"Ġassass":7588,"Ġservices":7589,"Ġsurm":7590,"plex":7591,"Ġdrunken":7592,"Ġcarefully":7593,"sub":7594,"Ġboar":7595,"Ġabsor":7596,"HECTOR":7597,"Ġpolicy":7598,"Ġyielded":7599,"Ġtouching":7600,"Ġencount":7601,"headed":7602,"Ġenjoyment":7603,"Ġeduc":7604,"Ġprobable":7605,"ĠWilliam":7606,"Ġemployment":7607,"Ġoffended":7608,"ĠFlore":7609,"panied":7610,"Ġemerged":7611,"Ġtribunes":7612,"LENDER":7613,"Ġimplies":7614,"ĠOfficers":7615,"ĠDesdemona":7616,"Ġprospects":7617,"Help":7618,"Ġunusual":7619,"ĠForest":7620,"Ġsupreme":7621,"?_":7622,"Amen":7623,"AUNT":7624,"CUR":7625,"IBAN":7626,"NES":7627,"ky":7628,"phant":7629,"sl":7630,"saint":7631,"tre":7632,"wall":7633,"Ġstern":7634,"itive":7635,"Ġfrequ":7636,"Ġcard":7637,"Ġlent":7638,"Ġgild":7639,"leans":7640,"lected":7641,"uty":7642,"rald":7643,"Ġashes":7644,"Ġwillingly":7645,"Ġdeceive":7646,"ilar":7647,"ello":7648,"ĠBab":7649,"rujon":7650,"ĠGerman":7651,"Ġthereof":7652,"ĠTur":7653,"Ġblest":7654,"oder":7655,"Ġsweat":7656,"Ġhanded":7657,"Ġpeers":7658,"Ġriches":7659,"ELBO":7660,"Ġragged":7661,"Ġscru":7662,"izard":7663,"eneath":7664,"Ġtroops":7665,"Ġbreach":7666,"Ġslip":7667,"Ġaccused":7668,"avorable":7669,"Ġcharged":7670,"Ġreturns":7671,"Ġjoyful":7672,"Ġprompt":7673,"Ġinside":7674,"Ġinsurg":7675,"ervants":7676,"Ġstrongly":7677,"Ġfeels":7678,"remio":7679,"Ġbadly":7680,"ibility":7681,"Ġsecrets":7682,"ĠAlas":7683,"ĠCaptain":7684,"guard":7685,"Ġviolence":7686,"CALIBAN":7687,"Ġcreep":7688,"Ġbecoming":7689,"Ġgrieve":7690,"ĠWhich":7691,"Ġaccepted":7692,"BAWD":7693,"ĠChamp":7694,"Ġimportant":7695,"BANY":7696,"Ġfriendships":7697,"Ġinquired":7698,"Ġdisease":7699,"ĠPriam":7700,"IEF":7701,"otector":7702,"Ġfreedom":7703,"ELBOW":7704,"AJA":7705,"DOL":7706,"Gu":7707,"LUS":7708,"OK":7709,"RENCE":7710,"SLENDER":7711,"bble":7712,"cast":7713,"din":7714,"may":7715,"nes":7716,"oat":7717,"tr":7718,"tri":7719,"uced":7720,"vaire":7721,"wit":7722,"wing":7723,"wood":7724,"Ġice":7725,"Ġtal":7726,"Ġsins":7727,"Ġbla":7728,"enial":7729,"Ġhom":7730,"anley":7731,"Ġherald":7732,"ills":7733,"Ġrev":7734,"ros":7735,"Ġdefect":7736,"things":7737,"ordinary":7738,"Ġnobles":7739,"Ġvantage":7740,"Ġmanif":7741,"ĠBoy":7742,"embourg":7743,"ĠGaunt":7744,"ĠGeneral":7745,"ARCH":7746,"Ġexcess":7747,"oths":7748,"ĠTemple":7749,"Ġencl":7750,"ĠJes":7751,"Ġsomewhat":7752,"resses":7753,"Ġroll":7754,"CHIEF":7755,"ALBANY":7756,"Ġgraces":7757,"Ġremove":7758,"Ġresign":7759,"Ġcoin":7760,"Ġtrunk":7761,"white":7762,"DUMA":7763,"Ġrum":7764,"ceiving":7765,"Ġuseful":7766,"Ġrelative":7767,"Ġsignificant":7768,"Ġregret":7769,"Ġinsult":7770,"Ġkisses":7771,"BOOK":7772,"Ġeleven":7773,"Ġveil":7774,"ĠHermia":7775,"rancis":7776,"Ġhateful":7777,"Ġlisten":7778,"Cannot":7779,"Ġexists":7780,"Ġfrightened":7781,"rumio":7782,"Ġunhappiness":7783,"Ġentertainment":7784,"Ġrebell":7785,"Ġodds":7786,"ĠPeople":7787,"Ġenergy":7788,"Ġopportunity":7789,"Ġreckon":7790,"ĠMilan":7791,"Romeo":7792,"ĠMortimer":7793,"ĠLAWRENCE":7794,"Ġgoddess":7795,"AJAX":7796,"DUMAINE":7797,"Cor":7798,"Fantine":7799,"HOLO":7800,"Mistress":7801,"Pres":7802,"WILLIAM":7803,"aces":7804,"boy":7805,"mes":7806,"oft":7807,"something":7808,"tra":7809,"wed":7810,"Ġmaj":7811,"Ġbars":7812,"Ġfence":7813,"Ġcel":7814,"Ġtooth":7815,"atin":7816,"Ġthirst":7817,"ashed":7818,"Ġgulf":7819,"illain":7820,"illery":7821,"adle":7822,"Ġreward":7823,"ribe":7824,"Ġmechan":7825,"Ġwears":7826,"Ġstoop":7827,"Ġseest":7828,"ĠMaire":7829,"ilful":7830,"pecially":7831,"ĠCo":7832,"Ġload":7833,"Ġlocks":7834,"Ġbutter":7835,"Ġwheels":7836,"ignty":7837,"ĠFare":7838,"Ġambit":7839,"Ġmoreover":7840,"Ġproject":7841,"athieu":7842,"onds":7843,"icks":7844,"ELLE":7845,"Ġrav":7846,"Ġperforce":7847,"Ġpartly":7848,"AMEM":7849,"Ġattached":7850,"ension":7851,"Ġconfirm":7852,"Ġassist":7853,"URENCE":7854,"sooth":7855,"Ġadvise":7856,"Ġdoubtful":7857,"AGUE":7858,"AGAMEM":7859,"MARIANA":7860,"Ġbreaks":7861,"Although":7862,"actory":7863,"glass":7864,"Ġdriven":7865,"themselves":7866,"Ġsolid":7867,"ĠPlantagenet":7868,"Death":7869,"Ġlodging":7870,"Truly":7871,"Ġfurnished":7872,"Ġmourning":7873,"ĠLAURENCE":7874,"Ġamazement":7875,"Ġcivilization":7876,"ĠConst":7877,"Ġneglect":7878,"Ġpermission":7879,"Ġreligion":7880,"ĠHelena":7881,"Ġreverence":7882,"Ġweapon":7883,"Ġtreachery":7884,"Ġindifferent":7885,"FERNES":7886,"Ġgossip":7887,"ĠPortia":7888,"Ġtiger":7889,"clamation":7890,"Ġhorizon":7891,"ĠPresident":7892,"Ġomens":7893,"Ġindividual":7894,"Ġencountered":7895,"HOLOFERNES":7896,"AGAMEMNON":7897,"BR":7898,"GENTLEMAN":7899,"Pic":7900,"Signior":7901,"bray":7902,"certain":7903,"gone":7904,"hundred":7905,"liv":7906,"pier":7907,"Ġ&":7908,"Ġvelvet":7909,"Ġsink":7910,"Ġwot":7911,"reason":7912,"Ġfix":7913,"onius":7914,"Ġdial":7915,"arily":7916,"oward":7917,"stairs":7918,"aling":7919,"Ġliqu":7920,"Ġsubl":7921,"ĠHumphrey":7922,"Ġnobility":7923,"Ġvul":7924,"Ġshield":7925,"ĠPlace":7926,"Ġunworthy":7927,"ĠFe":7928,"ĠEmerald":7929,"eling":7930,"elia":7931,"Ġexile":7932,"ĠDromio":7933,"Ġblunt":7934,"Ġsway":7935,"ĠJud":7936,"ĠNurse":7937,"ALON":7938,"ĠKather":7939,"Ġcompet":7940,"pses":7941,"Ġattent":7942,"ensive":7943,"ILLE":7944,"Ġfairy":7945,"ĠThose":7946,"Ġsettled":7947,"Ġassurance":7948,"Ġcheck":7949,"Ġprick":7950,"Ġcurt":7951,"sander":7952,"Ġinfirm":7953,"ĠProtector":7954,"Ġsuppl":7955,"Ġstrikes":7956,"Ġsounded":7957,"Ã©nardiers":7958,"Ġmarvel":7959,"Ġvalue":7960,"Alarum":7961,"Ġpurposes":7962,"Ġsixty":7963,"Ġslaves":7964,"twenty":7965,"ribute":7966,"Ġguarded":7967,"ĠANNE":7968,"Ġpetition":7969,"Ġexecuted":7970,"Ġsymp":7971,"Ġrepeat":7972,"Ġphysical":7973,"Ġhighest":7974,"Ġdismiss":7975,"impse":7976,"Ġseparation":7977,"Ġresults":7978,"Ġfuneral":7979,"Ġprofession":7980,"Ġpreceding":7981,"Ġindescribable":7982,"CORNWALL":7983,"Ġsceptre":7984,"CAP":7985,"GBER":7986,"GILIA":7987,"HU":7988,"Hail":7989,"Many":7990,"Sings":7991,"Up":7992,"cr":7993,"cest":7994,"dr":7995,"faced":7996,"poll":7997,"uary":7998,"vir":7999,"vict":8000,"ino":8001,"inity":8002,"Ġsings":8003,"Ġward":8004,"Ġwink":8005,"Ġoak":8006,"Ġmale":8007,"Ġbind":8008,"Ġbag":8009,"onapart":8010,"Ġcraw":8011,"Ġpup":8012,"Ġlux":8013,"owbray":8014,"utter":8015,"illing":8016,"Ġforfeit":8017,"Ġstam":8018,"Ġstation":8019,"Ġstab":8020,"Ġstairs":8021,"ĠCÃ¦":8022,"ĠSim":8023,"Ġsuits":8024,"estial":8025,"ĠPers":8026,"ĠWIT":8027,"Ġknaves":8028,"ĠGREY":8029,"ĠGremio":8030,"INUS":8031,"Ġuniversal":8032,"ĠRo":8033,"Ġleagues":8034,"assad":8035,"Ġspur":8036,"Ġabide":8037,"Ġabund":8038,"Ġtwilight":8039,"Ġhated":8040,"ickly":8041,"Ġgraves":8042,"Ġriot":8043,"ROSS":8044,"Ġscore":8045,"Ġretorted":8046,"ĠAndronicus":8047,"Ġhastily":8048,"lia":8049,"Ġgradually":8050,"ĠToby":8051,"Ġmerchant":8052,"soever":8053,"Ġstrang":8054,"Ġterrified":8055,"CAIUS":8056,"Ġlieutenant":8057,"Ġ17":8058,"Ġstrict":8059,"Ġwaves":8060,"Ġwaited":8061,"Ġinterior":8062,"Ġpromises":8063,"ĠStates":8064,"Ġfalsehood":8065,"Ġskin":8066,"hoe":8067,"Ġinsp":8068,"Ġredoubt":8069,"Moreover":8070,"Ġobserve":8071,"Ġobjects":8072,"Ġresolve":8073,"Ġproceeding":8074,"Ġbleed":8075,"Ġdiam":8076,"Ġcheerful":8077,"DOGBER":8078,"Ġfleet":8079,"ĠWhile":8080,"ĠExeter":8081,"Ġorders":8082,"emetery":8083,"Between":8084,"everything":8085,"between":8086,"ĠPhilip":8087,"Ġmultitude":8088,"ĠBohemia":8089,"umerle":8090,"Ġpreparation":8091,"Ġinhabit":8092,"Ġgamin":8093,"Ġorigin":8094,"Ġducats":8095,"HUBERT":8096,"DOGBERRY":8097,"23":8098,"CAN":8099,"EAR":8100,"FAB":8101,"Gutenberg":8102,"IB":8103,"Just":8104,"TOM":8105,"bu":8106,"bell":8107,"bows":8108,"cat":8109,"each":8110,"field":8111,"iable":8112,"jud":8113,"mong":8114,"uly":8115,"women":8116,"Åĵ":8117,"Ġwest":8118,"ream":8119,"oug":8120,"Ġmire":8121,"isons":8122,"Ġfest":8123,"Ġcaut":8124,"Ġcemetery":8125,"Ġpant":8126,"Ġpressed":8127,"Ġling":8128,"Ġhovel":8129,"Ġnuns":8130,"Ġhedge":8131,"omme":8132,"Ġham":8133,"street":8134,"cel":8135,"Ġeg":8136,"Ġeast":8137,"ripp":8138,"âĢĿ.":8139,"Ġdeer":8140,"ĠMant":8141,"ĠMAN":8142,"thur":8143,"ĠCON":8144,"ĠCatesby":8145,"oussaint":8146,"Ġsheet":8147,"ERIL":8148,"ĠLear":8149,"ARLES":8150,"eline":8151,"ĠOld":8152,"ĠOliv":8153,"Ġrhy":8154,"Ġquench":8155,"Ġhandle":8156,"ressing":8157,"CHARLES":8158,"Whether":8159,"necess":8160,"arried":8161,"Ġparting":8162,"Ġcontri":8163,"Ġprevious":8164,"Ġsmiled":8165,"ultiv":8166,"Ġaccustom":8167,"Ġtragic":8168,"Ġdistinction":8169,"Ġconfound":8170,"Ġindul":8171,"Ġsubtle":8172,"Ġfarmer":8173,"Ġprioress":8174,"Ġearthly":8175,"mpet":8176,"hole":8177,"Ġrefuge":8178,"Ġsisters":8179,"formation":8180,"Ġveins":8181,"RIVERS":8182,"Ġleading":8183,"Ġcouncil":8184,"Ġlearning":8185,"Ġgarland":8186,"Ġbenef":8187,"Ġpawn":8188,"ĠTheseus":8189,"ĠOrleans":8190,"Ġexamined":8191,"Ġeldest":8192,"DOCTOR":8193,"GONERIL":8194,"Ġpulled":8195,"veloped":8196,"VIRGILIA":8197,"Ġpurchase":8198,"ademark":8199,"Ġilluminated":8200,"Ġreverie":8201,"ĠOctav":8202,"ALONSO":8203,"FABIAN":8204,"Came":8205,"DIT":8206,"EAS":8207,"Man":8208,"OX":8209,"Old":8210,"OUR":8211,"WEST":8212,"aver":8213,"aiting":8214,"black":8215,"don":8216,"mir":8217,"uit":8218,"yl":8219,"Ġident":8220,"Ġtro":8221,"Ġtired":8222,"Ġora":8223,"Ġoil":8224,"Ġomen":8225,"Ġdot":8226,"Ġles":8227,"Ġhunger":8228,"Ġyoke":8229,"Ġnim":8230,"omp":8231,"ĠIX":8232,"Ġhaught":8233,"entered":8234,"idow":8235,"Ġwills":8236,"Ġsex":8237,"Ġate":8238,"ĠSince":8239,"ĠBoul":8240,"ĠBossuet":8241,"ĠPH":8242,"ĠGrantaire":8243,"Ġcomr":8244,"ĠFrancis":8245,".âĢĿâĢĶ":8246,"Ġtheirs":8247,"Ġleap":8248,"osen":8249,"Ġaltogether":8250,"ertes":8251,"ĠKATHER":8252,"Ġoffices":8253,"Ġbetwixt":8254,"Ġcalling":8255,"Ġserves":8256,"forced":8257,"ansas":8258,"Ġresist":8259,"Ġattain":8260,"Ġtrous":8261,"Ġslumber":8262,"Ġpurple":8263,"Ġrooms":8264,"Ġrelations":8265,"Ġcoron":8266,"MARGARET":8267,"MARTIUS":8268,"Ġtemple":8269,"Ġfighting":8270,"Ġparadise":8271,"PERDIT":8272,"cules":8273,"Ġdevotion":8274,"twill":8275,"ĠThough":8276,"Ġhumanity":8277,"Ġunderstanding":8278,"Ġlistening":8279,"ridges":8280,"Ġmedic":8281,"Ġunfavorable":8282,"Ġprincess":8283,"ĠClown":8284,"LYSAND":8285,"Ġdivers":8286,"Ġconquest":8287,"looking":8288,"Ġamazed":8289,"Ġjewels":8290,"Ġoccurred":8291,"Ġstatue":8292,"Ġpopular":8293,"Ġreflection":8294,"Ġingen":8295,"Ġcompassion":8296,"STANLEY":8297,"ĠBassanio":8298,"ĠIsabel":8299,"Ġexchange":8300,"Ġoverthrow":8301,"Ġcaval":8302,"yramus":8303,"Ġpowder":8304,"Ġcudgel":8305,"Ġgesture":8306,"ĠWITCH":8307,"ĠOlivia":8308,"ĠKATHERINE":8309,"PERDITA":8310,"LYSANDER":8311,"16":8312,"Den":8313,"Jo":8314,"NER":8315,"Right":8316,"SAT":8317,"TAM":8318,"Worth":8319,"cades":8320,"eff":8321,"grand":8322,"mers":8323,"ov":8324,"pol":8325,"ugg":8326,"wd":8327,"ĊĠĠĠĠĠĠĠĠĠĠĠ":8328,"inous":8329,"incent":8330,"Ġbowed":8331,"Ġdow":8332,"Ġdun":8333,"Ġnap":8334,"omb":8335,"Ġguns":8336,"Ġbeams":8337,"lender":8338,"utor":8339,"Ġrede":8340,"amem":8341,"ourn":8342,"rage":8343,"âĢĿ,":8344,"ĊĊĠĠĠ":8345,"Ġsoiled":8346,"ĠSund":8347,"ella":8348,"Ġshru":8349,"ENCR":8350,"Ġconc":8351,"rud":8352,"Ġupper":8353,"Ġorchard":8354,"ĠGen":8355,"ĠGon":8356,"astille":8357,"ortal":8358,"umet":8359,"ĠRoyal":8360,"Ġrate":8361,"cians":8362,"Ġcholer":8363,"udden":8364,"Ġflash":8365,"ĠKeep":8366,"Ġfox":8367,"Ġribb":8368,"Ġheartily":8369,"Ġnevertheless":8370,"Ġwarn":8371,"LAIN":8372,"ILIP":8373,"Ġretired":8374,"Ġpursue":8375,"Ġhappily":8376,"ANTZ":8377,"Ġassault":8378,"QUIN":8379,"Ġrecall":8380,"Ġfully":8381,"Ġelbow":8382,"Ġbeauteous":8383,"Ġfourth":8384,"Ġsleeps":8385,"comb":8386,"Ġdancing":8387,"Ġcorrid":8388,"Ġsadly":8389,"Ġgenerally":8390,"ROSENCR":8391,"Ġstrain":8392,"Ġcauses":8393,"Ġundo":8394,"Ġyouthful":8395,"Ġhangs":8396,"uriosity":8397,"Ġeaten":8398,"Ġdevour":8399,"Ġgarret":8400,"Ġarrival":8401,"Ġconceit":8402,"Ġsolitary":8403,"ĠCominius":8404,"Ġinstruments":8405,"Ġimagination":8406,"****":8407,"Ġemployed":8408,"Ġflee":8409,"digger":8410,"Ġdesigns":8411,"Ġuneasy":8412,"pril":8413,"human":8414,"humus":8415,"against":8416,"Ġreligious":8417,"Ġtreacherous":8418,"Ġempress":8419,"Ġphysician":8420,"Ġtyranny":8421,"Ġshrewd":8422,"Ġornament":8423,"Ġparagraph":8424,"URNINUS":8425,"Picpus":8426,"Ġsympath":8427,"SATURNINUS":8428,"TAMORA":8429,"amemnon":8430,"ROSENCRANTZ":8431,"IG":8432,"LOR":8433,"barri":8434,"cond":8435,"dest":8436,"done":8437,"gues":8438,"mian":8439,"zing":8440,"inations":8441,"Ġsouth":8442,"isher":8443,"Ġfret":8444,"Ġfires":8445,"orms":8446,"Ġdine":8447,"arre":8448,"Ġpark":8449,"Ġholes":8450,"Ġhail":8451,"Ġgait":8452,"celet":8453,"Ġisle":8454,"Ġfors":8455,"rily":8456,"rict":8457,"roar":8458,"urbed":8459,"âĢľ_":8460,"ĠMake":8461,"ĠMowbray":8462,"Ġloc":8463,"ĠBour":8464,"ĠBus":8465,"ĠBOO":8466,"ĠLiterary":8467,"ieutenant":8468,"ĠGre":8469,"ĠGrumio":8470,"igle":8471,"ustration":8472,"Ġseeks":8473,"Ġgoods":8474,"Ġproble":8475,"Ġspit":8476,"Ġblown":8477,"Ġdisaster":8478,"odule":8479,"Ġagent":8480,"Ġdeserves":8481,"Ġintox":8482,"Ġgrape":8483,"oulon":8484,"LOU":8485,"Ġglimpse":8486,"Ã©odule":8487,"Ġtrim":8488,"Ġtrades":8489,"Ġworldly":8490,"Ġsweetly":8491,"Ġassume":8492,"Ġmerc":8493,"Ġadvised":8494,"ULT":8495,"Ġpeaceful":8496,"Ġfourteen":8497,"Ġwalks":8498,"LUCETTA":8499,"Ġvillains":8500,"Ġcountrymen":8501,"Ġcorse":8502,"overn":8503,"Ġweeps":8504,"mbeline":8505,"Ġcorners":8506,"Ġdonations":8507,"Ġtowns":8508,"Ġfatig":8509,"mination":8510,"Ġeffects":8511,"Ġshoe":8512,"Comm":8513,"Ġpockets":8514,"Ġknights":8515,"Leave":8516,"Ġpunish":8517,"Ġconclusion":8518,"Ġobedient":8519,"HERMIA":8520,"Ġstretch":8521,"Ġfairer":8522,"Ġconnected":8523,"Ġrecompense":8524,"Ġparents":8525,"Ġabruptly":8526,"ĠWHICH":8527,"Ġliberal":8528,"Ġespecially":8529,"Ġplunged":8530,"ĠPrincess":8531,"Ġmental":8532,"Ġabsorbed":8533,"Ġtrousers":8534,"Ġredeem":8535,"ĠBOOK":8536,"Ant":8537,"Cry":8538,"IV":8539,"JOHN":8540,"Jacques":8541,"Lay":8542,"Res":8543,"Sm":8544,"SLY":8545,"ZO":8546,"cap":8547,"dra":8548,"mouth":8549,"ping":8550,"port":8551,"point":8552,"walk":8553,"ĠZ":8554,"Ġtiny":8555,"Ġarose":8556,"Ġsed":8557,"hamed":8558,"Ġmile":8559,"Ġbatter":8560,"oring":8561,"Ġdared":8562,"Ġdried":8563,"Ġcord":8564,"aron":8565,"Ġpile":8566,"Ġpush":8567,"Ġlark":8568,"asks":8569,"Ġge":8570,"Ġgid":8571,"Ġbeating":8572,"stru":8573,"Ġreleased":8574,"Ġstub":8575,"urally":8576,"icity":8577,"ĠAy":8578,"ĠHor":8579,"Ġnobly":8580,"Ġvic":8581,"Ġvoy":8582,"ENZO":8583,"Ġconference":8584,"ĠLavinia":8585,"INO":8586,"Ġfares":8587,"Ġunw":8588,"Ġunif":8589,"elsh":8590,"ĠRE":8591,"Ġarranged":8592,"Ġbloss":8593,"ORGE":8594,"Ġagreed":8595,"ĠJustice":8596,"Ġflint":8597,"Ġdesir":8598,"LEAN":8599,"Ġplate":8600,"Ġperplex":8601,"Ġcontained":8602,"Ġwarned":8603,"Behold":8604,"Ġharvest":8605,"Ġworked":8606,"Ġtrap":8607,"Ġdistribut":8608,"liament":8609,"iction":8610,"lando":8611,"Ġgrating":8612,"Ġgrasp":8613,"Ġguide":8614,"Ġrub":8615,"ĠAntoine":8616,"Ġinstance":8617,"Ġplays":8618,"Ġmistaken":8619,"ABLE":8620,"Ġbringing":8621,"Ġstepped":8622,"Ġwronged":8623,"Ġbanquet":8624,"Ġrelatives":8625,"Ġsignify":8626,"ĠBeatrice":8627,"Ġcorrect":8628,"Ġcrit":8629,"Ġregular":8630,"stern":8631,"AGUS":8632,"Ġfavours":8633,"Ġroyalty":8634,"Ġsimilar":8635,"Ġreality":8636,"olles":8637,"Ġsovereignty":8638,"ĠTroj":8639,"Ġmalicious":8640,"moreland":8641,"Ġproceeded":8642,"Ġslee":8643,"grim":8644,"ĠWellington":8645,"Ġcreation":8646,"Ġriding":8647,"Ġinclined":8648,"Ġaccompanied":8649,"Ġflew":8650,"Ġfurnish":8651,"ĠPetit":8652,"Ġfunction":8653,"GEORGE":8654,"Among":8655,"BOTTOM":8656,"Ġmurmured":8657,"Ġtimid":8658,"VIRAGUS":8659,"Ġconsequence":8660,"Ġbounty":8661,"occup":8662,"Ġwondrous":8663,"Ġqualities":8664,"steps":8665,"Ġprivilege":8666,"Ġserpent":8667,"Ġzeal":8668,"FLAVIUS":8669,"pollo":8670,"ĠPHILIP":8671,"LORENZO":8672,"App":8673,"Certain":8674,"DIANA":8675,"JE":8676,"Lady":8677,"Sound":8678,"SHE":8679,"VINCENTIO":8680,"aving":8681,"bri":8682,"eenth":8683,"gent":8684,"hib":8685,"life":8686,"must":8687,"phan":8688,"Ġsilly":8689,"Ġmute":8690,"org":8691,"Ġcam":8692,"Ġcott":8693,"Ġcultiv":8694,"Ġpul":8695,"Ġpipe":8696,"atio":8697,"Ġhap":8698,"Ġhabits":8699,"illon":8700,"Ġrej":8701,"Ġwhist":8702,"Ġaspir":8703,"Ġliking":8704,"ĠMin":8705,"gend":8706,"andria":8707,"ĠCorn":8708,"Ġsucc":8709,"cknow":8710,"ulace":8711,"question":8712,"Ġshun":8713,"Ġshift":8714,"Ġneat":8715,"ĠBrujon":8716,"ERD":8717,"ĠLong":8718,"Ġknitting":8719,"olation":8720,"ĠFirst":8721,"ĠEast":8722,"Ġthereby":8723,"reath":8724,"Whiles":8725,"Ġleather":8726,"Ġprost":8727,"ĠTrib":8728,"open":8729,"Ġblock":8730,"Ġbliss":8731,"ORY":8732,"oldier":8733,"Ġquant":8734,"Ġchur":8735,"CHAM":8736,"Ġpole":8737,"ickle":8738,"ertainty":8739,"ĠKansas":8740,"Ġgrain":8741,"pled":8742,"Ġraising":8743,"TIS":8744,"Ġimpression":8745,"ewis":8746,"Ġtricks":8747,"Ġtriump":8748,"Ġnatures":8749,"Ġrecalled":8750,"Ġindust":8751,"Ġterm":8752,"Ġsurvey":8753,"Ġburial":8754,"prus":8755,"Ġstays":8756,"Ġmarvell":8757,"Ġstrangely":8758,"Ġadmitted":8759,"Ġceased":8760,"Ġindicated":8761,"Ġencour":8762,"Ġthreaten":8763,"Ġbottle":8764,"Ġvictim":8765,"Ġinstruct":8766,"horse":8767,"Ġbelongs":8768,"cannot":8769,"ĠJulia":8770,"Ġlodge":8771,"Ġlusty":8772,"Ġprofitable":8773,"Ġventure":8774,"ĠNaples":8775,"Conf":8776,"Ġtrembled":8777,"Ġremarked":8778,"Ġconcerns":8779,"Ġaffected":8780,"ĠCymbeline":8781,"Ġpersuade":8782,"Ġstockings":8783,"better":8784,"Ġobstacles":8785,"Ġheavily":8786,"Brother":8787,"turned":8788,"Ġvenom":8789,"ĠImogen":8790,"Until":8791,"Ġsepulchre":8792,"ĠPosthumus":8793,"Ġstyle":8794,"Ġeducation":8795,"Ġvulgar":8796,"ĠMantua":8797,"DEN":8798,"Full":8799,"NY":8800,"RAT":8801,"hol":8802,"known":8803,"lar":8804,"lot":8805,"mathieu":8806,"oard":8807,"press":8808,"Ġz":8809,"ĠÃł":8810,"Ġtarry":8811,"Ġach":8812,"inth":8813,"rece":8814,"Ġbree":8815,"itche":8816,"Ġdang":8817,"Ġpushed":8818,"Ġphant":8819,"inged":8820,"Ġhue":8821,"Ġhospit":8822,"Ġinvol":8823,"Ġinsc":8824,"athar":8825,"Ġgn":8826,"lebr":8827,"utch":8828,"Ġwhirl":8829,"Ġwholesome":8830,"raction":8831,"Ġashamed":8832,"ĠCLO":8833,"ĠSol":8834,"ĠAng":8835,"ĠApril":8836,"ĠBi":8837,"ĠPat":8838,"akings":8839,"ĠWelsh":8840,"Ġconven":8841,"ĠLittle":8842,"emper":8843,"ARVIRAGUS":8844,"ighed":8845,"ĠFab":8846,"isten":8847,"ĠDor":8848,"Ġjury":8849,"ĠTam":8850,"Ġsprang":8851,"Ġblot":8852,"Ġenforce":8853,"Ġswim":8854,"Ġbrill":8855,"Ġchapel":8856,"Ġraven":8857,"Ġraging":8858,"sses":8859,"Ġowner":8860,"Ġforever":8861,"Ġpassers":8862,"Ġslay":8863,"ĠTholomyÃ¨s":8864,"ĠThÃ©nardiers":8865,"Ġimpress":8866,"Ġassistance":8867,"Ġrecre":8868,"Ġkeeper":8869,"upiter":8870,"PHERD":8871,"Ġneedful":8872,"keness":8873,"prison":8874,"Ġelsewhere":8875,"Ġcapital":8876,"BERLAIN":8877,"mpire":8878,"Antoine":8879,"coming":8880,"Ġoccasions":8881,"ĠStanley":8882,"Ġmarked":8883,"ĠHercules":8884,"Ġdivision":8885,"Ġdevils":8886,"Ġleader":8887,"Ġtavern":8888,"Ġescaped":8889,"Ġmountains":8890,"Ġprincipal":8891,"Ġwoeful":8892,"Ġcandles":8893,"Ġcomplaint":8894,"Ġeighty":8895,"ternal":8896,"ipping":8897,"Ġexplain":8898,"Ġdrowned":8899,"Ġvarious":8900,"Ġparticularly":8901,"Ġinfluences":8902,"Ġbending":8903,"Ġuneas":8904,"monde":8905,"Ġeager":8906,"ĠCyprus":8907,"Ġcloister":8908,"ĠWestmoreland":8909,"ĠVerona":8910,"Ġlifted":8911,"Ġreflected":8912,"Ġbaby":8913,"Ġpillow":8914,"Ġanimal":8915,"Ġconjure":8916,"OWBRA":8917,"ĠArchbishop":8918,"ĠMenenius":8919,"Ġruffians":8920,"Ġcontrol":8921,"Gentlemen":8922,"MONTAGUE":8923,"PUCELLE":8924,"Ġmagnificent":8925,"rÃ©monde":8926,"Ġshelter":8927,"Ġtolerably":8928,"Ġecstasy":8929,"ĠEphes":8930,"oderigo":8931,"Ġcelestial":8932,"ĠCÃ¦sar":8933,"SHEPHERD":8934,"ĠCLOWN":8935,"OWBRAY":8936,"AEN":8937,"Cal":8938,"Kne":8939,"Mur":8940,"Much":8941,"Music":8942,"Pet":8943,"cold":8944,"garden":8945,"ived":8946,"jac":8947,"nost":8948,"rot":8949,"too":8950,"table":8951,"years":8952,"Ġwand":8953,"real":8954,"Ġmould":8955,"Ġmouse":8956,"itating":8957,"itudes":8958,"Ġdaring":8959,"Ġcases":8960,"Ġpomp":8961,"Ġlar":8962,"atru":8963,"chol":8964,"Ġev":8965,"illot":8966,"irass":8967,"enting":8968,"always":8969,"advent":8970,"Ġnoted":8971,"Ġforsooth":8972,"aments":8973,"Ġstaring":8974,"usp":8975,"ilion":8976,"ĠSweet":8977,"ĠSometimes":8978,"ĠServants":8979,"ĠSlender":8980,"Ġdove":8981,"ording":8982,"alley":8983,"outs":8984,"Ġvener":8985,"oused":8986,"Ġsheets":8987,"ĠWinds":8988,"ĠLewis":8989,"ĠFOR":8990,"Ġamiss":8991,"Ġdisci":8992,"Ġdisorder":8993,"Ġlikewise":8994,"chester":8995,"ĠVincent":8996,"Ġchosen":8997,"ĠNational":8998,"ELAND":8999,"Ġcontents":9000,"acing":9001,"Ġpassions":9002,"Ġglove":9003,"Ġpreserved":9004,"LAUN":9005,"ICER":9006,"Ġkeen":9007,"AMP":9008,"clus":9009,"Ġappla":9010,"Ġconsum":9011,"Ġconsidered":9012,"Wherefore":9013,"Shepherd":9014,"ĠThisbe":9015,"Ġbelieved":9016,"Ġrested":9017,"CELET":9018,"Ġdiscretion":9019,"Ġpossibly":9020,"Ġcurses":9021,"Ġcaps":9022,"Ġsupply":9023,"Ġinterpret":9024,"ĠBeau":9025,"IDES":9026,"ĠProvost":9027,"ĠProsper":9028,"Ġranks":9029,"ĠArthur":9030,"Ġelements":9031,"Ġportion":9032,"Ġtables":9033,"Ġcalam":9034,"ribution":9035,"Ġtenderness":9036,"Project":9037,"Ġdestruction":9038,"bbing":9039,"Ġclearly":9040,"Ġresolute":9041,"Ġpainful":9042,"Ġduked":9043,"HERO":9044,"Ġpursuit":9045,"Ġmagic":9046,"Ġjoined":9047,"looked":9048,"TAIN":9049,"ĠVolt":9050,"Ġdismal":9051,"ĠVenus":9052,"ĠSenator":9053,"Ġbeware":9054,"Ġfamilies":9055,"Ġadmirable":9056,"Ġradiant":9057,"Ġabandon":9058,"BALTH":9059,"MORELAND":9060,"ĠMoreover":9061,"ĠLysander":9062,"vrerie":9063,"Ġprecisely":9064,"Ġanticip":9065,"Ġrebellion":9066,"Ġoracle":9067,"uddenly":9068,"Ġcorridor":9069,"LEANOR":9070,"CHAMBERLAIN":9071,"AENEAS":9072,"atruelle":9073,"LAUNCELET":9074,"20":9075,"Bes":9076,"Cousin":9077,"DOR":9078,"Down":9079,"HIP":9080,"Off":9081,"Tut":9082,"WO":9083,"bast":9084,"called":9085,"evish":9086,"mont":9087,"near":9088,"por":9089,"rt":9090,"trees":9091,"ww":9092,"went":9093,"yet":9094,"reland":9095,"having":9096,"enc":9097,"enches":9098,"Ġcy":9099,"Ġtoss":9100,"Ġlat":9101,"Ġlot":9102,"Ġyawn":9103,"anim":9104,"anger":9105,"atis":9106,"Ġthumb":9107,"Ġgend":9108,"owl":9109,"sey":9110,"etch":9111,"utio":9112,"ala":9113,"lys":9114,"ione":9115,"Ġwhiles":9116,"Ġmender":9117,"Ġmember":9118,"rophe":9119,"Ġlikeness":9120,"Ġancest":9121,"ĠMusic":9122,"Ġkin":9123,"ĠCall":9124,"ĠAbb":9125,"ĠAriel":9126,"ĠAumerle":9127,"Ġships":9128,"ĠBasque":9129,"ĠPhoe":9130,"ĠPyramus":9131,"ĠWITH":9132,"ruly":9133,"few":9134,"ĠFle":9135,"Ġworries":9136,"ĠToussaint":9137,"Ġrush":9138,"ondello":9139,"Ġabomin":9140,"cio":9141,"Ġanyone":9142,"Ġpeevish":9143,"Ġpermit":9144,"Ġperformed":9145,"Ġentang":9146,"Ġeveryone":9147,"Ġchildhood":9148,"ensed":9149,"arsad":9150,"Ġconfer":9151,"ANTIO":9152,"Ġrecovered":9153,"Ġladyship":9154,"Ġasking":9155,"Ġ10":9156,"Ġdepos":9157,"LUCIANA":9158,"Ġexclaim":9159,"ĠAntip":9160,"Ġgenerous":9161,"Ġdecay":9162,"ubert":9163,"understand":9164,"Ġfacts":9165,"reshold":9166,"Ġcommonwe":9167,"ĠLucrece":9168,"Ġbeholding":9169,"UNTRY":9170,"Ġexception":9171,"ĠPlumet":9172,"quisite":9173,"person":9174,"SIMP":9175,"Neither":9176,"Ġvaguely":9177,"Ġinformation":9178,"ĠRobert":9179,"Ġcensure":9180,"Ġcongenial":9181,"ĠEvrÃ©monde":9182,"Ġdeclared":9183,"Ġexercise":9184,"ĠTarquin":9185,"ĠCOUNTRY":9186,"Ġambitious":9187,"Ġaccustomed":9188,"Ġrejoice":9189,"!'":9190,"Defarge":9191,"ION":9192,"LON":9193,"OUS":9194,"TY":9195,"fell":9196,"iently":9197,"kins":9198,"mission":9199,"rants":9200,"sign":9201,"Ġverse":9202,"Ġaut":9203,"Ġacknow":9204,"inated":9205,"Ġsiege":9206,"Ġwarri":9207,"Ġoper":9208,"Ġbald":9209,"ituted":9210,"onst":9211,"Ġcove":9212,"Ġyond":9213,"Ġnought":9214,"atre":9215,"ĠIreland":9216,"Ġnotes":9217,"Ġrejo":9218,"Ġstiff":9219,"rained":9220,"Ġseldom":9221,"Ġsober":9222,"ĠCol":9223,"ĠColl":9224,"ĠSister":9225,"ĠSouth":9226,"Ġbutt":9227,"Ġvap":9228,"ĠBastille":9229,"ĠPER":9230,"ĠPRO":9231,"ĠLEW":9232,"Ġuproar":9233,"asts":9234,"ĠEach":9235,"Ġexhaust":9236,"ĠDen":9237,"ĠOut":9238,"Ġdreamed":9239,"ONIDES":9240,"Ġrout":9241,"Ġrushed":9242,"aph":9243,"aping":9244,"Ġsweep":9245,"ĠJuly":9246,"ĠJupiter":9247,"imely":9248,"agn":9249,"Ġplenty":9250,"Ġperfection":9251,"Ġcontag":9252,"Ġforebod":9253,"Ġthoughtful":9254,"ILIUS":9255,"Ġbacks":9256,"Ġfearing":9257,"--âĢĿ":9258,"Ġtrip":9259,"Ġindisc":9260,"Ġappeal":9261,"Ġhusbands":9262,"Ġcurst":9263,"Ġkills":9264,"Ġjoyous":9265,"Ġstriking":9266,"Anon":9267,"gging":9268,"Ġdraws":9269,"Ġsuccession":9270,"Ġadmired":9271,"Ġcommands":9272,"urio":9273,"Ġcolonel":9274,"Ġselfish":9275,"Ġwoods":9276,"Ġpaving":9277,"Ġarrive":9278,"Ġplainly":9279,"disc":9280,"ASAR":9281,"Ġdemands":9282,"ĠLux":9283,"Ġcreate":9284,"Lords":9285,"Ġsuperior":9286,"Ġsafely":9287,"ELLUS":9288,"Ġrobbed":9289,"ĠExeunt":9290,"Ġsalute":9291,"Ġprevented":9292,"Ġconsideration":9293,"ĠAdam":9294,"Ġdissol":9295,"Ġseparated":9296,"Ġmilitary":9297,"Ġflatte":9298,"court":9299,"course":9300,"Perhaps":9301,"Ġbewild":9302,"SIMONIDES":9303,"Ġfrost":9304,"Ġspleen":9305,"Ġdifficulties":9306,"Ġopportunities":9307,"Ġcontemplation":9308,"Ġswallow":9309,"Ġabandoned":9310,"Ġdetermined":9311,"ĠAgamemnon":9312,"Ġdistinctly":9313,"ĠPisanio":9314,"Ġinterrupted":9315,"Ġpilgrim":9316,"Ġcuckold":9317,"Ġunluck":9318,"ĠSaturn":9319,"corner":9320,"Ġinsurgents":9321,"Ġcavalry":9322,"ĠEphesus":9323,"ĠWindsor":9324,"BALTHASAR":9325,"ĠCOUNTRYMAN":9326,"ĠLEWIS":9327,"14":9328,"DIN":9329,"Del":9330,"El":9331,"NARD":9332,"bridge":9333,"daughter":9334,"dog":9335,"fle":9336,"fact":9337,"iot":9338,"lain":9339,"mid":9340,"rite":9341,"saw":9342,"sometimes":9343,"tran":9344,"uil":9345,"vius":9346,"words":9347,"iner":9348,"Ġsine":9349,"Ġwave":9350,"itious":9351,"enced":9352,"Ġtot":9353,"Ġlur":9354,"atched":9355,"Ġhaw":9356,"Ġgoose":9357,"alty":9358,"rian":9359,"Ġsting":9360,"âĢĿ?":9361,"Ġsequ":9362,"ĠMess":9363,"ĠMany":9364,"ĠSpan":9365,"ĠHark":9366,"Ġalley":9367,"ĠBarri":9368,"ĠLatin":9369,"olog":9370,"ĠFair":9371,"ateful":9372,"Ġexter":9373,"ĠDou":9374,"Ġalarm":9375,"ĠĠĠĠĠĠ":9376,"ĠThan":9377,"Ġpeer":9378,"because":9379,"Ġsergeant":9380,"Ġ_âĢľ":9381,"Ġsland":9382,"Ġkingly":9383,"Ġfinding":9384,"Ġappar":9385,"Ġapprehend":9386,"DUL":9387,"Ġimpro":9388,"Ġimpart":9389,"Ġelbows":9390,"Ġlawyer":9391,"rested":9392,"Ġdepth":9393,"comple":9394,"Ġcrimes":9395,"Ġinsol":9396,"Ġredress":9397,"mbled":9398,"Ġoppression":9399,"Ġquarters":9400,"Ġelephant":9401,"vidence":9402,"PETER":9403,"Ġbounds":9404,"Ġlately":9405,"Ġfinal":9406,"Ġceiling":9407,"pended":9408,"Ġprovo":9409,"going":9410,"Ġerrand":9411,"ĠOrlando":9412,"ĠGuards":9413,"piration":9414,"Ġundertakings":9415,"Ġexplained":9416,"Ġobeyed":9417,"Ġleaned":9418,"Ġdegrees":9419,"LARTIUS":9420,"Ġimmortal":9421,"Ġstuffed":9422,"Ġrusty":9423,"Ġdimin":9424,"Ġarrested":9425,"Ġstretched":9426,"Ġinvention":9427,"Ġafflicted":9428,"Ġpolitical":9429,"Ġindifference":9430,"FERDIN":9431,"Ġdisguised":9432,"Ġchastity":9433,"Ġ1815":9434,"ĠVolsces":9435,"ĠPaulina":9436,"Ġclerk":9437,"avourite":9438,"Illustration":9439,"anquo":9440,"GAVILLE":9441,"Ġsublime":9442,"ĠPerson":9443,"WESTMORELAND":9444,"ĠTamora":9445,"bastian":9446,"LONGAVILLE":9447,"ĠLuxembourg":9448,"FERDINAND":9449,"ATION":9450,"COLM":9451,"Find":9452,"La":9453,"POLY":9454,"Richard":9455,"Servant":9456,"SAMP":9457,"WOO":9458,"dark":9459,"liness":9460,"mis":9461,"mant":9462,"mean":9463,"mione":9464,"roth":9465,"spr":9466,"ye":9467,"Ã®":9468,"Ġou":9469,"Ġtip":9470,"hered":9471,"inchester":9472,"Ġbru":9473,"Ġbraw":9474,"Ġbache":9475,"Ġfile":9476,"Ġtore":9477,"Ġhie":9478,"Ġyard":9479,"ann":9480,"ĠIS":9481,"still":9482,"stem":9483,"chor":9484,"riff":9485,"Ġwasted":9486,"ĠMa":9487,"ilius":9488,"ĠHoly":9489,"ĠHugh":9490,"Ġalleg":9491,"Ġshaking":9492,"Ġshapes":9493,"ENCH":9494,"ĠPoor":9495,"Ġknit":9496,"emb":9497,"Ġorgan":9498,"Ġunpro":9499,"ĠField":9500,"ĠEX":9501,"Ġtheme":9502,"told":9503,"ĠRoderigo":9504,"Ġwholly":9505,"ranean":9506,"ĠTr":9507,"Ġaboard":9508,"Ġquiver":9509,"CHE":9510,"Ġbrass":9511,"Ġdescent":9512,"ĠKathar":9513,"Ġrig":9514,"Ġperchance":9515,"ĠMaria":9516,"Ġparties":9517,"Ġscope":9518,"Ġcomprehend":9519,"Ġarticles":9520,"Ġattic":9521,"Ġrepro":9522,"Ġtroop":9523,"ĠThÃ©odule":9524,"iano":9525,"ĠĠĠĠĠĠĠĠĠ":9526,"Ġgrasped":9527,"Ġmov":9528,"Ġhighly":9529,"supp":9530,"Ġdeputy":9531,"nobar":9532,"Ġwanting":9533,"Ġlesser":9534,"Ġskull":9535,"Ġpraises":9536,"ĠHowever":9537,"Ġincur":9538,"Ġhairs":9539,"Ġacts":9540,"GOWER":9541,"Ġburnt":9542,"Didst":9543,"Ġburns":9544,"Ġleaf":9545,"Ġwisely":9546,"Ġdealings":9547,"Ġbravely":9548,"Ġthreatening":9549,"Ġspoil":9550,"LYSIM":9551,"Ġvanity":9552,"Ġsyll":9553,"ĠMonkeys":9554,"Ġjourneys":9555,"Ġwretchedness":9556,"Ġopinions":9557,"Ġbonds":9558,"Ġurged":9559,"longer":9560,"ĠChamber":9561,"ĊĠĠĠĠĠĠĠĠĠĠĠĠ":9562,"Ġsongs":9563,"ACHUS":9564,"rehens":9565,"Ġmillion":9566,"Ġpinch":9567,"MALCOLM":9568,"Ġbucket":9569,"Ġphilosopher":9570,"Ġaugment":9571,"Ġwhoreson":9572,"Ġjoints":9573,"Courfeyrac":9574,"uptial":9575,"Ġdiscontent":9576,"Remember":9577,"Ġscratch":9578,"ymph":9579,"Ġrescue":9580,"Ġgrievous":9581,"Ġceremony":9582,"Ġninet":9583,"Ġdefeat":9584,"CASCA":9585,"Ġrouse":9586,"Ġcuirass":9587,"Ġexperienced":9588,"Ġthoroughly":9589,"CURTIS":9590,"ARCHBISHOP":9591,"Ġhaughty":9592,"Ġstubborn":9593,"ĠBiondello":9594,"Ġuneasiness":9595,"illotine":9596,"ĠVincentio":9597,"HIPPOLY":9598,"SAMPSON":9599,"LYSIMACHUS":9600,"HIPPOLYTA":9601,"12":9602,"Again":9603,"CARDIN":9604,"CIB":9605,"Hon":9606,"Rue":9607,"Something":9608,"Wit":9609,"cra":9610,"fav":9611,"jection":9612,"mother":9613,"put":9614,"speak":9615,"ws":9616,"Ġrom":9617,"Ġafe":9618,"Ġwipe":9619,"Ġomin":9620,"Ġmak":9621,"Ġmail":9622,"Ġmatt":9623,"Ġmiles":9624,"Ġfrank":9625,"Ġdrank":9626,"arius":9627,"Ġprow":9628,"Ġpatter":9629,"Ġpubl":9630,"Ġlac":9631,"Ġlane":9632,"Ġhounds":9633,"Ġgenius":9634,"utin":9635,"idel":9636,"alse":9637,"alus":9638,"tery":9639,"Ġstuck":9640,"icing":9641,"Ġliked":9642,"Ġsup":9643,"resp":9644,"Ġnegl":9645,"antic":9646,"ĠBank":9647,"ĠBanquo":9648,"ĠWor":9649,"ĠLadies":9650,"Ġsau":9651,"INCU":9652,"Ġcompe":9653,"venge":9654,"elf":9655,"Ġexpense":9656,"Ġexquisite":9657,"ĠOnce":9658,"Ġalms":9659,"Ġrises":9660,"Ġblouse":9661,"Ġenm":9662,"Ġenri":9663,"ĠJa":9664,"ager":9665,"cipit":9666,"STABLE":9667,"Ġrocks":9668,"Ġrosy":9669,"orning":9670,"ALCIB":9671,"Ġadop":9672,"Ġadored":9673,"iteous":9674,"Ġplane":9675,"rences":9676,"Ġscale":9677,"IADES":9678,"Ġdeaths":9679,"Ġglanced":9680,"Ġattach":9681,"Ġtrademark":9682,"Ġaccidents":9683,"ixenes":9684,"Ġbush":9685,"Ġjustly":9686,"Ġchances":9687,"Ġchanced":9688,"Ġbelie":9689,"Ġrestored":9690,"Ġlasting":9691,"Ġhumil":9692,"Ġdiscord":9693,"Ġmiseries":9694,"Ġsurface":9695,"Ġmoves":9696,"Doctor":9697,"scape":9698,"Ġcourtier":9699,"Ġdispers":9700,"Ġsentine":9701,"Ġclosely":9702,"Ġsubjective":9703,"Ġdrag":9704,"Ġcraft":9705,"Ġprett":9706,"Ġcontentment":9707,"TRINCU":9708,"Ġpenit":9709,"Ġhurried":9710,"Ġcalcul":9711,"Ġbrig":9712,"Ġrevenged":9713,"Ġdisappointed":9714,"essengers":9715,"Ġprinci":9716,"ĠCharmian":9717,"preced":9718,"Ġlimit":9719,"Ġofficial":9720,"Ġpettic":9721,"Ġvanish":9722,"Ġchairs":9723,"ification":9724,"Ġsensible":9725,"Ġrebels":9726,"Ġfurniture":9727,"Ġpunishment":9728,"Ġprognost":9729,"Ġflattery":9730,"Ġlucky":9731,"Ġuncons":9732,"Ġanxious":9733,"ĠSenators":9734,"ĠSeine":9735,"Ġbullet":9736,"CONSTABLE":9737,"Contents":9738,"Ġantique":9739,"ĠArchive":9740,"Ġshriek":9741,"appearance":9742,"Ġestablished":9743,"England":9744,"Ġextraordinary":9745,"MARCIUS":9746,"ĠChanvrerie":9747,"litz":9748,"Knock":9749,"usterlitz":9750,"ĠChampmathieu":9751,"ĠGrecian":9752,"Ġgiddy":9753,"Ġdiscipl":9754,"nobarbus":9755,"CARDINAL":9756,"ALCIBIADES":9757,"TRINCULO":9758,"15":9759,"BORA":9760,"CLUS":9761,"Five":9762,"Gives":9763,"Louis":9764,"Miss":9765,"Making":9766,"NEST":9767,"PAT":9768,"PID":9769,"SUR":9770,"TE":9771,"Twere":9772,"WALD":9773,"gress":9774,"hour":9775,"live":9776,"large":9777,"mat":9778,"past":9779,"poor":9780,"Ġesp":9781,"Ġtres":9782,"Ġsly":9783,"rend":9784,"Ġox":9785,"Ġope":9786,"Ġmach":9787,"Ġbath":9788,"Ġfer":9789,"Ġcrows":9790,"Ġcuriosity":9791,"arms":9792,"atus":9793,"atcl":9794,"otions":9795,"Ġhaply":9796,"sever":9797,"imation":9798,"Ġecl":9799,"rief":9800,"lysses":9801,"Ġstool":9802,"Ġasp":9803,"Ġlivid":9804,"cts":9805,"ĠMond":9806,"ĠChe":9807,"Ġsung":9808,"ĠAUMERLE":9809,"ĠHost":9810,"unction":9811,"Ġvine":9812,"Ġvac":9813,"Ġmanhood":9814,"Ġshines":9815,"ĠWatch":9816,"ĠWilt":9817,"ĠWinchester":9818,"ĠLaw":9819,"Ġorphan":9820,"olate":9821,"iel":9822,"lac":9823,"fee":9824,"ĠFour":9825,"Ġarrange":9826,"ooked":9827,"olden":9828,"Ġlets":9829,"Ġadore":9830,"ROCLUS":9831,"ĠMarina":9832,"Ġcontain":9833,"Ġyoungest":9834,"shine":9835,"Ġcomplet":9836,"ICAN":9837,"Soft":9838,"Ġarticle":9839,"Ġartillery":9840,"whole":9841,"Ġtrace":9842,"Ġassumed":9843,"Ġcheap":9844,"Ġdisco":9845,"Ġgiant":9846,"Ġdrooping":9847,"Ġcurtain":9848,"Ġsoundly":9849,"Any":9850,"Ġrelief":9851,"Ġbidding":9852,"mbling":9853,"Ġfavors":9854,"ĠArt":9855,"BOULT":9856,"Ġvillainy":9857,"Ġbarrier":9858,"Ġyielding":9859,"Ġutmost":9860,"Ġfinish":9861,"glas":9862,"ĠLaertes":9863,"Ġmalady":9864,"Ġlacking":9865,"disp":9866,"Ġcomplain":9867,"Ġvanqu":9868,"ANTIGON":9869,"ĠGuild":9870,"Ġmarching":9871,"Ġshouts":9872,"box":9873,"ĠBarnard":9874,"laws":9875,"Ġleaning":9876,"Ġoccupation":9877,"Ġtempor":9878,"Ġsenseless":9879,"ĠFlourish":9880,"Ġunsatisf":9881,"ĠGreece":9882,"Ġpronounce":9883,"Ġlamentable":9884,"Ġpierce":9885,"children":9886,"athered":9887,"FOUR":9888,"OSWALD":9889,"Ġtailor":9890,"ĠNevertheless":9891,"Ġtrifle":9892,"Ġbayon":9893,"gentleman":9894,"ĠDiana":9895,"Ġpositions":9896,"Ġfolks":9897,"seemed":9898,"Ġinheritance":9899,"iquity":9900,"ĠMalvolio":9901,"ĠMercutio":9902,"ĠScotland":9903,"Ġgilded":9904,"ĠSunday":9905,"QUINCE":9906,"Ġvoyage":9907,"Ġuniform":9908,"Ġmarvellous":9909,"Ġdangers":9910,"Ġominous":9911,"BORACHIO":9912,"NESTOR":9913,"PATROCLUS":9914,"ANTIGONUS":9915,"AUMERLE":9916,"BL":9917,"BAR":9918,"Bah":9919,"Break":9920,"Fore":9921,"IF":9922,"New":9923,"Ten":9924,"Towards":9925,"aille":9926,"bited":9927,"fire":9928,"gins":9929,"lin":9930,"last":9931,"lorn":9932,"nut":9933,"possess":9934,"rary":9935,"sort":9936,"tles":9937,"Ġverses":9938,"Ġsize":9939,"Ġschol":9940,"Ġwig":9941,"rene":9942,"half":9943,"Ġmice":9944,"Ġbul":9945,"lls":9946,"Ġcul":9947,"Ġtoken":9948,"Ġpest":9949,"Ġlions":9950,"Ġnations":9951,"Ġren":9952,"Ġwhipped":9953,"among":9954,"Ġstale":9955,"ications":9956,"ilities":9957,"ĠHon":9958,"uncelet":9959,"Ġvouchsafe":9960,"Ġmanly":9961,"ighted":9962,"Ġnearest":9963,"ĠBou":9964,"ĠGrey":9965,"Ġfac":9966,"Ġfawn":9967,"Ġamorous":9968,"Ġjack":9969,"Ġspurn":9970,"Ġrhe":9971,"Ġray":9972,"apes":9973,"Ġenv":9974,"Ġabused":9975,"itty":9976,"Ġchains":9977,"Ġclad":9978,"Ġgravity":9979,"ounted":9980,"Ġpartner":9981,"Ġearl":9982,"dead":9983,"Ġglow":9984,"Ġslipp":9985,"Ġemotion":9986,"Ġrestore":9987,"Ġguests":9988,"Ġcounted":9989,"Ġcharms":9990,"ĠForce":9991,"Ġshowing":9992,"days":9993,"Ġbuzz":9994,"Ġinfer":9995,"atient":9996,"Ġgrowth":9997,"Ġsickly":9998,"Ġrefused":9999,"Ġopposition":10000,"ĠBrook":10001,"Ġbarbar":10002,"Ġdivided":10003,"Ġfastened":10004,"Ġpalm":10005,"Ġsimpl":10006,"Ġgarment":10007,"Ġcelebr":10008,"Ġindicate":10009,"happy":10010,"Ġarriving":10011,"myself":10012,"OLIVER":10013,"Ġspeedy":10014,"ĠLaigle":10015,"Ġlimb":10016,"Ġsatisfy":10017,"Ġstirring":10018,"Ġdeliber":10019,"Ġbigger":10020,"ĠUlysses":10021,"ramatis":10022,"Ġcontrad":10023,"Ġfrag":10024,"Ġdissatisf":10025,"Ġcellar":10026,"Ġresembles":10027,"Ġsituated":10028,"Ġpitiful":10029,"ĠPolixenes":10030,"ĠSebastian":10031,"Ġassociated":10032,"Ġassociations":10033,"Ġsource":10034,"Ġadmiration":10035,"Ġpopulace":10036,"Ġprotected":10037,"Ġcoachman":10038,"Ġimperial":10039,"Ġmournful":10040,"FRANC":10041,"Ġdistinguished":10042,"Ġshudder":10043,"Ġhyp":10044,"Ġsummoned":10045,"Ġvehicle":10046,"ĠPandarus":10047,"Ġnimble":10048,"Ġmedicine":10049,"ĠHoratio":10050,"Ġquantity":10051,"itchen":10052,"Else":10053,"ĠPersonÃ¦":10054,"WOOER":10055,"Ġenmity":10056,"Ġtrespass":10057,"!--":10058,"Em":10059,"Homme":10060,"PIR":10061,"Sometimes":10062,"Sainte":10063,"VIC":10064,"aited":10065,"cre":10066,"gard":10067,"iÃ¨re":10068,"lam":10069,"mine":10070,"pick":10071,"rone":10072,"rament":10073,"sla":10074,"ville":10075,"Ã¼":10076,"Ġtin":10077,"health":10078,"Ġale":10079,"inu":10080,"inence":10081,"Ġscience":10082,"Ġmonsieur":10083,"itus":10084,"enu":10085,"Ġcas":10086,"Ġpiteous":10087,"Ġloo":10088,"anation":10089,"Ġnuptial":10090,"Ġhare":10091,"Ġbeats":10092,"Ġeats":10093,"utland":10094,"ghter":10095,"idus":10096,"Ġrevel":10097,"Ġrenew":10098,"Ġstable":10099,"roken":10100,"races":10101,"icable":10102,"Ġsear":10103,"Ġlivery":10104,"Ġlikes":10105,"ĠCamb":10106,"ĠSyrac":10107,"Ġdoct":10108,"Ġsuitor":10109,"ĠAthen":10110,"ĠApollo":10111,"ĠHubert":10112,"unately":10113,"quer":10114,"Ġshroud":10115,"ĠBen":10116,"Ġconject":10117,"ĠLike":10118,"ĠGrand":10119,"Ġunseen":10120,"astrophe":10121,"urer":10122,"ĠDuche":10123,"ĠRutland":10124,"Ġjump":10125,"Ġoutrage":10126,"Ġrisk":10127,"Ġchose":10128,"Ġrobe":10129,"bler":10130,"owne":10131,"Ġflock":10132,"ullus":10133,"Ġrag":10134,"manner":10135,"Ġenthus":10136,"Ġhearse":10137,"Ġreserved":10138,"Noble":10139,"Ġpresents":10140,"eneas":10141,"Ġharness":10142,"jected":10143,"Ġsweetest":10144,"Ġdisturbed":10145,"Ġsignal":10146,"Ġrightly":10147,"ISSA":10148,"Ġmerrily":10149,"Ġcharitable":10150,"Ġpointing":10151,"Ġhighway":10152,"Ġsuffice":10153,"Attend":10154,"mpets":10155,"ĠStill":10156,"ĠWere":10157,"Ġskirt":10158,"Ġhelped":10159,"Ġregiment":10160,"Ġclever":10161,"Ġkissing":10162,"remained":10163,"Ġincidents":10164,"Ġparley":10165,"Ġelement":10166,"Ġveget":10167,"Ġgallop":10168,"Ġamongst":10169,"Ġpays":10170,"Ġposted":10171,"Ġhealthy":10172,"Ġcircles":10173,"loup":10174,"ĠXX":10175,"Ġconstantly":10176,"minate":10177,"Ġspeedily":10178,"Ġdetail":10179,"Comes":10180,"Ġinterested":10181,"Ġmiracle":10182,"sembled":10183,"Ġdelights":10184,"arers":10185,"HELICAN":10186,"Ġmagist":10187,"Ġpractise":10188,"Ġutterly":10189,"Ġspectacles":10190,"Ġthroats":10191,"ĠCountess":10192,"Ġdwelling":10193,"Ġowes":10194,"Ġcartridges":10195,"ĠPolonius":10196,"Ġcombatants":10197,"Adv":10198,"Ġscarcely":10199,"Ġavoided":10200,"Ġbetrayed":10201,"ITHOUS":10202,"Ġdischarged":10203,"Ġbehavi":10204,"CONSTAN":10205,"Ġmelted":10206,"eaux":10207,"Ġprocession":10208,"Ġanimals":10209,"Ġstrokes":10210,"Ġloyalty":10211,"Ġruled":10212,"Ġtyrann":10213,"Ġdetermine":10214,"FRENCH":10215,"Ġdistinguish":10216,"Ġbonnet":10217,"Ġbeggars":10218,"Ġoverwhelmed":10219,"Ġtranquil":10220,"Ġinfamy":10221,"Ġperpetual":10222,"onaparte":10223,"NERISSA":10224,"ĠTrojan":10225,"RATCLIFF":10226,"holus":10227,"Ġdukedom":10228,"Ġabominable":10229,"ĠDouglas":10230,"Ġbachelor":10231,"PIDUS":10232,"PIRITHOUS":10233,"HELICANUS":10234,"CONSTANCE":10235,"24":10236,"AY":10237,"CESTER":10238,"Happ":10239,"Henry":10240,"Imp":10241,"OCT":10242,"Rather":10243,"SC":10244,"Send":10245,"WH":10246,"bra":10247,"carry":10248,"ders":10249,"gall":10250,"gutenberg":10251,"iac":10252,"lers":10253,"opp":10254,"pany":10255,"riment":10256,"sim":10257,"sil":10258,"sire":10259,"taken":10260,"voice":10261,"ĠQUEEN":10262,"Ġath":10263,"Ġsire":10264,"hael":10265,"eration":10266,"ita":10267,"Ġfum":10268,"ority":10269,"Ġded":10270,"Ġpi":10271,"Ġpine":10272,"Ġlou":10273,"oten":10274,"asper":10275,"Ġgets":10276,"Ġgroom":10277,"idity":10278,"idated":10279,"almost":10280,"Ġmembers":10281,"terranean":10282,"Ġweeks":10283,"usions":10284,"orel":10285,"ĠCur":10286,"Ġdole":10287,"Ġsue":10288,"Ġsugar":10289,"arded":10290,"Ġnobody":10291,"Ġvass":10292,"ĠBert":10293,"ĠBlack":10294,"ĠBarsad":10295,"ĠWizard":10296,"ĠLicense":10297,"ĠGU":10298,"Ġunst":10299,"Ġunwill":10300,"ĠFer":10301,"ĠEn":10302,"ĠEmpire":10303,"ĠEnobarbus":10304,"ĠOR":10305,"ĠOther":10306,"Ġgoodman":10307,"epidus":10308,"Ġalarum":10309,"Ġcann":10310,"Ġprime":10311,"Ġblade":10312,"Ġdisin":10313,"ORCESTER":10314,"Ġenig":10315,"Ġswears":10316,"ĠJac":10317,"ĠVengeance":10318,"Ġadjo":10319,"erted":10320,"Ġoffers":10321,"beau":10322,"unts":10323,"Ġcouldst":10324,"Ġscur":10325,"Ġscold":10326,"Ġprecipit":10327,"Ġcommons":10328,"vention":10329,"enses":10330,"Ġlightly":10331,"Ġdistrict":10332,"Ġapply":10333,"ailer":10334,"Ġbelief":10335,"Ġnaturally":10336,"Ġlasted":10337,"Ġlively":10338,"Ġeloqu":10339,"Ġchem":10340,"Ġfarm":10341,"ethought":10342,"irtue":10343,"Ġhomely":10344,"Ġboat":10345,"ĠDover":10346,"Ġbanks":10347,"ĠState":10348,"Ġdoubts":10349,"ĠProvidence":10350,"Ġcoldly":10351,"Ġrefrain":10352,"Ġsights":10353,"Ġprophes":10354,"Ġoppressed":10355,"rews":10356,"Ġgallows":10357,"UTEN":10358,"Ġcoloss":10359,"Ġcomforts":10360,"Ġcomfortable":10361,"MENAS":10362,"Ġpaying":10363,"Ġhurry":10364,"flowers":10365,"Ġdetails":10366,"Ġcounsels":10367,"Ġdelightful":10368,"Ġstops":10369,"Ġhostess":10370,"Ġbells":10371,"Ġspectacle":10372,"Ġrarely":10373,"Ġsenators":10374,"Ġremarkable":10375,"Ġstruggles":10376,"Ġowl":10377,"Ġordinary":10378,"Ġmillions":10379,"ĠGentlemen":10380,"ĠQuickly":10381,"Ġwager":10382,"Ġexecutioner":10383,"Ġpierced":10384,"Ġbabes":10385,"Ġenerget":10386,"ĠRosaline":10387,"ĠXVIII":10388,"Ġextremely":10389,"Ã§on":10390,"Ġbattles":10391,"Ġwandering":10392,"Ġmusk":10393,"Strike":10394,"Ġsplendid":10395,"Return":10396,"THURIO":10397,"ĠFlorence":10398,"ĠBabet":10399,"ĠTurk":10400,"Ġmanifest":10401,"Worthy":10402,"Ġdowry":10403,"NYM":10404,"adventure":10405,"ĠProspero":10406,"ĠVoltaire":10407,"ĠAntipholus":10408,"Ġafeard":10409,"Ġunconscious":10410,"17":10411,"AIS":10412,"Fare":10413,"GUN":10414,"Giving":10415,"IOR":10416,"PL":10417,"WORCESTER":10418,"_âĢĶ":10419,"ban":10420,"both":10421,"cif":10422,"far":10423,"furn":10424,"full":10425,"fÃ©":10426,"lord":10427,"mo":10428,"mar":10429,"mons":10430,"pool":10431,"rising":10432,"took":10433,"towards":10434,"Ġrow":10435,"Ġtren":10436,"Ġalack":10437,"inf":10438,"inthe":10439,"inces":10440,"Ġfired":10441,"Ġfero":10442,"orus":10443,"onious":10444,"arth":10445,"Ġlame":10446,"Ġincess":10447,"Ġthreshold":10448,"lean":10449,"stra":10450,"alter":10451,"Ġrepl":10452,"Ġstained":10453,"uration":10454,"icide":10455,"icates":10456,"ands":10457,"ĠCade":10458,"ĠCons":10459,"ĠSur":10460,"ĠHim":10461,"ĠHIS":10462,"Ġlocked":10463,"quire":10464,"antial":10465,"artin":10466,"ĠLepidus":10467,"INCH":10468,"Ġung":10469,"Ġamen":10470,"Ġamends":10471,"ĠDis":10472,"ĠOUT":10473,"Ġblank":10474,"Ġblushing":10475,"Ġdiso":10476,"ignant":10477,"ption":10478,"Ġbrist":10479,"Ġadverse":10480,"ilding":10481,"Ġplants":10482,"many":10483,"Ġhonors":10484,"ĠMarry":10485,"Ġoverfl":10486,"Ġscra":10487,"Ġcontains":10488,"Ġenters":10489,"Ġchildish":10490,"Ġbackward":10491,"ĠYoung":10492,"Ġdistressed":10493,"lihood":10494,"Ġconfident":10495,"Ġgrind":10496,"Ġhumours":10497,"Ġ14":10498,"Ġ16":10499,"verted":10500,"Ġextingu":10501,"Ġlaying":10502,"Ġcrushed":10503,"Ġthankful":10504,"Ġpossessions":10505,"Ġmurdered":10506,"Ġuntimely":10507,"Ġdrinks":10508,"ĠMadam":10509,"Ġirr":10510,"Ġpenny":10511,"affold":10512,"Ġlists":10513,"ocation":10514,"Ġsuspected":10515,"Ġdefy":10516,"Commend":10517,"Ġidol":10518,"Ġproceedings":10519,"Ġcombined":10520,"Ġexecute":10521,"Arm":10522,"Ġbosoms":10523,"Ġcandlest":10524,"Ġwedded":10525,"Ġsystem":10526,"Ġeventually":10527,"Ġcrept":10528,"Ġinstruction":10529,"Ġsuperfl":10530,"Ġbowl":10531,"Ġcollar":10532,"Ġurge":10533,"Ġfrail":10534,"Ġuncertain":10535,"brother":10536,"Ġsenate":10537,"Ġconcern":10538,"POET":10539,"Ġprecaut":10540,"Ġwolves":10541,"Ġtempted":10542,"Ġaffliction":10543,"Ġretreated":10544,"Ġradiance":10545,"Ġswelling":10546,"BALT":10547,"Ġ1832":10548,"Ġascended":10549,"Ġprodigal":10550,"ucheloup":10551,"country":10552,"Ġrenowned":10553,"Ġwrinkled":10554,"Ġpearl":10555,"friend":10556,"Ġalarming":10557,"Ġmethod":10558,"Ġimprisonment":10559,"Edward":10560,"Ġbrilliant":10561,"Ġcalamity":10562,"TYBALT":10563,"FOURTH":10564,"BARNARD":10565,"ĠDuchess":10566,"Ġferocious":10567,"AIN":10568,"EE":10569,"Little":10570,"Messenger":10571,"Sleep":10572,"Ty":10573,"TON":10574,"burn":10575,"iverse":10576,"kens":10577,"lod":10578,"lings":10579,"mod":10580,"making":10581,"morning":10582,"nz":10583,"rates":10584,"sk":10585,"sent":10586,"soul":10587,"since":10588,"ties":10589,"upe":10590,"vial":10591,"viol":10592,"wine":10593,"yes":10594,"zel":10595,"Ã´":10596,"Ġess":10597,"Ġtu":10598,"haired":10599,"Ġma":10600,"Ġmuff":10601,"Ġfath":10602,"armed":10603,"omon":10604,"Ġhagg":10605,"ceiv":10606,"irs":10607,"ential":10608,"Ġresemble":10609,"Ġforlorn":10610,"roclus":10611,"icular":10612,"iculous":10613,"ichael":10614,"Ġdeck":10615,"Ġdearer":10616,"ĠAeneas":10617,"estor":10618,"Ġvag":10619,"Ġshower":10620,"ĠPR":10621,"ĠPh":10622,"ĠPu":10623,"ĠPed":10624,"ĠGet":10625,"ĠGoths":10626,"Ġwheat":10627,"INTER":10628,"felt":10629,"ĠFR":10630,"istered":10631,"ĠDel":10632,"ĠDost":10633,"ĠONE":10634,"ranch":10635,"Ġspider":10636,"Ġrats":10637,"Ġdiscl":10638,"Ġages":10639,"ĠJun":10640,"Ġabst":10641,"Ġbrisk":10642,"Ġchambers":10643,"LEPIDUS":10644,"Ġpled":10645,"Ġoffences":10646,"Ġrack":10647,"Ġrapier":10648,"beaut":10649,"behind":10650,"Ġhonoured":10651,"Ġbetimes":10652,"LODO":10653,"Ġcontact":10654,"ighb":10655,"Ġpasser":10656,"Ġbeget":10657,"Ã©e":10658,"Ġkeys":10659,"Ġcoast":10660,"Ġbreeding":10661,"TIT":10662,"ILDEN":10663,"why":10664,"whom":10665,"Ġapace":10666,"Ġtraged":10667,"Ġapple":10668,"Ġappoint":10669,"Ġpurity":10670,"Ġconfine":10671,"Ġconfront":10672,"QUO":10673,"Ġsecurity":10674,"Ġsubdu":10675,"ĠAny":10676,"Ġneeded":10677,"Ġmistrust":10678,"otting":10679,"Ġfoundation":10680,"Thank":10681,"Ġsunshine":10682,"success":10683,"Ġhelm":10684,"Ġcondu":10685,"OMAN":10686,"Ġstriving":10687,"Ġintended":10688,"conven":10689,"convict":10690,"ĠArras":10691,"Almost":10692,"Ġeleg":10693,"Ġcloset":10694,"ancies":10695,"ASTER":10696,"Ġmetal":10697,"Ġdevoted":10698,"Mademoiselle":10699,"Ġburd":10700,"Ġevils":10701,"Ġburned":10702,"Ġconstru":10703,"Ġtrusty":10704,"Ġeffected":10705,"ĠLauncelet":10706,"Ġremaining":10707,"Ġwooing":10708,"Ġcowards":10709,"ienne":10710,"Seeing":10711,"asca":10712,"hands":10713,"Ġexpectation":10714,"Ġpriests":10715,"Ġhiding":10716,"Ġmuttered":10717,"Ġhistor":10718,"espair":10719,"Ġbuildings":10720,"Ġconcerned":10721,"BANQUO":10722,"Ġconclude":10723,"Ġconcluded":10724,"Ġtribute":10725,"Ġrascals":10726,"Ġneglected":10727,"ĠGreeks":10728,"rsites":10729,"Better":10730,"Ġforswear":10731,"ĠEverything":10732,"Ġcommunity":10733,"ĠPeace":10734,"Ġcherish":10735,"Ġmurmur":10736,"Ġconnection":10737,"Ġaccomplished":10738,"Ġ1830":10739,"Ġneighborhood":10740,"Ġpredict":10741,"PUCK":10742,"Ġperfume":10743,"MARCELLUS":10744,"STERN":10745,"Charles":10746,"Ġgloves":10747,"Ġsustain":10748,"ĠArmÃ©":10749,"ĠFaubourg":10750,"Ġreckoning":10751,"Ġinspired":10752,"ĠPhilippe":10753,"Ġcoronation":10754,"Ġsleeve":10755,"Ġtriumphant":10756,"Ġconsumm":10757,"ĠPERCY":10758,"Ġsaucy":10759,"VICO":10760,"cifix":10761,"upef":10762,"LODOVICO":10763,"ILDENSTERN":10764,"AUS":10765,"CORD":10766,"Jondrette":10767,"Mean":10768,"Madeleine":10769,"Run":10770,"Sit":10771,"Sure":10772,"bare":10773,"claim":10774,"dro":10775,"dire":10776,"doubt":10777,"logue":10778,"maker":10779,"po":10780,"prom":10781,"roof":10782,"times":10783,"Ġtales":10784,"hel":10785,"Ġwrest":10786,"Ġmast":10787,"Ġfray":10788,"Ġdint":10789,"Ġdainty":10790,"Ġpate":10791,"Ġinner":10792,"Ġgla":10793,"Ġbelike":10794,"Ġecon":10795,"Ġejac":10796,"amour":10797,"hern":10798,"Ġstories":10799,"raint":10800,"Ġsembl":10801,"orenz":10802,"Ġherd":10803,"ĠMust":10804,"ĠCamp":10805,"ĠCitizens":10806,"ĠSure":10807,"ordered":10808,"ordelia":10809,"Ġsullen":10810,"ifth":10811,"ĠAunt":10812,"ĠAusterlitz":10813,"ardy":10814,"Things":10815,"Ġvest":10816,"Ġmantle":10817,"ousand":10818,"Ġshovel":10819,"ĠBet":10820,"ĠWelcome":10821,"Ġconceive":10822,"ĠGall":10823,"lab":10824,"laps":10825,"ĠFIS":10826,"ĠDer":10827,"Ġjot":10828,"Ġspl":10829,"Ġrings":10830,"Ġruth":10831,"Ġdisquiet":10832,"Ġenra":10833,"Ġensued":10834,"Ġenforced":10835,"teous":10836,"ĠVir":10837,"Ġsirs":10838,"bless":10839,"ickness":10840,"THAIS":10841,"Ġclay":10842,"Ġfeat":10843,"plice":10844,"retched":10845,"ierre":10846,"Ġhearth":10847,"LAW":10848,"Ġharass":10849,"Ġmightst":10850,"Ġstrew":10851,"ĠThink":10852,"oughs":10853,"Ġapprehens":10854,"Ġimpatient":10855,"Ġresting":10856,"Ġwinding":10857,"Ġwithered":10858,"CASTER":10859,"Ġpromis":10860,"ĠStreet":10861,"IDOW":10862,"Ġexpressed":10863,"ITY":10864,"ĠEdgar":10865,"Ġstrumpet":10866,"Ġjudged":10867,"vided":10868,"Ġapprove":10869,"Ġportress":10870,"Ġdivorce":10871,"ugust":10872,"ugub":10873,"Ġcraves":10874,"duced":10875,"Ġposter":10876,"Ġcalf":10877,"Ġrespected":10878,"ocate":10879,"Ġsuspended":10880,"Ġreported":10881,"Ġdriving":10882,"ĠLucio":10883,"HERMAN":10884,"Ġtitles":10885,"Dead":10886,"Ġbowels":10887,"Ġincluding":10888,"Ġheirs":10889,"Ġrobes":10890,"Ġmutiny":10891,"Ġspectre":10892,"Ġambush":10893,"Ġwhispered":10894,"ĠTyre":10895,"Ġintelligent":10896,"Ġballs":10897,"Ġconcerning":10898,"Above":10899,"Ġowed":10900,"Ġhunting":10901,"Ġregarded":10902,"Ġsuspicious":10903,"ĠSENIOR":10904,"Ġbullets":10905,"Ġministers":10906,"Ġmasked":10907,"ĠMarshal":10908,"Ġtreated":10909,"Ġreceipt":10910,"Ġqueer":10911,"Ġcabin":10912,"Ġdiligence":10913,"carriage":10914,"Ġrepresented":10915,"Ġgentleness":10916,"Ġpainting":10917,"Ġstamped":10918,"Ġwrack":10919,"Ġalarmed":10920,"Ġdazzled":10921,"paper":10922,"Ġrisen":10923,"ĠJesus":10924,"ĠConstable":10925,"Ġdialogue":10926,"EARL":10927,"Ġrhyme":10928,"John":10929,"Ġcommonwealth":10930,"ĠBarnardine":10931,"GUNDY":10932,"CORDELIA":10933,"orenzo":10934,"ĠFISHERMAN":10935,"THAISA":10936,"13":10937,"93":10938,"Che":10939,"Citizens":10940,"Dies":10941,"Fri":10942,"Four":10943,"Fall":10944,"Grantaire":10945,"KEN":10946,"Mother":10947,"Part":10948,"Ye":10949,"bird":10950,"dep":10951,"duff":10952,"ele":10953,"elect":10954,"groom":10955,"iard":10956,"iated":10957,"ially":10958,"mith":10959,"miss":10960,"matter":10961,"rish":10962,"rather":10963,"sol":10964,"uilly":10965,"vat":10966,"vag":10967,"Ġtie":10968,"inning":10969,"Ġwan":10970,"revolution":10971,"Ġtheatre":10972,"hast":10973,"eril":10974,"erate":10975,"lles":10976,"enstern":10977,"orter":10978,"Ġdame":10979,"Ġdiet":10980,"Ġtower":10981,"Ġlace":10982,"Ġnymph":10983,"Ġheel":10984,"stre":10985,"strong":10986,"ethe":10987,"ettes":10988,"uting":10989,"already":10990,"Ġrein":10991,"rick":10992,"herself":10993,"Ġstole":10994,"urbs":10995,"icole":10996,"essica":10997,"Ġlily":10998,"Ġliver":10999,"Ġansw":11000,"Ġdevelop":11001,"ĠMunch":11002,"pemant":11003,"ĠAss":11004,"Ġvio":11005,"Ġshone":11006,"ĠBec":11007,"ĠBastard":11008,"Ġconverse":11009,"ĠLam":11010,"Ġordered":11011,"ĠGarden":11012,"ĠGhost":11013,"ĠGarter":11014,"ART":11015,"ARINO":11016,"ĠFavourite":11017,"istinct":11018,"uments":11019,"umbered":11020,"ĠDuc":11021,"ĠDieu":11022,"Ġworms":11023,"opy":11024,"Ġenveloped":11025,"Ġswain":11026,"ĠJessica":11027,"Ġability":11028,"cile":11029,"ciation":11030,"CHANT":11031,"ĠNestor":11032,"Ġflames":11033,"perhaps":11034,"ĠKnow":11035,"Ġimpe":11036,"Ġrabble":11037,"abelle":11038,"death":11039,"ioch":11040,"Ġarmchair":11041,"ĠAndrew":11042,"Ġobt":11043,"ĠThurio":11044,"Ġtrave":11045,"iana":11046,"ianus":11047,"Ġimpatience":11048,"Ġguards":11049,"Ġdiscom":11050,"Ġdiscreet":11051,"Ġaffright":11052,"attorney":11053,"withstanding":11054,"ĠcurÃ©":11055,"ottom":11056,"Ġreadiness":11057,"Ġkilling":11058,"ceives":11059,"Ġdeposed":11060,"Ġthousands":11061,"Ġextended":11062,"comfort":11063,"Ġinterrog":11064,"ĠStep":11065,".âĢĶâĢľ":11066,"Ġcrush":11067,"Ġcradle":11068,"Ġinsinu":11069,"Ġpraised":11070,"Ġrefund":11071,"Ġpropri":11072,"Ġincident":11073,"Ġcryst":11074,"Ġtemples":11075,"ĠHermione":11076,"Ġdragged":11077,"Ġawak":11078,"Ġcounsell":11079,"Ã¨d":11080,"olly":11081,"minated":11082,"ocal":11083,"Ġintegr":11084,"Ġstudied":11085,"Ġdeparted":11086,"Ġconfession":11087,"Ġcopies":11088,"Ġequally":11089,"Ġwitnesses":11090,"Ġgladly":11091,"Ġinjured":11092,"Ġpassionate":11093,"Ġentertained":11094,"Ġconquered":11095,"Ġcatching":11096,"Ġtouches":11097,"Ġobliv":11098,"Ġflattering":11099,"Ġfirmly":11100,"ĠAdieu":11101,"ratiano":11102,"Ġfrowns":11103,"Ġtravelling":11104,"Ġemerge":11105,"Ġpictures":11106,"business":11107,"ĠFriends":11108,"Ġinquire":11109,"Ġdebts":11110,"Ġpreferred":11111,"window":11112,"Ġpiercing":11113,"Ġcompletely":11114,"ĠVernon":11115,"Ġdescription":11116,"SALARINO":11117,"Ġreceives":11118,"Ġprophet":11119,"Ġdisguise":11120,"English":11121,"Ġbattal":11122,"Ġscrutin":11123,"Ġsanctuary":11124,"Ġshuddered":11125,"âĢĶâĢĶâĢĶâĢĶâĢĶâĢĶâĢĶâĢĶ":11126,"Ġapplied":11127,"Ġecho":11128,"Ġechoes":11129,"ĠRossillon":11130,"ĠeBook":11131,"Ġlungs":11132,"DOLL":11133,"CAPTAIN":11134,"Ġhammer":11135,"necessary":11136,"Ġsympathy":11137,"barricade":11138,"LOUIS":11139,"Certainly":11140,"Ġindustry":11141,"ĠSolomon":11142,"Ġexhausted":11143,"Ġunlucky":11144,"Ġallegiance":11145,"Ġpattern":11146,"Ġdispersed":11147,"ĠGuildenstern":11148,"FRANCIS":11149,"ĠBertram":11150,"Ġejaculated":11151,"ugubrious":11152,"icolette":11153,"Ġanswers":11154,"pemantus":11155,"10":11156,"Ap":11157,"Alex":11158,"Bu":11159,"Boy":11160,"CER":11161,"Dramatis":11162,"Ever":11163,"Fly":11164,"Gillenormand":11165,"General":11166,"GREG":11167,"Int":11168,"ILO":11169,"Je":11170,"Live":11171,"MOWBRAY":11172,"Open":11173,"Pre":11174,"Post":11175,"Patience":11176,"Six":11177,"VELL":11178,"actor":11179,"best":11180,"bert":11181,"cock":11182,"eight":11183,"eches":11184,"find":11185,"got":11186,"green":11187,"iber":11188,"mad":11189,"nicious":11190,"sir":11191,"sic":11192,"sum":11193,"sound":11194,"try":11195,"talk":11196,"uity":11197,"Ġape":11198,"Ġawe":11199,"Ġslack":11200,"isement":11201,"Ġbail":11202,"enÃ§on":11203,"Ġditch":11204,"Ġcords":11205,"arque":11206,"Ġtops":11207,"Ġliterary":11208,"Ġhire":11209,"ashing":11210,"Ġgust":11211,"Ġgage":11212,"Ġgains":11213,"lend":11214,"iders":11215,"rier":11216,"Ġstocks":11217,"Ġstorms":11218,"rol":11219,"usc":11220,"usk":11221,"ĠCordelia":11222,"ĠSix":11223,"ĠSainte":11224,"ifying":11225,"ĠApemantus":11226,"ĠHold":11227,"Ġalliance":11228,"Ġnoon":11229,"Ġshiver":11230,"ĠBra":11231,"ĠPre":11232,"ĠWinged":11233,"ĠLo":11234,"ĠGor":11235,"INN":11236,"Ġunlike":11237,"earth":11238,"ĠOphe":11239,"Ġspots":11240,"Ġcanker":11241,"ĠJust":11242,"agement":11243,"Ġrobb":11244,"Ġroaring":11245,"CHIR":11246,"Ġbrat":11247,"Ġpeop":11248,"LEANS":11249,"until":11250,"Ġhoarse":11251,"Ġresidence":11252,"Ġcompare":11253,"Ġharbour":11254,"Ġcoats":11255,"Ġtrad":11256,"Ġslope":11257,"Ġslipped":11258,"Ġaccursed":11259,"Ġdistracted":11260,"avilion":11261,"liver":11262,"Ġimped":11263,"Ġconfined":11264,"Ġpraying":11265,"atching":11266,"Ġchanging":11267,"fecture":11268,"Ġruined":11269,"hylock":11270,"Ġeyeb":11271,"Ġmoan":11272,"within":11273,"PHIN":11274,"Ġadvancing":11275,"ceptible":11276,"ABANTIO":11277,"pray":11278,"Ġcouch":11279,"Ġmeanwhile":11280,"Ġsincere":11281,"scribe":11282,"Ġintervals":11283,"Ġintention":11284,"Ġrelieve":11285,"ĠBeing":11286,"Ġcorpses":11287,"Ġrefer":11288,"Ġreflect":11289,"Ġreasonable":11290,"Ġrang":11291,"Ġoppress":11292,"March":11293,"uesday":11294,"BOTH":11295,"Ġcarries":11296,"Ġparliament":11297,"Ġsmallest":11298,"LANCASTER":11299,"Ġgrandam":11300,"Ġgrandsire":11301,"Ġbargain":11302,"Ġcolor":11303,"Ġsixteen":11304,"Ġaware":11305,"chers":11306,"Ġleaden":11307,"Ġbarricades":11308,"Ġrespects":11309,"Ġfinan":11310,"ollect":11311,"ursday":11312,"celle":11313,"cellent":11314,"Ġdisappointing":11315,"Ġboldly":11316,"Ġmeditation":11317,"Ġreports":11318,"ĠWherefore":11319,"Ġbeastly":11320,"Ġidleness":11321,"Ġvictorious":11322,"Ġsymb":11323,"Ġbarely":11324,"Ġinjuries":11325,"Ġthrowing":11326,"Ġinclination":11327,"does":11328,"PAINTER":11329,"Ġrobber":11330,"Ġevidence":11331,"ratitude":11332,"Ġhills":11333,"Ġexpressly":11334,"Ġattacked":11335,"join":11336,"Ġpitied":11337,"Ġvexed":11338,"Ġbasin":11339,"Ġpersuaded":11340,"Ġbridegroom":11341,"consider":11342,"ĠBlunt":11343,"Ġcupboard":11344,"Ġreceiving":11345,"DAUPHIN":11346,"Ġaccomplish":11347,"ĠBassianus":11348,"ĠAlexander":11349,"Ġwaistcoat":11350,"ĠIsabella":11351,"ĠSicilia":11352,"Ġmonarchy":11353,"Ġrespond":11354,"Ġmethought":11355,"Ġspeculations":11356,"iveness":11357,"Ġgaoler":11358,"Ġbeguile":11359,"Ġcollected":11360,"Ã©tour":11361,"Ġscruple":11362,"BRABANTIO":11363,"Ġluxury":11364,"assador":11365,"ĠBoulatruelle":11366,"Ġlocated":11367,"Ġblossom":11368,"ĠDorset":11369,"complete":11370,"Ġouter":11371,"Ġmattress":11372,"Ġeclip":11373,"lapsed":11374,"Ġintegrity":11375,"GREGORY":11376,"CHIRON":11377,";âĢĶ":11378,"Co":11379,"During":11380,"Emb":11381,"Fe":11382,"Ho":11383,"Luc":11384,"Methought":11385,"OBER":11386,"PPA":11387,"RICH":11388,"Saw":11389,"Ver":11390,"WIDOW":11391,"creat":11392,"fret":11393,"fright":11394,"finger":11395,"general":11396,"late":11397,"mor":11398,"mal":11399,"power":11400,"rit":11401,"tong":11402,"vice":11403,"ware":11404,"worn":11405,"zes":11406,"Ġiv":11407,"Ġtext":11408,"hear":11409,"heads":11410,"Ġahead":11411,"inus":11412,"Ġwip":11413,"Ġwreck":11414,"oubled":11415,"hable":11416,"Ġmars":11417,"isa":11418,"Ġbund":11419,"itself":11420,"Ġfren":11421,"ester":11422,"Ġdined":11423,"Ġdote":11424,"Ġcage":11425,"Ġcities":11426,"Ġtowers":11427,"Ġlance":11428,"Ġlads":11429,"hath":11430,"Ġinund":11431,"Ġinfection":11432,"Ġgames":11433,"Ġbees":11434,"seven":11435,"Ġreap":11436,"verns":11437,"Ġstake":11438,"Ġstupef":11439,"roll":11440,"Ġwashed":11441,"ician":11442,"icial":11443,"Ġante":11444,"ĠMichael":11445,"Ġkitchen":11446,"ĠSy":11447,"ĠAaron":11448,"ĠHucheloup":11449,"unal":11450,"ulations":11451,"Ġvi":11452,"ĠBed":11453,"ĠThersites":11454,"sels":11455,"ĠWink":11456,"ERIA":11457,"ĠLieutenant":11458,"Ġfaction":11459,"istic":11460,"orts":11461,"tock":11462,"Ġamuse":11463,"ĠDavy":11464,"ĠON":11465,"ĠRivers":11466,"Ġprolong":11467,"Ġproclamation":11468,"Ġard":11469,"ĠTha":11470,"ĠTom":11471,"Ġrat":11472,"apidated":11473,"Ġabode":11474,"Ġtwink":11475,"Ġrolled":11476,"avements":11477,"Ġdenial":11478,"Ġeyel":11479,"Ġanywhere":11480,"Ġdeserv":11481,"Ġchamp":11482,"Ġimages":11483,"Ġwhereon":11484,"Ġhonorable":11485,"Ġlonging":11486,"Ġafoot":11487,"intell":11488,"Ġscaffold":11489,"Ġcontracted":11490,"dec":11491,"ocket":11492,"ETTE":11493,"Ġreplaced":11494,"Ġcoal":11495,"Ġbreeds":11496,"mered":11497,"Ġfairies":11498,"Ġconspir":11499,"Ġconsisted":11500,"Ġsubterranean":11501,"Ġillust":11502,"Ġsurv":11503,"Ġworthless":11504,"Ġcurts":11505,"Ġsilently":11506,"Ġbeauties":11507,"bye":11508,"Ġdepri":11509,"Ġstayed":11510,"Ġinspect":11511,"MARIUS":11512,"Ġoppose":11513,"Ġopposed":11514,"OTHSA":11515,"Ġdeeper":11516,"Ġdemol":11517,"Ġcracked":11518,"Ġmidday":11519,"RIPPA":11520,"Ġangles":11521,"Ġawaken":11522,"uousness":11523,"otection":11524,"Ġswearing":11525,"Ġyields":11526,"olyta":11527,"mingled":11528,"appears":11529,"minster":11530,"ocrat":11531,"velled":11532,"Ġbreasts":11533,"Ġmeddle":11534,"ginning":11535,"Ġdealing":11536,"ĠCloten":11537,"Ġbottles":11538,"sweet":11539,"Ġglasses":11540,"ĠPerhaps":11541,"Ġblem":11542,"Ġcomplicated":11543,"Ġthrift":11544,"engers":11545,"Twenty":11546,"Ġblowing":11547,"ippolyta":11548,"***":11549,"Ġgrieved":11550,"VALERIA":11551,"Ġbitterly":11552,"Ġcollection":11553,"Ġcowardly":11554,"Ġkingdoms":11555,"ĠPomfret":11556,"stead":11557,"Ġoccupy":11558,"Ġschoolmaster":11559,"Ġcruelty":11560,"BURGUNDY":11561,"Ġproofs":11562,"ĠShould":11563,"Ġroofs":11564,"Ġvexation":11565,"ĠSenate":11566,"Ġbaseness":11567,"GUILDENSTERN":11568,"Ġcaptive":11569,"Ġgreeting":11570,"eptune":11571,"ĠBerowne":11572,"Ġcorruption":11573,"ĠXIV":11574,"Ġderived":11575,"Ġsaints":11576,"Ġguiltless":11577,"Ġgleam":11578,"ĠAlexandria":11579,"Ġpenetrated":11580,"Ġconqueror":11581,"Ġunkindness":11582,"Ġcrops":11583,"Ġdisplayed":11584,"Ġdazzling":11585,"ĠPoins":11586,"Ġgardener":11587,"Ġassassin":11588,"dinand":11589,"Ġcurtains":11590,"Ġribbon":11591,"IGN":11592,"Ġproblem":11593,"ĠPatroclus":11594,"uspicious":11595,"ĠBarriÃ¨re":11596,"Ġcuirassiers":11597,"Ġpetticoat":11598,"ĠMondÃ©tour":11599,"Ġdiscovery":11600,"Ġtemporary":11601,"Ġdissatisfaction":11602,"ĠAthenian":11603,"Ġbehaviour":11604,"Ġathwart":11605,"rewsbury":11606,"Ġhaggard":11607,"Ġsemblance":11608,"ĠBecause":11609,"ĠOphelia":11610,"OBERON":11611,"OTHSAYER":11612,"19":11613,"Cap":11614,"DION":11615,"GLA":11616,"HY":11617,"Him":11618,"Lie":11619,"MOND":11620,"Over":11621,"RIC":11622,"Seem":11623,"Time":11624,"Twill":11625,"Ur":11626,"YOR":11627,"aved":11628,"bru":11629,"beneath":11630,"cir":11631,"francs":11632,"oit":11633,"sight":11634,"school":11635,"ĠUpon":11636,"Ġwakes":11637,"Ġmixed":11638,"erm":11639,"eriss":11640,"Ġbone":11641,"itimate":11642,"llies":11643,"enger":11644,"Ġcough":11645,"Ġcardinal":11646,"arison":11647,"Ġpan":11648,"Ġpuff":11649,"Ġincome":11650,"omont":11651,"otism":11652,"Ġhal":11653,"Ġgig":11654,"Ġbeque":11655,"chin":11656,"Ġebb":11657,"irmed":11658,"Ġweb":11659,"Ġstif":11660,"rait":11661,"Ġwillow":11662,"ĠMaine":11663,"thren":11664,"thousand":11665,"geons":11666,"ĠCasca":11667,"establ":11668,"Ġnod":11669,"ula":11670,"Ġvot":11671,"Ġmankind":11672,"respect":11673,"quar":11674,"qual":11675,"ENET":11676,"olt":11677,"ĠGower":11678,"ĠGAUNT":11679,"ĠGratiano":11680,"Ġunable":11681,"Ġuniverse":11682,"ĠEsc":11683,"rouvaire":11684,"Ġexhib":11685,"Ġexternal":11686,"ĠDE":11687,"ĠDu":11688,"ostard":11689,"ĠRest":11690,"ĠRem":11691,"Ġlewd":11692,"Ġjade":11693,"ĠTars":11694,"Ġspies":11695,"Ġrot":11696,"Ġram":11697,"Ġuses":11698,"Ġusher":11699,"ORLEANS":11700,"apable":11701,"Ġswept":11702,"ĠJailer":11703,"Ġabject":11704,"Ġquay":11705,"Ġwhenever":11706,"agon":11707,"ĠVaug":11708,"orns":11709,"Ġmuster":11710,"Ġdaybreak":11711,"Ġclos":11712,"Ġclasped":11713,"neath":11714,"Ġplent":11715,"berries":11716,"pless":11717,"plain":11718,"Ġrivals":11719,"Ġraw":11720,"Ġpernicious":11721,"ipes":11722,"Ġscatter":11723,"Ġscattered":11724,"Ġwrites":11725,"ontes":11726,"Ġresort":11727,"Ġarts":11728,"Ġattract":11729,"Ġcopper":11730,"Ġending":11731,"Ġsweeter":11732,"ometime":11733,"aternity":11734,"Ġdistrust":11735,"Ġdistribution":11736,"Ġconsult":11737,"Ġimprove":11738,"ĠYOU":11739,"Whereof":11740,"Ġmadman":11741,"ANTAG":11742,"isters":11743,"Ġbrace":11744,"Ġhumility":11745,"Ġcharges":11746,"Ġmischance":11747,"phil":11748,"suffic":11749,"angs":11750,"OMAS":11751,"Ġextend":11752,"ĠDoes":11753,"Ġdispos":11754,"Ġprominent":11755,"Ġintri":11756,"Ġregion":11757,"AGRIPPA":11758,"Ġlanded":11759,"Ġfooting":11760,"Ġbreathless":11761,"Ġcarriages":11762,"Ġappearing":11763,"Ġadmin":11764,"ĠJoly":11765,"ĊĠĠĠĠĠ":11766,"Ġsending":11767,"Ġapproaches":11768,"Ġcolumn":11769,"Ġdespise":11770,"Ġdespised":11771,"Ġdemonst":11772,"Ġdragon":11773,"Ġrequite":11774,"Ġfailed":11775,"Ġblessings":11776,"Ġpenalty":11777,"Ġengulf":11778,"Ġcrosses":11779,"Ġhurled":11780,"prop":11781,"Ġsecretly":11782,"Ġwretches":11783,"Ġharmless":11784,"Ġbrick":11785,"Ġmedium":11786,"Ġunfaith":11787,"Ġdetest":11788,"ĠRegan":11789,"ouncil":11790,"Ġsolicit":11791,"Ġsquad":11792,"ienna":11793,"Ġlegions":11794,"Ġhoped":11795,"Ġsnuff":11796,"Ġundertaking":11797,"Ġbitterness":11798,"Ġaccompany":11799,"Ġvoid":11800,"Ġdistressing":11801,"Ġrebel":11802,"Ġshouting":11803,"Ġclothed":11804,"Ġbondage":11805,"Ġdescending":11806,"axe":11807,"accom":11808,"Ġengagement":11809,"Quick":11810,"Ġswiftly":11811,"Ġattacks":11812,"ĠShrewsbury":11813,"Ġvolume":11814,"Ġbankrupt":11815,"ĠWestminster":11816,"Ġvirginity":11817,"uminous":11818,"Ġgayety":11819,"Ġeternity":11820,"Ġborrowed":11821,"Ġswallowed":11822,"Ġruffian":11823,"Ġfilth":11824,"Ġconsciousness":11825,"Ġclimbing":11826,"Ġclasses":11827,"Ġtrifles":11828,"ĠParolles":11829,"Ġlamps":11830,"Ġlambs":11831,"Ġfeathers":11832,"Ġelevation":11833,"Supp":11834,"Ġexpedition":11835,"irectly":11836,"WILLIAMS":11837,"ougomont":11838,"Ġfestival":11839,"rippa":11840,"ĠGoneril":11841,"Ġhospital":11842,"Beseech":11843,"Ġsinews":11844,"ĠSpanish":11845,"Ġsyllable":11846,"ĠWorcester":11847,"Ġdiscipline":11848,"SURREY":11849,"atcliffe":11850,"Ġrheum":11851,"Ġbarbarous":11852,"Ġhypoc":11853,"ĠOUTLAW":11854,"Ġoblivion":11855,"Ġbundle":11856,"ĠWinkies":11857,"erissa":11858,"ĠTarsus":11859,"ANTAGENET":11860,"22":11861,"Aw":11862,"BED":11863,"Disp":11864,"GAUNT":11865,"Hal":11866,"Lies":11867,"Swear":11868,"ball":11869,"bank":11870,"counter":11871,"dst":11872,"dish":11873,"fess":11874,"faith":11875,"horses":11876,"knew":11877,"lost":11878,"rating":11879,"sou":11880,"Ġtar":11881,"Ġtight":11882,"Ġtents":11883,"Ġactor":11884,"inqu":11885,"Ġwww":11886,"Ġost":11887,"Ġomn":11888,"isions":11889,"Ġfert":11890,"Ġfrant":11891,"Ġfitted":11892,"lla":11893,"ena":11894,"Ġdirt":11895,"Ġdirty":11896,"Ġcess":11897,"Ġcrou":11898,"Ġtoy":11899,"Ġtools":11900,"Ġpha":11901,"Ġlit":11902,"Ġlone":11903,"Ġhing":11904,"Ġyon":11905,"Ġinch":11906,"Ġthrows":11907,"Ġhay":11908,"Ġhack":11909,"âĢĻ,":11910,"Ġgathered":11911,"Ġbeam":11912,"cels":11913,"chimney":11914,"imony":11915,"enton":11916,"Ġweed":11917,"Ġstature":11918,"rails":11919,"ĠMir":11920,"ĠCostard":11921,"ĠSpir":11922,"ĠHear":11923,"unte":11924,"Ġvices":11925,"quality":11926,"ĠBring":11927,"ĠBona":11928,"ĠBah":11929,"EROS":11930,"ĠLight":11931,"Ġknives":11932,"ĠGl":11933,"laces":11934,"feet":11935,"Ġunwise":11936,"ANIEL":11937,"ĠFive":11938,"ĠFollow":11939,"ĠEros":11940,"Ġamiable":11941,"rowing":11942,"uming":11943,"Ġexit":11944,"Ġexasper":11945,"Ġju":11946,"ĠTWO":11947,"Ġprim":11948,"Ġprisons":11949,"Ġprotection":11950,"odes":11951,"Ġswoon":11952,"Ġsomewhere":11953,"civil":11954,"Ġchid":11955,"Ġchop":11956,"Ġrode":11957,"Ġhats":11958,"Ġbrut":11959,"Ġbrood":11960,"Ġfrivol":11961,"ĠNeptune":11962,"Ġflout":11963,"Ġchaf":11964,"Ġplaster":11965,"Ġrivers":11966,"Ġafar":11967,"abb":11968,"inted":11969,"Ġearned":11970,"Ġscenes":11971,"Ġpassages":11972,"Ġbegot":11973,"Ġpresume":11974,"Ġlazy":11975,"AMUS":11976,"Ġbloods":11977,"Ġworkman":11978,"Ġretain":11979,"ĠThursday":11980,"Ġpurge":11981,"ailor":11982,"Ġsuburbs":11983,"Ġcheese":11984,"Ġneedle":11985,"Ġsilken":11986,"letter":11987,"suff":11988,"Ġsufficed":11989,"Ġsteed":11990,"Ġsteward":11991,"rantz":11992,"Ġdisposed":11993,"Ġintro":11994,"ĠStand":11995,"Ġcrooked":11996,"ĠAntioch":11997,"ervation":11998,"Ġfamine":11999,"ĠMyriel":12000,"Ġincor":12001,"Ġlowered":12002,"Ġpossesses":12003,"Ġparish":12004,"iban":12005,"Ġhangman":12006,"ĠJoan":12007,"otspur":12008,"Ġdecre":12009,"Ġdecree":12010,"Ġmettle":12011,"Ġdivide":12012,"Ġactive":12013,"Ġsufferance":12014,"Ġpatiently":12015,"Ġcravat":12016,"uously":12017,"ĠChurch":12018,"ATHANIEL":12019,"Ġlabors":12020,"nights":12021,"Ġcontinu":12022,"Ġmode":12023,"velle":12024,"eshrew":12025,"coach":12026,"Ġacquired":12027,"Ġviewed":12028,"Ġstirs":12029,"Ġstirred":12030,"Ġdrift":12031,"Ġinvest":12032,"Ġfifth":12033,"Ġlegal":12034,"Ġdiest":12035,"Ġerrors":12036,"ĠUr":12037,"Twixt":12038,"Ġexamine":12039,"Ġimagined":12040,"Ġsuperst":12041,"Ġparticip":12042,"mediately":12043,"Ġgrieves":12044,"Ġstopp":12045,"Ġpatron":12046,"Ġdespairing":12047,"Ġmutual":12048,"Ġlodg":12049,"Lead":12050,"Ġverd":12051,"Ġverge":12052,"Ġmissing":12053,"Ġthicket":12054,"Ġstormy":12055,"Ġreigned":12056,"Ġshores":12057,"Ġbands":12058,"second":12059,"Ġextremes":12060,"Ġapartment":12061,"Ġpersuasion":12062,"Ġpeasants":12063,"ĠCorioles":12064,"Ġpotent":12065,"ĠMacduff":12066,"Ġheavier":12067,"ĠTHAT":12068,"visible":12069,"Ġdiseases":12070,"Ġwinged":12071,"Ġfilthy":12072,"warf":12073,"ĠRobin":12074,"SOOTHSAYER":12075,"evening":12076,"Ġloathsome":12077,"Ġholp":12078,"Ġwrinkles":12079,"ĠSpain":12080,"world":12081,"minded":12082,"Ġfoli":12083,"Ġsuggested":12084,"Ġadversity":12085,"Ġobservation":12086,"Ġinfected":12087,"Ġastonished":12088,"shadows":12089,"ĠeBooks":12090,"Ġfulfil":12091,"Ġbereft":12092,"Ã¢te":12093,"Ġtalents":12094,"ĠKatherina":12095,"Ġdiamonds":12096,"Ġinhabitants":12097,"Ġpreviously":12098,"ĠOctavia":12099,"OXFORD":12100,"Ġcomrades":12101,"JEAN":12102,"Ġcultivate":12103,"Ġphantom":12104,"Ġwhirlwind":12105,"Ġconvenient":12106,"Witness":12107,"idelity":12108,"Ġcompleted":12109,"Ġscholar":12110,"Ġvassal":12111,"ĠFerdinand":12112,"INCHESTER":12113,"ĠDerby":12114,"KENBURY":12115,"electronic":12116,"Ġobtained":12117,"Ġcrystal":12118,"RICHMOND":12119,"Ac":12120,"Bless":12121,"Dr":12122,"Duke":12123,"Gl":12124,"JESS":12125,"LIUS":12126,"Listen":12127,"MOP":12128,"MAMIL":12129,"Nature":12130,"NATHANIEL":12131,"Other":12132,"OFF":12133,"OUN":12134,"Touch":12135,"Warwick":12136,"WINCHESTER":12137,"aur":12138,"bid":12139,"brought":12140,"cas":12141,"cur":12142,"div":12143,"dles":12144,"drew":12145,"fin":12146,"free":12147,"fac":12148,"high":12149,"line":12150,"lasting":12151,"mitted":12152,"nor":12153,"oons":12154,"rons":12155,"sal":12156,"sleep":12157,"suddenly":12158,"Ġaven":12159,"Ġsche":12160,"Ġwenches":12161,"erver":12162,"Ġbou":12163,"Ġbast":12164,"itations":12165,"Ġfaster":12166,"onis":12167,"Ġdat":12168,"Ġcards":12169,"Ġcertainty":12170,"Ġlicense":12171,"Ġnigh":12172,"Ġnurs":12173,"Ġnumer":12174,"Ġinformed":12175,"atine":12176,"Ġthre":12177,"otte":12178,"Ġgained":12179,"Ġbethink":12180,"leg":12181,"left":12182,"semb":12183,"stock":12184,"Ġreverses":12185,"Ġreceiv":12186,"rice":12187,"terns":12188,"terrible":12189,"roit":12190,"icip":12191,"ĠMis":12192,"iless":12193,"ĠCouncil":12194,"ĠSE":12195,"ĠST":12196,"Ġsul":12197,"ĠAG":12198,"ĠAugust":12199,"ĠHippolyta":12200,"ĠHotspur":12201,"Ġallowing":12202,"Ġnois":12203,"Ġnodd":12204,"allel":12205,"Ġloins":12206,"Ġloaded":12207,"Ġmans":12208,"ĠLorenzo":12209,"Ġupward":12210,"Ġuphold":12211,"Ġfacing":12212,"ARR":12213,"ARRO":12214,"lache":12215,"Ġunse":12216,"Ġunhealth":12217,"Ġamend":12218,"umps":12219,"elan":12220,"Ġexagger":12221,"eping":12222,"Ġaloof":12223,"Ġaloft":12224,"ĠToulon":12225,"Ġspurs":12226,"Ġsplit":12227,"Ġrites":12228,"Ġensue":12229,"ĠHec":12230,"ittance":12231,"Ġchronic":12232,"ignier":12233,"Ġroots":12234,"ĠNew":12235,"Ġado":12236,"Ġadul":12237,"Ġdesper":12238,"Ġclub":12239,"Ġclosing":12240,"ilet":12241,"Ġfollies":12242,"untary":12243,"Ġpleases":12244,"Ġscape":12245,"Ġnightly":12246,"Ġnightfall":12247,"Ġremote":12248,"acon":12249,"Ġserving":12250,"Ġdownfall":12251,"Ġarmies":12252,"Ã©s":12253,"ICA":12254,"Ġreplace":12255,"Ġthroughout":12256,"Ġcox":12257,"Ġbrethren":12258,"ensity":12259,"TIMER":12260,"Ġaccents":12261,"ILOR":12262,"Ġendured":12263,"Ġpersist":12264,"liest":12265,"Ġimpert":12266,"Ġhappier":12267,"Ġtreasons":12268,"Ġrests":12269,"Ġrubb":12270,"Ġmoist":12271,"Ġcurb":12272,"Ġplayers":12273,"ABHOR":12274,"sues":12275,"Ġfireplace":12276,"Ġcapacity":12277,"anything":12278,"Ġlays":12279,"Ġprofane":12280,"Ġintents":12281,"Ġrelation":12282,"Ġrelate":12283,"Ġgraceful":12284,"Ġcorrection":12285,"Ġinsist":12286,"ervais":12287,"remember":12288,"Ġthanked":12289,"Ġdirections":12290,"Ġjudges":12291,"Ġdecision":12292,"Ġgrandeur":12293,"Ġdivined":12294,"CORIN":12295,"Ġembass":12296,"Ġembraced":12297,"chery":12298,"ĠXII":12299,"ĠXIII":12300,"Ġbenevol":12301,"ĠLeontes":12302,"ĠAlarum":12303,"Proceed":12304,"Ġmodel":12305,"Ġmounting":12306,"flies":12307,"Ġdetect":12308,"Ġstudies":12309,"Ġidiot":12310,"Ġcenturies":12311,"Ġopens":12312,"Ġpainter":12313,"Ġeighteen":12314,"Ġdelighted":12315,"Ġplucked":12316,"GHOST":12317,"Ġscarlet":12318,"Ġdeserts":12319,"Ġridiculous":12320,"Ġauthorities":12321,"Ġdoublet":12322,"Ġquietly":12323,"Ġexpectations":12324,"armes":12325,"ĠHelp":12326,"Ġstarve":12327,"Ġdomin":12328,"Ġventured":12329,"Ġvarlet":12330,"Ġgovernor":12331,"Ġreaching":12332,"Ġslightly":12333,"Ġknocked":12334,"Ġcloudy":12335,"Ġballad":12336,"Ġencounters":12337,"contin":12338,"Ġseparate":12339,"BUSHY":12340,"Ġincreased":12341,"Ġvolupt":12342,"Ġnegro":12343,"VERNON":12344,"Adieu":12345,"Ġodor":12346,"Ġinquir":12347,"Ġheaps":12348,"Ġaugust":12349,"Ġshops":12350,"Enough":12351,"OSRIC":12352,"ĠXVI":12353,"Ġsparks":12354,"ĠBernard":12355,"ĠBelarius":12356,"Ġsprings":12357,"Courage":12358,"BRAKENBURY":12359,"Ġextravag":12360,"carried":12361,"constant":12362,"henomen":12363,"honour":12364,"Ġdarling":12365,"Ġperjury":12366,"figured":12367,"Ġhinder":12368,"Ġgardens":12369,"owardly":12370,"Ġpupil":12371,"Ġeggs":12372,"Ġforsake":12373,"ĠBusiness":12374,"Ġmerciful":12375,"overnment":12376,"Ġfatigue":12377,"Ġachieve":12378,"Ġancestors":12379,"ĠPhoebe":12380,"Ġacknowledge":12381,"Ġcovet":12382,"ĠLawrence":12383,"Ġvanquished":12384,"Ġunsatisfactory":12385,"Ġcelebrated":12386,"Ġprophesy":12387,"Ġenergetic":12388,"PLANTAGENET":12389,"Ġsuperfluous":12390,"Ġpledge":12391,"lendower":12392,"Ġresponded":12393,"Ġeyelids":12394,"JESSICA":12395,"MOPSA":12396,"MAMILLIUS":12397,"OUNG":12398,"lachevelle":12399,"ABHORSON":12400,"48":12401,":--":12402,"Dre":12403,"French":12404,"False":12405,"Hard":12406,"Lu":12407,"Merry":12408,"Near":12409,"Pol":12410,"Ste":12411,"SOL":12412,"Stop":12413,"Tr":12414,"Talk":12415,"Yield":12416,"actions":12417,"broken":12418,"det":12419,"dam":12420,"fat":12421,"fly":12422,"fool":12423,"houses":12424,"obs":12425,"pop":12426,"squ":12427,"uzz":12428,"vous":12429,"vied":12430,"wild":12431,"Ġtaint":12432,"Ġtainted":12433,"Ġah":12434,"Ġsne":12435,"Ġsang":12436,"reements":12437,"hapen":12438,"Ġomit":12439,"ercy":12440,"Ġbits":12441,"Ġfel":12442,"Ġfancies":12443,"enough":12444,"Ġtoad":12445,"Ġpir":12446,"Ġpavilion":12447,"Ġphenomen":12448,"Ġlime":12449,"Ġlugubrious":12450,"Ġhides":12451,"ange":12452,"Ġhey":12453,"Ġinconven":12454,"Ġthigh":12455,"Ġgorge":12456,"Ġgaunt":12457,"leave":12458,"separ":12459,"sters":12460,"stud":12461,"cet":12462,"Ġegg":12463,"illa":12464,"iration":12465,"ioned":12466,"Ġmeal":12467,"Ġmead":12468,"urred":12469,"raise":12470,"Ġsewers":12471,"Ġdegr":12472,"ĠMine":12473,"ĠHol":12474,"romwell":12475,"unciation":12476,"Ġlog":12477,"ĠPir":12478,"ĠPubl":12479,"ĠPope":12480,"ĠWidow":12481,"ĠWalter":12482,"rude":12483,"ĠLife":12484,"Ġknocks":12485,"emaker":12486,"ĠGreen":12487,"ĠGolden":12488,"Ġsails":12489,"ĠFROM":12490,"Ġthereto":12491,"ĠDant":12492,"ĠRuss":12493,"Ġworser":12494,"Ġprover":12495,"Ġarray":12496,"Ġaltered":12497,"ĠTer":12498,"Ġratt":12499,"Ġrattle":12500,"Ġrider":12501,"Ġrushes":12502,"Ġdishes":12503,"Ġenchan":12504,"Ġenlight":12505,"cible":12506,"Ġchick":12507,"Ġherein":12508,"Ġspell":12509,"Ġspecies":12510,"blind":12511,"THER":12512,"Ġclothing":12513,"neighb":12514,"Ġfeature":12515,"Item":12516,"ĠMariana":12517,"Ġnighting":12518,"Ġwayward":12519,"Ġremo":12520,"answer":12521,"offee":12522,"Ġunderneath":12523,"Ġcomply":12524,"Beaut":12525,"ulture":12526,"ulties":12527,"Ġcourses":12528,"Ġcourteous":12529,"Ġemotions":12530,"ensions":12531,"whose":12532,"Ġsweetness":12533,"Ġhourly":12534,"ĠĠĠĠĠĠĠĠĠĠ":12535,"ĠĠĠĠĠĠĠĠĠĠĠĠ":12536,"Ġsignior":12537,"Ġmadly":12538,"Ġruins":12539,"author":12540,"Ġmerits":12541,"fortunes":12542,"Ġdiscuss":12543,"Ġaffords":12544,"Ġkinds":12545,"Ġmistook":12546,"Ġinfall":12547,"score":12548,"Ġextric":12549,"Ġvisits":12550,"Uncle":12551,"Ġrelish":12552,"Ġexpiration":12553,"steries":12554,"Ġfootsteps":12555,"Ġlowly":12556,"Ġlowest":12557,"Ġdrawer":12558,"ibus":12559,"ĠHerald":12560,"Ġapproved":12561,"Ġbarred":12562,"Ġpolished":12563,"Ġseconds":12564,"IMON":12565,"Ġestrange":12566,"Ġestimation":12567,"Ġposts":12568,"prob":12569,"Ġrealized":12570,"Ġconstruction":12571,"Ġcarp":12572,"Ġthreats":12573,"Ġrevolutions":12574,"Ġmoonlight":12575,"Ġwoollen":12576,"Ġinvited":12577,"ouncing":12578,"Ġsolic":12579,"Ġblew":12580,"Ġstarts":12581,"Ġcheerfully":12582,"Ġscorns":12583,"Ġchurchyard":12584,"Ġcatastrophe":12585,"ĠHelic":12586,"ĠTitan":12587,"Ġspectators":12588,"Ġprocure":12589,"ĠCountry":12590,"Ġballoon":12591,"Ġresemblance":12592,"Ġdwells":12593,"Ġconviction":12594,"Ġmingle":12595,"Play":12596,"ĠRosenc":12597,"Perchance":12598,"Ġneighbours":12599,"Ġfolds":12600,"GUE":12601,"Ġadventures":12602,"Ġaugurs":12603,"Ġsailors":12604,"Ġdescribed":12605,"Ġdisagreements":12606,"Content":12607,"Ġkinsmen":12608,"ributed":12609,"Scarecrow":12610,"ĠItalian":12611,"Ġpurchased":12612,"ulsive":12613,"Ġsufficiently":12614,"Ġsprung":12615,"Ġestablishment":12616,"Ġdilapidated":12617,"Ġdiscontented":12618,"ĠCaliban":12619,"ĠOfficer":12620,"Ġinfantry":12621,"ĠAgrippa":12622,"Ġrepresent":12623,"Ġbalance":12624,"Ġheroic":12625,"recogn":12626,"Ġpearls":12627,"Ġhesitation":12628,"Ġshrill":12629,"ĠPisa":12630,"Ġfloating":12631,"Ġrecoiled":12632,"Ġthorns":12633,"ĠCressida":12634,"Ġconverted":12635,"Ġcrimson":12636,"Ġcriminal":12637,"Ġliquor":12638,"ĠKatherine":12639,"Ġpupils":12640,"Ġstammered":12641,"ĠSimplice":12642,"Ġdistributing":12643,"Ġcritic":12644,"Ġaspirations":12645,"ĠTribunes":12646,"Ġgnaw":12647,"Calvaire":12648,"Ġvenerable":12649,"ĠAbbÃ©":12650,"Ġapparition":12651,"ĠChamberlain":12652,"Ġadopted":12653,"Ġcontradict":12654,"Ġadjoining":12655,"Ġscurvy":12656,"Ġincessantly":12657,"Ġdisobed":12658,"Ġextinguished":12659,"Ġcandlesticks":12660,"ĠPucelle":12661,"ĠJuno":12662,"Ġtragedy":12663,"Ġsubdued":12664,"Ġfinancial":12665,"bruary":12666,"ĠRosencrantz":12667,"52":12668,"Ag":12669,"ATER":12670,"Ban":12671,"Bishop":12672,"Chan":12673,"Cond":12674,"DICK":12675,"Et":12676,"Fetch":12677,"Kiss":12678,"PAN":12679,"Sw":12680,"Sub":12681,"Villain":12682,"WELL":12683,"WOMAN":12684,"bi":12685,"bbed":12686,"bread":12687,"city":12688,"fif":12689,"fits":12690,"ga":12691,"hill":12692,"je":12693,"kers":12694,"low":12695,"lay":12696,"mill":12697,"mell":12698,"pin":12699,"pot":12700,"pill":12701,"pose":12702,"public":12703,"possible":12704,"sn":12705,"uated":12706,"Ġtil":12707,"Ġtick":12708,"Ġau":12709,"Ġafore":12710,"Ġacted":12711,"inch":12712,"inies":12713,"Ġwages":12714,"ref":12715,"hair":12716,"Ġoy":12717,"Ġdower":12718,"Ġdash":12719,"Ġdamp":12720,"Ġdrows":12721,"Ġdining":12722,"Ġcows":12723,"ednes":12724,"Ġprud":12725,"Ġlass":12726,"Ġlute":12727,"Ġineff":12728,"Ġhaven":12729,"Ġgilt":12730,"lear":12731,"lead":12732,"Ġissued":12733,"Ġnotwithstanding":12734,"rio":12735,"riot":12736,"Ġmeets":12737,"ouring":12738,"Ġseed":12739,"Ġseasons":12740,"Ġlief":12741,"Ġanointed":12742,"cture":12743,"cturn":12744,"Ġherbs":12745,"ĠMost":12746,"Ġken":12747,"ĠSH":12748,"Ġsuret":12749,"Ġsums":12750,"Ġbutton":12751,"ulating":12752,"Thine":12753,"ousins":12754,"Ġshaken":12755,"antages":12756,"ĠBig":12757,"ĠThebes":12758,"hano":12759,"ĠPart":12760,"ĠPlease":12761,"ruit":12762,"ĠLark":12763,"Ġorator":12764,"ĠGlendower":12765,"Ġsap":12766,"Ġwhet":12767,"Ġfaub":12768,"laus":12769,"Ġunsc":12770,"ĠFool":12771,"ĠFifth":12772,"ĠFenton":12773,"Ġwhatsoever":12774,"Ġexempt":12775,"Ġourself":12776,"Ġworried":12777,"Ġknowest":12778,"Ġjar":12779,"Ġjaws":12780,"opened":12781,"Ġdislike":12782,"ods":12783,"Ġagreeable":12784,"teenth":12785,"Ġbrats":12786,"ĠNed":12787,"ĠNOT":12788,"ALEX":12789,"Ass":12790,"Ġclown":12791,"perfect":12792,"aching":12793,"Ġribs":12794,"Ġdenote":12795,"abeth":12796,"Ġscent":12797,"izabeth":12798,"Ġglances":12799,"llowed":12800,"former":12801,"Ġresour":12802,"Ġcompound":12803,"Ġcomposition":12804,"Ġrepublic":12805,"Ġseemingly":12806,"ĠThrough":12807,"arson":12808,"Ġevermore":12809,"Whereto":12810,"Ġconfed":12811,"Ġtremend":12812,"Ġrecently":12813,"versing":12814,"Ġillicit":12815,"Ġdisclaim":12816,"Ġreturning":12817,"Ġshowers":12818,"Ġcurs":12819,"Ġforthwith":12820,"Ġhopeful":12821,"Ġmomentary":12822,"exec":12823,"suing":12824,"angle":12825,"ieties":12826,"Ġcourts":12827,"Ġinterchange":12828,"eyed":12829,"Ġcorresp":12830,"Ġcram":12831,"conce":12832,"Ġshameful":12833,"Ġcavern":12834,"Ġshades":12835,"REIGN":12836,"Ġpastime":12837,"Ġgallery":12838,"ugby":12839,"Ġfailing":12840,"ĠLeave":12841,"ribly":12842,"ĠAlenÃ§on":12843,"ursions":12844,"Ġmeditated":12845,"Ġdetested":12846,"ĠPerd":12847,"Ġsolitude":12848,"Ġedif":12849,"Ġsym":12850,"MERCHANT":12851,"Ġgrove":12852,"ixture":12853,"Ġcathed":12854,"Ġexplanation":12855,"Ġlodged":12856,"Ġtearing":12857,"Ġmasses":12858,"ĠTitinius":12859,"Ġpunished":12860,"Ġvaried":12861,"Ġvariety":12862,"Stands":12863,"Ġprofoundly":12864,"ĠCounty":12865,"ĠLADY":12866,"Ġfruitful":12867,"Ġsituations":12868,"Pluck":12869,"Ġclimbed":12870,"regular":12871,"ĠLovell":12872,"Ġsolemnity":12873,"Ġproperly":12874,"Ġdispleased":12875,"keeping":12876,"conscience":12877,"Ġingratitude":12878,"Ġperilous":12879,"SILVIUS":12880,"Ġacquaintances":12881,"Ġprecedent":12882,"Brutus":12883,"presence":12884,"Ġbills":12885,"Ġlanterns":12886,"gnant":12887,"Ġwhispering":12888,"Ġendeavor":12889,"Everything":12890,"ĠAmong":12891,"MONTANO":12892,"Ġplanted":12893,"Ġpenetrate":12894,"Ġgathering":12895,"Ġdeceitful":12896,"Ġunfolded":12897,"Ġmotive":12898,"Ġnailed":12899,"Ġholid":12900,"Ġornaments":12901,"Ġseventy":12902,"Ġseventeen":12903,"Ġinfamous":12904,"Ġdarted":12905,"Ġmeasures":12906,"Ġfrequently":12907,"Ġhomage":12908,"Ġthirsty":12909,"Ġingenious":12910,"ĠKeeper":12911,"Ġintoxicated":12912,"Command":12913,"Ġwhistle":12914,"ĠCornwall":12915,"Ġlarger":12916,"SIMPLE":12917,"ĠCollatine":12918,"ĠDenmark":12919,"Ġcontagion":12920,"spring":12921,"craft":12922,"Ġenviron":12923,"Ã¼cher":12924,"Ġchemise":12925,"Tybalt":12926,"Ġapprehension":12927,"philosop":12928,"Ġfrantic":12929,"ĠBahorel":12930,"OFFICER":12931,"Ġrubbish":12932,"ednesday":12933,"Ġineffable":12934,"Ġfaubour":12935,"REIGNIER":12936,".)":12937,"Add":12938,"Cart":12939,"Desp":12940,"EBE":12941,"Gain":12942,"Last":12943,"MENT":12944,"OEBE":12945,"Pers":12946,"POR":12947,"Sister":12948,"SOLDIER":12949,"Silence":12950,"Tra":12951,"Tush":12952,"VE":12953,"VEN":12954,"YOUNG":12955,"bation":12956,"cart":12957,"cary":12958,"dress":12959,"dressed":12960,"danger":12961,"evid":12962,"gest":12963,"gun":12964,"gaz":12965,"girl":12966,"giving":12967,"home":12968,"hine":12969,"iate":12970,"lady":12971,"mos":12972,"nant":12973,"oble":12974,"pow":12975,"pse":12976,"pleas":12977,"posed":12978,"pieces":12979,"placed":12980,"sad":12981,"van":12982,"voc":12983,"view":12984,"yn":12985,"Ġtun":12986,"heres":12987,"Ġaz":12988,"incul":12989,"Ġsow":12990,"Ġsurn":12991,"Ġwilful":12992,"render":12993,"recy":12994,"repid":12995,"ouble":12996,"Ġmap":12997,"Ġmuse":12998,"isse":12999,"Ġbaker":13000,"Ġfiles":13001,"enched":13002,"Ġduck":13003,"Ġdwarf":13004,"Ġcake":13005,"Ġcush":13006,"arp":13007,"Ġpell":13008,"Ġpend":13009,"Ġpane":13010,"Ġpoured":13011,"Ġpounds":13012,"Ġlull":13013,"Ġluminous":13014,"Ġhut":13015,"Ġnour":13016,"Ġnick":13017,"Ġheinous":13018,"Ġinches":13019,"ĠIras":13020,"imo":13021,"Ġelapsed":13022,"uttered":13023,"Ġwhir":13024,"Ġmeed":13025,"Ġstated":13026,"Ġstalk":13027,"rolled":13028,"urous":13029,"rable":13030,"raised":13031,"ores":13032,"Ġdeuce":13033,"geois":13034,"pear":13035,"anda":13036,"ĠCromwell":13037,"ĠShylock":13038,"ifer":13039,"ĠAud":13040,"unicip":13041,"Ġvouch":13042,"ĠBa":13043,"ĠPant":13044,"ĠProuvaire":13045,"Ġconsec":13046,"Ġkna":13047,"emp":13048,"embroke":13049,"ola":13050,"ĠGr":13051,"ĠGue":13052,"ĠGervais":13053,"Ġsaving":13054,"ARTHUR":13055,"feits":13056,"ustere":13057,"Ġunruly":13058,"ANIA":13059,"isting":13060,"Ġamity":13061,".âĢĿ_":13062,"aund":13063,"ĠDoth":13064,"ĠRou":13065,"Ġarbit":13066,"atherine":13067,"Ġblast":13068,"Ġdisappear":13069,"Ġlikelihood":13070,"Ġabound":13071,"agre":13072,"agne":13073,"Ġhandful":13074,"ĠVienna":13075,"Ġspeeches":13076,"Ġpox":13077,"ĠNear":13078,"ĠNym":13079,"ALA":13080,"Ġdeserving":13081,"Ġchaos":13082,"Ġplaint":13083,"Exc":13084,"Except":13085,"Ġfoil":13086,"play":13087,"Ġrapt":13088,"Ġafresh":13089,"LOVELL":13090,"ĠIts":13091,"Ġscant":13092,"deep":13093,"Ġpassengers":13094,"Ġpassenger":13095,"show":13096,"short":13097,"gery":13098,"Ġprejud":13099,"Ġcommod":13100,"ICIAN":13101,"Ġattained":13102,"Ġattorney":13103,"Ġcoals":13104,"Ġaccum":13105,"Ġobsequ":13106,"Ġapron":13107,"Ġdistribute":13108,"Ġdistemper":13109,"avarre":13110,"lived":13111,"Ġeverlasting":13112,"Ġprays":13113,"Ġgrated":13114,"Ġtreas":13115,"Ġtrials":13116,"Ġrue":13117,"Ġbrazen":13118,"Ġsurfeit":13119,"PHOEBE":13120,"Ġhopeless":13121,"ĠPrithee":13122,"Ġ15":13123,"Ġstring":13124,"except":13125,"Ġsuffers":13126,"Ġhelps":13127,"whether":13128,"ĠParisian":13129,"Ġprofits":13130,"Ġsentiment":13131,"eye":13132,"ĠStay":13133,"Ġskilful":13134,"Ġwatery":13135,"ĠAtt":13136,"Ġredoubled":13137,"appro":13138,"racing":13139,"ibilities":13140,"asked":13141,"Ġelection":13142,"ancer":13143,"Ġsummit":13144,"Ġgalley":13145,"Ġmetap":13146,"Ġactually":13147,"Ġfills":13148,"ĠFrenchman":13149,"Ġposting":13150,"Ġquestioned":13151,"Ġselfsame":13152,"Ġvillainous":13153,"Ġcrossing":13154,"ĠEnglishman":13155,"Ġhurl":13156,"Ġcircul":13157,"Ġlabyr":13158,"appearing":13159,"Ġconstancy":13160,"Ġtenderly":13161,"Prove":13162,"Ġdestined":13163,"Ġmodern":13164,"settled":13165,"Ġboldness":13166,"bourgeois":13167,"rooms":13168,".âĢĻâĢĿ":13169,"Ġlacks":13170,"Ġsuitors":13171,"Ġlibrary":13172,"Ġslender":13173,"Ġviolently":13174,"Hadst":13175,"Ġmocking":13176,"Ġinjustice":13177,"Ġpursuing":13178,"rical":13179,"DOWER":13180,"Ġshutters":13181,"Ġtorches":13182,"Ġrobust":13183,"Ġsensation":13184,"ĠWithin":13185,"Ġacceptance":13186,"ĠChapter":13187,"Ġimportance":13188,"Ġfragment":13189,"Ġproclaimed":13190,"Ġsmoking":13191,"Ġshipw":13192,"Ġhunted":13193,"Ġstealing":13194,"Ġgrossly":13195,"Ġbridal":13196,"saying":13197,"Ġwagon":13198,"ĠCleon":13199,"Ġobtaining":13200,"Ġcherished":13201,"Ġtravelers":13202,"LENDOWER":13203,"Ġsparkling":13204,"Ġgroups":13205,"Ġchateau":13206,"Ġdestroyed":13207,"Ġwonders":13208,"iasm":13209,"Ġclap":13210,"ĠCalais":13211,"Ġbalm":13212,"Ġpuiss":13213,"ĠNeither":13214,"honest":13215,"According":13216,"othecary":13217,"Ġclamour":13218,"Ġembarrassment":13219,"Ġcuckoo":13220,"Ġnobleness":13221,"Ġperjured":13222,"Chapter":13223,"Ġvehicles":13224,"ĠDiomedes":13225,"Ġindignation":13226,"followed":13227,"Ġaccusation":13228,"ĠElizabeth":13229,"DOLABELLA":13230,"often":13231,"Ġabundant":13232,"Ġabundance":13233,"ĠOctavius":13234,"Denis":13235,"grandfather":13236,"Ġbattery":13237,"Ġcordial":13238,"Ġvicinity":13239,"Ġcottage":13240,"Ġlatest":13241,"Ġdeposited":13242,"Ġbewildered":13243,"Ġpilgrimage":13244,"ĠMessala":13245,"DULPH":13246,"Ġnegligence":13247,"ĠJaques":13248,"precedented":13249,"Ġsimplicity":13250,"ĠSyracuse":13251,"Ġeloquence":13252,"ĠSurrey":13253,"TITANIA":13254,"Ġenraged":13255,"CERIMON":13256,"ĠGorbeau":13257,"BEDFORD":13258,"Half":13259,"Ġlonely":13260,"Ġfoliage":13261,"Ġnumerous":13262,"ĠPublius":13263,"cturnal":13264,"ĠPerdita":13265,"PORTER":13266,").":13267,"Best":13268,"Cut":13269,"Cass":13270,"Fool":13271,"Gra":13272,"Gloucester":13273,"GARDIN":13274,"GLENDOWER":13275,"Harry":13276,"Light":13277,"Lend":13278,"Mars":13279,"NIGHT":13280,"NOX":13281,"OSS":13282,"Rel":13283,"Soldiers":13284,"Sometime":13285,"TYR":13286,"bal":13287,"call":13288,"fam":13289,"gam":13290,"gown":13291,"hide":13292,"holes":13293,"lim":13294,"mil":13295,"nature":13296,"obl":13297,"pas":13298,"pence":13299,"pardon":13300,"taking":13301,"true":13302,"ubs":13303,"vation":13304,"zier":13305,"Ġ|":13306,"Ġtut":13307,"Ġtack":13308,"Ġtutor":13309,"Ġwrang":13310,"Ġwreath":13311,"revet":13312,"ndom":13313,"Ġmas":13314,"Ġmum":13315,"Ġbat":13316,"itan":13317,"itches":13318,"Ġcoffee":13319,"Ġpent":13320,"Ġpig":13321,"Ġpud":13322,"Ġpatch":13323,"Ġpavements":13324,"Ġlatch":13325,"Ġliter":13326,"Ġlouis":13327,"Ġhired":13328,"Ġhem":13329,"athan":13330,"Ġthund":13331,"Ġbeto":13332,"cember":13333,"ims":13334,"Ġecc":13335,"Ġepit":13336,"adays":13337,"Ġrehe":13338,"Ġreass":13339,"Ġmysteries":13340,"hers":13341,"vertis":13342,"Ġstove":13343,"Ġassembled":13344,"Ġserene":13345,"ession":13346,"Ġdeformed":13347,"ĠMOR":13348,"ĠMene":13349,"peace":13350,"andy":13351,"ĠChat":13352,"ĠCAR":13353,"ĠCertain":13354,"ĠSn":13355,"ĠSu":13356,"ĠSomething":13357,"Ġdol":13358,"orders":13359,"uncle":13360,"allow":13361,"Ġlocal":13362,"ulent":13363,"Ġvous":13364,"Ġviv":13365,"Ġvicious":13366,"Ġsham":13367,"antime":13368,"ĠBull":13369,"ĠBonaparte":13370,"ĠPoly":13371,"ĠLou":13372,"ĠLand":13373,"ĠLod":13374,"ĠLartius":13375,"Ġuprising":13376,"olated":13377,"ppers":13378,"Ġcomment":13379,"astrous":13380,"ĠFla":13381,"ĠFOUR":13382,"ĠEr":13383,"ĠELEANOR":13384,"toe":13385,"roward":13386,"venu":13387,"ums":13388,"umaine":13389,"Ġgover":13390,"ĠDion":13391,"ĠOver":13392,"oster":13393,"Ġproves":13394,"Ġprologue":13395,"ĠTR":13396,"ĠTuesday":13397,"Ġspin":13398,"Ġspar":13399,"Ġcane":13400,"Ġrays":13401,"Ġbloom":13402,"Ġengend":13403,"Ġquaint":13404,"chest":13405,"Ġdidn":13406,"cibi":13407,"Ġchoke":13408,"ignor":13409,"Ġhates":13410,"ĠNicolette":13411,"ĠNerissa":13412,"ALICE":13413,"Ġdenies":13414,"Ġfling":13415,"Ġdesk":13416,"Ġplains":13417,"Ġrandom":13418,"Ġperceiving":13419,"beit":13420,"renity":13421,"Ġhowling":13422,"ĠMarqu":13423,"Ġscars":13424,"Ġscourge":13425,"Ġentrails":13426,"Ġforerun":13427,"devil":13428,"Ġwring":13429,"iogn":13430,"Ġdownright":13431,"forward":13432,"Ġbegged":13433,"Ġcomprom":13434,"Becomes":13435,"Ã©es":13436,"closed":13437,"ventry":13438,"Ġmightily":13439,"ĠThrone":13440,"Ġhastened":13441,"Ġtrack":13442,"living":13443,"ailing":13444,"Ġfortress":13445,"Ġrestless":13446,"URSU":13447,"Ġindistinct":13448,"version":13449,"Ġsubmit":13450,"Ġmisfortunes":13451,"enerate":13452,"attention":13453,"Ġmole":13454,"Ġmoons":13455,"Ġmoiety":13456,"ĠWhether":13457,"Ġpersonage":13458,"exc":13459,"exp":13460,"angled":13461,"Ġsuffices":13462,"Ġdispose":13463,"comer":13464,"Ġtalks":13465,"Ġcountryman":13466,"Ġfalsely":13467,"conbridge":13468,"Ġfellowship":13469,"Ġincapable":13470,"Ġfights":13471,"RADE":13472,"Ġbarber":13473,"Ġfilling":13474,"Ġirre":13475,"Ġfasting":13476,"Ready":13477,"Revolution":13478,"afford":13479,"Ġattendant":13480,"Ġbites":13481,"therefore":13482,"Ġbeholds":13483,"Ġwildly":13484,"Ġunclean":13485,"Ġhotel":13486,"Ġseverity":13487,"Ġinteresting":13488,"Ġthreatens":13489,"Ġlimits":13490,"Ġtype":13491,"grat":13492,"Ġinvite":13493,"ienvenu":13494,"Ġmocked":13495,"Ġsyn":13496,"ĠPlut":13497,"Ġconvuls":13498,"ĠGuillotine":13499,"Ġscarf":13500,"Ġsnake":13501,"Ġaccordingly":13502,"Ġvisitation":13503,"Ġrebuke":13504,"Ġpoisonous":13505,"ĠWithout":13506,"Ġcowardice":13507,"footed":13508,"Ġfaintly":13509,"Ġknocking":13510,"ĠAttendant":13511,"Ġdressing":13512,"Ġannounced":13513,"Ġfrowning":13514,"Ġcustomers":13515,"Ġreigns":13516,"drawing":13517,"colored":13518,"Ġaddressing":13519,"Ġcaptured":13520,"Ġprotector":13521,"CONRADE":13522,"Ġheights":13523,"Ġdepends":13524,"Ġplanet":13525,"Ġimperious":13526,"ĠMagnon":13527,"small":13528,"Ġpolitic":13529,"Ġrevolutionary":13530,"Ġconsequently":13531,"Ġbootless":13532,"Ġbounteous":13533,"occasion":13534,"Ġrules":13535,"Ġprodigious":13536,"bearing":13537,"Ġpupp":13538,"Ġexchanged":13539,"Ġsands":13540,"Ġwrapped":13541,"friends":13542,"Ġrespons":13543,"ĠAlbany":13544,"works":13545,"Ġassailed":13546,"Ġnobler":13547,"Ġglobe":13548,"Ġsplendor":13549,"Ġbolt":13550,"Ġgaol":13551,"Clarence":13552,"papers":13553,"ĠHalles":13554,"Ġdrama":13555,"Ġattentive":13556,"mongst":13557,"Ġtrod":13558,"Ġnapkin":13559,"drawn":13560,"occupied":13561,"Ġinscription":13562,"Murder":13563,"DORCAS":13564,"Ġwarriors":13565,"uileries":13566,"ĠKatharina":13567,"Ġpenitent":13568,"Ġdoctr":13569,"ĠGUARD":13570,"Ġunwilling":13571,"ĠJacob":13572,"straight":13573,"Ġprecaution":13574,"Ġconducted":13575,"Ġruthless":13576,"Ġpropriet":13577,"Ġeclipse":13578,"Ġfrenzy":13579,"ĠThaisa":13580,"quarters":13581,"ĠRestoration":13582,"sembly":13583,"Ġunhealthy":13584,"elancholy":13585,"PANDULPH":13586,"Ġsurety":13587,"Ġtremendous":13588,"Gainst":13589,"inculo":13590,"GARDINER":13591,"cibiades":13592,":'":13593,"AIR":13594,"Boul":13595,"Bened":13596,"Bossuet":13597,"Corn":13598,"CROM":13599,"Div":13600,"End":13601,"ELEANOR":13602,"Fire":13603,"High":13604,"IX":13605,"IES":13606,"ILE":13607,"Lorry":13608,"Mis":13609,"Night":13610,"Nap":13611,"NESS":13612,"Ped":13613,"PLA":13614,"Prep":13615,"Sad":13616,"TLE":13617,"VENT":13618,"Wear":13619,"Walk":13620,"YS":13621,"acted":13622,"bing":13623,"bby":13624,"bring":13625,"cross":13626,"due":13627,"fine":13628,"fixed":13629,"gate":13630,"gage":13631,"grown":13632,"iards":13633,"ihil":13634,"jou":13635,"lion":13636,"loyal":13637,"mur":13638,"song":13639,"soldier":13640,"ten":13641,"trou":13642,"uver":13643,"want":13644,"Ġtak":13645,"Ġtasks":13646,"Ġtardy":13647,"Ġwitty":13648,"Ġmic":13649,"erness":13650,"Ġben":13651,"Ġbait":13652,"Ġfen":13653,"Ġfists":13654,"Ġfroward":13655,"onus":13656,"Ġcrew":13657,"arce":13658,"arming":13659,"Ġtoys":13660,"Ġpink":13661,"Ġlink":13662,"Ġlends":13663,"Ġhose":13664,"othes":13665,"Ġbeads":13666,"lem":13667,"lemer":13668,"seau":13669,"state":13670,"strange":13671,"Ġnotorious":13672,"Ġrese":13673,"Ġreverse":13674,"rils":13675,"terbury":13676,"Ġwebs":13677,"Ġstare":13678,"kept":13679,"urd":13680,"urther":13681,"rag":13682,"rall":13683,"Ġasunder":13684,"ican":13685,"icacy":13686,"Ġliar":13687,"Ġanchor":13688,"Ġdeem":13689,"ĠCould":13690,"ĠCont":13691,"ĠCOM":13692,"Ġdoves":13693,"ifies":13694,"ardin":13695,"Ġnoses":13696,"Ġnocturnal":13697,"Ġloses":13698,"Ġshakes":13699,"Ġshames":13700,"ĠBoulevard":13701,"akers":13702,"rup":13703,"Ġknell":13704,"olerable":13705,"indeed":13706,"ĠGabelle":13707,"igation":13708,"laid":13709,"Ġunfe":13710,"ANMER":13711,"astical":13712,"ĠFort":13713,"ĠFilles":13714,"ĠFroth":13715,"ĠEver":13716,"istory":13717,"orting":13718,"umption":13719,"ĠDun":13720,"ĠDaughter":13721,"ĠOliver":13722,"ĠRed":13723,"ĠRatcliffe":13724,"ĠRugby":13725,"Ġdreamt":13726,"osm":13727,"Ġjolly":13728,"Ġblasted":13729,"Ġusage":13730,"Ġenf":13731,"Ġswe":13732,"Ġswan":13733,"Ġabbey":13734,"Ġnowadays":13735,"foreseen":13736,"Ġquart":13737,"cier":13738,"Whate":13739,"Ġspec":13740,"Ġletting":13741,"Ġrod":13742,"Ġropes":13743,"Ġrolling":13744,"Ġrogues":13745,"Ġbrush":13746,"Ġpoll":13747,"Ġadder":13748,"Ġadjust":13749,"neither":13750,"Ġplight":13751,"Ġplots":13752,"Ġfeeding":13753,"Ġfoam":13754,"Ġrive":13755,"Ġtruer":13756,"Ġhowl":13757,"Ġolder":13758,"Ġheadlong":13759,"Ġscrap":13760,"Ġcontend":13761,"Thought":13762,"Ġremind":13763,"Ġplac":13764,"Ġglim":13765,"Ġresistance":13766,"Ġcommer":13767,"Ġcompact":13768,"Beyond":13769,"Ġharms":13770,"Ġattends":13771,"Ġaccost":13772,"Ġstreams":13773,"penet":13774,"Ġapples":13775,"Ġconsp":13776,"avo":13777,"Ġfortnight":13778,"Ġchang":13779,"Ġrestrain":13780,"Ġbravery":13781,"ĠInn":13782,"Ġdiscern":13783,"Ġaffirm":13784,"Ġhush":13785,"EMBROKE":13786,"cession":13787,"Ġbeseem":13788,"Ġsupported":13789,"Ġvisiting":13790,"Ġfalcon":13791,"Ġintently":13792,"Ġindepend":13793,"Ġlesson":13794,"Ġregal":13795,"Ġregions":13796,"Ġexpenses":13797,"hoen":13798,"Ġdoubtless":13799,"Ġsorrowful":13800,"ervice":13801,"Ġfeelings":13802,"Ġgravely":13803,"Ġincense":13804,"Ġincensed":13805,"Ġcausing":13806,"Ġvalu":13807,"iberty":13808,"Ġapprobation":13809,"Ġactivity":13810,"Ġcutting":13811,"Ġsixth":13812,"Ġpayment":13813,"Ġdevilish":13814,"Ġfails":13815,"ĠFrenchmen":13816,"Ġfasten":13817,"Ġcreating":13818,"Ġawry":13819,"Ġawoke":13820,"Ġawaiting":13821,"Read":13822,"itories":13823,"Ġpenance":13824,"Ġengine":13825,"Ġattendants":13826,"Ġwatchful":13827,"twould":13828,"Ġcirc":13829,"Ġrealities":13830,"Ġproudly":13831,"Ġconstituted":13832,"Ġtrusted":13833,"Ġwiser":13834,"Ġwisest":13835,"Ġrevenue":13836,"Ġpaved":13837,"mysterious":13838,"spread":13839,"Ġobserving":13840,"Ġdefin":13841,"Ġstudying":13842,"Ġobjective":13843,"Ġproceeds":13844,"Ġlibert":13845,"ITION":13846,"Ġcompliment":13847,"sembling":13848,"Ġinjure":13849,"Ġspeechless":13850,"yourself":13851,"Ġjealousies":13852,"ippi":13853,"Ġmurderous":13854,"doing":13855,"Ġfruits":13856,"Ġsurprises":13857,"Ġsurprising":13858,"Ġpatrol":13859,"Ġfeasts":13860,"Ġhostile":13861,"Ġjests":13862,"Ġpractised":13863,"Ġfurnace":13864,"Ġmassac":13865,"Ġshapeless":13866,"Ġfraught":13867,"ĠTyr":13868,"Ġintellect":13869,"Ġslightest":13870,"Ġcourageous":13871,"Ġclouded":13872,"ĊĠĠĠĠĠĠĠĠĠĠĠĠĠĠĠ":13873,"Ġordin":13874,"Ġtravellers":13875,"Ġpitiless":13876,"Ġeasier":13877,"Ġtribune":13878,"Ġsubstantial":13879,"Ġdispleasing":13880,"Betwixt":13881,"windows":13882,"Ġdigest":13883,"Ġpeculiarity":13884,"SILENCE":13885,"Ġmended":13886,"LENNOX":13887,"Ġpolitics":13888,"ĠBECOM":13889,"Ġgratitude":13890,"Ġconveyed":13891,"Ġcorrupted":13892,"ĠBelmont":13893,"Ġcorporal":13894,"Ġprophecy":13895,"Ġprophetic":13896,"Ġpaths":13897,"grave":13898,"Ġneighboring":13899,"onceau":13900,"CRANMER":13901,"MORTIMER":13902,"Ġexceeding":13903,"ĠAlbans":13904,"Ġwhiteness":13905,"Ġrivalry":13906,"Ġadversaries":13907,"Ġtumultuous":13908,"ĠEvans":13909,"Ġprinted":13910,"Draws":13911,"Ġfantastic":13912,"Ġmoody":13913,"Ġastonishment":13914,"Ġoutlined":13915,"following":13916,"shadow":13917,"ĠFlorent":13918,"withal":13919,"Coriol":13920,"Ġmechanically":13921,"ĠCoventry":13922,"ĠFebruary":13923,"assadors":13924,"Ġcomrade":13925,"Ġdungeon":13926,"Ġtradesman":13927,"struck":13928,"Ġdesirous":13929,"Ġpulse":13930,"Ġchurlish":13931,"Ġbreeze":13932,"ĠFabian":13933,"Ġrecreation":13934,"Ġgendarmes":13935,"Ġflatterer":13936,"Ã®t":13937,"Ġbrawl":13938,"favoured":13939,"Ġsentinels":13940,"Ġprettiest":13941,"Ġprinciples":13942,"Ġbayonets":13943,"Ġsearched":13944,"Ġmagistrate":13945,"Ġcolossal":13946,"zelma":13947,"streets":13948,"Appear":13949,"Ġpeoples":13950,"Ġardent":13951,"Ġcurtsy":13952,"Ġinspector":13953,"Ġhinges":13954,"Ġfrivolous":13955,"ĠSECOND":13956,"Lucius":13957,"Ġcathedral":13958,"unicipal":13959,"Ġknavery":13960,"Ġlabyrinth":13961,"ĠMenelaus":13962,"CROMWELL":13963,"96":13964,"Ang":13965,"Aff":13966,"Bar":13967,"BLE":13968,"CAM":13969,"CINN":13970,"Fit":13971,"FENT":13972,"GES":13973,"Grace":13974,"Name":13975,"Oft":13976,"Pal":13977,"PED":13978,"Proud":13979,"REL":13980,"Tran":13981,"Takes":13982,"Vouchsafe":13983,"afe":13984,"bag":13985,"cut":13986,"cand":13987,"gle":13988,"gies":13989,"hound":13990,"hip":13991,"hours":13992,"journ":13993,"lie":13994,"lips":13995,"pable":13996,"paid":13997,"pocket":13998,"ride":13999,"sin":14000,"tish":14001,"tied":14002,"welt":14003,"Ãĩ":14004,"ĠEN":14005,"ĠUN":14006,"Ġtrow":14007,"Ġtink":14008,"Ġaustere":14009,"Ġwaked":14010,"replied":14011,"ouched":14012,"hale":14013,"Ġmoss":14014,"isms":14015,"Ġbully":14016,"Ġboughs":14017,"itiff":14018,"Ġfres":14019,"Ġfiring":14020,"onies":14021,"Ġdul":14022,"Ġdau":14023,"Ġtom":14024,"Ġpages":14025,"Ġpipes":14026,"Ġlake":14027,"Ġhood":14028,"anth":14029,"Ġnort":14030,"Ġine":14031,"Ġgy":14032,"Ġgull":14033,"Ġgav":14034,"Ġbeck":14035,"seed":14036,"imag":14037,"ayette":14038,"Ġisolated":14039,"aly":14040,"admir":14041,"Ġwithdrew":14042,"Ġrela":14043,"Ġmeek":14044,"Ġstag":14045,"robe":14046,"roads":14047,"racks":14048,"Ġash":14049,"ico":14050,"Ġsealed":14051,"Ġdeform":14052,"Ġdejected":14053,"ĠMer":14054,"ĠMam":14055,"ĠMUS":14056,"thus":14057,"thrust":14058,"ĠCin":14059,"ĠCowardly":14060,"ĠSer":14061,"ĠSon":14062,"ĠSoldier":14063,"Ġsuited":14064,"ĠAR":14065,"ĠAzelma":14066,"ĠHO":14067,"ĠHar":14068,"ĠHath":14069,"ĠHAV":14070,"Ġalleys":14071,"outed":14072,"ulse":14073,"Ġvary":14074,"Ġmanuf":14075,"resist":14076,"quite":14077,"quarter":14078,"Ġshared":14079,"Ġshaft":14080,"Ġnecks":14081,"ĠBell":14082,"ĠBrab":14083,"ĠWol":14084,"ERICK":14085,"Ġknitted":14086,"Ġsale":14087,"fender":14088,"Ġunion":14089,"Ġunprecedented":14090,"Ġunforeseen":14091,"ĠFie":14092,"ĠEve":14093,"Ġamain":14094,"Ġample":14095,"Ġgoal":14096,"Ġexpend":14097,"ĠDown":14098,"ĠDuns":14099,"ranks":14100,"Ġprosec":14101,"Ġjug":14102,"Ġalias":14103,"ONT":14104,"asses":14105,"ĠTill":14106,"ĠTiber":14107,"Ġspotted":14108,"Ġspiders":14109,"Heart":14110,"Hector":14111,"Ġagitation":14112,"Ġswans":14113,"ĠHead":14114,"Ġsayst":14115,"Ġabb":14116,"Ġabus":14117,"Ġquake":14118,"text":14119,"agot":14120,"cied":14121,"Ġchoo":14122,"orned":14123,"Ġbrink":14124,"Ġflaming":14125,"Ġplough":14126,"Ġfeeds":14127,"Ġgraft":14128,"Ġfog":14129,"ELY":14130,"become":14131,"beginning":14132,"Ġoverheard":14133,"Ġcontaining":14134,"Ġforetold":14135,"Ġpregnant":14136,"Ġeverybody":14137,"Ġsmother":14138,"Ã©n":14139,"Ġlavish":14140,"Soon":14141,"Ġharder":14142,"Ġattire":14143,"Ġtrot":14144,"Ġtrun":14145,"ensible":14146,"Ġsweets":14147,"Ġconsists":14148,"aville":14149,"Ġimpass":14150,"Ġimpud":14151,"Ġimposed":14152,"ĠĠĠĠĠĠĠĠĠĠĠĠĠĠĠĠ":14153,"ailed":14154,"Ġconfin":14155,"Ġconfounded":14156,"Ġgrateful":14157,"Ġrestraint":14158,"swain":14159,"sword":14160,"Ġindisp":14161,"EDERICK":14162,"Ġsecrecy":14163,"Ġsubmission":14164,"Ġnobleman":14165,"Ġcharter":14166,"Ġdiscus":14167,"ĠAnswer":14168,"Ġmonaster":14169,"Ġpossibility":14170,"ANDRA":14171,"ials":14172,"Ġneedless":14173,"Ġbreathes":14174,"Ġinfancy":14175,"prin":14176,"ĠPruss":14177,"Ġstrat":14178,"exam":14179,"sule":14180,"Ġsteeds":14181,"Ġvisor":14182,"Ġvisited":14183,"Answer":14184,"Ġintrepid":14185,"ĠCawd":14186,"ĠCafÃ©":14187,"ĠBehold":14188,"Ġregained":14189,"Ġsaddle":14190,"velope":14191,"approach":14192,"ggart":14193,"Ġorderly":14194,"rempt":14195,"onderful":14196,"Ġmurders":14197,"Ġparcel":14198,"Ġsuccessive":14199,"Ġsmaller":14200,"Ġvein":14201,"Ġhitherto":14202,"Ġdecrees":14203,"ifted":14204,"Ġcuts":14205,"Ġcrafty":14206,"duce":14207,"Ġawful":14208,"Ġrespectable":14209,"Ã¨ve":14210,"ĠAlthough":14211,"ĠAlcibiades":14212,"Ġkneels":14213,"Ġharmonious":14214,"Ġlaughs":14215,"Ġmovements":14216,"Ġmounts":14217,"Ġnecessities":14218,"Ġpublicly":14219,"Canst":14220,"archy":14221,"hamps":14222,"Ġdefiance":14223,"Ġdetached":14224,"Ġlacked":14225,"Ġvictor":14226,"Ġprovost":14227,"Ġprovoke":14228,"Ġsquares":14229,"breast":14230,"breaking":14231,"Ġlegitimate":14232,"Ġcomplications":14233,"Ġmocks":14234,"Ġpursues":14235,"Ġpursuits":14236,"Ġexamining":14237,"Ġtransg":14238,"Ġtransl":14239,"Ġbelonging":14240,"Ġincluded":14241,"Ġroughly":14242,"Ġcosts":14243,"ĠVolumn":14244,"Ġdrowning":14245,"Ġwhispers":14246,"Ġconsiderable":14247,"ĠAdonis":14248,"Ġunfortunately":14249,"Ġdesigning":14250,"ĠConvention":14251,"GREEN":14252,"Ġfunctions":14253,"Ġdrunkard":14254,"Ġmonsters":14255,"AVIUS":14256,"Ġreplying":14257,"Ġincreasing":14258,"ĠCanterbury":14259,"Ġcoffer":14260,"Ġeagles":14261,"Ġobstacle":14262,"Ġtriumphs":14263,"Ġpressing":14264,"mender":14265,"Ġheaviness":14266,"Belike":14267,"ĠBritish":14268,"ĠBaptistine":14269,"present":14270,"smith":14271,"Ġtaper":14272,"Ġinvented":14273,"Ġstomachs":14274,"Ġreckless":14275,"Ġpistols":14276,"Ġearnestly":14277,"Ġcabrio":14278,"ĠAbbey":14279,"Ġmorsel":14280,"Ġusurping":14281,"Ġdecline":14282,"Ġoverthrown":14283,"Ġreconcile":14284,"Ġwitchcraft":14285,"husband":14286,"Ġfancied":14287,"Ġarchbishop":14288,"Ġdisplay":14289,"apsack":14290,"Ġrescued":14291,"commun":14292,"Ġassailants":14293,"Ġrequirements":14294,"Ġembarrassed":14295,"Ġtestimony":14296,"Ġspeculation":14297,"Ġpatriot":14298,"Ġpatricians":14299,"Ġdecidedly":14300,"Ġmeasured":14301,"spector":14302,"Ġfrequent":14303,"Ġblaze":14304,
[...]
